const unsigned char g_tcn_model_data[] __attribute__((aligned(16))) = {
  0x20, 0x00, 0x00, 0x00, 0x54, 0x46, 0x4c, 0x33, 0x00, 0x00, 0x00, 0x00,
  0x14, 0x00, 0x20, 0x00, 0x1c, 0x00, 0x18, 0x00, 0x14, 0x00, 0x10, 0x00,
  0x0c, 0x00, 0x00, 0x00, 0x08, 0x00, 0x04, 0x00, 0x14, 0x00, 0x00, 0x00,
  0x1c, 0x00, 0x00, 0x00, 0x80, 0x00, 0x00, 0x00, 0xd8, 0x00, 0x00, 0x00,
  0xc8, 0x30, 0x00, 0x00, 0xd8, 0x30, 0x00, 0x00, 0xcc, 0x72, 0x00, 0x00,
  0x03, 0x00, 0x00, 0x00, 0x01, 0x00, 0x00, 0x00, 0x04, 0x00, 0x00, 0x00,
  0x6a, 0xc6, 0xff, 0xff, 0x0c, 0x00, 0x00, 0x00, 0x1c, 0x00, 0x00, 0x00,
  0x38, 0x00, 0x00, 0x00, 0x0f, 0x00, 0x00, 0x00, 0x73, 0x65, 0x72, 0x76,
  0x69, 0x6e, 0x67, 0x5f, 0x64, 0x65, 0x66, 0x61, 0x75, 0x6c, 0x74, 0x00,
  0x01, 0x00, 0x00, 0x00, 0x04, 0x00, 0x00, 0x00, 0x9c, 0xff, 0xff, 0xff,
  0x4d, 0x00, 0x00, 0x00, 0x04, 0x00, 0x00, 0x00, 0x05, 0x00, 0x00, 0x00,
  0x64, 0x65, 0x6e, 0x73, 0x65, 0x00, 0x00, 0x00, 0x01, 0x00, 0x00, 0x00,
  0x04, 0x00, 0x00, 0x00, 0xba, 0xcf, 0xff, 0xff, 0x04, 0x00, 0x00, 0x00,
  0x07, 0x00, 0x00, 0x00, 0x69, 0x6e, 0x70, 0x75, 0x74, 0x5f, 0x31, 0x00,
  0x02, 0x00, 0x00, 0x00, 0x34, 0x00, 0x00, 0x00, 0x04, 0x00, 0x00, 0x00,
  0xdc, 0xff, 0xff, 0xff, 0x50, 0x00, 0x00, 0x00, 0x04, 0x00, 0x00, 0x00,
  0x13, 0x00, 0x00, 0x00, 0x43, 0x4f, 0x4e, 0x56, 0x45, 0x52, 0x53, 0x49,
  0x4f, 0x4e, 0x5f, 0x4d, 0x45, 0x54, 0x41, 0x44, 0x41, 0x54, 0x41, 0x00,
  0x08, 0x00, 0x0c, 0x00, 0x08, 0x00, 0x04, 0x00, 0x08, 0x00, 0x00, 0x00,
  0x4f, 0x00, 0x00, 0x00, 0x04, 0x00, 0x00, 0x00, 0x13, 0x00, 0x00, 0x00,
  0x6d, 0x69, 0x6e, 0x5f, 0x72, 0x75, 0x6e, 0x74, 0x69, 0x6d, 0x65, 0x5f,
  0x76, 0x65, 0x72, 0x73, 0x69, 0x6f, 0x6e, 0x00, 0x51, 0x00, 0x00, 0x00,
  0xec, 0x2f, 0x00, 0x00, 0xe4, 0x2f, 0x00, 0x00, 0xd0, 0x2f, 0x00, 0x00,
  0xac, 0x2f, 0x00, 0x00, 0x84, 0x2f, 0x00, 0x00, 0x5c, 0x2f, 0x00, 0x00,
  0x48, 0x2f, 0x00, 0x00, 0x30, 0x2f, 0x00, 0x00, 0x14, 0x2f, 0x00, 0x00,
  0xec, 0x2e, 0x00, 0x00, 0xd8, 0x2e, 0x00, 0x00, 0xbc, 0x2e, 0x00, 0x00,
  0xa0, 0x2e, 0x00, 0x00, 0x84, 0x2e, 0x00, 0x00, 0x68, 0x2e, 0x00, 0x00,
  0x54, 0x2e, 0x00, 0x00, 0x2c, 0x2e, 0x00, 0x00, 0x04, 0x2e, 0x00, 0x00,
  0x34, 0x27, 0x00, 0x00, 0x0c, 0x27, 0x00, 0x00, 0x3c, 0x20, 0x00, 0x00,
  0x14, 0x20, 0x00, 0x00, 0x44, 0x19, 0x00, 0x00, 0x1c, 0x19, 0x00, 0x00,
  0xac, 0x18, 0x00, 0x00, 0xa4, 0x18, 0x00, 0x00, 0x9c, 0x18, 0x00, 0x00,
  0x94, 0x18, 0x00, 0x00, 0xc4, 0x11, 0x00, 0x00, 0x54, 0x11, 0x00, 0x00,
  0x84, 0x0a, 0x00, 0x00, 0x14, 0x0a, 0x00, 0x00, 0x44, 0x03, 0x00, 0x00,
  0xd4, 0x02, 0x00, 0x00, 0xec, 0x01, 0x00, 0x00, 0xe4, 0x01, 0x00, 0x00,
  0xdc, 0x01, 0x00, 0x00, 0xd4, 0x01, 0x00, 0x00, 0xcc, 0x01, 0x00, 0x00,
  0xc4, 0x01, 0x00, 0x00, 0xbc, 0x01, 0x00, 0x00, 0xb4, 0x01, 0x00, 0x00,
  0xac, 0x01, 0x00, 0x00, 0xa4, 0x01, 0x00, 0x00, 0x9c, 0x01, 0x00, 0x00,
  0x94, 0x01, 0x00, 0x00, 0x8c, 0x01, 0x00, 0x00, 0x84, 0x01, 0x00, 0x00,
  0x7c, 0x01, 0x00, 0x00, 0x74, 0x01, 0x00, 0x00, 0x6c, 0x01, 0x00, 0x00,
  0x64, 0x01, 0x00, 0x00, 0x5c, 0x01, 0x00, 0x00, 0x54, 0x01, 0x00, 0x00,
  0x4c, 0x01, 0x00, 0x00, 0x44, 0x01, 0x00, 0x00, 0x3c, 0x01, 0x00, 0x00,
  0x34, 0x01, 0x00, 0x00, 0x2c, 0x01, 0x00, 0x00, 0x24, 0x01, 0x00, 0x00,
  0x1c, 0x01, 0x00, 0x00, 0x14, 0x01, 0x00, 0x00, 0x0c, 0x01, 0x00, 0x00,
  0x04, 0x01, 0x00, 0x00, 0xfc, 0x00, 0x00, 0x00, 0xf4, 0x00, 0x00, 0x00,
  0xec, 0x00, 0x00, 0x00, 0xe4, 0x00, 0x00, 0x00, 0xdc, 0x00, 0x00, 0x00,
  0xd4, 0x00, 0x00, 0x00, 0xcc, 0x00, 0x00, 0x00, 0xc4, 0x00, 0x00, 0x00,
  0xbc, 0x00, 0x00, 0x00, 0xb4, 0x00, 0x00, 0x00, 0xac, 0x00, 0x00, 0x00,
  0xa4, 0x00, 0x00, 0x00, 0x9c, 0x00, 0x00, 0x00, 0x94, 0x00, 0x00, 0x00,
  0x8c, 0x00, 0x00, 0x00, 0x6c, 0x00, 0x00, 0x00, 0x04, 0x00, 0x00, 0x00,
  0x72, 0xd1, 0xff, 0xff, 0x04, 0x00, 0x00, 0x00, 0x58, 0x00, 0x00, 0x00,
  0x0c, 0x00, 0x00, 0x00, 0x08, 0x00, 0x0e, 0x00, 0x08, 0x00, 0x04, 0x00,
  0x08, 0x00, 0x00, 0x00, 0x10, 0x00, 0x00, 0x00, 0x28, 0x00, 0x00, 0x00,
  0x00, 0x00, 0x06, 0x00, 0x08, 0x00, 0x04, 0x00, 0x06, 0x00, 0x00, 0x00,
  0x04, 0x00, 0x00, 0x00, 0x01, 0x00, 0x00, 0x00, 0xeb, 0x03, 0x00, 0x00,
  0x00, 0x00, 0x0a, 0x00, 0x10, 0x00, 0x0c, 0x00, 0x08, 0x00, 0x04, 0x00,
  0x0a, 0x00, 0x00, 0x00, 0x02, 0x00, 0x00, 0x00, 0x02, 0x00, 0x00, 0x00,
  0x04, 0x00, 0x00, 0x00, 0x06, 0x00, 0x00, 0x00, 0x32, 0x2e, 0x31, 0x35,
  0x2e, 0x30, 0x00, 0x00, 0xd6, 0xd1, 0xff, 0xff, 0x04, 0x00, 0x00, 0x00,
  0x10, 0x00, 0x00, 0x00, 0x32, 0x2e, 0x33, 0x2e, 0x30, 0x00, 0x00, 0x00,
  0x00, 0x00, 0x00, 0x00, 0x00, 0x00, 0x00, 0x00, 0xa4, 0x90, 0xff, 0xff,
  0xa8, 0x90, 0xff, 0xff, 0xac, 0x90, 0xff, 0xff, 0xb0, 0x90, 0xff, 0xff,
  0xb4, 0x90, 0xff, 0xff, 0xb8, 0x90, 0xff, 0xff, 0xbc, 0x90, 0xff, 0xff,
  0xc0, 0x90, 0xff, 0xff, 0xc4, 0x90, 0xff, 0xff, 0xc8, 0x90, 0xff, 0xff,
  0xcc, 0x90, 0xff, 0xff, 0xd0, 0x90, 0xff, 0xff, 0xd4, 0x90, 0xff, 0xff,
  0xd8, 0x90, 0xff, 0xff, 0xdc, 0x90, 0xff, 0xff, 0xe0, 0x90, 0xff, 0xff,
  0xe4, 0x90, 0xff, 0xff, 0xe8, 0x90, 0xff, 0xff, 0xec, 0x90, 0xff, 0xff,
  0xf0, 0x90, 0xff, 0xff, 0xf4, 0x90, 0xff, 0xff, 0xf8, 0x90, 0xff, 0xff,
  0xfc, 0x90, 0xff, 0xff, 0x00, 0x91, 0xff, 0xff, 0x04, 0x91, 0xff, 0xff,
  0x08, 0x91, 0xff, 0xff, 0x0c, 0x91, 0xff, 0xff, 0x10, 0x91, 0xff, 0xff,
  0x14, 0x91, 0xff, 0xff, 0x18, 0x91, 0xff, 0xff, 0x1c, 0x91, 0xff, 0xff,
  0x20, 0x91, 0xff, 0xff, 0x24, 0x91, 0xff, 0xff, 0x28, 0x91, 0xff, 0xff,
  0x2c, 0x91, 0xff, 0xff, 0x30, 0x91, 0xff, 0xff, 0x34, 0x91, 0xff, 0xff,
  0x38, 0x91, 0xff, 0xff, 0x3c, 0x91, 0xff, 0xff, 0x40, 0x91, 0xff, 0xff,
  0x44, 0x91, 0xff, 0xff, 0x48, 0x91, 0xff, 0xff, 0x4c, 0x91, 0xff, 0xff,
  0x50, 0x91, 0xff, 0xff, 0xa2, 0xd2, 0xff, 0xff, 0x04, 0x00, 0x00, 0x00,
  0xd8, 0x00, 0x00, 0x00, 0xa0, 0x13, 0xf5, 0xaf, 0x7f, 0x62, 0x60, 0xbb,
  0x14, 0x28, 0xef, 0xd0, 0x51, 0x81, 0x16, 0x6c, 0xc4, 0x24, 0x8b, 0xb5,
  0x7f, 0x2f, 0x5f, 0x29, 0xfb, 0x9e, 0x1f, 0x5a, 0x7f, 0x7f, 0x2b, 0x0b,
  0x18, 0xf8, 0x3d, 0xfe, 0xd8, 0x07, 0x09, 0xc0, 0xa8, 0x81, 0xd9, 0x65,
  0x16, 0x1c, 0xa0, 0x3d, 0x7f, 0x7f, 0x2f, 0x2c, 0xc0, 0x1e, 0x7f, 0x2d,
  0x7b, 0x26, 0xcb, 0xc4, 0xad, 0xd0, 0xeb, 0x7f, 0xf2, 0xd8, 0xad, 0xef,
  0x6d, 0x1b, 0xba, 0xa0, 0x09, 0x47, 0x27, 0x7b, 0x24, 0x81, 0x71, 0xc0,
  0x15, 0x7f, 0x55, 0xe3, 0xf7, 0x30, 0xf2, 0xdc, 0x10, 0xcb, 0x76, 0x32,
  0x9f, 0x58, 0x71, 0x81, 0xfa, 0x71, 0xbb, 0x6f, 0xdc, 0xcd, 0xfd, 0x31,
  0x56, 0x7f, 0x92, 0x1b, 0x7b, 0x72, 0xbf, 0x3a, 0x87, 0x81, 0x77, 0x31,
  0xd2, 0xff, 0x83, 0x38, 0x7f, 0xc8, 0xb4, 0x34, 0x8c, 0xea, 0x81, 0xcc,
  0xc8, 0xca, 0xb5, 0x07, 0x06, 0xa5, 0xa6, 0x7f, 0xc3, 0x42, 0x89, 0xaf,
  0x2d, 0x0d, 0xc8, 0x04, 0x7f, 0xab, 0x23, 0x5d, 0x54, 0x2f, 0x4e, 0xd6,
  0xed, 0x99, 0x5c, 0x7f, 0x8f, 0x4a, 0xbd, 0x57, 0x1e, 0xa4, 0xa7, 0xb6,
  0x97, 0x81, 0xce, 0xf6, 0x02, 0x23, 0x26, 0x81, 0xeb, 0xe1, 0xf5, 0x25,
  0x1c, 0x7f, 0xa0, 0x41, 0xe2, 0xd9, 0xba, 0x22, 0xe3, 0x81, 0x84, 0x9d,
  0x57, 0xee, 0xc7, 0x52, 0x92, 0x81, 0x36, 0x14, 0x96, 0x56, 0x41, 0x7f,
  0x31, 0x64, 0x00, 0x0d, 0x99, 0xab, 0x41, 0x30, 0xe3, 0xc2, 0xad, 0x38,
  0xe0, 0xb1, 0x7f, 0xf2, 0x86, 0xd3, 0xff, 0xff, 0x04, 0x00, 0x00, 0x00,
  0x60, 0x00, 0x00, 0x00, 0xe2, 0x01, 0x00, 0x00, 0x03, 0x0a, 0x00, 0x00,
  0xe8, 0xfa, 0xff, 0xff, 0xe9, 0xf8, 0xff, 0xff, 0xed, 0x02, 0x00, 0x00,
  0x8c, 0xe6, 0xff, 0xff, 0x8a, 0x01, 0x00, 0x00, 0x70, 0xff, 0xff, 0xff,
  0x97, 0xf0, 0xff, 0xff, 0x80, 0xfc, 0xff, 0xff, 0xe1, 0xd9, 0xff, 0xff,
  0x3b, 0xfb, 0xff, 0xff, 0x91, 0xef, 0xff, 0xff, 0xe5, 0xfc, 0xff, 0xff,
  0x5f, 0x04, 0x00, 0x00, 0x8e, 0xfa, 0xff, 0xff, 0x8c, 0xf4, 0xff, 0xff,
  0xe8, 0xfc, 0xff, 0xff, 0xc1, 0x04, 0x00, 0x00, 0x9f, 0xfe, 0xff, 0xff,
  0x32, 0x1a, 0x00, 0x00, 0xa0, 0x01, 0x00, 0x00, 0x68, 0xf8, 0xff, 0xff,
  0x91, 0x01, 0x00, 0x00, 0xf2, 0xd3, 0xff, 0xff, 0x04, 0x00, 0x00, 0x00,
  0xc0, 0x06, 0x00, 0x00, 0x9b, 0xc5, 0xb2, 0x8f, 0xf7, 0xc4, 0x0c, 0xee,
  0xdc, 0x25, 0x15, 0xf6, 0x52, 0x2f, 0x28, 0x22, 0x01, 0xe7, 0x62, 0xe6,
  0x47, 0x71, 0x42, 0xb8, 0x02, 0xee, 0x01, 0x37, 0x0d, 0x1f, 0xab, 0xf1,
  0xbd, 0xdb, 0xf2, 0x2e, 0x6e, 0x77, 0xd5, 0xba, 0xa1, 0x61, 0xfd, 0x28,
  0x0f, 0xed, 0xc2, 0xfb, 0x11, 0xec, 0xab, 0x15, 0x35, 0xf1, 0xd4, 0x29,
  0xdf, 0x31, 0xe8, 0xff, 0x24, 0x37, 0x3d, 0xc2, 0xf6, 0xc2, 0x7f, 0xc2,
  0x7a, 0x25, 0xf6, 0xda, 0x05, 0xdb, 0x19, 0xbf, 0x05, 0xe3, 0xaf, 0x53,
  0x24, 0xdf, 0xc1, 0x43, 0x63, 0xc0, 0xb3, 0x63, 0x26, 0xb4, 0xf3, 0xc9,
  0x5d, 0xee, 0xad, 0x5f, 0x1b, 0x53, 0xd1, 0x8e, 0xd4, 0x21, 0x32, 0xf0,
  0xa1, 0xd9, 0x5f, 0x98, 0x40, 0xd6, 0x7e, 0xb5, 0xd2, 0xfe, 0x67, 0xf1,
  0x62, 0xb6, 0xdd, 0x0c, 0xcf, 0xe7, 0x28, 0x16, 0xaf, 0x55, 0xdd, 0xfa,
  0xd4, 0x38, 0xa1, 0x02, 0x69, 0x00, 0x7f, 0xa7, 0x4f, 0x06, 0x51, 0x04,
  0xff, 0x2e, 0xd1, 0xc5, 0x81, 0x51, 0x64, 0x9a, 0x3d, 0x5a, 0xbd, 0x7d,
  0x66, 0xe8, 0xb0, 0xe9, 0x92, 0x51, 0xbe, 0xe6, 0xec, 0x21, 0x22, 0x44,
  0x9f, 0xc9, 0x2e, 0xf7, 0x8c, 0xf7, 0xdd, 0xbd, 0xe9, 0x33, 0xd9, 0x78,
  0x68, 0xa9, 0x19, 0xa9, 0xfd, 0xc0, 0xfe, 0xa6, 0x0a, 0xe2, 0x42, 0xf0,
  0xee, 0xf7, 0xb6, 0xeb, 0x91, 0xb6, 0xc9, 0xcf, 0xe0, 0xd2, 0xdf, 0x02,
  0xcc, 0xc1, 0x52, 0xf7, 0x97, 0x68, 0x5e, 0x14, 0x41, 0xef, 0xa9, 0x62,
  0xc0, 0x3e, 0x00, 0x0d, 0x65, 0xb5, 0x23, 0xc1, 0xec, 0x91, 0x23, 0xf1,
  0x9c, 0xf3, 0x37, 0xd6, 0xce, 0xa0, 0xa9, 0x71, 0x9c, 0x97, 0x96, 0x23,
  0x17, 0x08, 0xa6, 0xec, 0x0a, 0xb9, 0x8e, 0xf8, 0xcd, 0xa8, 0x5f, 0x59,
  0x99, 0x48, 0x35, 0x21, 0x4f, 0x99, 0x6a, 0xb3, 0xe1, 0xdb, 0x61, 0x31,
  0x2c, 0x2c, 0x36, 0xf2, 0xb9, 0x8d, 0xeb, 0x9d, 0xb3, 0x65, 0x81, 0xe0,
  0x85, 0xca, 0x8c, 0x9d, 0x33, 0xeb, 0xe4, 0x54, 0x63, 0x68, 0xbe, 0x5a,
  0xcd, 0x42, 0x29, 0x61, 0xa0, 0x68, 0x06, 0x1c, 0x27, 0x52, 0x0c, 0xdc,
  0xab, 0x1f, 0xeb, 0x46, 0x81, 0x24, 0x29, 0x0f, 0x44, 0x38, 0x07, 0x32,
  0x12, 0xc6, 0xae, 0x2b, 0x59, 0x0d, 0x95, 0x1f, 0x61, 0xd5, 0x4c, 0xce,
  0x23, 0x7b, 0xcd, 0x15, 0x9c, 0xe9, 0x50, 0x56, 0x88, 0x57, 0x65, 0x4a,
  0x75, 0xb7, 0x00, 0x23, 0x42, 0xa5, 0x81, 0xa6, 0x07, 0x9f, 0xac, 0xdb,
  0xee, 0x17, 0xbf, 0xa9, 0x00, 0x4f, 0xb8, 0xf4, 0x20, 0x0b, 0x3b, 0xe0,
  0x24, 0x2d, 0xfa, 0xa5, 0x3f, 0xb4, 0xb4, 0x81, 0x2a, 0x53, 0xcf, 0xb8,
  0x0a, 0xc3, 0xbb, 0x89, 0x24, 0x8e, 0x6a, 0xef, 0x9c, 0xef, 0xb4, 0x3b,
  0xc0, 0x20, 0xaa, 0x5b, 0x36, 0xf9, 0xd9, 0x91, 0x0a, 0x11, 0xcc, 0x72,
  0x93, 0x26, 0x0c, 0xd2, 0xb6, 0x67, 0x1e, 0xbf, 0xd8, 0xb8, 0x39, 0x84,
  0x3d, 0x42, 0x38, 0xfd, 0x52, 0x97, 0xa0, 0xb1, 0x32, 0xca, 0xae, 0x64,
  0x53, 0x20, 0x03, 0x96, 0xb2, 0x20, 0x75, 0xcf, 0xc9, 0xd2, 0x1b, 0xe0,
  0xc7, 0x12, 0x9d, 0xcd, 0xd5, 0xfb, 0x59, 0x58, 0x24, 0xd2, 0x2e, 0xbf,
  0x5b, 0x23, 0x2c, 0x2a, 0xe2, 0xc4, 0x57, 0x48, 0xa4, 0xf0, 0x00, 0x58,
  0xcb, 0x3a, 0x26, 0x12, 0x42, 0x07, 0x3c, 0xed, 0xf4, 0xfc, 0x27, 0xb1,
  0x65, 0x20, 0x48, 0xe1, 0x9f, 0x7f, 0x05, 0x56, 0xbc, 0x9e, 0x00, 0x06,
  0x37, 0x5e, 0x51, 0xcd, 0xa4, 0xdd, 0xed, 0x5b, 0x8c, 0xf8, 0x35, 0x15,
  0xc8, 0x2f, 0xe8, 0xdc, 0xb7, 0xf0, 0x38, 0xb7, 0xb9, 0xa4, 0x29, 0x2d,
  0xe7, 0xa4, 0x0e, 0x41, 0xd5, 0xbf, 0x4a, 0x16, 0xb2, 0x32, 0x0e, 0xfd,
  0x98, 0xb0, 0xf0, 0xc2, 0x1e, 0xc1, 0x67, 0x76, 0xca, 0x52, 0x63, 0xb8,
  0x5c, 0xb8, 0x8e, 0xb8, 0x45, 0x20, 0x46, 0xd6, 0x47, 0x1e, 0xb8, 0x7f,
  0x38, 0x0c, 0xe8, 0x2d, 0x6d, 0xbf, 0x14, 0x5e, 0x0d, 0xdc, 0x27, 0xba,
  0xfb, 0xc6, 0x55, 0x55, 0x5f, 0xed, 0xc6, 0x53, 0x18, 0x12, 0xa5, 0xcb,
  0x4c, 0xd7, 0xd8, 0xb4, 0x5f, 0x31, 0xdb, 0x69, 0x53, 0x39, 0x29, 0x41,
  0x05, 0x44, 0xfc, 0xed, 0xb1, 0xab, 0xb5, 0x06, 0x69, 0xe2, 0x81, 0x5d,
  0x27, 0x13, 0x25, 0xc6, 0x4e, 0xed, 0xc1, 0x11, 0x9e, 0xcc, 0xcb, 0xd2,
  0x11, 0x52, 0x82, 0xdc, 0xe8, 0x1b, 0xe1, 0xf2, 0x7f, 0x20, 0xae, 0x4d,
  0x5f, 0xb4, 0xda, 0x60, 0xf8, 0x07, 0x01, 0x61, 0xa9, 0xff, 0x3b, 0x48,
  0x47, 0xa9, 0x0b, 0x0c, 0xd0, 0x4e, 0xab, 0x08, 0xd5, 0x49, 0x1d, 0x2b,
  0xaa, 0x21, 0xc2, 0xcb, 0x0e, 0xbf, 0x4a, 0xb0, 0xc5, 0x3e, 0x2b, 0x1d,
  0x3d, 0xd1, 0x25, 0xc8, 0x32, 0xc8, 0x38, 0xfe, 0x22, 0x26, 0x31, 0x69,
  0xeb, 0xd4, 0x97, 0x81, 0x18, 0x04, 0xcf, 0xf1, 0x26, 0x47, 0xe6, 0x2c,
  0x5f, 0xef, 0xb9, 0xd7, 0x0b, 0xe1, 0xa9, 0xa4, 0xfa, 0x87, 0x15, 0x37,
  0x43, 0xd4, 0xc9, 0x81, 0x26, 0xee, 0x38, 0xe8, 0xf6, 0xc7, 0xe4, 0xc9,
  0x44, 0xaf, 0x49, 0xd7, 0x40, 0xec, 0x97, 0x16, 0xc6, 0xf8, 0x1d, 0x5b,
  0x05, 0x25, 0x61, 0xec, 0x09, 0x3b, 0x41, 0xcc, 0x99, 0xa7, 0x2b, 0x02,
  0xaa, 0x5f, 0x28, 0xed, 0x1a, 0x15, 0xee, 0x3f, 0x27, 0x1c, 0x4d, 0x3e,
  0x02, 0x1b, 0xbf, 0x08, 0x4f, 0x9b, 0x48, 0xf8, 0x8f, 0xb7, 0x8e, 0xab,
  0xe6, 0xfe, 0xef, 0x50, 0x96, 0x49, 0x69, 0xae, 0x6d, 0x3f, 0xda, 0x67,
  0x55, 0x59, 0x9a, 0x09, 0xde, 0xa7, 0x35, 0xa1, 0x8c, 0xff, 0x9a, 0x09,
  0x21, 0x4b, 0xdd, 0xff, 0x24, 0x58, 0xc6, 0x68, 0x32, 0x2b, 0x03, 0x3e,
  0x81, 0x19, 0xf0, 0xbb, 0xfd, 0xc8, 0x1d, 0xa7, 0x2c, 0x65, 0x67, 0x35,
  0x3d, 0x5d, 0x60, 0x76, 0xd2, 0x31, 0x43, 0x92, 0x3b, 0x12, 0x45, 0x5f,
  0x9c, 0x7d, 0x49, 0x64, 0x7f, 0x84, 0x07, 0xf0, 0x5a, 0x21, 0x59, 0x25,
  0xb1, 0x2c, 0x15, 0xac, 0x75, 0xce, 0x8d, 0xd7, 0xf9, 0xe2, 0xf8, 0x5e,
  0xaf, 0x74, 0x26, 0x34, 0xc3, 0xd7, 0x36, 0x42, 0xc9, 0x5a, 0x86, 0x05,
  0x67, 0x91, 0xc8, 0x82, 0xfa, 0xb3, 0xb0, 0xba, 0xee, 0x9e, 0x7b, 0xb1,
  0x04, 0x88, 0x90, 0xa3, 0xdf, 0xe1, 0x41, 0x11, 0x8b, 0x97, 0xda, 0x81,
  0x0f, 0x5d, 0x5b, 0xb9, 0x28, 0xfe, 0x5d, 0x96, 0x09, 0x1f, 0x1c, 0x35,
  0xb9, 0x51, 0xa1, 0x56, 0x13, 0x16, 0x18, 0x55, 0xe2, 0xc8, 0xb3, 0xf5,
  0x71, 0x20, 0x52, 0x66, 0xc5, 0x0a, 0xf0, 0xe5, 0x4a, 0x17, 0x01, 0x96,
  0x63, 0x81, 0xf6, 0xdf, 0x42, 0xbd, 0xfb, 0xfb, 0x63, 0x3f, 0x35, 0xda,
  0xe3, 0xa9, 0x63, 0xfc, 0x36, 0xf1, 0xf4, 0x6c, 0x99, 0xe2, 0x13, 0xdf,
  0xf2, 0xc5, 0xa5, 0x09, 0xb9, 0x46, 0xb7, 0x4c, 0x88, 0xd7, 0x19, 0x0a,
  0x6a, 0x3a, 0x11, 0xe0, 0xc9, 0x2c, 0xbc, 0xfe, 0xc9, 0xb7, 0xd1, 0x7f,
  0x95, 0x14, 0xc6, 0x8c, 0x10, 0x01, 0x40, 0xbf, 0x32, 0xb3, 0x70, 0x37,
  0x7f, 0xfe, 0x05, 0x78, 0xf6, 0xb7, 0xac, 0x42, 0x0c, 0xdb, 0xcc, 0x08,
  0xa2, 0x0b, 0x5d, 0x36, 0x01, 0xd0, 0xc1, 0xea, 0x38, 0x73, 0xd3, 0x3d,
  0x6a, 0x66, 0xbb, 0xd5, 0xf9, 0x35, 0xc7, 0x25, 0xfe, 0xe6, 0x27, 0x21,
  0x9e, 0xf8, 0x57, 0x05, 0xfc, 0x24, 0xd9, 0x0c, 0xa5, 0xe0, 0x21, 0x4a,
  0xbb, 0xb9, 0xa3, 0x27, 0x24, 0x1e, 0x4b, 0xcc, 0x58, 0xa1, 0xbf, 0x41,
  0x12, 0x08, 0x05, 0xc9, 0xda, 0xc0, 0xd7, 0x08, 0x3b, 0xf5, 0x5d, 0xe5,
  0x41, 0x13, 0x0c, 0xdc, 0x0a, 0x2c, 0x22, 0x09, 0x4e, 0x55, 0x12, 0x12,
  0xbc, 0xc4, 0x15, 0xe7, 0x7f, 0x4f, 0xe6, 0x61, 0x3c, 0x1b, 0xdc, 0xd4,
  0x0e, 0x44, 0x03, 0x2f, 0xc3, 0x00, 0xad, 0xb4, 0x54, 0x1d, 0xae, 0xb1,
  0xbc, 0xf8, 0xe3, 0xe2, 0x79, 0xf4, 0xa5, 0xb3, 0xde, 0xdc, 0xb8, 0x5c,
  0x0c, 0xc3, 0x59, 0xfa, 0x9b, 0x24, 0x1d, 0xfb, 0x1a, 0xdb, 0xf1, 0x6b,
  0xba, 0xbf, 0x26, 0xbc, 0xe6, 0x4a, 0x02, 0x36, 0x81, 0xf4, 0x51, 0x21,
  0xe0, 0x0f, 0x28, 0x5f, 0xc9, 0xda, 0x04, 0xaf, 0x4e, 0x28, 0xe9, 0xc5,
  0x4a, 0xfd, 0x0a, 0x49, 0x30, 0x59, 0xf5, 0xc0, 0x87, 0xbc, 0x42, 0xfa,
  0xcf, 0xe7, 0x3a, 0xca, 0x3c, 0x45, 0x93, 0x2f, 0x54, 0xbb, 0x3a, 0x0c,
  0xbc, 0xf1, 0x03, 0xd1, 0x68, 0xc7, 0x49, 0x16, 0x48, 0xb9, 0x12, 0xe9,
  0x08, 0xc9, 0x1a, 0xde, 0x28, 0x58, 0x3d, 0x09, 0xf5, 0x6b, 0xb2, 0xcb,
  0x2d, 0x1a, 0x6a, 0x81, 0x28, 0xa3, 0x5c, 0xdf, 0x13, 0x88, 0xde, 0x29,
  0x12, 0xaf, 0x0f, 0x63, 0x89, 0x2e, 0x58, 0xa6, 0xa3, 0xee, 0xc5, 0x54,
  0x81, 0x2a, 0x1c, 0x1a, 0x47, 0x55, 0x37, 0x27, 0x9d, 0x94, 0x73, 0x0d,
  0xda, 0xb2, 0xe3, 0xdf, 0xcf, 0x37, 0x97, 0x4d, 0x39, 0x63, 0x24, 0xae,
  0x3a, 0x68, 0xa7, 0xf6, 0xef, 0x52, 0x8c, 0x55, 0x5f, 0x92, 0xb4, 0xc8,
  0x49, 0x22, 0x38, 0x3d, 0xb0, 0xaf, 0x4b, 0xe0, 0x37, 0xf2, 0xec, 0xe5,
  0x34, 0xfa, 0x60, 0x69, 0x24, 0x9d, 0x49, 0xa6, 0xc4, 0xbb, 0x01, 0xbe,
  0x88, 0x99, 0xca, 0xe0, 0x23, 0x5a, 0xfd, 0xb8, 0x5a, 0x2b, 0x2e, 0x28,
  0x7f, 0x56, 0x30, 0x7a, 0x2c, 0x4c, 0xf1, 0x28, 0xfa, 0xb7, 0xc8, 0x72,
  0x1c, 0x1b, 0xb2, 0x07, 0xc6, 0x65, 0xe0, 0x6a, 0xb7, 0x23, 0xce, 0xba,
  0xdb, 0xbf, 0x46, 0x7a, 0x26, 0x03, 0x37, 0xc8, 0xf1, 0x19, 0x30, 0x12,
  0x0a, 0x26, 0xe6, 0xaf, 0xeb, 0x5c, 0xb6, 0xb7, 0x00, 0x19, 0x2f, 0x22,
  0x40, 0xe9, 0x8d, 0x81, 0xa5, 0xff, 0x10, 0x06, 0x4c, 0xec, 0x57, 0x97,
  0xd6, 0xc6, 0xf7, 0x76, 0xa6, 0xe5, 0xf1, 0x39, 0x76, 0xf4, 0x97, 0x7b,
  0x2c, 0xc7, 0x92, 0x27, 0xb9, 0x7c, 0xd0, 0xe2, 0x1e, 0xb3, 0x3b, 0xd6,
  0xd5, 0xdc, 0xa4, 0x2d, 0xfb, 0x2f, 0xa4, 0x8f, 0xdf, 0x36, 0xf8, 0x2d,
  0x40, 0x15, 0x54, 0x88, 0x0e, 0xfd, 0x0c, 0xd2, 0xce, 0xf6, 0xec, 0xac,
  0xbd, 0x10, 0xd1, 0xcc, 0xc6, 0x68, 0xfe, 0xc4, 0x44, 0xe2, 0x9d, 0x13,
  0xec, 0xc8, 0x22, 0x37, 0xc5, 0xb2, 0xf8, 0xe9, 0x87, 0x4f, 0xb7, 0x14,
  0xca, 0x74, 0xe1, 0x93, 0x4c, 0x98, 0x88, 0x52, 0x2a, 0x5d, 0x2a, 0xfa,
  0xa2, 0x1c, 0x49, 0x83, 0xb5, 0x6d, 0x76, 0xa3, 0xb3, 0xdf, 0xeb, 0xf0,
  0x0c, 0x35, 0xce, 0x00, 0xee, 0x2a, 0x69, 0x99, 0xf8, 0xbb, 0x9a, 0xac,
  0xcc, 0xbe, 0x5d, 0x57, 0x9e, 0x7f, 0x6c, 0x4a, 0xef, 0xe1, 0xea, 0x59,
  0x38, 0x19, 0xe8, 0x7e, 0xf3, 0xfe, 0xff, 0xe7, 0x27, 0x27, 0x1e, 0xe9,
  0x06, 0xec, 0xdc, 0xd7, 0x47, 0x0d, 0x2e, 0xe4, 0xe2, 0xeb, 0xd3, 0xdb,
  0xdd, 0x00, 0xea, 0x46, 0xde, 0xec, 0xbe, 0x0d, 0x4f, 0xc9, 0xc0, 0xfb,
  0xef, 0x0e, 0x3a, 0x2c, 0x20, 0xc0, 0x39, 0xe0, 0x19, 0x25, 0xda, 0xd1,
  0xf1, 0x22, 0x16, 0x3f, 0x04, 0xe2, 0x06, 0x19, 0xdd, 0x06, 0xe6, 0x2a,
  0x37, 0xc5, 0x3b, 0x42, 0x7f, 0x4e, 0xda, 0x4f, 0xd6, 0x14, 0x30, 0x21,
  0xc9, 0x46, 0xe2, 0xce, 0x94, 0x32, 0xbb, 0xa1, 0x69, 0xd3, 0x81, 0xb3,
  0x13, 0xc9, 0x81, 0x03, 0x4f, 0x0c, 0x35, 0xcb, 0x1c, 0x1b, 0x5c, 0x03,
  0xab, 0x3b, 0xac, 0x16, 0x2f, 0x45, 0xad, 0x13, 0xec, 0x0b, 0xf8, 0xe3,
  0xd0, 0x15, 0x53, 0xed, 0x41, 0xb1, 0x5e, 0xfd, 0x5d, 0x36, 0x2e, 0x99,
  0x45, 0xe2, 0xca, 0x55, 0xdb, 0x2a, 0xd4, 0xb1, 0xa8, 0x08, 0x9c, 0xc4,
  0xa4, 0x47, 0x14, 0x43, 0xaf, 0xfd, 0x0d, 0x11, 0x56, 0xbd, 0x7e, 0xb3,
  0x3a, 0xa1, 0x15, 0x47, 0x86, 0xbc, 0x26, 0x16, 0x01, 0x2e, 0x44, 0x63,
  0x8f, 0x58, 0x29, 0x25, 0x3b, 0x33, 0x4d, 0xc6, 0x55, 0xfd, 0x3c, 0x3d,
  0xc7, 0x33, 0xdf, 0x3b, 0xb0, 0x42, 0x1f, 0x40, 0xe7, 0xb0, 0xf9, 0xe6,
  0x27, 0xd2, 0x0a, 0x37, 0x45, 0xc2, 0x64, 0x00, 0xd0, 0x1d, 0x69, 0x5b,
  0x4f, 0x74, 0x9b, 0x4f, 0x09, 0x78, 0x5e, 0x3d, 0xc0, 0xc6, 0xb8, 0x52,
  0x81, 0xbd, 0x51, 0xb6, 0x13, 0xef, 0x6e, 0xce, 0x2d, 0x19, 0xf5, 0x51,
  0xaf, 0x13, 0xfa, 0xb7, 0x9e, 0x48, 0xd6, 0xfc, 0x18, 0x45, 0x46, 0xe9,
  0x25, 0xe9, 0x06, 0xfa, 0x0d, 0x3b, 0xa2, 0x36, 0xc8, 0xf0, 0xc3, 0xbd,
  0x09, 0x7f, 0x18, 0xe7, 0xb3, 0xa7, 0x92, 0x0b, 0x9d, 0x49, 0xec, 0x4a,
  0xfa, 0xd4, 0x0d, 0x6e, 0x5e, 0xba, 0x3b, 0x92, 0x27, 0x24, 0x5d, 0x75,
  0xde, 0x38, 0x2d, 0xc3, 0x82, 0xd3, 0x01, 0xeb, 0x3f, 0x63, 0x83, 0xe0,
  0xb6, 0x8a, 0x2c, 0xeb, 0xf7, 0x3a, 0x10, 0x29, 0x41, 0x28, 0xa2, 0xc6,
  0xc0, 0x49, 0x8b, 0xe0, 0xbe, 0xda, 0xff, 0xff, 0x04, 0x00, 0x00, 0x00,
  0x60, 0x00, 0x00, 0x00, 0x6d, 0xee, 0xff, 0xff, 0x25, 0xf4, 0xff, 0xff,
  0x5f, 0xf9, 0xff, 0xff, 0x10, 0xfb, 0xff, 0xff, 0x71, 0xf7, 0xff, 0xff,
  0xce, 0xf4, 0xff, 0xff, 0xf2, 0xfe, 0xff, 0xff, 0x6f, 0xfa, 0xff, 0xff,
  0x72, 0xf5, 0xff, 0xff, 0xa1, 0xf7, 0xff, 0xff, 0x30, 0xf9, 0xff, 0xff,
  0x00, 0x00, 0x00, 0x00, 0x87, 0xfd, 0xff, 0xff, 0xc8, 0xf5, 0xff, 0xff,
  0x71, 0xfa, 0xff, 0xff, 0xe3, 0xf0, 0xff, 0xff, 0x3f, 0xfc, 0xff, 0xff,
  0x7a, 0x07, 0x00, 0x00, 0xbf, 0xf4, 0xff, 0xff, 0x50, 0xf7, 0xff, 0xff,
  0x42, 0xf7, 0xff, 0xff, 0x7d, 0xf3, 0xff, 0xff, 0x2f, 0xf5, 0xff, 0xff,
  0x83, 0xf4, 0xff, 0xff, 0x2a, 0xdb, 0xff, 0xff, 0x04, 0x00, 0x00, 0x00,
  0xc0, 0x06, 0x00, 0x00, 0x44, 0x4f, 0x92, 0xb1, 0xf8, 0x3e, 0xaa, 0xad,
  0x36, 0x33, 0xad, 0x68, 0x8a, 0xa0, 0x92, 0xf6, 0xee, 0x9e, 0x59, 0xb4,
  0xa7, 0x65, 0x38, 0x2a, 0x25, 0x1a, 0x21, 0x42, 0xe1, 0xa1, 0xe5, 0x5c,
  0xab, 0x39, 0xa6, 0xd7, 0x86, 0xfe, 0x12, 0x81, 0xb2, 0x01, 0xea, 0x18,
  0xeb, 0xd8, 0x52, 0x49, 0x45, 0xd4, 0x44, 0xf9, 0xe2, 0xee, 0xab, 0xa4,
  0x53, 0xa5, 0x41, 0x46, 0xba, 0x41, 0xd9, 0xf7, 0x46, 0xe3, 0x16, 0x5b,
  0xc1, 0x51, 0xa4, 0xac, 0x0d, 0x3e, 0x0d, 0xd1, 0x23, 0xd6, 0x10, 0xbe,
  0xb3, 0x8d, 0x40, 0xbb, 0x99, 0xf0, 0xe4, 0x37, 0x0c, 0xdd, 0xa9, 0x2b,
  0x69, 0x24, 0xd2, 0xeb, 0xd8, 0x32, 0xe1, 0x68, 0x3b, 0x28, 0x51, 0x51,
  0x5e, 0x03, 0xc7, 0xeb, 0x58, 0x0f, 0xa0, 0x32, 0x15, 0xdb, 0x36, 0xc4,
  0xb1, 0xf7, 0x55, 0x23, 0xf3, 0x9b, 0x54, 0xeb, 0xa4, 0x55, 0xff, 0xee,
  0xec, 0x20, 0x63, 0x0b, 0x17, 0x8d, 0xe2, 0x18, 0x3c, 0x81, 0xdb, 0xd1,
  0x5e, 0x59, 0x0d, 0x25, 0x29, 0x2c, 0xab, 0xfb, 0x44, 0xdf, 0x19, 0xe6,
  0x32, 0xb6, 0x13, 0x4a, 0x0b, 0xc8, 0x81, 0xc4, 0xb8, 0x04, 0x3f, 0x44,
  0xce, 0xee, 0x43, 0x00, 0x14, 0xd4, 0xd1, 0xe5, 0xd4, 0x0c, 0xe4, 0x08,
  0x93, 0x29, 0xf0, 0x07, 0xc9, 0x44, 0xbb, 0xc3, 0xf6, 0xf0, 0x91, 0x11,
  0x06, 0x4e, 0x34, 0xa0, 0x20, 0x11, 0x0a, 0xd9, 0xde, 0x53, 0x25, 0xa5,
  0xec, 0x1c, 0xcc, 0x58, 0x2d, 0x15, 0xc8, 0x38, 0xea, 0xb6, 0xab, 0x11,
  0x1c, 0x42, 0x29, 0x46, 0x0a, 0xe0, 0x2e, 0xbf, 0x07, 0xc5, 0xdc, 0x0a,
  0x08, 0xc9, 0xd9, 0xc6, 0x23, 0x34, 0x21, 0xca, 0xd9, 0x81, 0xe9, 0xe0,
  0x00, 0x2a, 0xf9, 0xe0, 0x33, 0xff, 0x25, 0x28, 0x12, 0xf3, 0xc3, 0xe2,
  0xfa, 0xdc, 0x12, 0xd3, 0xf2, 0xd5, 0x1f, 0x4b, 0xf3, 0xbc, 0x26, 0xd3,
  0xc5, 0xfe, 0x17, 0xfe, 0xbc, 0x44, 0x0c, 0x2a, 0x0f, 0x15, 0x1e, 0x20,
  0xe2, 0x47, 0x00, 0x03, 0x2d, 0xfc, 0x1d, 0x23, 0xa8, 0xb7, 0x33, 0x1e,
  0x3c, 0xc9, 0xef, 0xff, 0x13, 0x01, 0xc6, 0x15, 0x36, 0x14, 0x96, 0x47,
  0x3d, 0x05, 0xb1, 0x23, 0x46, 0x81, 0xe7, 0x3f, 0xc3, 0xdb, 0xea, 0x0f,
  0x13, 0xf4, 0x5c, 0xad, 0x11, 0x01, 0x36, 0xc5, 0x2d, 0xf8, 0xdc, 0xa5,
  0x33, 0xaa, 0x60, 0xc0, 0x55, 0x49, 0xed, 0x4a, 0xfc, 0x8c, 0xba, 0xb8,
  0xef, 0xad, 0xdf, 0x8a, 0x54, 0xeb, 0x8a, 0xed, 0xf7, 0xdb, 0x22, 0xf0,
  0x1c, 0x34, 0x09, 0x4e, 0x43, 0x00, 0x10, 0xd8, 0x99, 0x46, 0xf6, 0x60,
  0xde, 0xc8, 0x3f, 0xd1, 0x0c, 0xc5, 0xb3, 0xbf, 0xef, 0x22, 0xb6, 0xcb,
  0xc9, 0x39, 0xec, 0xc5, 0xbe, 0xfb, 0xc8, 0xfc, 0xec, 0x10, 0xd2, 0xe4,
  0xd2, 0x08, 0xa7, 0x33, 0xd6, 0xad, 0x31, 0x02, 0xac, 0xf9, 0xd3, 0x81,
  0xff, 0x2b, 0xff, 0xd8, 0xea, 0x27, 0xb9, 0x11, 0xe3, 0xe8, 0x24, 0xde,
  0xeb, 0xbc, 0x14, 0xc3, 0x26, 0xe0, 0xcb, 0xcc, 0xc9, 0x3a, 0x04, 0xa5,
  0xf4, 0x2d, 0xf5, 0x03, 0xd2, 0xe5, 0xcd, 0xff, 0x2b, 0xd0, 0xfd, 0xc0,
  0xb4, 0x3b, 0x1e, 0x16, 0x42, 0x25, 0x1d, 0x57, 0x28, 0xa4, 0x45, 0xdb,
  0xe5, 0xa0, 0xed, 0x2b, 0x1f, 0xd2, 0x3f, 0x3d, 0x98, 0x1b, 0xa0, 0x5d,
  0x0e, 0x0f, 0x9d, 0xfe, 0xfa, 0x10, 0x98, 0xfd, 0xd7, 0x57, 0xa6, 0x37,
  0xd2, 0x94, 0xb9, 0xae, 0xb6, 0xca, 0xf4, 0xfb, 0x9a, 0x9f, 0x3e, 0x2e,
  0xb8, 0xfb, 0x4c, 0x05, 0x9b, 0xff, 0xb1, 0x28, 0x24, 0x0c, 0xf6, 0xda,
  0xf0, 0x23, 0xe8, 0xc1, 0xbb, 0x25, 0x25, 0x18, 0x52, 0xcc, 0xbb, 0x37,
  0x81, 0x03, 0x53, 0xf6, 0xfb, 0x05, 0x4f, 0x00, 0x18, 0xfa, 0x81, 0x16,
  0xde, 0x4b, 0x2d, 0x74, 0x99, 0x21, 0xf1, 0x53, 0x9e, 0xe3, 0x34, 0x83,
  0x2a, 0x55, 0xf9, 0xcf, 0x05, 0xe6, 0xdb, 0x13, 0xca, 0x7c, 0x62, 0xbf,
  0xa3, 0xfe, 0xdb, 0xdf, 0x43, 0x8f, 0x4e, 0x0b, 0x35, 0xde, 0x07, 0x70,
  0x25, 0xf4, 0xc3, 0x33, 0x6e, 0xb2, 0xb2, 0x33, 0xdc, 0xd5, 0xc6, 0x5f,
  0x4a, 0xff, 0x93, 0x1c, 0x12, 0x70, 0x5a, 0x29, 0xd7, 0x0a, 0x87, 0xf2,
  0x2d, 0x42, 0x62, 0x21, 0xcf, 0xd3, 0xc6, 0x50, 0x48, 0x0c, 0x92, 0xa9,
  0xd4, 0x57, 0x51, 0x0f, 0x66, 0x19, 0xe7, 0x3d, 0xc1, 0xb1, 0x07, 0xb2,
  0xd9, 0xd0, 0x32, 0x09, 0xc4, 0x06, 0x91, 0xa8, 0xa8, 0x3f, 0x30, 0x3e,
  0x51, 0x52, 0xfa, 0xf7, 0x3c, 0x44, 0x07, 0xff, 0x8e, 0x3c, 0x8f, 0xb8,
  0xe5, 0x26, 0xae, 0xbf, 0xc1, 0xc5, 0xbe, 0xee, 0x36, 0xca, 0xa2, 0x81,
  0xca, 0x01, 0x4a, 0xd4, 0x54, 0x23, 0x26, 0x51, 0x31, 0x2c, 0xbe, 0x34,
  0xb8, 0xac, 0x1d, 0x2f, 0x7f, 0xb1, 0xbc, 0x20, 0x9c, 0x5e, 0x2b, 0x1c,
  0x13, 0x50, 0x0e, 0x5a, 0x21, 0x3a, 0x90, 0x54, 0x52, 0xb9, 0xb8, 0xab,
  0x2c, 0x10, 0x85, 0xa3, 0x25, 0x33, 0x98, 0x04, 0x1a, 0xef, 0x90, 0xd7,
  0x16, 0x2d, 0xd2, 0xd0, 0x52, 0xe2, 0x06, 0xd3, 0xfc, 0xd3, 0xb6, 0x3e,
  0x27, 0x85, 0x07, 0xfa, 0x7d, 0xce, 0xd9, 0xf1, 0x48, 0xcd, 0x3d, 0x46,
  0xe0, 0x51, 0xa6, 0xe6, 0xa8, 0xd9, 0xf6, 0xe1, 0xc0, 0xf4, 0x68, 0xeb,
  0x82, 0xe5, 0x06, 0x06, 0x14, 0x93, 0x11, 0xab, 0xb5, 0xc8, 0x2b, 0xd8,
  0x10, 0x24, 0x46, 0x1c, 0x4f, 0xad, 0x9d, 0xf6, 0x95, 0xf1, 0x23, 0x3c,
  0x4a, 0xad, 0x45, 0x44, 0x96, 0xeb, 0xea, 0xf3, 0x18, 0xc0, 0x60, 0x1c,
  0x0f, 0x12, 0x8b, 0x31, 0xc4, 0x34, 0x81, 0x04, 0x3a, 0xda, 0xfc, 0x65,
  0x99, 0x99, 0xf3, 0xdf, 0xec, 0xc1, 0x33, 0x46, 0x55, 0x65, 0x9c, 0x2f,
  0x2a, 0x31, 0xb1, 0x62, 0xff, 0x22, 0xc9, 0x9b, 0xdd, 0xfa, 0xf5, 0xe1,
  0xc1, 0x56, 0xe3, 0xe6, 0x66, 0x3e, 0xae, 0xef, 0x49, 0xea, 0x9d, 0x2f,
  0x47, 0xa9, 0xf1, 0x11, 0x81, 0xdd, 0xa6, 0x1d, 0x3c, 0xfa, 0xc2, 0xf6,
  0x00, 0xe2, 0xd1, 0x32, 0xeb, 0x67, 0xe1, 0x48, 0xd1, 0x67, 0xc8, 0x38,
  0x36, 0x4c, 0x5d, 0xbf, 0x1b, 0x4e, 0x9b, 0x6f, 0x3b, 0x2a, 0x40, 0xb9,
  0xaf, 0xfb, 0x38, 0xfe, 0x17, 0xcf, 0x41, 0x5d, 0x38, 0xd0, 0x93, 0x3b,
  0xa5, 0xc5, 0xe6, 0xab, 0x09, 0xda, 0xb3, 0xed, 0x17, 0x02, 0xf7, 0x3c,
  0xcb, 0xf0, 0xc1, 0x14, 0x63, 0xa1, 0xf6, 0xea, 0x3a, 0x1b, 0x57, 0xd3,
  0xb0, 0x3c, 0xbb, 0x0e, 0x64, 0xea, 0x5d, 0x2e, 0xd4, 0xdf, 0x87, 0xe0,
  0x03, 0x84, 0xbe, 0x1e, 0x2f, 0x0c, 0xf7, 0x74, 0x8e, 0xb4, 0x58, 0x66,
  0xc8, 0x3d, 0xde, 0x20, 0xf4, 0xf4, 0x3f, 0xf8, 0x40, 0x51, 0xde, 0xb4,
  0x2e, 0x78, 0x20, 0xc0, 0xf7, 0xe8, 0x28, 0x97, 0x5d, 0xc8, 0xbc, 0x81,
  0xf2, 0x52, 0x61, 0x50, 0x2e, 0xcf, 0xda, 0xe6, 0x4d, 0x40, 0xea, 0x52,
  0xe4, 0x69, 0x56, 0x54, 0x2f, 0x77, 0xd0, 0x8e, 0xa9, 0x15, 0x1f, 0xb5,
  0xcd, 0xc0, 0xcf, 0x06, 0x29, 0xb6, 0x9b, 0x02, 0xd7, 0xff, 0x3f, 0x1c,
  0x21, 0x94, 0x3c, 0x96, 0x7e, 0xd3, 0x52, 0x0a, 0xc4, 0x68, 0xa3, 0x9e,
  0xaa, 0x20, 0xae, 0xd2, 0x3e, 0xb4, 0x81, 0x3b, 0x8d, 0xf2, 0x8b, 0xa6,
  0xf9, 0x3e, 0x69, 0x4c, 0xf3, 0xbc, 0x6e, 0x0c, 0xde, 0x41, 0xa0, 0xa7,
  0xd0, 0xee, 0x66, 0x1b, 0xd7, 0xf2, 0x14, 0xe4, 0x9a, 0x13, 0x6b, 0xef,
  0xf1, 0xca, 0x88, 0x1c, 0xab, 0xaf, 0x4e, 0xe3, 0xec, 0x52, 0xfc, 0x0b,
  0x21, 0xc1, 0xef, 0x3c, 0x02, 0xe2, 0xb3, 0xf5, 0xfc, 0x8d, 0xa9, 0x21,
  0xc9, 0xad, 0xfc, 0xbf, 0x4d, 0xf5, 0x11, 0xc7, 0x0c, 0xde, 0xdf, 0x3b,
  0x01, 0x18, 0x9e, 0xfb, 0xb6, 0x02, 0x42, 0xcf, 0x97, 0x81, 0xce, 0x2d,
  0x2e, 0xa1, 0xe3, 0x08, 0xc2, 0x0e, 0x11, 0xa7, 0x29, 0x16, 0x3b, 0x2e,
  0xd2, 0xfd, 0x12, 0x48, 0xa9, 0x4b, 0x2f, 0xdf, 0x1b, 0xa5, 0x19, 0xa8,
  0x97, 0x30, 0x49, 0xf5, 0xa6, 0x15, 0x8b, 0xf2, 0x63, 0x11, 0x97, 0x93,
  0x5e, 0x21, 0x54, 0x1f, 0xb0, 0xfe, 0xcb, 0xb0, 0xc3, 0xa0, 0xcf, 0x89,
  0x81, 0x0e, 0x2c, 0x93, 0x5f, 0x70, 0x5f, 0xd8, 0x3d, 0xa3, 0xe1, 0xde,
  0x08, 0x86, 0xd9, 0xe4, 0x31, 0xf2, 0x64, 0xa9, 0x9b, 0x46, 0x34, 0x43,
  0xea, 0xdc, 0x33, 0x1f, 0xee, 0x5a, 0xa9, 0xad, 0x46, 0xc4, 0xd9, 0x26,
  0xbc, 0xf1, 0xba, 0x5e, 0x35, 0x5c, 0xda, 0xae, 0xe0, 0xc8, 0x4b, 0x26,
  0x3f, 0xef, 0xf2, 0x5e, 0xcd, 0xc8, 0x47, 0x4d, 0xeb, 0xcf, 0xe5, 0x88,
  0x18, 0x44, 0xdd, 0x16, 0xa0, 0xd3, 0x19, 0x57, 0x99, 0x3f, 0x0d, 0x09,
  0x10, 0xc0, 0xe7, 0xd8, 0xac, 0x06, 0xec, 0xfc, 0x3b, 0x56, 0xe5, 0x9c,
  0x6c, 0x43, 0x7c, 0x34, 0xce, 0xda, 0xa8, 0x1a, 0x33, 0xbf, 0x18, 0x27,
  0x01, 0xcd, 0x89, 0xba, 0xc4, 0x65, 0x4e, 0xd7, 0x8b, 0x60, 0x81, 0xdd,
  0x35, 0x99, 0x0c, 0x16, 0x20, 0x49, 0x8a, 0x01, 0x9e, 0xde, 0x03, 0x99,
  0x28, 0xf5, 0x9b, 0xb3, 0xd8, 0xf2, 0xf9, 0x32, 0xea, 0x1e, 0xe9, 0xd7,
  0xf1, 0x35, 0xfe, 0x13, 0x13, 0xc1, 0x0d, 0x22, 0xdc, 0x18, 0x36, 0x39,
  0xe0, 0xe9, 0xb4, 0xf8, 0xbb, 0x0f, 0xb4, 0x30, 0x01, 0xe6, 0xd7, 0x3b,
  0x19, 0x3c, 0xd9, 0x03, 0x1d, 0xd7, 0xf5, 0x2b, 0x4e, 0x7f, 0x31, 0xd5,
  0xe7, 0x06, 0x0b, 0x0c, 0x11, 0xbe, 0xce, 0xdf, 0x1f, 0x14, 0xe7, 0x3b,
  0x11, 0xdd, 0x34, 0xd3, 0x72, 0xea, 0xd1, 0xfb, 0xf9, 0x33, 0x2a, 0x46,
  0xc2, 0x0d, 0xc2, 0x29, 0xbe, 0x2a, 0xbe, 0x9a, 0xd5, 0x26, 0xdd, 0xb5,
  0x5a, 0x81, 0x9b, 0xa3, 0xb7, 0x33, 0x32, 0xd3, 0x04, 0xac, 0x12, 0xe4,
  0xd5, 0x50, 0x01, 0x0c, 0x58, 0xa8, 0xaa, 0xaf, 0xa6, 0x95, 0x15, 0x03,
  0x0d, 0x89, 0x51, 0xd7, 0x2e, 0xec, 0x3c, 0xa2, 0x37, 0xe3, 0x70, 0xf3,
  0x1f, 0x3b, 0x65, 0xc8, 0x95, 0xfd, 0xb6, 0xe4, 0xd3, 0xcc, 0x46, 0xc5,
  0x20, 0xaa, 0xed, 0x43, 0xcf, 0x24, 0x28, 0xfc, 0x85, 0x98, 0xa6, 0x43,
  0x65, 0x52, 0x82, 0xcd, 0xe8, 0xfd, 0xf2, 0xfb, 0x20, 0x27, 0xf2, 0x98,
  0x28, 0xf0, 0xd8, 0x27, 0x01, 0x24, 0x20, 0x10, 0x0d, 0xfc, 0x02, 0xfc,
  0xdc, 0x21, 0xf6, 0x06, 0x16, 0x13, 0xe2, 0xe6, 0xeb, 0xdb, 0x19, 0x93,
  0x03, 0xe3, 0xe8, 0xdb, 0x21, 0x1d, 0xf5, 0x11, 0xe2, 0x12, 0x0d, 0xf4,
  0xdf, 0xf5, 0x1c, 0xe7, 0xf2, 0x12, 0x2e, 0xf6, 0xe7, 0xdc, 0xbe, 0x81,
  0xdb, 0xf7, 0x00, 0xe7, 0xe0, 0xf7, 0xf3, 0x18, 0xfa, 0xf5, 0x15, 0x06,
  0xe3, 0x2d, 0x19, 0xed, 0x38, 0x05, 0x95, 0x28, 0x3c, 0x38, 0xe5, 0xe2,
  0xf2, 0x49, 0x0e, 0xfc, 0x12, 0x0f, 0xad, 0x94, 0xbe, 0x55, 0x4d, 0x67,
  0x3e, 0x58, 0xaf, 0x35, 0x55, 0xdd, 0xf6, 0x2e, 0x6e, 0x52, 0x5f, 0xb7,
  0xa2, 0x56, 0x35, 0x2a, 0x46, 0xa4, 0x31, 0x41, 0xd3, 0x25, 0x6f, 0x0c,
  0x06, 0xdc, 0x78, 0xdb, 0x6b, 0xd3, 0xe4, 0xd2, 0xba, 0x06, 0xd4, 0xd3,
  0x13, 0xe3, 0x42, 0xc5, 0x98, 0x54, 0xdb, 0x86, 0xbf, 0x95, 0x7f, 0xbf,
  0xe7, 0x98, 0xfc, 0x1b, 0x3d, 0xd0, 0xb2, 0x56, 0xfb, 0x9d, 0xbd, 0x3b,
  0xa8, 0xb4, 0xa3, 0x5c, 0x91, 0xa0, 0x71, 0x83, 0xc3, 0xd2, 0x45, 0x06,
  0x17, 0x2e, 0xff, 0xc5, 0x44, 0xf8, 0x0a, 0x81, 0xcd, 0x9d, 0x0d, 0xe8,
  0x29, 0xcb, 0x0c, 0xda, 0x57, 0x1a, 0xfc, 0x0d, 0xc6, 0xe3, 0xb1, 0xac,
  0x54, 0x72, 0x03, 0x27, 0x4c, 0x86, 0xeb, 0x91, 0xbc, 0x30, 0x0f, 0x0c,
  0x33, 0x58, 0xe7, 0x63, 0xa8, 0x57, 0xe3, 0x8e, 0xc2, 0x84, 0xe2, 0x0b,
  0xe0, 0xf4, 0xd8, 0x57, 0x18, 0xb6, 0x95, 0x2c, 0xf0, 0x2d, 0x86, 0xa3,
  0xb1, 0xc6, 0xd0, 0x26, 0xfb, 0xb5, 0x24, 0x94, 0xda, 0x8a, 0xd5, 0x50,
  0xec, 0x16, 0xc2, 0x16, 0xaf, 0xe4, 0xa8, 0x4f, 0x05, 0xca, 0x83, 0x14,
  0x6b, 0xb3, 0xf5, 0x0e, 0x15, 0xa7, 0x2f, 0x34, 0xf7, 0xd4, 0xf4, 0xa6,
  0x3b, 0x32, 0x0b, 0xcc, 0xd5, 0x7f, 0xe5, 0x3b, 0x9b, 0xd3, 0x90, 0xd3,
  0x14, 0xb4, 0xd7, 0xef, 0x54, 0xce, 0xc8, 0x22, 0x38, 0x28, 0x88, 0x28,
  0xd6, 0xe7, 0xa0, 0x54, 0xcb, 0x3d, 0xc0, 0xbb, 0xba, 0xeb, 0x2f, 0x3d,
  0x32, 0xf7, 0xd1, 0x45, 0x00, 0x2c, 0x0b, 0xee, 0xe2, 0x1c, 0xeb, 0xc8,
  0x26, 0xa9, 0x03, 0x23, 0xe1, 0x30, 0x28, 0x13, 0x2b, 0xc1, 0x99, 0x4d,
  0x08, 0x01, 0xcb, 0x3c, 0x91, 0xbd, 0x38, 0xbd, 0xcc, 0xae, 0xf3, 0xce,
  0x47, 0xd1, 0xc6, 0x4a, 0xfe, 0x36, 0xd9, 0x2f, 0xba, 0x45, 0xb3, 0xc6,
  0xba, 0x3a, 0xb9, 0x31, 0x18, 0x55, 0x46, 0x56, 0x64, 0x81, 0x51, 0xef,
  0xff, 0xbd, 0x0a, 0xb0, 0xf6, 0xe1, 0xff, 0xff, 0x04, 0x00, 0x00, 0x00,
  0x60, 0x00, 0x00, 0x00, 0x6c, 0xd3, 0xff, 0xff, 0x4a, 0xff, 0xff, 0xff,
  0xbd, 0xcf, 0xff, 0xff, 0x6d, 0xff, 0xff, 0xff, 0xd0, 0xb4, 0xff, 0xff,
  0x6e, 0xce, 0xff, 0xff, 0x28, 0xe9, 0xff, 0xff, 0x2e, 0xc7, 0xff, 0xff,
  0x7d, 0xc5, 0xff, 0xff, 0xd3, 0xa1, 0xff, 0xff, 0x3f, 0xd8, 0xff, 0xff,
  0x81, 0xe1, 0xff, 0xff, 0x65, 0xbb, 0xff, 0xff, 0x7c, 0xd2, 0xff, 0xff,
  0x32, 0xe6, 0xff, 0xff, 0xdd, 0xb7, 0xff, 0xff, 0x09, 0xbc, 0xff, 0xff,
  0xd3, 0xf2, 0xff, 0xff, 0xd1, 0xfd, 0xff, 0xff, 0x9c, 0xef, 0xff, 0xff,
  0xe3, 0xcd, 0xff, 0xff, 0x1d, 0x0a, 0x00, 0x00, 0xa1, 0xd1, 0xff, 0xff,
  0xa4, 0xed, 0xff, 0xff, 0x62, 0xe2, 0xff, 0xff, 0x04, 0x00, 0x00, 0x00,
  0xc0, 0x06, 0x00, 0x00, 0x2e, 0x36, 0xfc, 0x28, 0x7f, 0x8e, 0x9b, 0x45,
  0x07, 0x3e, 0x08, 0x19, 0xfb, 0xad, 0x0e, 0xf5, 0xcc, 0xfc, 0xfb, 0x1e,
  0x2f, 0x49, 0xa3, 0x02, 0xe5, 0xdd, 0x37, 0xa3, 0x63, 0xb4, 0x22, 0xa3,
  0x16, 0xd5, 0x4b, 0xef, 0xf8, 0x24, 0xe7, 0xf8, 0xfa, 0x16, 0xd4, 0x2a,
  0x07, 0x38, 0x3b, 0x9f, 0x2a, 0x45, 0xd3, 0x45, 0x30, 0x41, 0xe9, 0x4e,
  0xb1, 0x3e, 0xec, 0x28, 0xa4, 0x34, 0xdb, 0xc7, 0x10, 0xca, 0xf4, 0x21,
  0xd2, 0x59, 0x0c, 0xbc, 0xf9, 0x5e, 0xfa, 0x10, 0x95, 0x4b, 0x51, 0x13,
  0x03, 0x3c, 0x37, 0xd8, 0x23, 0xeb, 0x34, 0x5d, 0x4e, 0xc4, 0xd1, 0x33,
  0xb6, 0xd5, 0x2d, 0xab, 0x0d, 0x4b, 0xbe, 0xaf, 0x22, 0xc1, 0xc3, 0x73,
  0x79, 0x7b, 0xea, 0x35, 0xac, 0xe9, 0x9f, 0x6f, 0xbc, 0xff, 0x17, 0x12,
  0xfd, 0x53, 0x50, 0x4a, 0x17, 0x9e, 0xa7, 0xaa, 0x56, 0x27, 0x40, 0x67,
  0x5b, 0x2f, 0xda, 0xfc, 0x17, 0xd4, 0x48, 0xae, 0xb8, 0x6d, 0x3e, 0x60,
  0x1c, 0x2c, 0xd0, 0x7f, 0xb9, 0x34, 0xfc, 0x4f, 0xa5, 0x82, 0x1e, 0x33,
  0xb0, 0xfa, 0x26, 0xdb, 0x8b, 0xe4, 0xc0, 0x17, 0x9d, 0x1f, 0xdd, 0x07,
  0x65, 0x2a, 0x2d, 0xa2, 0xb4, 0xf5, 0xbb, 0xd0, 0x5d, 0x81, 0x11, 0xec,
  0xce, 0xc2, 0x4b, 0x1d, 0xbc, 0xdd, 0xec, 0xa8, 0xe7, 0xbb, 0xdb, 0xc3,
  0x34, 0x1a, 0xcb, 0xe9, 0x86, 0xbc, 0xeb, 0x52, 0x5e, 0x40, 0x07, 0x29,
  0xf2, 0xa3, 0x29, 0x97, 0xf4, 0xfd, 0x35, 0x70, 0x48, 0x2c, 0xe5, 0x62,
  0x44, 0x56, 0x8b, 0x06, 0x3f, 0x20, 0x12, 0x66, 0x0f, 0xb3, 0xb9, 0x4c,
  0xb8, 0x10, 0x62, 0x68, 0x18, 0x9b, 0x1b, 0xda, 0xdf, 0xba, 0xd0, 0x1f,
  0x1a, 0x3c, 0xec, 0x5e, 0x0b, 0xc4, 0xad, 0xb9, 0x23, 0x06, 0xc5, 0x1c,
  0xb4, 0x95, 0xf0, 0xf5, 0xec, 0xc3, 0x54, 0xc8, 0x4e, 0xa3, 0x44, 0x37,
  0x15, 0xdf, 0x11, 0xa8, 0xf5, 0x36, 0xf3, 0xf2, 0x64, 0x00, 0x3d, 0x28,
  0x5e, 0x18, 0x2a, 0x29, 0x8e, 0xd5, 0xf5, 0x4f, 0xb7, 0xa1, 0xef, 0x56,
  0x5c, 0x81, 0xdd, 0x21, 0xac, 0x52, 0x81, 0x95, 0x16, 0xa0, 0x06, 0x13,
  0xaa, 0x04, 0xcd, 0xd4, 0x28, 0xdc, 0x6c, 0xd4, 0xe7, 0x0a, 0x6b, 0x51,
  0x24, 0x6d, 0xb8, 0xd5, 0xfd, 0x57, 0x21, 0xb4, 0x62, 0xc4, 0xc7, 0x27,
  0xc1, 0x21, 0xa1, 0xde, 0x07, 0x51, 0x21, 0x31, 0x1c, 0xa0, 0xd5, 0xd4,
  0xea, 0x6b, 0xbf, 0x3d, 0x36, 0xce, 0x10, 0xe7, 0xf2, 0xb2, 0xbb, 0x18,
  0xf6, 0x2d, 0x05, 0x32, 0x33, 0x10, 0x33, 0xc0, 0xab, 0x3e, 0xf5, 0xc9,
  0xdc, 0xed, 0x08, 0x14, 0x81, 0x3b, 0x34, 0xe7, 0xd3, 0xd4, 0xfe, 0x62,
  0x19, 0x26, 0x60, 0x04, 0x8b, 0xb7, 0x70, 0x1b, 0xb6, 0xa2, 0xa1, 0x88,
  0x3d, 0xeb, 0x66, 0xac, 0x09, 0xc7, 0x2c, 0x0e, 0xdd, 0xbd, 0xed, 0x3d,
  0x70, 0xd1, 0x68, 0x92, 0xc4, 0x1a, 0x44, 0xde, 0xe7, 0x00, 0xf9, 0xa6,
  0xe3, 0x0c, 0x11, 0xd5, 0x99, 0x03, 0x8d, 0x19, 0x7a, 0x55, 0x14, 0x05,
  0x9f, 0x04, 0x6c, 0x9d, 0x33, 0xe2, 0x37, 0x05, 0xf4, 0x13, 0x5f, 0x40,
  0x15, 0x89, 0x57, 0xe3, 0x4f, 0x81, 0xc7, 0x35, 0x01, 0xae, 0x3c, 0x9b,
  0x48, 0x61, 0xf2, 0xfe, 0xcc, 0xbd, 0xfa, 0xee, 0x4a, 0x29, 0xe4, 0x07,
  0x05, 0x59, 0x0e, 0x02, 0xa1, 0x0f, 0x3b, 0x05, 0xb6, 0xc6, 0x9b, 0xba,
  0xcd, 0xab, 0xd6, 0xce, 0x09, 0x50, 0x65, 0x45, 0x0d, 0xa7, 0x00, 0xe2,
  0x0a, 0x6e, 0x0c, 0x08, 0x3e, 0x00, 0xba, 0x39, 0x73, 0xe2, 0x01, 0x03,
  0xdf, 0xe9, 0x06, 0x12, 0xf5, 0x32, 0xe3, 0x07, 0x4a, 0xaf, 0xbf, 0x41,
  0x2c, 0x3c, 0xeb, 0xb8, 0xff, 0xfc, 0x14, 0x39, 0x57, 0xa4, 0xcd, 0x27,
  0x1d, 0xa5, 0xe6, 0xda, 0x3a, 0xb6, 0x33, 0xe4, 0xee, 0x2b, 0x2b, 0x17,
  0x11, 0x93, 0x1b, 0xf5, 0x2a, 0x48, 0x21, 0x37, 0x20, 0x31, 0x40, 0xdc,
  0x0f, 0xd4, 0xa7, 0x10, 0x71, 0xb9, 0x1c, 0x17, 0xcb, 0x9e, 0x4a, 0x2e,
  0xc1, 0x9e, 0x2e, 0xf6, 0xc1, 0x4f, 0x07, 0x49, 0x55, 0xc4, 0x57, 0xc5,
  0x50, 0x07, 0xf3, 0xb0, 0xce, 0xb0, 0xc0, 0x44, 0x29, 0x48, 0x5c, 0x81,
  0x48, 0xf0, 0x1e, 0x99, 0xff, 0x14, 0x29, 0x27, 0xe9, 0x02, 0x42, 0x1a,
  0xfc, 0xeb, 0x4f, 0x65, 0xd1, 0x0b, 0x7d, 0x68, 0xa6, 0xc2, 0xa8, 0x76,
  0xe7, 0xd5, 0x84, 0xd7, 0x09, 0x09, 0x4d, 0xca, 0x77, 0xfd, 0xbd, 0xe7,
  0x84, 0x9e, 0x0b, 0xb2, 0x5a, 0x2f, 0x49, 0x50, 0x13, 0xbb, 0xa5, 0x7f,
  0x57, 0xc3, 0xb6, 0x5a, 0xae, 0x6b, 0xe2, 0x52, 0xbb, 0x92, 0xd0, 0xb6,
  0xe6, 0xff, 0xc0, 0x51, 0x22, 0x50, 0x70, 0x59, 0xef, 0x67, 0x4e, 0xd1,
  0x54, 0x82, 0xc0, 0x71, 0x5a, 0x58, 0xaa, 0xc7, 0x45, 0x84, 0xe7, 0x4a,
  0x48, 0x33, 0x4f, 0x09, 0x0e, 0x00, 0x7f, 0x43, 0x52, 0x1e, 0x6d, 0x60,
  0x5d, 0xfc, 0xab, 0x1e, 0x26, 0x2f, 0x2d, 0x40, 0xf8, 0xd7, 0x58, 0x91,
  0x3c, 0xcd, 0xcd, 0xfe, 0xba, 0x5d, 0x35, 0x5a, 0xa7, 0x5d, 0x9c, 0x60,
  0xe4, 0xc9, 0x95, 0x3e, 0xf2, 0x0c, 0x59, 0x89, 0xd5, 0xb9, 0x9d, 0xfc,
  0x60, 0x50, 0x89, 0x36, 0xd4, 0xdc, 0x78, 0xd5, 0xfd, 0xb3, 0x6d, 0xf1,
  0xee, 0xea, 0x37, 0xdd, 0xf8, 0x41, 0xff, 0xbb, 0x3a, 0xd6, 0x06, 0x54,
  0xda, 0xac, 0x31, 0xf0, 0xd5, 0xf8, 0xd3, 0x7f, 0x09, 0xe4, 0x0e, 0xe4,
  0xef, 0xce, 0xa3, 0xc1, 0xe5, 0xba, 0x4d, 0xbb, 0x50, 0xda, 0x18, 0x2b,
  0xce, 0x0c, 0xbf, 0xf0, 0xea, 0xe6, 0xca, 0x06, 0xee, 0xdb, 0x0a, 0xbe,
  0x0e, 0x1b, 0x85, 0xd6, 0xf8, 0x3b, 0x04, 0xda, 0x5a, 0x4e, 0x32, 0xae,
  0xec, 0x08, 0x54, 0x4c, 0x32, 0x37, 0xc9, 0xec, 0x41, 0xda, 0xf5, 0x21,
  0x50, 0xc4, 0x86, 0xe6, 0xa4, 0xcb, 0x4c, 0x37, 0xea, 0xc9, 0x45, 0xb3,
  0xa5, 0x3f, 0xea, 0x3c, 0x11, 0xbf, 0x5f, 0x28, 0xf8, 0xbd, 0x39, 0xfc,
  0xc9, 0x34, 0x35, 0xd4, 0x13, 0xc4, 0xd4, 0xce, 0x17, 0x96, 0xe7, 0x38,
  0xd9, 0x0b, 0x41, 0x23, 0x45, 0x1b, 0xdc, 0x4d, 0xfc, 0x4c, 0xc0, 0x19,
  0xc5, 0x2c, 0x5a, 0x47, 0x49, 0xb3, 0xba, 0xb1, 0xa9, 0x0a, 0x9a, 0xad,
  0x13, 0x99, 0x1b, 0xe7, 0x01, 0x7f, 0xdb, 0xed, 0xa9, 0x16, 0x09, 0x1a,
  0xb9, 0xf2, 0xfc, 0x16, 0xf2, 0x11, 0xab, 0x8d, 0x39, 0x5c, 0x5b, 0x0f,
  0xce, 0x81, 0x09, 0x38, 0x10, 0xa8, 0xd2, 0x36, 0xf3, 0xd8, 0xbb, 0x1f,
  0x05, 0xa9, 0xa1, 0x10, 0x09, 0xd0, 0x28, 0x18, 0x04, 0xe0, 0xc7, 0xe0,
  0x05, 0x29, 0x71, 0x42, 0xf6, 0x87, 0xec, 0x43, 0xfa, 0xf6, 0x54, 0x0c,
  0xc5, 0xb7, 0x5e, 0x5e, 0x26, 0xd9, 0xb5, 0x0b, 0xb3, 0xe1, 0xa8, 0xaa,
  0x23, 0x08, 0x66, 0xc4, 0xbd, 0xd7, 0x1f, 0x76, 0x0e, 0x89, 0x59, 0x69,
  0xa3, 0x04, 0xf1, 0x85, 0x29, 0xef, 0xf7, 0xb1, 0xd6, 0x91, 0x49, 0x2b,
  0xf1, 0x26, 0xc4, 0x94, 0x91, 0x7e, 0x5a, 0x98, 0x33, 0x1f, 0xf6, 0x1e,
  0x1f, 0x06, 0x6a, 0x28, 0x09, 0x4e, 0x43, 0x37, 0xf1, 0xbe, 0xc1, 0xa5,
  0x3d, 0x6f, 0x64, 0x29, 0x1f, 0x19, 0x0e, 0x0b, 0x0c, 0x48, 0x61, 0xe8,
  0xb7, 0x26, 0x73, 0x39, 0x81, 0xc9, 0x35, 0xe0, 0xb4, 0x62, 0xb1, 0xd1,
  0x50, 0xfb, 0xc5, 0x9e, 0x35, 0x04, 0x76, 0xcb, 0xef, 0xef, 0x30, 0x38,
  0xc9, 0x5f, 0x46, 0x5f, 0x4a, 0x7f, 0x16, 0xb7, 0x2b, 0xd8, 0x15, 0x1d,
  0xfc, 0x3b, 0x68, 0x14, 0x4f, 0x4e, 0x46, 0xae, 0x53, 0x45, 0x22, 0x35,
  0x38, 0x22, 0xe5, 0x57, 0xc6, 0x0d, 0x91, 0x29, 0xfe, 0x42, 0xfc, 0xc0,
  0x19, 0x9e, 0x3a, 0xc1, 0xbd, 0x2a, 0x42, 0xcc, 0xe8, 0x54, 0xa9, 0xc3,
  0xf9, 0xe2, 0xfe, 0x34, 0xbf, 0x32, 0x90, 0x42, 0x2b, 0xbd, 0xf6, 0xe0,
  0xf9, 0x11, 0x5e, 0xa9, 0x28, 0xac, 0xc1, 0x44, 0xfe, 0x15, 0x2e, 0x3c,
  0xe1, 0x9d, 0x14, 0xb9, 0x67, 0x9a, 0xa1, 0x95, 0x46, 0xe8, 0x05, 0xff,
  0xc1, 0x3a, 0xfe, 0xf9, 0x20, 0x4f, 0xc2, 0xe6, 0xb1, 0x37, 0x62, 0xdc,
  0x0b, 0x0f, 0xa3, 0x47, 0xa7, 0x2a, 0x8f, 0x27, 0xe2, 0xf9, 0x52, 0x37,
  0x0b, 0xfc, 0xa9, 0x91, 0xa5, 0xb9, 0x3e, 0xd5, 0xda, 0x4b, 0x55, 0x37,
  0xfe, 0x3c, 0xd3, 0x5a, 0xba, 0x26, 0xd8, 0x5d, 0x0d, 0xa1, 0xe7, 0xab,
  0xf3, 0x29, 0x9b, 0x3a, 0xf0, 0xca, 0x48, 0x46, 0xb0, 0xa3, 0x1f, 0x9d,
  0x25, 0x58, 0x81, 0xca, 0x4b, 0xb4, 0x35, 0x16, 0x51, 0x54, 0x56, 0x22,
  0x99, 0x13, 0x9b, 0x07, 0x49, 0xe6, 0x1d, 0x04, 0xdb, 0xee, 0xfb, 0xa4,
  0xf2, 0xf9, 0xd2, 0xe7, 0xfe, 0xc4, 0xb4, 0x99, 0xea, 0x15, 0xeb, 0xc3,
  0xc5, 0x40, 0x9e, 0x1b, 0x81, 0x72, 0x09, 0x6e, 0xcf, 0xe1, 0x7f, 0xb5,
  0xc8, 0xba, 0x42, 0xf8, 0xa9, 0x25, 0xc1, 0xd3, 0xd8, 0xcc, 0xa1, 0x12,
  0xb4, 0xed, 0xd5, 0xa9, 0xbd, 0xee, 0x3d, 0xcd, 0x96, 0xc6, 0xb3, 0xfc,
  0xf4, 0x10, 0x99, 0x27, 0x21, 0xc4, 0xed, 0x64, 0xbb, 0xec, 0x22, 0x41,
  0x0e, 0x18, 0x67, 0x2c, 0x43, 0x67, 0x5f, 0xa4, 0xdc, 0xfb, 0xe5, 0xa5,
  0x30, 0x7f, 0x03, 0xb4, 0xe4, 0x26, 0x8e, 0x0c, 0xa4, 0x39, 0xa2, 0xe0,
  0xc1, 0xd8, 0xf1, 0xf7, 0xb0, 0xe7, 0xf6, 0xb8, 0xeb, 0xe1, 0x22, 0x1d,
  0x22, 0x18, 0x37, 0x17, 0x1e, 0xe7, 0x16, 0x13, 0xcf, 0x39, 0x04, 0xe3,
  0xfa, 0xa2, 0x38, 0x28, 0x4b, 0xa6, 0x01, 0x63, 0xf3, 0x4f, 0x2d, 0x8e,
  0xac, 0x41, 0xfb, 0x24, 0xde, 0xc7, 0x96, 0xe1, 0x03, 0x85, 0xd6, 0x0b,
  0xcd, 0x39, 0x22, 0x93, 0xc6, 0x3e, 0xb1, 0xfc, 0x31, 0x40, 0x34, 0xbb,
  0xd8, 0xab, 0x47, 0x08, 0x52, 0xab, 0x13, 0xc8, 0xd8, 0x8f, 0xb3, 0xef,
  0x28, 0xfe, 0xeb, 0xeb, 0x5c, 0xdd, 0x59, 0x97, 0x11, 0x09, 0xf5, 0x52,
  0x7f, 0x25, 0x9c, 0xb5, 0xd1, 0x54, 0xac, 0xb7, 0x4d, 0x2d, 0x4b, 0x4b,
  0x03, 0x29, 0x3e, 0x43, 0xb8, 0xce, 0x5e, 0x11, 0xa4, 0x29, 0x4a, 0x4b,
  0x67, 0xa6, 0xe6, 0xf8, 0x5c, 0xd1, 0x8f, 0x36, 0x65, 0xee, 0x58, 0x22,
  0x15, 0x20, 0x5a, 0xbe, 0x65, 0x2e, 0x3f, 0xb9, 0x47, 0xcf, 0x1a, 0x2a,
  0xbc, 0xdd, 0x4e, 0x3f, 0x89, 0x5f, 0xc1, 0x4b, 0xe4, 0xab, 0xd6, 0xf6,
  0x38, 0x68, 0xfe, 0x02, 0xe6, 0x13, 0x9b, 0xff, 0xd2, 0x1e, 0x5d, 0x57,
  0x3c, 0xef, 0xba, 0x5a, 0x71, 0xf4, 0x54, 0xfd, 0x02, 0xa1, 0x10, 0x18,
  0x3f, 0xfb, 0x2b, 0x1f, 0x64, 0x33, 0xec, 0x4b, 0x22, 0xdd, 0x7f, 0x2a,
  0x07, 0xab, 0xda, 0x8f, 0x8e, 0x92, 0xe5, 0xe3, 0xa6, 0xa5, 0x47, 0xea,
  0x3e, 0x05, 0x2d, 0x8b, 0xe4, 0xc4, 0x18, 0x4a, 0x1b, 0xb8, 0x3d, 0x1d,
  0x18, 0x00, 0x2e, 0x39, 0x2d, 0x79, 0xb4, 0xd0, 0x79, 0x57, 0xb4, 0x21,
  0xa5, 0xa0, 0x45, 0x66, 0x27, 0x91, 0xbf, 0x46, 0xb8, 0xcc, 0x51, 0xf1,
  0xca, 0x7f, 0xd6, 0xe2, 0x41, 0xca, 0xcd, 0xc1, 0xcf, 0xbc, 0x87, 0x0e,
  0x94, 0xc0, 0xf7, 0x3e, 0x4d, 0xf3, 0xc0, 0x48, 0x33, 0x4d, 0x06, 0xee,
  0xae, 0xc5, 0x27, 0xc3, 0x52, 0x15, 0x51, 0xb3, 0xbd, 0x21, 0xea, 0xe0,
  0x4a, 0xfd, 0x98, 0xd5, 0x41, 0xba, 0xcd, 0x9f, 0xdf, 0xc2, 0xc2, 0xd5,
  0x01, 0xbd, 0x99, 0x41, 0xc6, 0xdd, 0x98, 0xca, 0xb8, 0xe5, 0xe1, 0xcb,
  0xab, 0xa7, 0x3e, 0x81, 0xf0, 0x0b, 0xff, 0xd6, 0x0e, 0x43, 0xe5, 0xdd,
  0x10, 0x07, 0xa3, 0xe1, 0x87, 0x42, 0x82, 0xfa, 0xf8, 0x2f, 0xa1, 0x8c,
  0xcb, 0x20, 0xb3, 0x2a, 0x91, 0x94, 0x75, 0x4a, 0xbf, 0xab, 0xd0, 0x92,
  0xb4, 0x21, 0xbb, 0xa6, 0x5c, 0xa9, 0xb8, 0xe7, 0x1f, 0x11, 0x81, 0xe8,
  0xf1, 0x02, 0xa3, 0xf0, 0x88, 0x46, 0x06, 0x61, 0xaf, 0x3d, 0x4c, 0xd5,
  0xd1, 0x66, 0xf5, 0x9e, 0xdd, 0x19, 0x4f, 0x15, 0xf4, 0x15, 0x95, 0x05,
  0x95, 0x23, 0x5a, 0xa9, 0x98, 0x19, 0xb8, 0x35, 0x91, 0x23, 0xef, 0xc3,
  0xa6, 0xa8, 0xc5, 0x90, 0x87, 0x22, 0x50, 0x28, 0x6e, 0x89, 0xc1, 0x33,
  0x26, 0x2d, 0xe2, 0xad, 0xd0, 0x33, 0x3a, 0xf7, 0xbd, 0xe6, 0xd5, 0x19,
  0x72, 0xbd, 0xea, 0xbf, 0x82, 0xc0, 0xa3, 0x5e, 0x54, 0x30, 0xfc, 0xfe,
  0xf2, 0xec, 0xe2, 0xc5, 0x30, 0x52, 0x6c, 0xd4, 0x42, 0x59, 0xcc, 0xa8,
  0x3c, 0x5a, 0x26, 0xb5, 0x00, 0x35, 0xfc, 0xb7, 0xa9, 0xaa, 0xb5, 0xdf,
  0x20, 0x35, 0x93, 0x81, 0xea, 0x66, 0xe5, 0xb4, 0x9e, 0xc4, 0x5f, 0x1c,
  0xc4, 0x54, 0x91, 0x5c, 0x40, 0x0a, 0x53, 0xa2, 0x46, 0x41, 0x58, 0x65,
  0x65, 0x27, 0x24, 0x13, 0x65, 0xe6, 0xb7, 0xac, 0xb9, 0x95, 0x5d, 0xd0,
  0x53, 0xc8, 0xbc, 0x24, 0xe0, 0xa7, 0xff, 0xff, 0xe4, 0xa7, 0xff, 0xff,
  0xe8, 0xa7, 0xff, 0xff, 0x3a, 0xe9, 0xff, 0xff, 0x04, 0x00, 0x00, 0x00,
  0x60, 0x00, 0x00, 0x00, 0x00, 0x00, 0x00, 0x00, 0x00, 0x00, 0x00, 0x00,
  0x00, 0x00, 0x00, 0x00, 0x00, 0x00, 0x00, 0x00, 0x00, 0x00, 0x00, 0x00,
  0x00, 0x00, 0x00, 0x00, 0x00, 0x00, 0x00, 0x00, 0x00, 0x00, 0x00, 0x00,
  0x00, 0x00, 0x00, 0x00, 0x00, 0x00, 0x00, 0x00, 0x00, 0x00, 0x00, 0x00,
  0x00, 0x00, 0x00, 0x00, 0x00, 0x00, 0x00, 0x00, 0x00, 0x00, 0x00, 0x00,
  0x00, 0x00, 0x00, 0x00, 0x00, 0x00, 0x00, 0x00, 0x00, 0x00, 0x00, 0x00,
  0x00, 0x00, 0x00, 0x00, 0x00, 0x00, 0x00, 0x00, 0x00, 0x00, 0x00, 0x00,
  0x00, 0x00, 0x00, 0x00, 0x00, 0x00, 0x00, 0x00, 0x00, 0x00, 0x00, 0x00,
  0x00, 0x00, 0x00, 0x00, 0xa6, 0xe9, 0xff, 0xff, 0x04, 0x00, 0x00, 0x00,
  0x18, 0x00, 0x00, 0x00, 0x80, 0x7f, 0xc1, 0x70, 0x82, 0x2e, 0xfe, 0xe1,
  0x2f, 0x0d, 0x16, 0xd7, 0x37, 0x21, 0x51, 0x09, 0xd6, 0x03, 0xec, 0x12,
  0x02, 0xa9, 0xfb, 0x35, 0xca, 0xe9, 0xff, 0xff, 0x04, 0x00, 0x00, 0x00,
  0xc0, 0x06, 0x00, 0x00, 0x1e, 0xf8, 0xc9, 0xb2, 0x81, 0x5d, 0xe8, 0x38,
  0x63, 0xe2, 0x19, 0xdd, 0x28, 0x02, 0xec, 0xeb, 0xba, 0xa8, 0x56, 0x9d,
  0xc1, 0x13, 0x51, 0xdc, 0x6e, 0x11, 0x05, 0x8d, 0xff, 0xcf, 0x0e, 0xf2,
  0xce, 0xd2, 0xf1, 0xae, 0x4b, 0xb7, 0x61, 0xbc, 0x49, 0xce, 0x59, 0x0e,
  0xa0, 0xa2, 0x6c, 0x05, 0x6e, 0x03, 0x17, 0xaf, 0xa7, 0xdb, 0x96, 0xa2,
  0x0f, 0xf0, 0xaf, 0xa9, 0x1b, 0x48, 0x9f, 0x29, 0xc6, 0xf9, 0xab, 0xfc,
  0xd6, 0x95, 0x49, 0xf4, 0xab, 0x95, 0x76, 0x7a, 0xb2, 0x59, 0xb2, 0x2e,
  0x16, 0x25, 0x23, 0x3d, 0xb2, 0xa9, 0xb9, 0x16, 0x52, 0xcd, 0x1e, 0x16,
  0xfa, 0xd8, 0x7f, 0xef, 0xe9, 0xf4, 0xf5, 0x20, 0xb9, 0x00, 0x00, 0x5c,
  0xdd, 0x5e, 0xae, 0x62, 0x65, 0x3f, 0x9a, 0xe5, 0x90, 0x2b, 0x07, 0xb2,
  0xe6, 0x8d, 0xc9, 0x63, 0x8b, 0x0d, 0x95, 0x97, 0x19, 0x1c, 0x19, 0x16,
  0x46, 0x0d, 0x9c, 0x1c, 0x97, 0x35, 0xf6, 0x12, 0x3f, 0xb7, 0xf4, 0x8b,
  0x9f, 0x99, 0xe8, 0xfa, 0x1e, 0xf5, 0x30, 0xf6, 0xd6, 0x37, 0x99, 0xc9,
  0x47, 0x3e, 0x22, 0x94, 0x85, 0x01, 0x04, 0x55, 0x69, 0x2b, 0x73, 0xeb,
  0xb5, 0xf5, 0x92, 0xff, 0x38, 0xba, 0x20, 0x9c, 0x7f, 0x47, 0x45, 0xbb,
  0xce, 0xde, 0x4b, 0x25, 0x09, 0x56, 0x08, 0x4d, 0x5d, 0x3d, 0xfe, 0xb0,
  0xf9, 0x06, 0xbf, 0x2b, 0x05, 0x4d, 0x46, 0x2d, 0x34, 0xbb, 0x9e, 0xde,
  0x8c, 0x5f, 0x54, 0xdb, 0x8c, 0xca, 0xda, 0xd5, 0x38, 0x90, 0x38, 0x40,
  0xf6, 0xcb, 0x38, 0x91, 0x5c, 0xda, 0xc3, 0xf8, 0xad, 0x34, 0x16, 0x09,
  0x9e, 0x90, 0x81, 0xf1, 0xe0, 0x0d, 0xd7, 0xb3, 0x42, 0x8d, 0xf3, 0xe8,
  0x14, 0x00, 0xa3, 0xad, 0x31, 0x8f, 0x45, 0x32, 0xbf, 0x33, 0x13, 0xa3,
  0x55, 0x87, 0x11, 0x50, 0x06, 0x10, 0x92, 0xee, 0xa5, 0x63, 0x51, 0xb6,
  0x47, 0xd5, 0xa9, 0xd6, 0xdc, 0xbd, 0x34, 0xbd, 0xb8, 0x33, 0xf6, 0xdf,
  0xf1, 0x54, 0xd5, 0x17, 0xc2, 0x3b, 0x3f, 0xf3, 0x88, 0x65, 0x4c, 0xb9,
  0xf8, 0x48, 0x02, 0xc9, 0x24, 0x9b, 0xf4, 0x1a, 0x2c, 0x01, 0xaf, 0x8d,
  0xe3, 0xb0, 0x26, 0x59, 0xc6, 0xab, 0x07, 0x27, 0x74, 0xb3, 0x2e, 0xfc,
  0x4e, 0xe1, 0x81, 0xd4, 0xd6, 0x1e, 0x48, 0xd1, 0xfb, 0x06, 0xed, 0xc8,
  0x47, 0x8a, 0x1f, 0x48, 0x36, 0xfe, 0x0e, 0x4a, 0xdf, 0xca, 0xb5, 0x8e,
  0x0f, 0xf1, 0xe7, 0x1e, 0xce, 0xc7, 0xe8, 0xcc, 0x3b, 0x28, 0x37, 0xe1,
  0xbb, 0x1e, 0x9b, 0xcf, 0x2e, 0xb0, 0x0b, 0xc6, 0x51, 0x4e, 0x91, 0x19,
  0x90, 0xfb, 0x0d, 0x54, 0x5a, 0x19, 0xf4, 0x12, 0x1b, 0x38, 0x10, 0x31,
  0xa3, 0x1a, 0xe4, 0x44, 0xcf, 0x02, 0xb4, 0xe3, 0xf2, 0xc8, 0xbd, 0xc1,
  0x9a, 0x60, 0xd6, 0x3e, 0x53, 0xd0, 0xaf, 0x41, 0x04, 0xb2, 0xff, 0x30,
  0x06, 0x04, 0x9c, 0x0c, 0xd2, 0x4f, 0xc7, 0xc4, 0x29, 0xed, 0xfa, 0x1d,
  0xb8, 0x30, 0x21, 0x56, 0xcd, 0x41, 0xb4, 0x02, 0x81, 0x91, 0x9f, 0xa6,
  0x59, 0x95, 0xfb, 0x11, 0x16, 0xd7, 0xd1, 0x9f, 0xd0, 0x56, 0xf2, 0xd7,
  0x10, 0xa5, 0x31, 0xff, 0xe2, 0x10, 0x8c, 0x52, 0x36, 0x93, 0xf1, 0x85,
  0xe5, 0xde, 0xa4, 0xc2, 0x05, 0x0a, 0xfc, 0x35, 0x36, 0xa4, 0x75, 0xb1,
  0x51, 0xba, 0xeb, 0xfb, 0x53, 0xee, 0x3f, 0x84, 0x9c, 0x84, 0x4d, 0xf7,
  0xe1, 0x1b, 0x27, 0x6f, 0xb5, 0xd1, 0xf2, 0xf9, 0x5d, 0xa0, 0x58, 0x52,
  0x3c, 0x4b, 0x5d, 0x53, 0x49, 0xb4, 0x5b, 0xd5, 0x16, 0x5d, 0x29, 0x04,
  0x29, 0x60, 0x12, 0xf0, 0x41, 0x9d, 0x8d, 0x60, 0x81, 0xfe, 0x20, 0x71,
  0x34, 0xe6, 0xe4, 0xc3, 0xf8, 0xb3, 0xc8, 0x49, 0xe3, 0xb7, 0xd7, 0xae,
  0xfb, 0xcf, 0xa1, 0x16, 0xc1, 0x24, 0xe0, 0x50, 0x08, 0xce, 0xbc, 0xa2,
  0x57, 0x41, 0x45, 0x50, 0x9e, 0x04, 0x49, 0x39, 0xf4, 0xdc, 0xc0, 0x3e,
  0xf7, 0xb2, 0xf9, 0x23, 0x23, 0xaa, 0xbc, 0xa4, 0xb2, 0xf2, 0x22, 0x60,
  0x07, 0xc1, 0xe5, 0x54, 0x81, 0xbe, 0x6e, 0x90, 0x2b, 0x2f, 0x33, 0xb5,
  0xd3, 0xeb, 0x1d, 0x1f, 0x20, 0xa3, 0xb0, 0xc0, 0xaf, 0xe5, 0xf0, 0x47,
  0x1f, 0xd9, 0x38, 0x46, 0xe3, 0x38, 0xfc, 0x2f, 0x2c, 0xc4, 0xb7, 0xef,
  0x1c, 0xbf, 0xdb, 0xc9, 0x09, 0x19, 0xf6, 0x00, 0x11, 0xe3, 0x2d, 0xdd,
  0x2b, 0x2e, 0xb8, 0x38, 0xf5, 0xdc, 0x2a, 0xbd, 0x81, 0xee, 0xb1, 0xf0,
  0x4b, 0x39, 0xf8, 0xf6, 0x10, 0x39, 0xa7, 0x15, 0x47, 0xd9, 0xdf, 0x20,
  0xd2, 0xbb, 0xd8, 0xcd, 0xd6, 0xf1, 0xd2, 0xbe, 0xf4, 0xf1, 0x04, 0x22,
  0xe3, 0xc1, 0xde, 0xc5, 0x24, 0xdd, 0xf4, 0x29, 0x02, 0x1c, 0xf4, 0x14,
  0xef, 0xd5, 0x34, 0xfe, 0x37, 0x1e, 0xca, 0x5d, 0x8e, 0x42, 0x38, 0xc9,
  0x37, 0x31, 0x26, 0x16, 0xb3, 0xa5, 0x48, 0x4e, 0xc1, 0xb3, 0x53, 0xb8,
  0x13, 0xf6, 0x47, 0x5e, 0x33, 0x0a, 0xbd, 0xfa, 0x17, 0x81, 0x5d, 0xa3,
  0xa2, 0xb7, 0x00, 0x30, 0x47, 0x08, 0x36, 0x9c, 0x1d, 0x96, 0xec, 0xec,
  0xd6, 0x29, 0x3e, 0x29, 0xf9, 0x9e, 0x1c, 0xaf, 0xed, 0xa3, 0xb3, 0xdc,
  0xd3, 0x2a, 0x04, 0xf6, 0xd6, 0xc0, 0x9a, 0xf3, 0xd4, 0x1e, 0x13, 0x17,
  0x15, 0x12, 0x07, 0xbc, 0x41, 0x18, 0x08, 0x32, 0x79, 0xba, 0xe9, 0xcf,
  0xae, 0xe6, 0x89, 0x46, 0xf1, 0xe0, 0x35, 0x23, 0x2a, 0x98, 0x1e, 0xfb,
  0xaf, 0x31, 0x08, 0x20, 0xb6, 0x84, 0xe1, 0xa3, 0x81, 0x9c, 0xd8, 0xc1,
  0x07, 0x44, 0xf2, 0x26, 0xd0, 0x1f, 0xed, 0xf9, 0xf6, 0xd1, 0xf1, 0x08,
  0xec, 0x09, 0x1f, 0xd5, 0xeb, 0x9c, 0xba, 0x15, 0xed, 0xa3, 0xb6, 0x45,
  0xb8, 0xd5, 0xbd, 0xb2, 0xe1, 0x04, 0xc7, 0xd5, 0xa9, 0xf8, 0xb8, 0xc4,
  0x49, 0x0e, 0xa8, 0x02, 0xc8, 0x9e, 0x01, 0xb0, 0x0c, 0x76, 0xd2, 0x31,
  0xf5, 0xa0, 0x2b, 0xf5, 0x3a, 0x21, 0xc6, 0xb1, 0xe6, 0x6c, 0x05, 0x34,
  0x46, 0xa0, 0x83, 0x81, 0x04, 0x36, 0x1f, 0x3b, 0xab, 0x23, 0xe3, 0xcd,
  0x58, 0xd9, 0xb1, 0x2a, 0x68, 0x88, 0x04, 0x94, 0xba, 0x75, 0x31, 0x69,
  0xce, 0xef, 0x90, 0x67, 0x5c, 0x8e, 0x65, 0xcc, 0xa1, 0x5c, 0xc4, 0xd7,
  0xb6, 0xac, 0x22, 0x3a, 0xb0, 0x91, 0xf4, 0xd9, 0x61, 0x01, 0x17, 0xab,
  0x0d, 0xf0, 0x25, 0xea, 0x19, 0x2c, 0x39, 0x38, 0x39, 0xff, 0xb7, 0x3e,
  0xdc, 0x04, 0xe0, 0x4e, 0x99, 0x16, 0x22, 0xaf, 0x51, 0x9a, 0x37, 0xc8,
  0xc9, 0xd0, 0x7f, 0x3e, 0xe1, 0x31, 0xf7, 0xfd, 0x5c, 0xbc, 0x9e, 0xe9,
  0xb7, 0xd2, 0x3a, 0xcc, 0x43, 0x95, 0x95, 0xd1, 0x9d, 0x47, 0x2a, 0x48,
  0xc7, 0xf3, 0xb1, 0xa2, 0x4b, 0xd0, 0xca, 0xec, 0x2b, 0x4d, 0xb1, 0x3f,
  0xfd, 0x1c, 0xb8, 0xc6, 0xc1, 0xd9, 0xe9, 0x5c, 0x8c, 0x46, 0x0a, 0x04,
  0x24, 0xf8, 0x05, 0xd1, 0xc0, 0x07, 0xe7, 0xe5, 0xbd, 0x0f, 0x04, 0x09,
  0x0a, 0x3b, 0xd7, 0xdb, 0xdd, 0xc5, 0x00, 0xfd, 0x19, 0xea, 0x4c, 0x3f,
  0x2b, 0xee, 0xc1, 0xdb, 0x1a, 0xdb, 0x1d, 0xdd, 0x94, 0xef, 0xe1, 0xde,
  0xcc, 0x28, 0x2b, 0xf7, 0x1e, 0x30, 0xfe, 0xde, 0x37, 0x1d, 0x38, 0x2a,
  0x20, 0xcd, 0xde, 0x32, 0xb9, 0x1c, 0x29, 0xf1, 0xb5, 0x4a, 0x24, 0x43,
  0x23, 0x54, 0x40, 0x25, 0xd1, 0x30, 0x00, 0x30, 0x28, 0xd9, 0x10, 0x20,
  0xf2, 0x7f, 0xf3, 0xe5, 0xad, 0x9f, 0xee, 0x18, 0x25, 0xc6, 0x07, 0xd9,
  0x2f, 0xc0, 0xd9, 0xfa, 0xf6, 0x3e, 0xcd, 0x03, 0xe9, 0xe9, 0xcc, 0xec,
  0x0f, 0xc3, 0x08, 0x42, 0x30, 0x32, 0x28, 0xa0, 0xc2, 0xb8, 0xaf, 0xb8,
  0x17, 0xfb, 0x9f, 0x15, 0xc4, 0xef, 0x0f, 0x1c, 0x05, 0x0b, 0xf4, 0xde,
  0xb2, 0xe5, 0xc2, 0xc4, 0x17, 0xdf, 0x36, 0xd6, 0xde, 0xf5, 0x28, 0xe3,
  0xea, 0x12, 0x81, 0x24, 0x26, 0xd4, 0x40, 0xfe, 0x1e, 0xf8, 0xf4, 0x17,
  0xb5, 0xc3, 0xb0, 0x19, 0xf9, 0xfd, 0x29, 0x0a, 0x7f, 0xc2, 0x04, 0xe4,
  0xe3, 0x15, 0xde, 0xc1, 0x2d, 0x0e, 0x3c, 0xe5, 0x0d, 0xc9, 0x16, 0xc3,
  0x01, 0x1d, 0xdb, 0xf8, 0x0b, 0xdd, 0xd0, 0xee, 0xd3, 0x22, 0xee, 0x29,
  0x3b, 0x29, 0xd8, 0x0b, 0x1c, 0x10, 0xfc, 0x08, 0xc5, 0xf4, 0x32, 0x24,
  0xef, 0x34, 0xd9, 0xdd, 0x31, 0xc0, 0x48, 0x48, 0xdb, 0xe2, 0x46, 0x38,
  0xe2, 0x01, 0x02, 0x0f, 0xe2, 0xe8, 0x2b, 0x13, 0xca, 0xef, 0x39, 0xe9,
  0xe3, 0xd6, 0x3c, 0x15, 0xd3, 0xfb, 0xdf, 0xa8, 0xb7, 0xd4, 0xb1, 0xbe,
  0xa2, 0x52, 0xef, 0x96, 0x53, 0x31, 0xcf, 0x1b, 0xe1, 0xcd, 0x16, 0x52,
  0xd9, 0x8b, 0x5d, 0x40, 0x5b, 0x2d, 0x0b, 0xcc, 0xcb, 0x4b, 0xfd, 0xa8,
  0xf8, 0xc1, 0xa7, 0x32, 0xc6, 0xba, 0x24, 0x3e, 0xfc, 0xa6, 0x14, 0x16,
  0xc3, 0xec, 0x49, 0xde, 0xc5, 0x8a, 0x0b, 0x2b, 0xe6, 0x61, 0x2c, 0x81,
  0xc2, 0xfb, 0xe0, 0x2b, 0x9f, 0x8e, 0xe4, 0x1d, 0x0f, 0x1f, 0xde, 0x61,
  0x42, 0xc8, 0x8d, 0x69, 0xc0, 0xeb, 0x06, 0xf2, 0xfc, 0xba, 0xfb, 0xf9,
  0x28, 0xb4, 0xc5, 0xdd, 0x42, 0xcf, 0x0e, 0xbf, 0xc6, 0xcc, 0x1f, 0x07,
  0xe4, 0xd3, 0xdc, 0x0a, 0xd1, 0x24, 0xea, 0xa5, 0x2a, 0xbf, 0xb9, 0x48,
  0x43, 0x3e, 0x13, 0x08, 0x2f, 0xe5, 0x29, 0x25, 0x20, 0x29, 0x36, 0xbe,
  0x1a, 0x26, 0xaa, 0x13, 0x12, 0xe6, 0xf0, 0xf7, 0x7f, 0xf7, 0x49, 0x44,
  0xcb, 0x00, 0xab, 0xdf, 0x33, 0xe8, 0xf5, 0xcb, 0x2f, 0xcb, 0xe1, 0xce,
  0xe0, 0xfe, 0x30, 0xee, 0xf8, 0xe1, 0x35, 0x4e, 0x44, 0xf5, 0xbd, 0xb7,
  0x48, 0xa3, 0x37, 0x18, 0xc4, 0x38, 0xdb, 0x40, 0xb3, 0xe5, 0xf9, 0x17,
  0x0a, 0xb8, 0xf2, 0x2c, 0x11, 0xe4, 0xc3, 0x10, 0xf0, 0xda, 0xab, 0xb1,
  0x1c, 0x29, 0xac, 0xf8, 0xed, 0xfb, 0x19, 0xb7, 0x2a, 0xee, 0x34, 0x0f,
  0x04, 0xfd, 0xd7, 0xdb, 0x28, 0x0e, 0x4a, 0x0b, 0xdc, 0xbf, 0xdc, 0x15,
  0xc4, 0x81, 0xc9, 0x32, 0x37, 0x11, 0xcd, 0x46, 0xd1, 0xc8, 0x26, 0xd8,
  0x9f, 0xc4, 0x47, 0xb3, 0xec, 0xd3, 0x40, 0x4a, 0x8a, 0xf9, 0x37, 0x88,
  0x0d, 0x44, 0xf0, 0x09, 0x16, 0xad, 0xf4, 0x5b, 0xb5, 0x47, 0x09, 0x49,
  0x1c, 0x36, 0xa5, 0x12, 0xad, 0xf9, 0x9e, 0xb9, 0x05, 0x1f, 0x19, 0x5c,
  0xb9, 0x8f, 0xfa, 0xac, 0xf2, 0xc2, 0xb3, 0x37, 0x33, 0x14, 0x4e, 0x2a,
  0xac, 0x34, 0x43, 0xc0, 0x33, 0x89, 0xac, 0x2f, 0xd5, 0xc2, 0x53, 0x99,
  0xe3, 0xbb, 0x43, 0x69, 0x32, 0x13, 0x27, 0x63, 0x4f, 0xef, 0x2d, 0x6d,
  0xf8, 0x81, 0xb8, 0xe3, 0xc6, 0x9f, 0xde, 0x2d, 0x15, 0xe2, 0xc1, 0xfe,
  0xf1, 0x35, 0xcc, 0xe0, 0xae, 0xfe, 0x03, 0x0c, 0x5e, 0x5a, 0x0e, 0xca,
  0xbd, 0x1c, 0x57, 0xad, 0x59, 0xc8, 0xb6, 0x2e, 0x81, 0x52, 0xa4, 0xed,
  0x50, 0x31, 0xbb, 0xf4, 0x01, 0x4e, 0xcb, 0x4b, 0xc1, 0x4b, 0x6a, 0xed,
  0x32, 0x18, 0x59, 0xbe, 0x1b, 0xef, 0xe4, 0x0b, 0x3c, 0xff, 0x9a, 0x38,
  0xec, 0x8c, 0x0a, 0x2b, 0x99, 0xae, 0xf3, 0x0f, 0x9b, 0xbf, 0x55, 0xe3,
  0x36, 0xeb, 0x26, 0xca, 0x9a, 0xf3, 0x7f, 0xf4, 0xf4, 0xa2, 0x1d, 0xa9,
  0xc9, 0x40, 0xef, 0xee, 0xb9, 0x0c, 0x1e, 0xb0, 0x1c, 0xc9, 0xba, 0xd3,
  0x35, 0x90, 0x0c, 0x73, 0x53, 0x08, 0x3a, 0x69, 0xdf, 0xf1, 0x61, 0x1b,
  0x26, 0xa8, 0x2a, 0x8c, 0xb9, 0x17, 0x2f, 0x57, 0x79, 0xbc, 0x02, 0x86,
  0x05, 0x0c, 0x34, 0x24, 0x0e, 0xc4, 0xf1, 0xe3, 0xeb, 0xf2, 0x66, 0xa5,
  0x25, 0x3d, 0xf0, 0x42, 0xfd, 0x21, 0x01, 0xe9, 0x7b, 0xcd, 0x0b, 0x92,
  0xd1, 0xf6, 0xa8, 0x00, 0x17, 0xf9, 0x16, 0x16, 0x60, 0x66, 0xc8, 0xc9,
  0x8a, 0xbd, 0x57, 0x0a, 0x00, 0x17, 0x41, 0x27, 0xc5, 0xfe, 0xb2, 0xb9,
  0xa2, 0x32, 0x4d, 0x2b, 0xf7, 0xf5, 0x58, 0x55, 0x7b, 0xeb, 0x52, 0xe3,
  0x24, 0x9e, 0xd6, 0xef, 0xa9, 0x06, 0xb3, 0x30, 0x51, 0xfe, 0x50, 0x95,
  0xc4, 0x70, 0xa0, 0x6c, 0x4f, 0x26, 0xb9, 0xcf, 0xd1, 0xf0, 0xd7, 0x73,
  0xe2, 0x02, 0xc3, 0xe8, 0x2d, 0xf8, 0x4d, 0x67, 0x7f, 0x0d, 0xfe, 0x20,
  0x1a, 0x20, 0x96, 0x02, 0x23, 0x11, 0xb8, 0xc7, 0x44, 0xd8, 0x0e, 0x21,
  0xe2, 0x3b, 0xd9, 0xdc, 0xf8, 0xd7, 0x28, 0xdf, 0xfc, 0xf4, 0xfb, 0x1f,
  0x3e, 0xa5, 0xb3, 0x44, 0xbe, 0xcf, 0x13, 0x02, 0x0c, 0x3a, 0x24, 0xb8,
  0xc1, 0x0d, 0xcd, 0x03, 0x21, 0xb2, 0xf8, 0xcd, 0x3e, 0xbb, 0xeb, 0x2b,
  0x12, 0xcf, 0x1c, 0x15, 0x0c, 0x2a, 0xe0, 0xf0, 0x7f, 0x35, 0xdf, 0x14,
  0x33, 0x24, 0x14, 0xc3, 0xbf, 0x2b, 0x04, 0xf8, 0x1a, 0xd5, 0xfa, 0xe2,
  0xf2, 0x41, 0x37, 0xde, 0x96, 0xf0, 0xff, 0xff, 0x04, 0x00, 0x00, 0x00,
  0x18, 0x00, 0x00, 0x00, 0xe6, 0xf5, 0xd0, 0x33, 0xd0, 0xb9, 0x67, 0xcd,
  0x80, 0xe6, 0xba, 0x28, 0xb9, 0xc4, 0xdf, 0x3b, 0x16, 0x72, 0xa0, 0x7f,
  0xdc, 0xea, 0xe2, 0x99, 0xba, 0xf0, 0xff, 0xff, 0x04, 0x00, 0x00, 0x00,
  0xc0, 0x06, 0x00, 0x00, 0x39, 0xcc, 0x91, 0x0a, 0x58, 0xb0, 0xfc, 0xee,
  0x49, 0x56, 0xcc, 0x54, 0x62, 0x0b, 0xde, 0x87, 0x0a, 0x81, 0xcc, 0x71,
  0xcb, 0xb2, 0x47, 0x0e, 0x12, 0x37, 0x8f, 0x29, 0x58, 0x21, 0x1a, 0x32,
  0xd5, 0xdb, 0xe2, 0xe9, 0xae, 0xc9, 0xb7, 0xda, 0x14, 0xc2, 0x01, 0xb2,
  0x1a, 0x0f, 0x6f, 0xe9, 0xd9, 0xc5, 0x2e, 0x8d, 0x41, 0xc2, 0xaa, 0xef,
  0x03, 0x03, 0x2a, 0xd7, 0x8f, 0x50, 0x68, 0xe4, 0x65, 0xa0, 0x32, 0xe3,
  0xfb, 0x1c, 0xc0, 0x9b, 0x83, 0xce, 0xb7, 0x6d, 0x14, 0x46, 0x57, 0x19,
  0xd6, 0xdd, 0xe2, 0x6b, 0x85, 0x50, 0xa7, 0x84, 0x0c, 0xc7, 0xe2, 0x6e,
  0xc4, 0x09, 0xee, 0xcc, 0xa1, 0xe7, 0xe5, 0xf6, 0x64, 0x05, 0x0a, 0xc0,
  0xdf, 0x5d, 0xd6, 0xb9, 0xc4, 0x9f, 0x6a, 0x6b, 0x4e, 0x91, 0x9d, 0xa6,
  0x2a, 0x3c, 0x50, 0xc9, 0xbe, 0x9b, 0xb5, 0xa3, 0x41, 0x60, 0xd8, 0xc7,
  0xcf, 0x23, 0x3e, 0x14, 0x70, 0x6e, 0x1d, 0x55, 0x81, 0xb7, 0x16, 0x96,
  0x3a, 0xe5, 0x36, 0xfa, 0x64, 0x17, 0x2e, 0x34, 0x71, 0x01, 0xab, 0x30,
  0xc7, 0x4b, 0x4a, 0xd0, 0x5e, 0x92, 0x8d, 0x29, 0xc8, 0xa3, 0xb7, 0x47,
  0x7d, 0xd4, 0x6b, 0x58, 0xf7, 0x3a, 0xe3, 0xaf, 0x1a, 0x03, 0x3d, 0x4e,
  0xe8, 0xc8, 0x6c, 0x99, 0x05, 0xd7, 0x78, 0x2e, 0x51, 0xff, 0xb5, 0x03,
  0x72, 0xe2, 0xb1, 0x5d, 0x3b, 0x2c, 0x52, 0xb6, 0xdc, 0x10, 0xea, 0x30,
  0x6a, 0x2a, 0x00, 0x9c, 0x69, 0x5e, 0x7f, 0xf8, 0x32, 0x69, 0xa8, 0x9e,
  0x50, 0xa9, 0x0c, 0x88, 0x0d, 0xc8, 0x22, 0x49, 0x55, 0xbd, 0x28, 0x23,
  0xa7, 0xae, 0x9c, 0xaa, 0x21, 0x17, 0xeb, 0xe2, 0xd4, 0xfc, 0xc4, 0x38,
  0xf2, 0xcc, 0x51, 0xeb, 0x16, 0xd7, 0x8a, 0xeb, 0x5c, 0xc1, 0x81, 0x60,
  0xcd, 0xbf, 0xf5, 0xa9, 0x98, 0xc8, 0x3a, 0x83, 0x22, 0x1a, 0x7b, 0xce,
  0x69, 0x45, 0xf2, 0xa7, 0x42, 0x4a, 0xce, 0xee, 0x29, 0x3d, 0xb7, 0x5a,
  0xee, 0x09, 0x89, 0x06, 0x2c, 0xca, 0xbf, 0x3c, 0xef, 0x19, 0xcf, 0xe4,
  0x3d, 0xbd, 0xea, 0x93, 0xbd, 0x07, 0x26, 0x26, 0x0f, 0x23, 0x33, 0x2d,
  0xd7, 0xb8, 0x2d, 0xfc, 0xe9, 0xdb, 0xac, 0xe1, 0xad, 0xa4, 0xf0, 0x9f,
  0x1a, 0xc0, 0xa6, 0x48, 0xf4, 0x01, 0x11, 0xe4, 0xde, 0xa3, 0x09, 0x8e,
  0x21, 0x32, 0x39, 0xda, 0x4f, 0x07, 0x38, 0xf9, 0xb3, 0x3e, 0x39, 0xe4,
  0xcd, 0x39, 0xa5, 0xc3, 0x44, 0xa5, 0xf2, 0xe1, 0x64, 0x3b, 0x4c, 0x03,
  0x81, 0x99, 0x09, 0xe6, 0xce, 0x03, 0x7a, 0x44, 0xbd, 0x92, 0x58, 0x0f,
  0x06, 0x89, 0x22, 0xe9, 0x5b, 0xa7, 0xd5, 0x97, 0xd7, 0xa6, 0x28, 0x23,
  0x0c, 0x10, 0xe4, 0x17, 0xeb, 0xde, 0x3f, 0x04, 0xc5, 0xec, 0xd3, 0xc6,
  0x0c, 0x01, 0xc9, 0x2b, 0x07, 0x2b, 0xe4, 0xa9, 0xc9, 0x16, 0xd2, 0x0a,
  0x21, 0xff, 0x88, 0xb5, 0x38, 0x20, 0x09, 0x81, 0x01, 0xd8, 0xc3, 0x64,
  0x5c, 0xb4, 0xec, 0x00, 0xb7, 0x0c, 0x02, 0x00, 0x5d, 0x09, 0x48, 0x17,
  0xa8, 0x26, 0xb8, 0x43, 0x4e, 0xbf, 0xf6, 0x52, 0xcf, 0xaf, 0x53, 0xa7,
  0xf8, 0xa4, 0xbc, 0xed, 0x42, 0x49, 0x14, 0xc0, 0x73, 0xd8, 0x94, 0x46,
  0x52, 0x60, 0xb7, 0x81, 0xb1, 0x25, 0x42, 0x3f, 0x96, 0x36, 0xeb, 0x49,
  0x48, 0xab, 0xeb, 0xca, 0xb8, 0xfd, 0x4e, 0x01, 0xc1, 0x22, 0x2c, 0x3a,
  0xee, 0x8a, 0x84, 0x25, 0x0d, 0x10, 0xac, 0xea, 0x30, 0xff, 0x76, 0x9f,
  0xdb, 0xcf, 0x32, 0xf0, 0xbd, 0x02, 0x2f, 0xd7, 0xb2, 0x0e, 0x50, 0x82,
  0x31, 0xe3, 0x54, 0xef, 0x55, 0xd8, 0x29, 0xcf, 0xcc, 0x1c, 0xf4, 0xc9,
  0xe4, 0xd9, 0xad, 0xd1, 0x33, 0xd5, 0x90, 0x4c, 0xaf, 0xc9, 0x9d, 0x55,
  0x3e, 0x8d, 0xb3, 0xa5, 0x93, 0x02, 0x78, 0x4f, 0x34, 0x19, 0x68, 0xeb,
  0x0e, 0x06, 0xd2, 0x40, 0x42, 0x13, 0x30, 0xcd, 0xe2, 0x3f, 0xa2, 0x0e,
  0x32, 0x31, 0x09, 0x4f, 0x2b, 0xca, 0xb3, 0xe9, 0x4d, 0xec, 0xde, 0xe6,
  0x5c, 0xd3, 0x3b, 0x29, 0xa2, 0x3a, 0x51, 0x81, 0xf9, 0x9e, 0xb9, 0xa8,
  0x31, 0xea, 0x86, 0x14, 0x0d, 0xa7, 0x5d, 0x9f, 0xfb, 0x92, 0xde, 0xe8,
  0x54, 0x6c, 0x30, 0xd8, 0xdf, 0xd8, 0xf9, 0xb5, 0x1c, 0x39, 0xf2, 0x4d,
  0xa7, 0x57, 0x05, 0x0f, 0x1a, 0xe6, 0x09, 0x28, 0x01, 0xab, 0x22, 0xc2,
  0x25, 0x72, 0xe0, 0x26, 0x2b, 0xca, 0xe1, 0xe0, 0x00, 0xd6, 0x91, 0xfc,
  0xd6, 0xaf, 0xcf, 0xdb, 0x12, 0xb4, 0xf0, 0x25, 0x41, 0x32, 0x44, 0x08,
  0xea, 0xc8, 0x5e, 0x54, 0x10, 0xf4, 0xe5, 0x54, 0x7f, 0xff, 0xd5, 0x3e,
  0xfc, 0x1a, 0xfc, 0x95, 0x50, 0x17, 0x4e, 0xe7, 0x94, 0xd8, 0xff, 0xcc,
  0xea, 0xba, 0xd7, 0x06, 0xa4, 0x6b, 0xbf, 0xfe, 0xfa, 0x34, 0xe4, 0xfc,
  0x52, 0xd0, 0xfd, 0xdb, 0xc2, 0x9f, 0xc6, 0xee, 0x1b, 0xb4, 0xc6, 0xd5,
  0xa0, 0xc8, 0x32, 0xed, 0x15, 0x00, 0xe4, 0xda, 0xda, 0x23, 0x30, 0xbb,
  0x48, 0xaf, 0xd7, 0x08, 0x05, 0xd1, 0xfd, 0x4b, 0xab, 0xe3, 0xe0, 0xf3,
  0x5a, 0xed, 0xb5, 0xc6, 0xa5, 0x5c, 0x35, 0x29, 0xde, 0x25, 0xe2, 0x0d,
  0xc6, 0xf9, 0x32, 0xa1, 0x49, 0x03, 0x30, 0xe7, 0x00, 0xb4, 0x12, 0x1f,
  0xdd, 0xec, 0x81, 0x2e, 0x2c, 0x12, 0xe8, 0xfa, 0x62, 0x44, 0x45, 0xc1,
  0x6e, 0xa1, 0xfe, 0xcb, 0xc5, 0xb5, 0x1f, 0x17, 0xd1, 0xe8, 0xa4, 0x68,
  0x9e, 0xe4, 0x19, 0x0a, 0x1d, 0x2a, 0x5c, 0xb5, 0xe9, 0xbf, 0x85, 0x09,
  0x69, 0x2d, 0xc9, 0x3c, 0xea, 0x34, 0x9c, 0x5d, 0x6d, 0x9c, 0x39, 0xe2,
  0x0e, 0x0c, 0x01, 0xa0, 0xdb, 0x7f, 0x8b, 0x2e, 0x26, 0xcb, 0x6e, 0x63,
  0xaa, 0x33, 0x61, 0x09, 0xc3, 0x39, 0xea, 0x44, 0xb6, 0x10, 0x55, 0xa9,
  0x4e, 0x4a, 0x08, 0x10, 0x3c, 0x45, 0xe9, 0x39, 0x54, 0xec, 0x1c, 0x4f,
  0x2d, 0xc5, 0x05, 0xfd, 0x23, 0x36, 0xd5, 0x2f, 0xd0, 0xc5, 0xd0, 0x32,
  0x36, 0xf9, 0xd6, 0xe9, 0x28, 0x13, 0x3e, 0xdc, 0x61, 0x2f, 0x0c, 0xe3,
  0xd5, 0xc8, 0xc6, 0x2a, 0x38, 0x34, 0xde, 0xcf, 0x44, 0x13, 0xd5, 0xc3,
  0xc2, 0x23, 0xca, 0x39, 0x0d, 0x7f, 0x04, 0xdd, 0x16, 0xd6, 0xf0, 0x26,
  0xe9, 0x19, 0xe3, 0xf7, 0xd8, 0xc5, 0x46, 0xff, 0x42, 0x15, 0x55, 0x43,
  0x2e, 0xdd, 0xf1, 0xe6, 0x38, 0x5c, 0x00, 0xd7, 0x43, 0x88, 0x47, 0x11,
  0x8e, 0x3f, 0xa6, 0x8e, 0xf4, 0xd2, 0x60, 0x22, 0xd3, 0x09, 0xd2, 0x1b,
  0x42, 0x41, 0x22, 0x2e, 0x35, 0x30, 0x08, 0xa4, 0x0b, 0x81, 0x9f, 0x00,
  0x3e, 0x53, 0xfc, 0x58, 0xf2, 0x38, 0xea, 0xa7, 0xc8, 0xbb, 0x38, 0x1f,
  0x6e, 0x48, 0xc3, 0xfd, 0x8f, 0xaa, 0x5d, 0x07, 0x27, 0x4b, 0x3c, 0xbf,
  0x00, 0xbd, 0xdb, 0xf6, 0x07, 0x50, 0xeb, 0xa2, 0x98, 0x27, 0x1b, 0x4c,
  0xde, 0xeb, 0xb8, 0x5f, 0x31, 0xa0, 0x40, 0xbb, 0xce, 0xf4, 0xf1, 0x40,
  0xab, 0x66, 0x30, 0x96, 0xe2, 0x49, 0xc4, 0x25, 0x10, 0xab, 0xeb, 0xbb,
  0x29, 0x28, 0x03, 0x48, 0xe6, 0x81, 0xb9, 0x3b, 0x39, 0x44, 0x08, 0x47,
  0xfa, 0xc5, 0x30, 0x5e, 0x32, 0x47, 0xb0, 0xb0, 0x20, 0xe8, 0xe7, 0xeb,
  0x4d, 0x05, 0x4c, 0x05, 0x9e, 0xef, 0x43, 0x12, 0x02, 0x9e, 0xf2, 0xdd,
  0x33, 0x47, 0xf4, 0x03, 0xfb, 0x75, 0x6f, 0xe2, 0x9d, 0x04, 0xaf, 0x20,
  0xc8, 0xed, 0xcc, 0xdd, 0x99, 0x09, 0xe8, 0x92, 0x11, 0x4a, 0xf2, 0xe6,
  0xc8, 0x4a, 0x53, 0xf3, 0xa6, 0x25, 0x04, 0x3f, 0xad, 0xeb, 0x26, 0x1b,
  0x13, 0x03, 0x1c, 0xaa, 0xf1, 0xe5, 0xab, 0x34, 0x0d, 0xa3, 0x41, 0xed,
  0xdb, 0x23, 0x38, 0x08, 0x18, 0x17, 0x02, 0xd5, 0x3b, 0xfc, 0x38, 0x0e,
  0xcc, 0x1c, 0x1b, 0x9d, 0x41, 0xe1, 0xf2, 0x9a, 0x3c, 0x01, 0x5d, 0xd4,
  0xa5, 0xcf, 0x49, 0xa9, 0xb2, 0xdc, 0xc3, 0xee, 0x3e, 0x30, 0x4d, 0xb4,
  0xdf, 0x7f, 0x3d, 0x42, 0x50, 0x77, 0x2d, 0x62, 0x6a, 0x5e, 0xe7, 0xe1,
  0x62, 0xf5, 0xf7, 0xa5, 0x37, 0x0e, 0x15, 0xf0, 0xa2, 0xc4, 0x40, 0x16,
  0x3b, 0x30, 0x9e, 0x9c, 0xa9, 0x67, 0x03, 0x01, 0x27, 0x14, 0xea, 0x2f,
  0xce, 0xb0, 0x4c, 0x2c, 0x0b, 0x3c, 0x33, 0xf8, 0xa9, 0xe5, 0x28, 0xec,
  0x51, 0x81, 0xa3, 0xbd, 0x4e, 0xd6, 0x18, 0x0c, 0xf6, 0xce, 0xa9, 0xdf,
  0x3b, 0xf5, 0x66, 0x1c, 0x7d, 0x1f, 0xb7, 0xf3, 0xe7, 0x03, 0x28, 0xc5,
  0x0b, 0x0a, 0x46, 0x56, 0xac, 0x10, 0xd8, 0x94, 0x47, 0x52, 0x49, 0xaf,
  0x05, 0x1c, 0x81, 0xf6, 0xa3, 0x00, 0xc8, 0xc5, 0xc1, 0xcf, 0x7c, 0x29,
  0xf1, 0x11, 0xff, 0x86, 0xc2, 0xc0, 0xbb, 0xa7, 0x4c, 0xd2, 0xf4, 0xe0,
  0x4d, 0xbf, 0x42, 0x97, 0x02, 0xe4, 0x18, 0x61, 0xe3, 0x39, 0x4c, 0x3f,
  0x4a, 0xbe, 0xe1, 0xbd, 0x4f, 0x5d, 0x86, 0x34, 0xb6, 0x21, 0x85, 0x6c,
  0xc1, 0x2f, 0xab, 0x9b, 0xa6, 0xde, 0xdf, 0x6a, 0xbd, 0x49, 0xd6, 0xf8,
  0x77, 0x4e, 0xc0, 0x13, 0x50, 0xcf, 0xaf, 0x3a, 0x5f, 0x18, 0xbe, 0xbc,
  0xb3, 0x10, 0x45, 0x4a, 0xe4, 0xbc, 0xac, 0xa9, 0x5b, 0xd2, 0x3d, 0xcd,
  0x46, 0x9f, 0xa8, 0xeb, 0xd0, 0x67, 0x2f, 0xcc, 0x6a, 0x2e, 0xc9, 0xc3,
  0x05, 0xb1, 0x3c, 0x2c, 0x4f, 0x53, 0x01, 0xb5, 0xc9, 0x02, 0xf2, 0x32,
  0x50, 0xf8, 0xd7, 0xcb, 0xac, 0x7f, 0x5c, 0xc6, 0x10, 0x60, 0x1d, 0x4a,
  0xd7, 0x39, 0x41, 0xb6, 0xf7, 0x51, 0x13, 0x12, 0x21, 0x58, 0x1e, 0x02,
  0x49, 0xa6, 0x32, 0x4d, 0xd4, 0x4c, 0xb2, 0xed, 0xb8, 0x03, 0x9c, 0xb9,
  0xcb, 0x0d, 0xd4, 0x06, 0x49, 0xc4, 0x3c, 0x38, 0xa9, 0x1f, 0x50, 0xf8,
  0xb2, 0xef, 0xf4, 0x28, 0x0d, 0x7f, 0x21, 0xe8, 0x99, 0x43, 0xcf, 0x42,
  0xfc, 0xf0, 0x25, 0xd5, 0x0b, 0x34, 0xbd, 0xc5, 0x04, 0xca, 0xfb, 0x2c,
  0xf6, 0x12, 0xfa, 0x08, 0xe3, 0xb7, 0xf7, 0xe0, 0x16, 0x02, 0xbd, 0x9c,
  0x13, 0xe9, 0x08, 0x08, 0x18, 0x28, 0x20, 0xdb, 0xe9, 0xb3, 0xaf, 0x31,
  0xba, 0xfd, 0xb3, 0xab, 0x0a, 0xf4, 0x90, 0x97, 0x4a, 0x9c, 0x45, 0xf6,
  0x98, 0xb4, 0x3b, 0xeb, 0x25, 0xce, 0x5b, 0xa5, 0x2a, 0x89, 0xdc, 0xba,
  0xd8, 0xca, 0x08, 0x3b, 0xf2, 0x0e, 0x0a, 0xcb, 0x5e, 0xbd, 0x9c, 0x4f,
  0xf9, 0x0f, 0x14, 0x0c, 0xbe, 0x10, 0x0e, 0x0e, 0x11, 0x83, 0x7b, 0xb4,
  0xb4, 0x73, 0xad, 0xf8, 0x40, 0x62, 0x81, 0x33, 0xa6, 0xa7, 0x90, 0x4b,
  0x4c, 0xa6, 0x02, 0x5a, 0x31, 0x3f, 0xc0, 0xb8, 0xcf, 0x33, 0x13, 0xce,
  0xd6, 0x21, 0x59, 0x02, 0x5d, 0xa5, 0xd6, 0xeb, 0x32, 0xcb, 0xae, 0xe4,
  0x03, 0x39, 0xa9, 0xf2, 0x44, 0xe9, 0xe7, 0x8e, 0xa8, 0xae, 0x54, 0xd4,
  0xc6, 0xaa, 0x8f, 0xf7, 0x09, 0xa8, 0x36, 0xb4, 0x2f, 0x0b, 0xc4, 0xa8,
  0xf7, 0xa8, 0xd8, 0x3a, 0xe9, 0xe1, 0x7f, 0xae, 0xa6, 0xa0, 0xf2, 0x1a,
  0x24, 0xfd, 0xde, 0xe9, 0x5f, 0xc7, 0x4d, 0x1f, 0xce, 0xc6, 0x6a, 0xe6,
  0x90, 0xa5, 0x1f, 0x09, 0xbe, 0xd3, 0x0f, 0xb4, 0x26, 0x9f, 0xd7, 0xe1,
  0x35, 0x1d, 0x11, 0x4c, 0x89, 0xdc, 0xc5, 0x1c, 0x01, 0x99, 0x96, 0x0e,
  0xc2, 0xa4, 0xa8, 0x1d, 0x00, 0x86, 0x47, 0x4b, 0x5e, 0x26, 0x6b, 0x9d,
  0x3f, 0x62, 0x89, 0x81, 0x95, 0xdb, 0x8e, 0x13, 0x3b, 0x3e, 0x1f, 0xad,
  0xae, 0x63, 0x25, 0x40, 0xf7, 0x4e, 0x61, 0x00, 0x22, 0x55, 0xdc, 0x03,
  0x03, 0x36, 0xe1, 0x5c, 0xaa, 0x47, 0x0d, 0x3c, 0x6b, 0xba, 0x99, 0x12,
  0xef, 0xb2, 0x05, 0x57, 0x90, 0x3a, 0x26, 0x44, 0xc6, 0x25, 0xb3, 0x1a,
  0xc6, 0x86, 0x58, 0xf1, 0x26, 0x32, 0x11, 0xf3, 0x76, 0xce, 0x9d, 0xa1,
  0x03, 0xf6, 0x34, 0x89, 0xc3, 0x0c, 0x34, 0xae, 0x02, 0x3e, 0x44, 0xb2,
  0x2d, 0x4d, 0xe4, 0x83, 0x60, 0xac, 0x3d, 0xb2, 0xd8, 0x8c, 0x6b, 0xeb,
  0xd5, 0x2d, 0xfb, 0xdc, 0x64, 0x37, 0xf0, 0x56, 0x0b, 0xa4, 0x1e, 0xdf,
  0xee, 0x37, 0xe9, 0x10, 0xa5, 0xc8, 0x31, 0xe8, 0x7f, 0xa9, 0xd7, 0x67,
  0xcf, 0xf3, 0x19, 0x2b, 0xec, 0x00, 0x75, 0xdb, 0xa0, 0xa1, 0xad, 0x9f,
  0x6d, 0xb9, 0x49, 0x1e, 0x01, 0x9f, 0x64, 0xb7, 0x18, 0x1e, 0x7c, 0xdc,
  0x0f, 0x17, 0x7f, 0x8c, 0x66, 0xf5, 0xe9, 0x4e, 0xa6, 0xb1, 0xd8, 0xfd,
  0xbd, 0x4e, 0xe5, 0xd8, 0x93, 0x32, 0xf5, 0xfd, 0xe0, 0xb4, 0xe7, 0xa2,
  0xd3, 0x00, 0xba, 0x96, 0xac, 0x41, 0xcd, 0x28, 0xd5, 0xa2, 0x44, 0x4d,
  0xac, 0xfe, 0xaf, 0x7b, 0x36, 0x0f, 0xdb, 0x18, 0x38, 0x6a, 0x97, 0x2e,
  0x1a, 0x2b, 0x7a, 0xe8, 0xd4, 0x14, 0xb5, 0x3b, 0xc6, 0x24, 0xdc, 0x53,
  0xcb, 0x0d, 0xdf, 0x8c, 0x86, 0xf7, 0xff, 0xff, 0x04, 0x00, 0x00, 0x00,
  0x18, 0x00, 0x00, 0x00, 0x0e, 0x0a, 0x37, 0x9c, 0xd4, 0x13, 0x31, 0xad,
  0x15, 0x03, 0xe2, 0x19, 0xef, 0x12, 0x80, 0x7a, 0xf8, 0x71, 0x7f, 0xcd,
  0xc4, 0x17, 0xfa, 0xfd, 0xaa, 0xf7, 0xff, 0xff, 0x04, 0x00, 0x00, 0x00,
  0xc0, 0x06, 0x00, 0x00, 0x01, 0x2a, 0xd7, 0x26, 0xca, 0x38, 0xf0, 0xe9,
  0x21, 0x3f, 0x08, 0x3f, 0xee, 0xb3, 0x09, 0xec, 0x51, 0x39, 0x05, 0x0c,
  0xdf, 0xd3, 0x37, 0xfc, 0xf5, 0xb5, 0x32, 0x2f, 0x12, 0xfb, 0x0c, 0x1d,
  0xee, 0xb1, 0xdb, 0x8d, 0x86, 0x10, 0xbd, 0x24, 0x98, 0xfb, 0x81, 0x0b,
  0x57, 0x60, 0xcb, 0x88, 0x5c, 0xf6, 0xdd, 0xc6, 0x24, 0x16, 0x04, 0x4e,
  0xe7, 0x9e, 0xe7, 0xcb, 0x04, 0x4f, 0x98, 0xb4, 0x44, 0xc2, 0xc5, 0xcc,
  0xd1, 0x8a, 0xdd, 0xa4, 0xd7, 0x51, 0x1f, 0x52, 0xe8, 0x11, 0x11, 0x9e,
  0x3e, 0x01, 0xeb, 0xa1, 0x58, 0xe2, 0x24, 0x1d, 0x4a, 0xa7, 0xd1, 0xd9,
  0x29, 0xac, 0xe0, 0x88, 0x43, 0xed, 0x0b, 0x2b, 0x37, 0x2f, 0x95, 0x03,
  0x30, 0x93, 0xee, 0x52, 0xfb, 0xfa, 0xe5, 0xf1, 0x44, 0xa2, 0x31, 0x05,
  0xe4, 0xee, 0x2a, 0x18, 0x81, 0xd0, 0x01, 0x1e, 0x43, 0x32, 0xfc, 0xf8,
  0xd9, 0x13, 0xaa, 0xcf, 0x1c, 0x56, 0x27, 0x15, 0x03, 0xba, 0xee, 0xf0,
  0x1a, 0xb9, 0xd1, 0xdc, 0xcd, 0x20, 0x05, 0x27, 0x4d, 0x3b, 0x2b, 0x1a,
  0x55, 0x81, 0xcd, 0x32, 0x9e, 0x05, 0x97, 0xe3, 0xe4, 0x2b, 0xe3, 0xce,
  0x55, 0x20, 0xd2, 0x19, 0x53, 0xb2, 0xa6, 0xc4, 0x4c, 0xb9, 0xd0, 0x1d,
  0x3f, 0xe1, 0xb9, 0xa8, 0xf5, 0xe0, 0xcc, 0x1a, 0x97, 0xda, 0xdb, 0x2e,
  0x57, 0xe8, 0x41, 0x4e, 0x3b, 0xcd, 0x0c, 0xeb, 0x25, 0xfa, 0xb7, 0x21,
  0x94, 0x29, 0xea, 0x4a, 0x47, 0xc7, 0xbb, 0x10, 0x96, 0xb9, 0x20, 0x0b,
  0x1d, 0x0c, 0x57, 0xd3, 0xe4, 0xee, 0x02, 0xcd, 0x11, 0x25, 0x1b, 0x3b,
  0x22, 0x22, 0xdf, 0x22, 0x2e, 0xfb, 0xa5, 0xb7, 0xc8, 0xcd, 0xeb, 0x30,
  0xcf, 0xcd, 0xd9, 0x0a, 0xc1, 0x1f, 0xdf, 0xc2, 0x29, 0xf8, 0xb2, 0xc1,
  0x0e, 0x37, 0xf2, 0xdc, 0x36, 0xd2, 0xe4, 0x20, 0xe8, 0xcb, 0xf1, 0xdb,
  0x20, 0xea, 0xd7, 0xc3, 0x21, 0xad, 0xc7, 0xfa, 0x22, 0x2b, 0x2b, 0xd6,
  0xf9, 0x0c, 0xc0, 0xc5, 0x08, 0x12, 0x19, 0xc0, 0xe4, 0x07, 0x81, 0x0c,
  0x04, 0xbc, 0x22, 0xc0, 0xbe, 0xa0, 0x28, 0xbe, 0x1e, 0x36, 0x04, 0xa7,
  0xdd, 0xeb, 0xd6, 0xd0, 0x0c, 0xe9, 0x1a, 0xfa, 0x97, 0x4a, 0x0d, 0xa2,
  0x10, 0x0d, 0x6a, 0x12, 0xfe, 0xf9, 0x92, 0xa2, 0xa3, 0xeb, 0x05, 0xc7,
  0xae, 0x08, 0x9d, 0xbc, 0x26, 0x89, 0x26, 0xc3, 0xe7, 0x38, 0x83, 0x4b,
  0xdf, 0x14, 0xd7, 0x03, 0x1f, 0xa9, 0x7f, 0x56, 0xdb, 0xf3, 0x9b, 0x66,
  0x52, 0xf3, 0x51, 0xb2, 0x2d, 0x27, 0x68, 0x06, 0x14, 0xca, 0xf0, 0x02,
  0x40, 0x4b, 0xda, 0x27, 0xd3, 0xdf, 0xb1, 0x29, 0x0b, 0xe4, 0x03, 0x27,
  0x39, 0x81, 0x13, 0x48, 0xf2, 0xe2, 0x13, 0xd3, 0x08, 0xc2, 0x62, 0x3d,
  0x40, 0x51, 0x14, 0xe7, 0xc3, 0xd7, 0x20, 0x3d, 0x0f, 0xd6, 0xdd, 0xe9,
  0xfc, 0xbb, 0x40, 0xdb, 0x4d, 0x17, 0x29, 0xfb, 0xe9, 0xb7, 0xa3, 0x4f,
  0xee, 0x49, 0xf1, 0xef, 0xa2, 0x46, 0xbe, 0x66, 0xac, 0x36, 0xc5, 0x28,
  0xe4, 0xf7, 0x1e, 0x9e, 0x37, 0x40, 0x34, 0xc9, 0x33, 0xa2, 0xac, 0xb2,
  0x2e, 0xd8, 0x3d, 0x0d, 0x0e, 0xf5, 0x1b, 0x12, 0xd3, 0x48, 0xd6, 0xee,
  0xb4, 0x02, 0xb5, 0xd9, 0xbf, 0x17, 0x26, 0xfd, 0x5c, 0x3f, 0xee, 0xe1,
  0xe1, 0xc8, 0xf3, 0xec, 0x0d, 0x37, 0x1c, 0xe1, 0x13, 0xe0, 0x03, 0x0b,
  0x03, 0x54, 0x01, 0xb6, 0x18, 0xea, 0x3e, 0x48, 0x13, 0xf5, 0x98, 0xc8,
  0xed, 0x5b, 0xb9, 0xcc, 0xf5, 0x64, 0xc9, 0xcb, 0x6a, 0x81, 0x34, 0xd1,
  0xe0, 0xb9, 0x32, 0x53, 0x38, 0xb3, 0xd7, 0x4b, 0x31, 0xa7, 0xef, 0x42,
  0xf6, 0x03, 0x34, 0x09, 0x05, 0x44, 0xdd, 0xa5, 0xf7, 0xdf, 0x83, 0x48,
  0xec, 0xb9, 0x14, 0xf5, 0x93, 0x8d, 0x9f, 0xa8, 0x59, 0xe0, 0xf1, 0x9e,
  0x24, 0x64, 0xfc, 0xf3, 0x9d, 0xbb, 0x50, 0x3a, 0x48, 0x40, 0xe8, 0x93,
  0x24, 0x50, 0x96, 0x1b, 0x5d, 0x59, 0xd6, 0x51, 0x44, 0x1e, 0xe3, 0x5d,
  0x39, 0x40, 0x2d, 0xa4, 0x40, 0xae, 0xb9, 0xa3, 0xaf, 0xfa, 0x5d, 0xfd,
  0x82, 0xd0, 0x64, 0x81, 0xd0, 0x93, 0xb5, 0x90, 0x34, 0xf1, 0xcf, 0x8e,
  0x04, 0x4e, 0x17, 0x91, 0x1f, 0x19, 0x17, 0xbe, 0xac, 0x61, 0x21, 0x4a,
  0xdf, 0x81, 0xa4, 0x98, 0x68, 0x12, 0x3f, 0x4d, 0x08, 0x91, 0xdb, 0x07,
  0xf5, 0x40, 0xfb, 0x14, 0x86, 0xb3, 0x20, 0x0d, 0x21, 0xd5, 0xf9, 0x95,
  0xc6, 0xa0, 0xd7, 0x97, 0xea, 0x8c, 0x03, 0x06, 0x24, 0x2a, 0xfa, 0x25,
  0xc8, 0x59, 0x5d, 0x16, 0xff, 0xd3, 0xb0, 0x39, 0xf1, 0xa3, 0x74, 0xe5,
  0xb1, 0x47, 0x50, 0x34, 0x13, 0x36, 0xa1, 0xed, 0x20, 0xda, 0x40, 0xb9,
  0x26, 0xcf, 0x4e, 0xd0, 0xef, 0x3a, 0xf4, 0x2e, 0xa7, 0x9c, 0xb8, 0x11,
  0xde, 0x0b, 0xa0, 0xb9, 0xdc, 0x1a, 0x55, 0xfe, 0x45, 0xa0, 0x9d, 0x35,
  0xa6, 0x06, 0xed, 0xca, 0x81, 0x57, 0xe6, 0x2f, 0xf0, 0x06, 0x50, 0xd8,
  0xa1, 0xff, 0x5b, 0x16, 0x08, 0x47, 0xfd, 0x45, 0xf3, 0xf7, 0xfc, 0xd3,
  0x38, 0x1f, 0xd4, 0x30, 0xeb, 0xa6, 0x0f, 0xe5, 0xf5, 0xdb, 0xed, 0xb9,
  0x46, 0x2d, 0x5f, 0x57, 0xab, 0xaf, 0xb2, 0xa1, 0xcd, 0x9c, 0xb5, 0xb6,
  0xeb, 0xb0, 0x36, 0xcb, 0xbb, 0x61, 0x43, 0x65, 0x4b, 0x33, 0xc0, 0xcd,
  0x0f, 0xd6, 0x59, 0xd4, 0x4d, 0xff, 0x5a, 0x2b, 0xe9, 0x2e, 0x1c, 0x4f,
  0x7a, 0x3c, 0x0e, 0xae, 0xff, 0x47, 0xc2, 0xe2, 0xbc, 0xf4, 0xbd, 0xc4,
  0x25, 0x4d, 0xdf, 0xf7, 0x20, 0x2f, 0x13, 0xcf, 0x00, 0xed, 0x81, 0x48,
  0x74, 0x1c, 0x03, 0xf3, 0xd9, 0x5a, 0x1c, 0x51, 0xc5, 0xfa, 0xec, 0x51,
  0xd0, 0xe2, 0x14, 0x01, 0xb5, 0xd2, 0xe9, 0x0a, 0xf3, 0x36, 0x16, 0xec,
  0xb4, 0x2f, 0x0c, 0xa3, 0x26, 0x31, 0x65, 0xb7, 0xbe, 0x28, 0x2b, 0x2d,
  0xa4, 0xd3, 0xd9, 0xf3, 0x07, 0x46, 0x55, 0x24, 0x1f, 0x57, 0x90, 0x45,
  0x2d, 0x67, 0x21, 0x3e, 0x01, 0x06, 0x5b, 0xe1, 0x6b, 0x64, 0xfc, 0xb4,
  0xf8, 0x4a, 0xba, 0xda, 0x1b, 0x81, 0x30, 0x17, 0x55, 0x21, 0x95, 0x0c,
  0x14, 0x31, 0xae, 0xbd, 0x91, 0x8a, 0xb1, 0x20, 0xdb, 0xea, 0x57, 0x5a,
  0x7a, 0x26, 0xf1, 0x25, 0xe6, 0x98, 0x10, 0xde, 0x9e, 0xba, 0x0b, 0xc6,
  0xdc, 0xfe, 0x4c, 0x6c, 0x4b, 0x3d, 0x2f, 0x62, 0xfb, 0x57, 0x8a, 0x81,
  0x62, 0x1d, 0xbf, 0xb1, 0x36, 0xa7, 0xde, 0x04, 0x4f, 0xa6, 0xb3, 0x2a,
  0x40, 0x8e, 0x4e, 0x4a, 0x57, 0xe5, 0x22, 0x1c, 0x57, 0x97, 0xc7, 0xe5,
  0x1a, 0xd9, 0xf7, 0xdf, 0x0b, 0x9e, 0xdb, 0xbf, 0xd0, 0xf6, 0xf5, 0x06,
  0x0a, 0xcd, 0x5b, 0x8b, 0x90, 0x1d, 0x17, 0x32, 0xf1, 0x13, 0xa3, 0x8d,
  0x20, 0x04, 0x93, 0xe7, 0x36, 0xb3, 0xf8, 0xe5, 0x95, 0xef, 0xc3, 0x5c,
  0xd2, 0x4f, 0xb6, 0xf6, 0xfe, 0x0f, 0xda, 0xe3, 0x9b, 0x0a, 0x5f, 0x14,
  0xe2, 0xab, 0xe3, 0xcd, 0xff, 0x15, 0xdb, 0x32, 0xa4, 0x0c, 0x1d, 0x67,
  0x81, 0xe0, 0x1d, 0xf4, 0x92, 0x98, 0x8f, 0x5b, 0x46, 0xaa, 0xc1, 0xa5,
  0xaa, 0xe5, 0xad, 0x2c, 0xae, 0x11, 0x10, 0x3f, 0x2a, 0x28, 0xc9, 0x18,
  0x4a, 0x49, 0x28, 0xa2, 0x29, 0x34, 0xa4, 0xc9, 0xf2, 0xd5, 0x90, 0xe9,
  0xd6, 0x14, 0xdf, 0x01, 0x53, 0xa9, 0x32, 0x8b, 0x0d, 0x12, 0xbc, 0x8f,
  0xd8, 0xdc, 0xb5, 0x5e, 0xef, 0x11, 0x97, 0x16, 0xf9, 0x4a, 0x14, 0xf0,
  0x06, 0xac, 0xc4, 0xe1, 0xb9, 0xb9, 0x14, 0xd1, 0x3f, 0x9c, 0xca, 0x36,
  0xe8, 0x9c, 0x47, 0xfc, 0xab, 0xe7, 0x99, 0x28, 0xc5, 0x2f, 0x00, 0xaa,
  0x14, 0x81, 0x19, 0x3a, 0xc2, 0x2b, 0x15, 0x3a, 0xf4, 0x17, 0x19, 0x28,
  0x4a, 0xbb, 0x27, 0x96, 0xf7, 0x0b, 0x05, 0xc9, 0x31, 0x2f, 0x10, 0xf8,
  0xd2, 0x11, 0xeb, 0xf8, 0x29, 0xea, 0xe2, 0xa2, 0xb5, 0xf8, 0xdc, 0x32,
  0x42, 0xc9, 0xac, 0x96, 0x0c, 0xff, 0x0c, 0x29, 0x6e, 0x6d, 0x0b, 0x27,
  0x2c, 0x07, 0xc9, 0x25, 0xa3, 0x96, 0xc4, 0x81, 0x90, 0xd6, 0xe4, 0x65,
  0x5a, 0x1c, 0xab, 0x41, 0xe9, 0x5d, 0xe9, 0xf5, 0x67, 0xea, 0x0a, 0x86,
  0x96, 0x11, 0x0a, 0x2d, 0x70, 0xb1, 0xaa, 0x32, 0xd2, 0xe2, 0xb5, 0xa3,
  0x18, 0x9e, 0xd2, 0xae, 0x18, 0x1a, 0xa3, 0x97, 0x1d, 0xe7, 0x38, 0x13,
  0xb4, 0x22, 0x63, 0x98, 0xa9, 0x4c, 0x52, 0x57, 0xab, 0x59, 0xd7, 0x4f,
  0xfb, 0xd7, 0x35, 0xf4, 0x1e, 0x1a, 0x9a, 0x34, 0x9f, 0xc7, 0x1b, 0xd3,
  0x4c, 0xdf, 0x43, 0x0e, 0x34, 0x5c, 0x36, 0xcc, 0x4d, 0x50, 0x17, 0x63,
  0xb3, 0x19, 0xf8, 0xab, 0xf6, 0xde, 0x94, 0x13, 0xeb, 0x4b, 0xfe, 0x38,
  0xfe, 0x16, 0xb7, 0xbc, 0x98, 0xad, 0x25, 0xc3, 0xbe, 0x1b, 0x9e, 0xb7,
  0x58, 0x5d, 0xac, 0x53, 0xb1, 0xf7, 0x9a, 0x40, 0x54, 0xed, 0x0e, 0x81,
  0x6a, 0x40, 0x61, 0xd4, 0xcb, 0x21, 0x26, 0x36, 0xd2, 0xde, 0xd9, 0xfd,
  0x4b, 0x41, 0x27, 0xe8, 0xe3, 0x26, 0xc4, 0x14, 0xb1, 0xf1, 0xa3, 0x4e,
  0x03, 0xbe, 0xb7, 0x2e, 0xef, 0x24, 0x31, 0x69, 0x10, 0xba, 0xd2, 0x99,
  0xb8, 0x03, 0xcd, 0x4a, 0x40, 0x44, 0x53, 0x9d, 0x5d, 0x8f, 0x2f, 0xb4,
  0x18, 0xe4, 0x3c, 0xa0, 0xea, 0xc7, 0x89, 0xa2, 0x12, 0xf7, 0x47, 0xae,
  0xb2, 0xa6, 0x35, 0xaf, 0x81, 0x2d, 0xec, 0x3d, 0x5a, 0xfd, 0x2b, 0x86,
  0xdc, 0xa2, 0x84, 0xec, 0x2c, 0xc5, 0xf0, 0xcd, 0xe2, 0xf2, 0xc1, 0xc3,
  0x17, 0xce, 0x48, 0xf6, 0x3a, 0x36, 0xdf, 0x36, 0xfd, 0x2e, 0xc9, 0x61,
  0x0f, 0x81, 0xf8, 0xdc, 0xa3, 0xaf, 0xa4, 0xbe, 0x65, 0x66, 0xa4, 0x50,
  0x72, 0x17, 0x44, 0xa2, 0x0a, 0xda, 0x1a, 0x12, 0xf4, 0x42, 0x38, 0xa5,
  0x26, 0x2a, 0x00, 0xf3, 0x9a, 0x9e, 0xec, 0xbc, 0xcc, 0x17, 0xb9, 0xad,
  0x43, 0xf3, 0x4b, 0x41, 0xdc, 0x22, 0xf0, 0xdc, 0x5b, 0xcb, 0x44, 0x00,
  0xba, 0xfd, 0x50, 0xe7, 0xf9, 0x46, 0x24, 0x0d, 0xc7, 0xe9, 0x0b, 0x20,
  0xf8, 0x73, 0xfc, 0xc5, 0x42, 0x3a, 0xc8, 0x67, 0xc1, 0x86, 0xb1, 0x3f,
  0xb9, 0xd8, 0x1b, 0x94, 0x68, 0x6c, 0x7a, 0xba, 0xa3, 0xd4, 0x94, 0xb4,
  0xd4, 0xf3, 0x24, 0x0e, 0xe3, 0x22, 0xb7, 0x19, 0x16, 0x6c, 0x77, 0x38,
  0x00, 0x28, 0xb5, 0xfd, 0x0f, 0x81, 0xb6, 0xad, 0xe1, 0x0a, 0x8c, 0x35,
  0x7b, 0x2a, 0x51, 0x02, 0xd1, 0xc9, 0x24, 0xbd, 0xb4, 0xd8, 0x9a, 0x4b,
  0x29, 0x9f, 0xb6, 0xde, 0x96, 0x0e, 0xf4, 0xe6, 0x3e, 0xb5, 0xcd, 0x04,
  0xb4, 0xa6, 0x5b, 0x46, 0x0d, 0xee, 0x57, 0x58, 0x68, 0xad, 0x37, 0x66,
  0x24, 0x8d, 0x3e, 0x93, 0x44, 0x4c, 0xef, 0xf7, 0xf9, 0xa2, 0x2b, 0xc9,
  0x0d, 0xcb, 0xc9, 0xf1, 0xae, 0x03, 0xe4, 0xfa, 0x13, 0x8a, 0x97, 0x03,
  0x4a, 0xe8, 0x4e, 0xfa, 0x26, 0x21, 0x8c, 0xd3, 0x99, 0x1c, 0x96, 0x81,
  0xce, 0xc3, 0x75, 0x00, 0x3b, 0x84, 0x40, 0xc6, 0xc8, 0xc4, 0x42, 0xb3,
  0x33, 0xed, 0xf7, 0x11, 0xd6, 0x06, 0x95, 0xfb, 0x95, 0xde, 0xd9, 0x21,
  0xd2, 0xd7, 0x94, 0xe3, 0x0e, 0xff, 0x64, 0xc1, 0x05, 0xe4, 0x35, 0x20,
  0xb0, 0xbf, 0xfe, 0x8d, 0x7f, 0xf9, 0xc8, 0x0a, 0x2e, 0xc7, 0x39, 0x6a,
  0xd2, 0x8a, 0xae, 0xc1, 0x1c, 0x42, 0xb4, 0x03, 0xe3, 0xc0, 0x96, 0x54,
  0x0e, 0x43, 0xdb, 0x88, 0xc7, 0xa3, 0xf0, 0xa2, 0xbf, 0xf0, 0xe4, 0x1f,
  0xc5, 0xff, 0x53, 0xd3, 0xa3, 0xd4, 0x83, 0x8c, 0x8a, 0x5b, 0x22, 0x67,
  0x5c, 0xf2, 0x39, 0x83, 0x2f, 0x24, 0x21, 0x20, 0x25, 0x8b, 0xba, 0x43,
  0x91, 0x62, 0xa6, 0x0f, 0xac, 0x06, 0x31, 0x26, 0x20, 0x63, 0x27, 0xc4,
  0xeb, 0xaa, 0x02, 0xd8, 0x64, 0x0d, 0x28, 0xb4, 0x46, 0x4b, 0xf9, 0x3c,
  0xe3, 0x30, 0xc0, 0xbd, 0x35, 0xec, 0xae, 0x58, 0x2c, 0x43, 0xb5, 0xda,
  0x36, 0x9c, 0x35, 0x28, 0xf0, 0xf3, 0x22, 0x43, 0x02, 0xe4, 0x2b, 0xaa,
  0xb0, 0x21, 0x22, 0x46, 0x40, 0xcc, 0x3c, 0xde, 0xde, 0xd3, 0x14, 0x2e,
  0x7f, 0x3b, 0x23, 0xa8, 0x45, 0xb3, 0xe0, 0x58, 0x20, 0x26, 0xca, 0x16,
  0xb6, 0x96, 0xf4, 0x1f, 0x17, 0xea, 0x42, 0x8b, 0x02, 0xee, 0x4f, 0xb2,
  0xeb, 0xc7, 0xf3, 0x4e, 0xcb, 0xc9, 0x92, 0x19, 0x46, 0x12, 0xf8, 0xd7,
  0x30, 0xe4, 0x52, 0x94, 0xb5, 0x25, 0x50, 0x4e, 0x37, 0x44, 0x4f, 0xb4,
  0x37, 0xde, 0x30, 0xab, 0x20, 0x18, 0x45, 0xee, 0x10, 0xcd, 0xd0, 0x6a,
  0x42, 0xa7, 0xe0, 0x4b, 0x35, 0x63, 0xf3, 0xba, 0x21, 0x81, 0x3e, 0xfa,
  0xae, 0xde, 0x2d, 0x61, 0x4a, 0xd3, 0xb9, 0xbb, 0x9f, 0x9c, 0x1b, 0xfb,
  0x8a, 0xae, 0xee, 0xdf, 0x76, 0xfe, 0xff, 0xff, 0x04, 0x00, 0x00, 0x00,
  0x18, 0x00, 0x00, 0x00, 0x89, 0xd9, 0x28, 0x93, 0x31, 0xdb, 0x33, 0xe3,
  0xdd, 0x9e, 0x79, 0x25, 0x85, 0x80, 0xbb, 0x2e, 0x2c, 0x0a, 0x1c, 0x3e,
  0x3b, 0x27, 0xd7, 0x5b, 0x9a, 0xfe, 0xff, 0xff, 0x04, 0x00, 0x00, 0x00,
  0x18, 0x00, 0x00, 0x00, 0x81, 0xd0, 0xf0, 0xa6, 0xc6, 0xb5, 0x89, 0x7a,
  0xf6, 0x4c, 0xf0, 0x5c, 0x14, 0x3b, 0x8c, 0x43, 0x29, 0x04, 0x92, 0xc0,
  0xbd, 0x31, 0x4a, 0x3f, 0xbe, 0xfe, 0xff, 0xff, 0x04, 0x00, 0x00, 0x00,
  0x04, 0x00, 0x00, 0x00, 0xac, 0xff, 0xff, 0xff, 0xce, 0xfe, 0xff, 0xff,
  0x04, 0x00, 0x00, 0x00, 0x0c, 0x00, 0x00, 0x00, 0x01, 0x00, 0x00, 0x00,
  0x01, 0x00, 0x00, 0x00, 0x01, 0x00, 0x00, 0x00, 0xe6, 0xfe, 0xff, 0xff,
  0x04, 0x00, 0x00, 0x00, 0x0c, 0x00, 0x00, 0x00, 0x00, 0x00, 0x00, 0x00,
  0x00, 0x00, 0x00, 0x00, 0x00, 0x00, 0x00, 0x00, 0xfe, 0xfe, 0xff, 0xff,
  0x04, 0x00, 0x00, 0x00, 0x0c, 0x00, 0x00, 0x00, 0x00, 0x00, 0x00, 0x00,
  0xff, 0xff, 0xff, 0xff, 0x00, 0x00, 0x00, 0x00, 0x16, 0xff, 0xff, 0xff,
  0x04, 0x00, 0x00, 0x00, 0x0c, 0x00, 0x00, 0x00, 0xff, 0xff, 0xff, 0xff,
  0x06, 0x00, 0x00, 0x00, 0x18, 0x00, 0x00, 0x00, 0x2e, 0xff, 0xff, 0xff,
  0x04, 0x00, 0x00, 0x00, 0x04, 0x00, 0x00, 0x00, 0x04, 0x00, 0x00, 0x00,
  0x3e, 0xff, 0xff, 0xff, 0x04, 0x00, 0x00, 0x00, 0x18, 0x00, 0x00, 0x00,
  0x00, 0x00, 0x00, 0x00, 0x00, 0x00, 0x00, 0x00, 0x08, 0x00, 0x00, 0x00,
  0x00, 0x00, 0x00, 0x00, 0x00, 0x00, 0x00, 0x00, 0x00, 0x00, 0x00, 0x00,
  0x62, 0xff, 0xff, 0xff, 0x04, 0x00, 0x00, 0x00, 0x0c, 0x00, 0x00, 0x00,
  0xff, 0xff, 0xff, 0xff, 0x0c, 0x00, 0x00, 0x00, 0x18, 0x00, 0x00, 0x00,
  0x7a, 0xff, 0xff, 0xff, 0x04, 0x00, 0x00, 0x00, 0x08, 0x00, 0x00, 0x00,
  0x00, 0x00, 0x00, 0x00, 0x00, 0x00, 0x00, 0x00, 0x8e, 0xff, 0xff, 0xff,
  0x04, 0x00, 0x00, 0x00, 0x04, 0x00, 0x00, 0x00, 0x02, 0x00, 0x00, 0x00,
  0x9e, 0xff, 0xff, 0xff, 0x04, 0x00, 0x00, 0x00, 0x18, 0x00, 0x00, 0x00,
  0x00, 0x00, 0x00, 0x00, 0x00, 0x00, 0x00, 0x00, 0x04, 0x00, 0x00, 0x00,
  0x00, 0x00, 0x00, 0x00, 0x00, 0x00, 0x00, 0x00, 0x00, 0x00, 0x00, 0x00,
  0xc2, 0xff, 0xff, 0xff, 0x04, 0x00, 0x00, 0x00, 0x18, 0x00, 0x00, 0x00,
  0x00, 0x00, 0x00, 0x00, 0x00, 0x00, 0x00, 0x00, 0x02, 0x00, 0x00, 0x00,
  0x00, 0x00, 0x00, 0x00, 0x00, 0x00, 0x00, 0x00, 0x00, 0x00, 0x00, 0x00,
  0xe6, 0xff, 0xff, 0xff, 0x04, 0x00, 0x00, 0x00, 0x0c, 0x00, 0x00, 0x00,
  0xff, 0xff, 0xff, 0xff, 0x18, 0x00, 0x00, 0x00, 0x18, 0x00, 0x00, 0x00,
  0x00, 0x00, 0x06, 0x00, 0x08, 0x00, 0x04, 0x00, 0x06, 0x00, 0x00, 0x00,
  0x04, 0x00, 0x00, 0x00, 0x04, 0x00, 0x00, 0x00, 0xfd, 0xff, 0xff, 0xff,
  0xc8, 0xbe, 0xff, 0xff, 0xcc, 0xbe, 0xff, 0xff, 0x0f, 0x00, 0x00, 0x00,
  0x4d, 0x4c, 0x49, 0x52, 0x20, 0x43, 0x6f, 0x6e, 0x76, 0x65, 0x72, 0x74,
  0x65, 0x64, 0x2e, 0x00, 0x01, 0x00, 0x00, 0x00, 0x14, 0x00, 0x00, 0x00,
  0x00, 0x00, 0x0e, 0x00, 0x18, 0x00, 0x14, 0x00, 0x10, 0x00, 0x0c, 0x00,
  0x08, 0x00, 0x04, 0x00, 0x0e, 0x00, 0x00, 0x00, 0x14, 0x00, 0x00, 0x00,
  0x1c, 0x00, 0x00, 0x00, 0x70, 0x09, 0x00, 0x00, 0x74, 0x09, 0x00, 0x00,
  0x78, 0x09, 0x00, 0x00, 0x04, 0x00, 0x00, 0x00, 0x6d, 0x61, 0x69, 0x6e,
  0x00, 0x00, 0x00, 0x00, 0x2c, 0x00, 0x00, 0x00, 0x28, 0x09, 0x00, 0x00,
  0xcc, 0x08, 0x00, 0x00, 0x94, 0x08, 0x00, 0x00, 0x54, 0x08, 0x00, 0x00,
  0x14, 0x08, 0x00, 0x00, 0xc0, 0x07, 0x00, 0x00, 0x98, 0x07, 0x00, 0x00,
  0x64, 0x07, 0x00, 0x00, 0x34, 0x07, 0x00, 0x00, 0xec, 0x06, 0x00, 0x00,
  0xb8, 0x06, 0x00, 0x00, 0x90, 0x06, 0x00, 0x00, 0x5c, 0x06, 0x00, 0x00,
  0x30, 0x06, 0x00, 0x00, 0x00, 0x06, 0x00, 0x00, 0xb0, 0x05, 0x00, 0x00,
  0x88, 0x05, 0x00, 0x00, 0x5c, 0x05, 0x00, 0x00, 0x1c, 0x05, 0x00, 0x00,
  0xe8, 0x04, 0x00, 0x00, 0xbc, 0x04, 0x00, 0x00, 0x8c, 0x04, 0x00, 0x00,
  0x48, 0x04, 0x00, 0x00, 0x20, 0x04, 0x00, 0x00, 0xf4, 0x03, 0x00, 0x00,
  0xbc, 0x03, 0x00, 0x00, 0x88, 0x03, 0x00, 0x00, 0x54, 0x03, 0x00, 0x00,
  0x28, 0x03, 0x00, 0x00, 0xf8, 0x02, 0x00, 0x00, 0xb4, 0x02, 0x00, 0x00,
  0x8c, 0x02, 0x00, 0x00, 0x60, 0x02, 0x00, 0x00, 0x28, 0x02, 0x00, 0x00,
  0xf4, 0x01, 0x00, 0x00, 0xc8, 0x01, 0x00, 0x00, 0x98, 0x01, 0x00, 0x00,
  0x54, 0x01, 0x00, 0x00, 0x2c, 0x01, 0x00, 0x00, 0x00, 0x01, 0x00, 0x00,
  0xc8, 0x00, 0x00, 0x00, 0x94, 0x00, 0x00, 0x00, 0x3c, 0x00, 0x00, 0x00,
  0x04, 0x00, 0x00, 0x00, 0x5e, 0xf8, 0xff, 0xff, 0x14, 0x00, 0x00, 0x00,
  0x00, 0x00, 0x00, 0x08, 0x10, 0x00, 0x00, 0x00, 0x14, 0x00, 0x00, 0x00,
  0x08, 0x00, 0x00, 0x00, 0xec, 0xbf, 0xff, 0xff, 0x01, 0x00, 0x00, 0x00,
  0x4d, 0x00, 0x00, 0x00, 0x03, 0x00, 0x00, 0x00, 0x4c, 0x00, 0x00, 0x00,
  0x0f, 0x00, 0x00, 0x00, 0x0e, 0x00, 0x00, 0x00, 0x22, 0xf8, 0xff, 0xff,
  0x24, 0x00, 0x00, 0x00, 0x00, 0x00, 0x00, 0x20, 0x2c, 0x00, 0x00, 0x00,
  0x30, 0x00, 0x00, 0x00, 0x07, 0x00, 0x00, 0x00, 0x00, 0x00, 0x0e, 0x00,
  0x10, 0x00, 0x0c, 0x00, 0x08, 0x00, 0x00, 0x00, 0x00, 0x00, 0x04, 0x00,
  0x0e, 0x00, 0x00, 0x00, 0x02, 0x00, 0x00, 0x00, 0x05, 0x00, 0x00, 0x00,
  0x05, 0x00, 0x00, 0x00, 0x01, 0x00, 0x00, 0x00, 0x4c, 0x00, 0x00, 0x00,
  0x04, 0x00, 0x00, 0x00, 0x4b, 0x00, 0x00, 0x00, 0x0b, 0x00, 0x00, 0x00,
  0x0c, 0x00, 0x00, 0x00, 0x0d, 0x00, 0x00, 0x00, 0xe6, 0xf8, 0xff, 0xff,
  0x14, 0x00, 0x00, 0x00, 0x00, 0x00, 0x00, 0x0b, 0x10, 0x00, 0x00, 0x00,
  0x14, 0x00, 0x00, 0x00, 0x04, 0x00, 0x00, 0x00, 0x74, 0xc0, 0xff, 0xff,
  0x01, 0x00, 0x00, 0x00, 0x4b, 0x00, 0x00, 0x00, 0x02, 0x00, 0x00, 0x00,
  0x3c, 0x00, 0x00, 0x00, 0x4a, 0x00, 0x00, 0x00, 0x16, 0xf9, 0xff, 0xff,
  0x14, 0x00, 0x00, 0x00, 0x00, 0x00, 0x00, 0x0b, 0x14, 0x00, 0x00, 0x00,
  0x18, 0x00, 0x00, 0x00, 0x04, 0x00, 0x00, 0x00, 0x02, 0xfc, 0xff, 0xff,
  0x00, 0x00, 0x00, 0x01, 0x01, 0x00, 0x00, 0x00, 0x4a, 0x00, 0x00, 0x00,
  0x02, 0x00, 0x00, 0x00, 0x49, 0x00, 0x00, 0x00, 0x10, 0x00, 0x00, 0x00,
  0x0a, 0xf9, 0xff, 0xff, 0x0c, 0x00, 0x00, 0x00, 0x10, 0x00, 0x00, 0x00,
  0x06, 0x00, 0x00, 0x00, 0x01, 0x00, 0x00, 0x00, 0x49, 0x00, 0x00, 0x00,
  0x03, 0x00, 0x00, 0x00, 0x48, 0x00, 0x00, 0x00, 0x09, 0x00, 0x00, 0x00,
  0x06, 0x00, 0x00, 0x00, 0x32, 0xf9, 0xff, 0xff, 0x0c, 0x00, 0x00, 0x00,
  0x10, 0x00, 0x00, 0x00, 0x02, 0x00, 0x00, 0x00, 0x01, 0x00, 0x00, 0x00,
  0x48, 0x00, 0x00, 0x00, 0x02, 0x00, 0x00, 0x00, 0x47, 0x00, 0x00, 0x00,
  0x0a, 0x00, 0x00, 0x00, 0x96, 0xf9, 0xff, 0xff, 0x14, 0x00, 0x00, 0x00,
  0x00, 0x00, 0x00, 0x01, 0x1c, 0x00, 0x00, 0x00, 0x20, 0x00, 0x00, 0x00,
  0x01, 0x00, 0x00, 0x00, 0xfa, 0xfb, 0xff, 0xff, 0x01, 0x00, 0x00, 0x00,
  0x01, 0x00, 0x00, 0x00, 0x00, 0x00, 0x00, 0x01, 0x01, 0x00, 0x00, 0x00,
  0x47, 0x00, 0x00, 0x00, 0x03, 0x00, 0x00, 0x00, 0x46, 0x00, 0x00, 0x00,
  0x11, 0x00, 0x00, 0x00, 0x1a, 0x00, 0x00, 0x00, 0x0e, 0xf9, 0xff, 0xff,
  0x10, 0x00, 0x00, 0x00, 0x00, 0x00, 0x00, 0x34, 0x0c, 0x00, 0x00, 0x00,
  0x10, 0x00, 0x00, 0x00, 0x60, 0xc1, 0xff, 0xff, 0x01, 0x00, 0x00, 0x00,
  0x46, 0x00, 0x00, 0x00, 0x02, 0x00, 0x00, 0x00, 0x45, 0x00, 0x00, 0x00,
  0x01, 0x00, 0x00, 0x00, 0xc2, 0xf9, 0xff, 0xff, 0x0c, 0x00, 0x00, 0x00,
  0x10, 0x00, 0x00, 0x00, 0x05, 0x00, 0x00, 0x00, 0x01, 0x00, 0x00, 0x00,
  0x45, 0x00, 0x00, 0x00, 0x03, 0x00, 0x00, 0x00, 0x44, 0x00, 0x00, 0x00,
  0x09, 0x00, 0x00, 0x00, 0x06, 0x00, 0x00, 0x00, 0x2a, 0xfa, 0xff, 0xff,
  0x14, 0x00, 0x00, 0x00, 0x00, 0x00, 0x00, 0x16, 0x10, 0x00, 0x00, 0x00,
  0x14, 0x00, 0x00, 0x00, 0x03, 0x00, 0x00, 0x00, 0xb8, 0xc1, 0xff, 0xff,
  0x01, 0x00, 0x00, 0x00, 0x44, 0x00, 0x00, 0x00, 0x02, 0x00, 0x00, 0x00,
  0x43, 0x00, 0x00, 0x00, 0x08, 0x00, 0x00, 0x00, 0x5a, 0xfa, 0xff, 0xff,
  0x14, 0x00, 0x00, 0x00, 0x00, 0x00, 0x00, 0x0b, 0x14, 0x00, 0x00, 0x00,
  0x18, 0x00, 0x00, 0x00, 0x04, 0x00, 0x00, 0x00, 0x46, 0xfd, 0xff, 0xff,
  0x00, 0x00, 0x00, 0x01, 0x01, 0x00, 0x00, 0x00, 0x43, 0x00, 0x00, 0x00,
  0x02, 0x00, 0x00, 0x00, 0x42, 0x00, 0x00, 0x00, 0x12, 0x00, 0x00, 0x00,
  0x4e, 0xfa, 0xff, 0xff, 0x0c, 0x00, 0x00, 0x00, 0x10, 0x00, 0x00, 0x00,
  0x06, 0x00, 0x00, 0x00, 0x01, 0x00, 0x00, 0x00, 0x42, 0x00, 0x00, 0x00,
  0x03, 0x00, 0x00, 0x00, 0x41, 0x00, 0x00, 0x00, 0x09, 0x00, 0x00, 0x00,
  0x06, 0x00, 0x00, 0x00, 0x76, 0xfa, 0xff, 0xff, 0x0c, 0x00, 0x00, 0x00,
  0x10, 0x00, 0x00, 0x00, 0x02, 0x00, 0x00, 0x00, 0x01, 0x00, 0x00, 0x00,
  0x41, 0x00, 0x00, 0x00, 0x02, 0x00, 0x00, 0x00, 0x40, 0x00, 0x00, 0x00,
  0x0a, 0x00, 0x00, 0x00, 0xda, 0xfa, 0xff, 0xff, 0x14, 0x00, 0x00, 0x00,
  0x00, 0x00, 0x00, 0x01, 0x1c, 0x00, 0x00, 0x00, 0x20, 0x00, 0x00, 0x00,
  0x01, 0x00, 0x00, 0x00, 0x3e, 0xfd, 0xff, 0xff, 0x01, 0x00, 0x00, 0x00,
  0x01, 0x00, 0x00, 0x00, 0x00, 0x00, 0x00, 0x01, 0x01, 0x00, 0x00, 0x00,
  0x40, 0x00, 0x00, 0x00, 0x03, 0x00, 0x00, 0x00, 0x3f, 0x00, 0x00, 0x00,
  0x13, 0x00, 0x00, 0x00, 0x19, 0x00, 0x00, 0x00, 0x52, 0xfa, 0xff, 0xff,
  0x10, 0x00, 0x00, 0x00, 0x00, 0x00, 0x00, 0x34, 0x0c, 0x00, 0x00, 0x00,
  0x10, 0x00, 0x00, 0x00, 0xa4, 0xc2, 0xff, 0xff, 0x01, 0x00, 0x00, 0x00,
  0x3f, 0x00, 0x00, 0x00, 0x02, 0x00, 0x00, 0x00, 0x3e, 0x00, 0x00, 0x00,
  0x01, 0x00, 0x00, 0x00, 0x06, 0xfb, 0xff, 0xff, 0x0c, 0x00, 0x00, 0x00,
  0x10, 0x00, 0x00, 0x00, 0x05, 0x00, 0x00, 0x00, 0x01, 0x00, 0x00, 0x00,
  0x3e, 0x00, 0x00, 0x00, 0x03, 0x00, 0x00, 0x00, 0x3d, 0x00, 0x00, 0x00,
  0x09, 0x00, 0x00, 0x00, 0x06, 0x00, 0x00, 0x00, 0x6e, 0xfb, 0xff, 0xff,
  0x14, 0x00, 0x00, 0x00, 0x00, 0x00, 0x00, 0x16, 0x10, 0x00, 0x00, 0x00,
  0x14, 0x00, 0x00, 0x00, 0x03, 0x00, 0x00, 0x00, 0xfc, 0xc2, 0xff, 0xff,
  0x01, 0x00, 0x00, 0x00, 0x3d, 0x00, 0x00, 0x00, 0x02, 0x00, 0x00, 0x00,
  0x3c, 0x00, 0x00, 0x00, 0x08, 0x00, 0x00, 0x00, 0x9e, 0xfb, 0xff, 0xff,
  0x14, 0x00, 0x00, 0x00, 0x00, 0x00, 0x00, 0x0b, 0x10, 0x00, 0x00, 0x00,
  0x14, 0x00, 0x00, 0x00, 0x04, 0x00, 0x00, 0x00, 0x2c, 0xc3, 0xff, 0xff,
  0x01, 0x00, 0x00, 0x00, 0x3c, 0x00, 0x00, 0x00, 0x02, 0x00, 0x00, 0x00,
  0x2d, 0x00, 0x00, 0x00, 0x3b, 0x00, 0x00, 0x00, 0xce, 0xfb, 0xff, 0xff,
  0x14, 0x00, 0x00, 0x00, 0x00, 0x00, 0x00, 0x0b, 0x14, 0x00, 0x00, 0x00,
  0x18, 0x00, 0x00, 0x00, 0x04, 0x00, 0x00, 0x00, 0xba, 0xfe, 0xff, 0xff,
  0x00, 0x00, 0x00, 0x01, 0x01, 0x00, 0x00, 0x00, 0x3b, 0x00, 0x00, 0x00,
  0x02, 0x00, 0x00, 0x00, 0x3a, 0x00, 0x00, 0x00, 0x14, 0x00, 0x00, 0x00,
  0xc2, 0xfb, 0xff, 0xff, 0x0c, 0x00, 0x00, 0x00, 0x10, 0x00, 0x00, 0x00,
  0x06, 0x00, 0x00, 0x00, 0x01, 0x00, 0x00, 0x00, 0x3a, 0x00, 0x00, 0x00,
  0x03, 0x00, 0x00, 0x00, 0x39, 0x00, 0x00, 0x00, 0x05, 0x00, 0x00, 0x00,
  0x06, 0x00, 0x00, 0x00, 0xea, 0xfb, 0xff, 0xff, 0x0c, 0x00, 0x00, 0x00,
  0x10, 0x00, 0x00, 0x00, 0x02, 0x00, 0x00, 0x00, 0x01, 0x00, 0x00, 0x00,
  0x39, 0x00, 0x00, 0x00, 0x02, 0x00, 0x00, 0x00, 0x38, 0x00, 0x00, 0x00,
  0x07, 0x00, 0x00, 0x00, 0x4e, 0xfc, 0xff, 0xff, 0x14, 0x00, 0x00, 0x00,
  0x00, 0x00, 0x00, 0x01, 0x1c, 0x00, 0x00, 0x00, 0x20, 0x00, 0x00, 0x00,
  0x01, 0x00, 0x00, 0x00, 0xb2, 0xfe, 0xff, 0xff, 0x01, 0x00, 0x00, 0x00,
  0x01, 0x00, 0x00, 0x00, 0x00, 0x00, 0x00, 0x01, 0x01, 0x00, 0x00, 0x00,
  0x38, 0x00, 0x00, 0x00, 0x03, 0x00, 0x00, 0x00, 0x37, 0x00, 0x00, 0x00,
  0x15, 0x00, 0x00, 0x00, 0x18, 0x00, 0x00, 0x00, 0xc6, 0xfb, 0xff, 0xff,
  0x10, 0x00, 0x00, 0x00, 0x00, 0x00, 0x00, 0x34, 0x0c, 0x00, 0x00, 0x00,
  0x10, 0x00, 0x00, 0x00, 0x18, 0xc4, 0xff, 0xff, 0x01, 0x00, 0x00, 0x00,
  0x37, 0x00, 0x00, 0x00, 0x02, 0x00, 0x00, 0x00, 0x36, 0x00, 0x00, 0x00,
  0x01, 0x00, 0x00, 0x00, 0x7a, 0xfc, 0xff, 0xff, 0x0c, 0x00, 0x00, 0x00,
  0x10, 0x00, 0x00, 0x00, 0x05, 0x00, 0x00, 0x00, 0x01, 0x00, 0x00, 0x00,
  0x36, 0x00, 0x00, 0x00, 0x03, 0x00, 0x00, 0x00, 0x35, 0x00, 0x00, 0x00,
  0x05, 0x00, 0x00, 0x00, 0x06, 0x00, 0x00, 0x00, 0xe2, 0xfc, 0xff, 0xff,
  0x14, 0x00, 0x00, 0x00, 0x00, 0x00, 0x00, 0x16, 0x10, 0x00, 0x00, 0x00,
  0x14, 0x00, 0x00, 0x00, 0x03, 0x00, 0x00, 0x00, 0x70, 0xc4, 0xff, 0xff,
  0x01, 0x00, 0x00, 0x00, 0x35, 0x00, 0x00, 0x00, 0x02, 0x00, 0x00, 0x00,
  0x34, 0x00, 0x00, 0x00, 0x04, 0x00, 0x00, 0x00, 0xa2, 0xfc, 0xff, 0xff,
  0x1c, 0x00, 0x00, 0x00, 0x00, 0x00, 0x00, 0x0b, 0x1c, 0x00, 0x00, 0x00,
  0x20, 0x00, 0x00, 0x00, 0x04, 0x00, 0x00, 0x00, 0x00, 0x00, 0x06, 0x00,
  0x08, 0x00, 0x07, 0x00, 0x06, 0x00, 0x00, 0x00, 0x00, 0x00, 0x00, 0x01,
  0x01, 0x00, 0x00, 0x00, 0x34, 0x00, 0x00, 0x00, 0x02, 0x00, 0x00, 0x00,
  0x33, 0x00, 0x00, 0x00, 0x16, 0x00, 0x00, 0x00, 0x0e, 0xfd, 0xff, 0xff,
  0x0c, 0x00, 0x00, 0x00, 0x10, 0x00, 0x00, 0x00, 0x06, 0x00, 0x00, 0x00,
  0x01, 0x00, 0x00, 0x00, 0x33, 0x00, 0x00, 0x00, 0x03, 0x00, 0x00, 0x00,
  0x32, 0x00, 0x00, 0x00, 0x05, 0x00, 0x00, 0x00, 0x06, 0x00, 0x00, 0x00,
  0x36, 0xfd, 0xff, 0xff, 0x0c, 0x00, 0x00, 0x00, 0x10, 0x00, 0x00, 0x00,
  0x02, 0x00, 0x00, 0x00, 0x01, 0x00, 0x00, 0x00, 0x32, 0x00, 0x00, 0x00,
  0x02, 0x00, 0x00, 0x00, 0x31, 0x00, 0x00, 0x00, 0x07, 0x00, 0x00, 0x00,
  0x2a, 0xfd, 0xff, 0xff, 0x20, 0x00, 0x00, 0x00, 0x00, 0x00, 0x00, 0x01,
  0x28, 0x00, 0x00, 0x00, 0x2c, 0x00, 0x00, 0x00, 0x01, 0x00, 0x00, 0x00,
  0x00, 0x00, 0x0a, 0x00, 0x10, 0x00, 0x0f, 0x00, 0x08, 0x00, 0x04, 0x00,
  0x0a, 0x00, 0x00, 0x00, 0x01, 0x00, 0x00, 0x00, 0x01, 0x00, 0x00, 0x00,
  0x00, 0x00, 0x00, 0x01, 0x01, 0x00, 0x00, 0x00, 0x31, 0x00, 0x00, 0x00,
  0x03, 0x00, 0x00, 0x00, 0x30, 0x00, 0x00, 0x00, 0x1b, 0x00, 0x00, 0x00,
  0x17, 0x00, 0x00, 0x00, 0x1e, 0xfd, 0xff, 0xff, 0x10, 0x00, 0x00, 0x00,
  0x00, 0x00, 0x00, 0x34, 0x0c, 0x00, 0x00, 0x00, 0x10, 0x00, 0x00, 0x00,
  0x70, 0xc5, 0xff, 0xff, 0x01, 0x00, 0x00, 0x00, 0x30, 0x00, 0x00, 0x00,
  0x02, 0x00, 0x00, 0x00, 0x2f, 0x00, 0x00, 0x00, 0x01, 0x00, 0x00, 0x00,
  0xd2, 0xfd, 0xff, 0xff, 0x0c, 0x00, 0x00, 0x00, 0x10, 0x00, 0x00, 0x00,
  0x05, 0x00, 0x00, 0x00, 0x01, 0x00, 0x00, 0x00, 0x2f, 0x00, 0x00, 0x00,
  0x03, 0x00, 0x00, 0x00, 0x2e, 0x00, 0x00, 0x00, 0x05, 0x00, 0x00, 0x00,
  0x06, 0x00, 0x00, 0x00, 0x3a, 0xfe, 0xff, 0xff, 0x14, 0x00, 0x00, 0x00,
  0x00, 0x00, 0x00, 0x16, 0x10, 0x00, 0x00, 0x00, 0x14, 0x00, 0x00, 0x00,
  0x03, 0x00, 0x00, 0x00, 0xc8, 0xc5, 0xff, 0xff, 0x01, 0x00, 0x00, 0x00,
  0x2e, 0x00, 0x00, 0x00, 0x02, 0x00, 0x00, 0x00, 0x2d, 0x00, 0x00, 0x00,
  0x04, 0x00, 0x00, 0x00, 0x2a, 0xfe, 0xff, 0xff, 0x0c, 0x00, 0x00, 0x00,
  0x10, 0x00, 0x00, 0x00, 0x02, 0x00, 0x00, 0x00, 0x01, 0x00, 0x00, 0x00,
  0x2d, 0x00, 0x00, 0x00, 0x02, 0x00, 0x00, 0x00, 0x2c, 0x00, 0x00, 0x00,
  0x02, 0x00, 0x00, 0x00, 0x8e, 0xfe, 0xff, 0xff, 0x14, 0x00, 0x00, 0x00,
  0x00, 0x00, 0x00, 0x0b, 0x10, 0x00, 0x00, 0x00, 0x14, 0x00, 0x00, 0x00,
  0x04, 0x00, 0x00, 0x00, 0x1c, 0xc6, 0xff, 0xff, 0x01, 0x00, 0x00, 0x00,
  0x2c, 0x00, 0x00, 0x00, 0x02, 0x00, 0x00, 0x00, 0x23, 0x00, 0x00, 0x00,
  0x2b, 0x00, 0x00, 0x00, 0xbe, 0xfe, 0xff, 0xff, 0x14, 0x00, 0x00, 0x00,
  0x00, 0x00, 0x00, 0x01, 0x20, 0x00, 0x00, 0x00, 0x24, 0x00, 0x00, 0x00,
  0x01, 0x00, 0x00, 0x00, 0x3c, 0xff, 0xff, 0xff, 0x00, 0x00, 0x00, 0x01,
  0x01, 0x00, 0x00, 0x00, 0x01, 0x00, 0x00, 0x00, 0x00, 0x00, 0x00, 0x01,
  0x01, 0x00, 0x00, 0x00, 0x2b, 0x00, 0x00, 0x00, 0x03, 0x00, 0x00, 0x00,
  0x2a, 0x00, 0x00, 0x00, 0x1d, 0x00, 0x00, 0x00, 0x1c, 0x00, 0x00, 0x00,
  0x3a, 0xfe, 0xff, 0xff, 0x10, 0x00, 0x00, 0x00, 0x00, 0x00, 0x00, 0x34,
  0x0c, 0x00, 0x00, 0x00, 0x10, 0x00, 0x00, 0x00, 0x8c, 0xc6, 0xff, 0xff,
  0x01, 0x00, 0x00, 0x00, 0x2a, 0x00, 0x00, 0x00, 0x02, 0x00, 0x00, 0x00,
  0x29, 0x00, 0x00, 0x00, 0x01, 0x00, 0x00, 0x00, 0x2e, 0xff, 0xff, 0xff,
  0x14, 0x00, 0x00, 0x00, 0x00, 0x00, 0x00, 0x16, 0x10, 0x00, 0x00, 0x00,
  0x14, 0x00, 0x00, 0x00, 0x03, 0x00, 0x00, 0x00, 0xbc, 0xc6, 0xff, 0xff,
  0x01, 0x00, 0x00, 0x00, 0x29, 0x00, 0x00, 0x00, 0x02, 0x00, 0x00, 0x00,
  0x28, 0x00, 0x00, 0x00, 0x03, 0x00, 0x00, 0x00, 0x1e, 0xff, 0xff, 0xff,
  0x0c, 0x00, 0x00, 0x00, 0x10, 0x00, 0x00, 0x00, 0x02, 0x00, 0x00, 0x00,
  0x01, 0x00, 0x00, 0x00, 0x28, 0x00, 0x00, 0x00, 0x02, 0x00, 0x00, 0x00,
  0x27, 0x00, 0x00, 0x00, 0x02, 0x00, 0x00, 0x00, 0x82, 0xff, 0xff, 0xff,
  0x20, 0x00, 0x00, 0x00, 0x00, 0x00, 0x00, 0x01, 0x2c, 0x00, 0x00, 0x00,
  0x30, 0x00, 0x00, 0x00, 0x01, 0x00, 0x00, 0x00, 0x0c, 0x00, 0x14, 0x00,
  0x13, 0x00, 0x0c, 0x00, 0x08, 0x00, 0x07, 0x00, 0x0c, 0x00, 0x00, 0x00,
  0x00, 0x00, 0x00, 0x01, 0x01, 0x00, 0x00, 0x00, 0x01, 0x00, 0x00, 0x00,
  0x00, 0x00, 0x00, 0x01, 0x01, 0x00, 0x00, 0x00, 0x27, 0x00, 0x00, 0x00,
  0x03, 0x00, 0x00, 0x00, 0x26, 0x00, 0x00, 0x00, 0x1f, 0x00, 0x00, 0x00,
  0x1e, 0x00, 0x00, 0x00, 0x0a, 0xff, 0xff, 0xff, 0x10, 0x00, 0x00, 0x00,
  0x00, 0x00, 0x00, 0x34, 0x0c, 0x00, 0x00, 0x00, 0x10, 0x00, 0x00, 0x00,
  0x5c, 0xc7, 0xff, 0xff, 0x01, 0x00, 0x00, 0x00, 0x26, 0x00, 0x00, 0x00,
  0x02, 0x00, 0x00, 0x00, 0x25, 0x00, 0x00, 0x00, 0x01, 0x00, 0x00, 0x00,
  0x00, 0x00, 0x0e, 0x00, 0x18, 0x00, 0x14, 0x00, 0x10, 0x00, 0x0c, 0x00,
  0x0b, 0x00, 0x04, 0x00, 0x0e, 0x00, 0x00, 0x00, 0x14, 0x00, 0x00, 0x00,
  0x00, 0x00, 0x00, 0x16, 0x10, 0x00, 0x00, 0x00, 0x14, 0x00, 0x00, 0x00,
  0x03, 0x00, 0x00, 0x00, 0x9c, 0xc7, 0xff, 0xff, 0x01, 0x00, 0x00, 0x00,
  0x25, 0x00, 0x00, 0x00, 0x02, 0x00, 0x00, 0x00, 0x24, 0x00, 0x00, 0x00,
  0x03, 0x00, 0x00, 0x00, 0x00, 0x00, 0x0a, 0x00, 0x10, 0x00, 0x0c, 0x00,
  0x08, 0x00, 0x04, 0x00, 0x0a, 0x00, 0x00, 0x00, 0x0c, 0x00, 0x00, 0x00,
  0x10, 0x00, 0x00, 0x00, 0x02, 0x00, 0x00, 0x00, 0x01, 0x00, 0x00, 0x00,
  0x24, 0x00, 0x00, 0x00, 0x02, 0x00, 0x00, 0x00, 0x23, 0x00, 0x00, 0x00,
  0x02, 0x00, 0x00, 0x00, 0x00, 0x00, 0x0e, 0x00, 0x1a, 0x00, 0x14, 0x00,
  0x10, 0x00, 0x0c, 0x00, 0x0b, 0x00, 0x04, 0x00, 0x0e, 0x00, 0x00, 0x00,
  0x20, 0x00, 0x00, 0x00, 0x00, 0x00, 0x00, 0x01, 0x24, 0x00, 0x00, 0x00,
  0x28, 0x00, 0x00, 0x00, 0x01, 0x00, 0x00, 0x00, 0x00, 0x00, 0x0a, 0x00,
  0x0c, 0x00, 0x00, 0x00, 0x08, 0x00, 0x04, 0x00, 0x0a, 0x00, 0x00, 0x00,
  0x01, 0x00, 0x00, 0x00, 0x01, 0x00, 0x00, 0x00, 0x01, 0x00, 0x00, 0x00,
  0x23, 0x00, 0x00, 0x00, 0x03, 0x00, 0x00, 0x00, 0x22, 0x00, 0x00, 0x00,
  0x21, 0x00, 0x00, 0x00, 0x20, 0x00, 0x00, 0x00, 0x00, 0x00, 0x0e, 0x00,
  0x14, 0x00, 0x00, 0x00, 0x10, 0x00, 0x0c, 0x00, 0x0b, 0x00, 0x04, 0x00,
  0x0e, 0x00, 0x00, 0x00, 0x10, 0x00, 0x00, 0x00, 0x00, 0x00, 0x00, 0x34,
  0x0c, 0x00, 0x00, 0x00, 0x10, 0x00, 0x00, 0x00, 0x60, 0xc8, 0xff, 0xff,
  0x01, 0x00, 0x00, 0x00, 0x22, 0x00, 0x00, 0x00, 0x02, 0x00, 0x00, 0x00,
  0x00, 0x00, 0x00, 0x00, 0x01, 0x00, 0x00, 0x00, 0x01, 0x00, 0x00, 0x00,
  0x4d, 0x00, 0x00, 0x00, 0x01, 0x00, 0x00, 0x00, 0x00, 0x00, 0x00, 0x00,
  0x4e, 0x00, 0x00, 0x00, 0xc0, 0x37, 0x00, 0x00, 0x54, 0x37, 0x00, 0x00,
  0xec, 0x36, 0x00, 0x00, 0x9c, 0x36, 0x00, 0x00, 0x4c, 0x36, 0x00, 0x00,
  0xe8, 0x35, 0x00, 0x00, 0x88, 0x35, 0x00, 0x00, 0x38, 0x35, 0x00, 0x00,
  0xe8, 0x34, 0x00, 0x00, 0x84, 0x34, 0x00, 0x00, 0x34, 0x34, 0x00, 0x00,
  0xe0, 0x33, 0x00, 0x00, 0x8c, 0x33, 0x00, 0x00, 0x38, 0x33, 0x00, 0x00,
  0xc8, 0x32, 0x00, 0x00, 0x64, 0x32, 0x00, 0x00, 0xf0, 0x31, 0x00, 0x00,
  0x6c, 0x30, 0x00, 0x00, 0xf8, 0x2f, 0x00, 0x00, 0x74, 0x2e, 0x00, 0x00,
  0x00, 0x2e, 0x00, 0x00, 0x7c, 0x2c, 0x00, 0x00, 0x08, 0x2c, 0x00, 0x00,
  0x8c, 0x2a, 0x00, 0x00, 0x10, 0x29, 0x00, 0x00, 0x94, 0x27, 0x00, 0x00,
  0x18, 0x26, 0x00, 0x00, 0x94, 0x24, 0x00, 0x00, 0x08, 0x23, 0x00, 0x00,
  0x84, 0x21, 0x00, 0x00, 0xf8, 0x1f, 0x00, 0x00, 0x74, 0x1e, 0x00, 0x00,
  0xf0, 0x1c, 0x00, 0x00, 0x6c, 0x1b, 0x00, 0x00, 0xd8, 0x1a, 0x00, 0x00,
  0xe4, 0x19, 0x00, 0x00, 0x24, 0x19, 0x00, 0x00, 0xa8, 0x18, 0x00, 0x00,
  0x10, 0x18, 0x00, 0x00, 0x04, 0x17, 0x00, 0x00, 0x2c, 0x16, 0x00, 0x00,
  0xb0, 0x15, 0x00, 0x00, 0x18, 0x15, 0x00, 0x00, 0x0c, 0x14, 0x00, 0x00,
  0xc8, 0x12, 0x00, 0x00, 0x88, 0x11, 0x00, 0x00, 0x0c, 0x11, 0x00, 0x00,
  0x78, 0x10, 0x00, 0x00, 0xe0, 0x0f, 0x00, 0x00, 0x54, 0x0f, 0x00, 0x00,
  0xcc, 0x0e, 0x00, 0x00, 0x38, 0x0e, 0x00, 0x00, 0xa4, 0x0d, 0x00, 0x00,
  0x28, 0x0d, 0x00, 0x00, 0x94, 0x0c, 0x00, 0x00, 0xfc, 0x0b, 0x00, 0x00,
  0x70, 0x0b, 0x00, 0x00, 0xe8, 0x0a, 0x00, 0x00, 0x54, 0x0a, 0x00, 0x00,
  0xc0, 0x09, 0x00, 0x00, 0x44, 0x09, 0x00, 0x00, 0xc8, 0x08, 0x00, 0x00,
  0x34, 0x08, 0x00, 0x00, 0x9c, 0x07, 0x00, 0x00, 0x10, 0x07, 0x00, 0x00,
  0x88, 0x06, 0x00, 0x00, 0xf4, 0x05, 0x00, 0x00, 0x60, 0x05, 0x00, 0x00,
  0xe4, 0x04, 0x00, 0x00, 0x50, 0x04, 0x00, 0x00, 0xb8, 0x03, 0x00, 0x00,
  0x2c, 0x03, 0x00, 0x00, 0xa4, 0x02, 0x00, 0x00, 0x10, 0x02, 0x00, 0x00,
  0x7c, 0x01, 0x00, 0x00, 0x00, 0x01, 0x00, 0x00, 0x80, 0x00, 0x00, 0x00,
  0x04, 0x00, 0x00, 0x00, 0x8e, 0xc9, 0xff, 0xff, 0x00, 0x00, 0x00, 0x01,
  0x18, 0x00, 0x00, 0x00, 0x20, 0x00, 0x00, 0x00, 0x3c, 0x00, 0x00, 0x00,
  0x4e, 0x00, 0x00, 0x00, 0x00, 0x00, 0x00, 0x09, 0x50, 0x00, 0x00, 0x00,
  0x02, 0x00, 0x00, 0x00, 0xff, 0xff, 0xff, 0xff, 0x01, 0x00, 0x00, 0x00,
  0x74, 0xc9, 0xff, 0xff, 0x08, 0x00, 0x00, 0x00, 0x10, 0x00, 0x00, 0x00,
  0x01, 0x00, 0x00, 0x00, 0x80, 0xff, 0xff, 0xff, 0xff, 0xff, 0xff, 0xff,
  0x01, 0x00, 0x00, 0x00, 0x76, 0x84, 0x55, 0x3b, 0x19, 0x00, 0x00, 0x00,
  0x53, 0x74, 0x61, 0x74, 0x65, 0x66, 0x75, 0x6c, 0x50, 0x61, 0x72, 0x74,
  0x69, 0x74, 0x69, 0x6f, 0x6e, 0x65, 0x64, 0x43, 0x61, 0x6c, 0x6c, 0x3a,
  0x30, 0x00, 0x00, 0x00, 0x02, 0x00, 0x00, 0x00, 0x01, 0x00, 0x00, 0x00,
  0x01, 0x00, 0x00, 0x00, 0x06, 0xca, 0xff, 0xff, 0x00, 0x00, 0x00, 0x01,
  0x18, 0x00, 0x00, 0x00, 0x20, 0x00, 0x00, 0x00, 0x40, 0x00, 0x00, 0x00,
  0x4d, 0x00, 0x00, 0x00, 0x00, 0x00, 0x00, 0x09, 0x54, 0x00, 0x00, 0x00,
  0x02, 0x00, 0x00, 0x00, 0xff, 0xff, 0xff, 0xff, 0x18, 0x00, 0x00, 0x00,
  0xec, 0xc9, 0xff, 0xff, 0x08, 0x00, 0x00, 0x00, 0x14, 0x00, 0x00, 0x00,
  0x01, 0x00, 0x00, 0x00, 0x15, 0x00, 0x00, 0x00, 0x00, 0x00, 0x00, 0x00,
  0x00, 0x00, 0x00, 0x00, 0x01, 0x00, 0x00, 0x00, 0x5a, 0x74, 0xf7, 0x3b,
  0x1a, 0x00, 0x00, 0x00, 0x6d, 0x6f, 0x64, 0x65, 0x6c, 0x2f, 0x6c, 0x61,
  0x6d, 0x62, 0x64, 0x61, 0x2f, 0x73, 0x74, 0x72, 0x69, 0x64, 0x65, 0x64,
  0x5f, 0x73, 0x6c, 0x69, 0x63, 0x65, 0x00, 0x00, 0x02, 0x00, 0x00, 0x00,
  0x01, 0x00, 0x00, 0x00, 0x18, 0x00, 0x00, 0x00, 0x82, 0xca, 0xff, 0xff,
  0x00, 0x00, 0x00, 0x01, 0x18, 0x00, 0x00, 0x00, 0x24, 0x00, 0x00, 0x00,
  0x44, 0x00, 0x00, 0x00, 0x4c, 0x00, 0x00, 0x00, 0x00, 0x00, 0x00, 0x09,
  0x4c, 0x00, 0x00, 0x00, 0x03, 0x00, 0x00, 0x00, 0xff, 0xff, 0xff, 0xff,
  0x18, 0x00, 0x00, 0x00, 0x18, 0x00, 0x00, 0x00, 0x6c, 0xca, 0xff, 0xff,
  0x08, 0x00, 0x00, 0x00, 0x14, 0x00, 0x00, 0x00, 0x01, 0x00, 0x00, 0x00,
  0x15, 0x00, 0x00, 0x00, 0x00, 0x00, 0x00, 0x00, 0x00, 0x00, 0x00, 0x00,
  0x01, 0x00, 0x00, 0x00, 0x5a, 0x74, 0xf7, 0x3b, 0x0f, 0x00, 0x00, 0x00,
  0x6d, 0x6f, 0x64, 0x65, 0x6c, 0x2f, 0x61, 0x64, 0x64, 0x5f, 0x32, 0x2f,
  0x61, 0x64, 0x64, 0x00, 0x03, 0x00, 0x00, 0x00, 0x01, 0x00, 0x00, 0x00,
  0x18, 0x00, 0x00, 0x00, 0x18, 0x00, 0x00, 0x00, 0xfa, 0xca, 0xff, 0xff,
  0x00, 0x00, 0x00, 0x01, 0x18, 0x00, 0x00, 0x00, 0x24, 0x00, 0x00, 0x00,
  0x40, 0x00, 0x00, 0x00, 0x4b, 0x00, 0x00, 0x00, 0x00, 0x00, 0x00, 0x09,
  0x64, 0x00, 0x00, 0x00, 0x03, 0x00, 0x00, 0x00, 0xff, 0xff, 0xff, 0xff,
  0x18, 0x00, 0x00, 0x00, 0x18, 0x00, 0x00, 0x00, 0xe4, 0xca, 0xff, 0xff,
  0x08, 0x00, 0x00, 0x00, 0x10, 0x00, 0x00, 0x00, 0x01, 0x00, 0x00, 0x00,
  0x15, 0x00, 0x00, 0x00, 0x00, 0x00, 0x00, 0x00, 0x01, 0x00, 0x00, 0x00,
  0x5a, 0x74, 0xf7, 0x3b, 0x2a, 0x00, 0x00, 0x00, 0x6d, 0x6f, 0x64, 0x65,
  0x6c, 0x2f, 0x63, 0x6f, 0x6e, 0x76, 0x31, 0x64, 0x5f, 0x36, 0x2f, 0x52,
  0x65, 0x6c, 0x75, 0x3b, 0x6d, 0x6f, 0x64, 0x65, 0x6c, 0x2f, 0x63, 0x6f,
  0x6e, 0x76, 0x31, 0x64, 0x5f, 0x36, 0x2f, 0x42, 0x69, 0x61, 0x73, 0x41,
  0x64, 0x64, 0x00, 0x00, 0x03, 0x00, 0x00, 0x00, 0x01, 0x00, 0x00, 0x00,
  0x18, 0x00, 0x00, 0x00, 0x18, 0x00, 0x00, 0x00, 0x8a, 0xcb, 0xff, 0xff,
  0x00, 0x00, 0x00, 0x01, 0x18, 0x00, 0x00, 0x00, 0x24, 0x00, 0x00, 0x00,
  0x44, 0x00, 0x00, 0x00, 0x4a, 0x00, 0x00, 0x00, 0x00, 0x00, 0x00, 0x09,
  0x64, 0x00, 0x00, 0x00, 0x03, 0x00, 0x00, 0x00, 0xff, 0xff, 0xff, 0xff,
  0x18, 0x00, 0x00, 0x00, 0x18, 0x00, 0x00, 0x00, 0x74, 0xcb, 0xff, 0xff,
  0x08, 0x00, 0x00, 0x00, 0x14, 0x00, 0x00, 0x00, 0x01, 0x00, 0x00, 0x00,
  0x32, 0x00, 0x00, 0x00, 0x00, 0x00, 0x00, 0x00, 0x00, 0x00, 0x00, 0x00,
  0x01, 0x00, 0x00, 0x00, 0xa7, 0xc8, 0x86, 0x3a, 0x24, 0x00, 0x00, 0x00,
  0x6d, 0x6f, 0x64, 0x65, 0x6c, 0x2f, 0x63, 0x6f, 0x6e, 0x76, 0x31, 0x64,
  0x5f, 0x36, 0x2f, 0x43, 0x6f, 0x6e, 0x76, 0x31, 0x44, 0x2f, 0x42, 0x61,
  0x74, 0x63, 0x68, 0x54, 0x6f, 0x53, 0x70, 0x61, 0x63, 0x65, 0x4e, 0x44,
  0x00, 0x00, 0x00, 0x00, 0x03, 0x00, 0x00, 0x00, 0x01, 0x00, 0x00, 0x00,
  0x18, 0x00, 0x00, 0x00, 0x18, 0x00, 0x00, 0x00, 0x1a, 0xcc, 0xff, 0xff,
  0x00, 0x00, 0x00, 0x01, 0x18, 0x00, 0x00, 0x00, 0x24, 0x00, 0x00, 0x00,
  0x40, 0x00, 0x00, 0x00, 0x49, 0x00, 0x00, 0x00, 0x00, 0x00, 0x00, 0x09,
  0x58, 0x00, 0x00, 0x00, 0x03, 0x00, 0x00, 0x00, 0xff, 0xff, 0xff, 0xff,
  0x06, 0x00, 0x00, 0x00, 0x18, 0x00, 0x00, 0x00, 0x04, 0xcc, 0xff, 0xff,
  0x08, 0x00, 0x00, 0x00, 0x10, 0x00, 0x00, 0x00, 0x01, 0x00, 0x00, 0x00,
  0x32, 0x00, 0x00, 0x00, 0x00, 0x00, 0x00, 0x00, 0x01, 0x00, 0x00, 0x00,
  0xa7, 0xc8, 0x86, 0x3a, 0x1e, 0x00, 0x00, 0x00, 0x6d, 0x6f, 0x64, 0x65,
  0x6c, 0x2f, 0x63, 0x6f, 0x6e, 0x76, 0x31, 0x64, 0x5f, 0x36, 0x2f, 0x43,
  0x6f, 0x6e, 0x76, 0x31, 0x44, 0x2f, 0x53, 0x71, 0x75, 0x65, 0x65, 0x7a,
  0x65, 0x31, 0x00, 0x00, 0x03, 0x00, 0x00, 0x00, 0x01, 0x00, 0x00, 0x00,
  0x06, 0x00, 0x00, 0x00, 0x18, 0x00, 0x00, 0x00, 0x9e, 0xcc, 0xff, 0xff,
  0x00, 0x00, 0x00, 0x01, 0x18, 0x00, 0x00, 0x00, 0x28, 0x00, 0x00, 0x00,
  0x48, 0x00, 0x00, 0x00, 0x48, 0x00, 0x00, 0x00, 0x00, 0x00, 0x00, 0x09,
  0x58, 0x00, 0x00, 0x00, 0x04, 0x00, 0x00, 0x00, 0xff, 0xff, 0xff, 0xff,
  0x01, 0x00, 0x00, 0x00, 0x06, 0x00, 0x00, 0x00, 0x18, 0x00, 0x00, 0x00,
  0x8c, 0xcc, 0xff, 0xff, 0x08, 0x00, 0x00, 0x00, 0x14, 0x00, 0x00, 0x00,
  0x01, 0x00, 0x00, 0x00, 0x32, 0x00, 0x00, 0x00, 0x00, 0x00, 0x00, 0x00,
