const unsigned char g_tcn_model_data[] __attribute__((aligned(16))) = {
  0x20, 0x00, 0x00, 0x00, 0x54, 0x46, 0x4c, 0x33, 0x00, 0x00, 0x00, 0x00,
  0x14, 0x00, 0x20, 0x00, 0x1c, 0x00, 0x18, 0x00, 0x14, 0x00, 0x10, 0x00,
  0x0c, 0x00, 0x00, 0x00, 0x08, 0x00, 0x04, 0x00, 0x14, 0x00, 0x00, 0x00,
  0x1c, 0x00, 0x00, 0x00, 0x80, 0x00, 0x00, 0x00, 0xd8, 0x00, 0x00, 0x00,
  0xc8, 0x30, 0x00, 0x00, 0xd8, 0x30, 0x00, 0x00, 0xcc, 0x72, 0x00, 0x00,
  0x03, 0x00, 0x00, 0x00, 0x01, 0x00, 0x00, 0x00, 0x04, 0x00, 0x00, 0x00,
  0x6a, 0xc6, 0xff, 0xff, 0x0c, 0x00, 0x00, 0x00, 0x1c, 0x00, 0x00, 0x00,
  0x38, 0x00, 0x00, 0x00, 0x0f, 0x00, 0x00, 0x00, 0x73, 0x65, 0x72, 0x76,
  0x69, 0x6e, 0x67, 0x5f, 0x64, 0x65, 0x66, 0x61, 0x75, 0x6c, 0x74, 0x00,
  0x01, 0x00, 0x00, 0x00, 0x04, 0x00, 0x00, 0x00, 0x9c, 0xff, 0xff, 0xff,
  0x4d, 0x00, 0x00, 0x00, 0x04, 0x00, 0x00, 0x00, 0x05, 0x00, 0x00, 0x00,
  0x64, 0x65, 0x6e, 0x73, 0x65, 0x00, 0x00, 0x00, 0x01, 0x00, 0x00, 0x00,
  0x04, 0x00, 0x00, 0x00, 0xba, 0xcf, 0xff, 0xff, 0x04, 0x00, 0x00, 0x00,
  0x07, 0x00, 0x00, 0x00, 0x69, 0x6e, 0x70, 0x75, 0x74, 0x5f, 0x31, 0x00,
  0x02, 0x00, 0x00, 0x00, 0x34, 0x00, 0x00, 0x00, 0x04, 0x00, 0x00, 0x00,
  0xdc, 0xff, 0xff, 0xff, 0x50, 0x00, 0x00, 0x00, 0x04, 0x00, 0x00, 0x00,
  0x13, 0x00, 0x00, 0x00, 0x43, 0x4f, 0x4e, 0x56, 0x45, 0x52, 0x53, 0x49,
  0x4f, 0x4e, 0x5f, 0x4d, 0x45, 0x54, 0x41, 0x44, 0x41, 0x54, 0x41, 0x00,
  0x08, 0x00, 0x0c, 0x00, 0x08, 0x00, 0x04, 0x00, 0x08, 0x00, 0x00, 0x00,
  0x4f, 0x00, 0x00, 0x00, 0x04, 0x00, 0x00, 0x00, 0x13, 0x00, 0x00, 0x00,
  0x6d, 0x69, 0x6e, 0x5f, 0x72, 0x75, 0x6e, 0x74, 0x69, 0x6d, 0x65, 0x5f,
  0x76, 0x65, 0x72, 0x73, 0x69, 0x6f, 0x6e, 0x00, 0x51, 0x00, 0x00, 0x00,
  0xec, 0x2f, 0x00, 0x00, 0xe4, 0x2f, 0x00, 0x00, 0xd0, 0x2f, 0x00, 0x00,
  0xac, 0x2f, 0x00, 0x00, 0x84, 0x2f, 0x00, 0x00, 0x5c, 0x2f, 0x00, 0x00,
  0x48, 0x2f, 0x00, 0x00, 0x30, 0x2f, 0x00, 0x00, 0x14, 0x2f, 0x00, 0x00,
  0xec, 0x2e, 0x00, 0x00, 0xd8, 0x2e, 0x00, 0x00, 0xbc, 0x2e, 0x00, 0x00,
  0xa0, 0x2e, 0x00, 0x00, 0x84, 0x2e, 0x00, 0x00, 0x68, 0x2e, 0x00, 0x00,
  0x54, 0x2e, 0x00, 0x00, 0x2c, 0x2e, 0x00, 0x00, 0x04, 0x2e, 0x00, 0x00,
  0x34, 0x27, 0x00, 0x00, 0x0c, 0x27, 0x00, 0x00, 0x3c, 0x20, 0x00, 0x00,
  0x14, 0x20, 0x00, 0x00, 0x44, 0x19, 0x00, 0x00, 0x1c, 0x19, 0x00, 0x00,
  0xac, 0x18, 0x00, 0x00, 0xa4, 0x18, 0x00, 0x00, 0x9c, 0x18, 0x00, 0x00,
  0x94, 0x18, 0x00, 0x00, 0xc4, 0x11, 0x00, 0x00, 0x54, 0x11, 0x00, 0x00,
  0x84, 0x0a, 0x00, 0x00, 0x14, 0x0a, 0x00, 0x00, 0x44, 0x03, 0x00, 0x00,
  0xd4, 0x02, 0x00, 0x00, 0xec, 0x01, 0x00, 0x00, 0xe4, 0x01, 0x00, 0x00,
  0xdc, 0x01, 0x00, 0x00, 0xd4, 0x01, 0x00, 0x00, 0xcc, 0x01, 0x00, 0x00,
  0xc4, 0x01, 0x00, 0x00, 0xbc, 0x01, 0x00, 0x00, 0xb4, 0x01, 0x00, 0x00,
  0xac, 0x01, 0x00, 0x00, 0xa4, 0x01, 0x00, 0x00, 0x9c, 0x01, 0x00, 0x00,
  0x94, 0x01, 0x00, 0x00, 0x8c, 0x01, 0x00, 0x00, 0x84, 0x01, 0x00, 0x00,
  0x7c, 0x01, 0x00, 0x00, 0x74, 0x01, 0x00, 0x00, 0x6c, 0x01, 0x00, 0x00,
  0x64, 0x01, 0x00, 0x00, 0x5c, 0x01, 0x00, 0x00, 0x54, 0x01, 0x00, 0x00,
  0x4c, 0x01, 0x00, 0x00, 0x44, 0x01, 0x00, 0x00, 0x3c, 0x01, 0x00, 0x00,
  0x34, 0x01, 0x00, 0x00, 0x2c, 0x01, 0x00, 0x00, 0x24, 0x01, 0x00, 0x00,
  0x1c, 0x01, 0x00, 0x00, 0x14, 0x01, 0x00, 0x00, 0x0c, 0x01, 0x00, 0x00,
  0x04, 0x01, 0x00, 0x00, 0xfc, 0x00, 0x00, 0x00, 0xf4, 0x00, 0x00, 0x00,
  0xec, 0x00, 0x00, 0x00, 0xe4, 0x00, 0x00, 0x00, 0xdc, 0x00, 0x00, 0x00,
  0xd4, 0x00, 0x00, 0x00, 0xcc, 0x00, 0x00, 0x00, 0xc4, 0x00, 0x00, 0x00,
  0xbc, 0x00, 0x00, 0x00, 0xb4, 0x00, 0x00, 0x00, 0xac, 0x00, 0x00, 0x00,
  0xa4, 0x00, 0x00, 0x00, 0x9c, 0x00, 0x00, 0x00, 0x94, 0x00, 0x00, 0x00,
  0x8c, 0x00, 0x00, 0x00, 0x6c, 0x00, 0x00, 0x00, 0x04, 0x00, 0x00, 0x00,
  0x72, 0xd1, 0xff, 0xff, 0x04, 0x00, 0x00, 0x00, 0x58, 0x00, 0x00, 0x00,
  0x0c, 0x00, 0x00, 0x00, 0x08, 0x00, 0x0e, 0x00, 0x08, 0x00, 0x04, 0x00,
  0x08, 0x00, 0x00, 0x00, 0x10, 0x00, 0x00, 0x00, 0x28, 0x00, 0x00, 0x00,
  0x00, 0x00, 0x06, 0x00, 0x08, 0x00, 0x04, 0x00, 0x06, 0x00, 0x00, 0x00,
  0x04, 0x00, 0x00, 0x00, 0x01, 0x00, 0x00, 0x00, 0xeb, 0x03, 0x00, 0x00,
  0x00, 0x00, 0x0a, 0x00, 0x10, 0x00, 0x0c, 0x00, 0x08, 0x00, 0x04, 0x00,
  0x0a, 0x00, 0x00, 0x00, 0x02, 0x00, 0x00, 0x00, 0x02, 0x00, 0x00, 0x00,
  0x04, 0x00, 0x00, 0x00, 0x06, 0x00, 0x00, 0x00, 0x32, 0x2e, 0x31, 0x35,
  0x2e, 0x30, 0x00, 0x00, 0xd6, 0xd1, 0xff, 0xff, 0x04, 0x00, 0x00, 0x00,
  0x10, 0x00, 0x00, 0x00, 0x32, 0x2e, 0x33, 0x2e, 0x30, 0x00, 0x00, 0x00,
  0x00, 0x00, 0x00, 0x00, 0x00, 0x00, 0x00, 0x00, 0xa4, 0x90, 0xff, 0xff,
  0xa8, 0x90, 0xff, 0xff, 0xac, 0x90, 0xff, 0xff, 0xb0, 0x90, 0xff, 0xff,
  0xb4, 0x90, 0xff, 0xff, 0xb8, 0x90, 0xff, 0xff, 0xbc, 0x90, 0xff, 0xff,
  0xc0, 0x90, 0xff, 0xff, 0xc4, 0x90, 0xff, 0xff, 0xc8, 0x90, 0xff, 0xff,
  0xcc, 0x90, 0xff, 0xff, 0xd0, 0x90, 0xff, 0xff, 0xd4, 0x90, 0xff, 0xff,
  0xd8, 0x90, 0xff, 0xff, 0xdc, 0x90, 0xff, 0xff, 0xe0, 0x90, 0xff, 0xff,
  0xe4, 0x90, 0xff, 0xff, 0xe8, 0x90, 0xff, 0xff, 0xec, 0x90, 0xff, 0xff,
  0xf0, 0x90, 0xff, 0xff, 0xf4, 0x90, 0xff, 0xff, 0xf8, 0x90, 0xff, 0xff,
  0xfc, 0x90, 0xff, 0xff, 0x00, 0x91, 0xff, 0xff, 0x04, 0x91, 0xff, 0xff,
  0x08, 0x91, 0xff, 0xff, 0x0c, 0x91, 0xff, 0xff, 0x10, 0x91, 0xff, 0xff,
  0x14, 0x91, 0xff, 0xff, 0x18, 0x91, 0xff, 0xff, 0x1c, 0x91, 0xff, 0xff,
  0x20, 0x91, 0xff, 0xff, 0x24, 0x91, 0xff, 0xff, 0x28, 0x91, 0xff, 0xff,
  0x2c, 0x91, 0xff, 0xff, 0x30, 0x91, 0xff, 0xff, 0x34, 0x91, 0xff, 0xff,
  0x38, 0x91, 0xff, 0xff, 0x3c, 0x91, 0xff, 0xff, 0x40, 0x91, 0xff, 0xff,
  0x44, 0x91, 0xff, 0xff, 0x48, 0x91, 0xff, 0xff, 0x4c, 0x91, 0xff, 0xff,
  0x50, 0x91, 0xff, 0xff, 0xa2, 0xd2, 0xff, 0xff, 0x04, 0x00, 0x00, 0x00,
  0xd8, 0x00, 0x00, 0x00, 0x30, 0x0c, 0xe5, 0xbb, 0xdb, 0x65, 0x51, 0x2b,
  0x7f, 0x81, 0xf5, 0x4f, 0xc7, 0x95, 0x10, 0xc5, 0xa6, 0x16, 0x5c, 0x81,
  0x6e, 0x8e, 0xd9, 0x61, 0x21, 0xc3, 0x00, 0xf4, 0x3f, 0xf1, 0x7f, 0x65,
  0xf8, 0x92, 0x31, 0x1c, 0x24, 0x6d, 0x7f, 0xb5, 0xbc, 0x94, 0x92, 0xfb,
  0x61, 0xa6, 0x7f, 0x3b, 0xa9, 0x96, 0xfe, 0x25, 0x24, 0xe8, 0xc3, 0x26,
  0x57, 0x6e, 0xaf, 0x81, 0x13, 0x9f, 0xa6, 0x9c, 0x74, 0xfd, 0x7f, 0xfe,
  0xec, 0x52, 0xeb, 0x90, 0xe3, 0x96, 0x69, 0xe0, 0x5d, 0xa6, 0xd2, 0x81,
  0xe9, 0x81, 0xbb, 0x85, 0x78, 0xf3, 0xb1, 0xa4, 0x87, 0x7d, 0x7f, 0xf3,
  0x90, 0x37, 0xe6, 0xa0, 0x33, 0xa1, 0x5e, 0x81, 0x00, 0xd1, 0x50, 0xd6,
  0xae, 0xda, 0x23, 0x53, 0xd9, 0x34, 0xe6, 0x00, 0xcc, 0x28, 0xd0, 0x7f,
  0x5e, 0x47, 0x81, 0xdf, 0x40, 0x4b, 0x3a, 0xc7, 0x44, 0xc9, 0x81, 0xa3,
  0xba, 0xb1, 0xfd, 0x24, 0x0c, 0x47, 0x4d, 0x94, 0x81, 0x4f, 0x07, 0xd0,
  0x9f, 0xdb, 0x70, 0x2c, 0xe4, 0x7f, 0xda, 0x2b, 0xf1, 0xeb, 0xa5, 0x6f,
  0xa3, 0x7f, 0xfa, 0x17, 0x8a, 0x10, 0x1b, 0xc2, 0xe1, 0xd7, 0xb9, 0x3d,
  0x7f, 0xa7, 0xc9, 0x85, 0xf9, 0x3a, 0x3a, 0xca, 0x81, 0x91, 0xa1, 0x6a,
  0x79, 0x3d, 0x4b, 0x09, 0xed, 0x7f, 0x4a, 0x5f, 0xb0, 0x14, 0x0c, 0x0e,
  0x8b, 0xa0, 0x7f, 0xb5, 0x78, 0xc9, 0x3a, 0x3d, 0xde, 0x2d, 0xd1, 0x11,
  0x9e, 0xc5, 0xea, 0x52, 0x2a, 0x81, 0x52, 0x9a, 0x81, 0x38, 0xf1, 0xc8,
  0xca, 0xc2, 0xf2, 0x48, 0x86, 0xd3, 0xff, 0xff, 0x04, 0x00, 0x00, 0x00,
  0x60, 0x00, 0x00, 0x00, 0xe6, 0xf3, 0xff, 0xff, 0xec, 0x0c, 0x00, 0x00,
  0xf4, 0xfe, 0xff, 0xff, 0x26, 0xfe, 0xff, 0xff, 0x07, 0xf8, 0xff, 0xff,
  0x36, 0xff, 0xff, 0xff, 0x0d, 0xfd, 0xff, 0xff, 0x42, 0xf5, 0xff, 0xff,
  0x88, 0xff, 0xff, 0xff, 0x9f, 0x08, 0x00, 0x00, 0x2a, 0xfb, 0xff, 0xff,
  0x8b, 0x10, 0x00, 0x00, 0xdd, 0x0c, 0x00, 0x00, 0x07, 0xfb, 0xff, 0xff,
  0x03, 0x02, 0x00, 0x00, 0xf0, 0x02, 0x00, 0x00, 0x3a, 0xed, 0xff, 0xff,
  0x55, 0xf2, 0xff, 0xff, 0x4d, 0xfb, 0xff, 0xff, 0x3d, 0xff, 0xff, 0xff,
  0xc2, 0x13, 0x00, 0x00, 0x9d, 0x00, 0x00, 0x00, 0xe8, 0x02, 0x00, 0x00,
  0xe4, 0x14, 0x00, 0x00, 0xf2, 0xd3, 0xff, 0xff, 0x04, 0x00, 0x00, 0x00,
  0xc0, 0x06, 0x00, 0x00, 0xe3, 0xab, 0x93, 0xb8, 0xbe, 0x40, 0x37, 0x28,
  0x60, 0x12, 0xc4, 0xed, 0x39, 0x4c, 0xbe, 0xfb, 0x11, 0xb7, 0x14, 0x42,
  0xac, 0x3e, 0x02, 0x4e, 0x1f, 0x12, 0xc6, 0x1e, 0x23, 0xbe, 0xab, 0x04,
  0xa1, 0xcf, 0x4a, 0x66, 0x81, 0x1e, 0x31, 0xf7, 0x5f, 0xd5, 0xa3, 0xd4,
  0x36, 0xe2, 0xc9, 0x00, 0x93, 0xb9, 0x97, 0xea, 0xed, 0x46, 0x72, 0xed,
  0xc0, 0xf6, 0xd4, 0xf7, 0xe7, 0xd5, 0xae, 0xea, 0xf5, 0x5a, 0x50, 0x2a,
  0xcb, 0xd0, 0x2b, 0xae, 0x61, 0xb6, 0xcc, 0x7f, 0xd6, 0xf3, 0x53, 0x43,
  0xec, 0x34, 0xe0, 0x9f, 0xee, 0x70, 0xd9, 0xef, 0x4a, 0xc6, 0xfa, 0xae,
  0x2c, 0xcd, 0x26, 0xdd, 0x30, 0x8f, 0xb0, 0xdf, 0x42, 0x9f, 0x57, 0x26,
  0x79, 0x3b, 0xb7, 0x32, 0x95, 0x08, 0x1f, 0xe0, 0xe6, 0xf8, 0xd9, 0x36,
  0x88, 0x55, 0xb7, 0xfd, 0xfe, 0x64, 0xa9, 0xd7, 0x1d, 0x20, 0xc3, 0xf5,
  0xb4, 0x0a, 0xf9, 0x9d, 0x55, 0xb7, 0x4f, 0xd6, 0xb4, 0x46, 0x29, 0x1c,
  0xa3, 0xe8, 0x14, 0x9a, 0xd2, 0xba, 0x3e, 0x6d, 0x42, 0x1f, 0x4e, 0xda,
  0x36, 0xe4, 0x6d, 0x5e, 0xb6, 0x8e, 0xbe, 0x1d, 0x4b, 0xec, 0x51, 0xd9,
  0x9f, 0x32, 0xfb, 0xf3, 0x1f, 0xb0, 0x28, 0xee, 0xeb, 0x62, 0x5a, 0x56,
  0xb6, 0xbf, 0xc9, 0x06, 0xea, 0xfc, 0x30, 0xf2, 0x53, 0x9e, 0xb8, 0x43,
  0xb5, 0x16, 0xf0, 0xce, 0xb3, 0xe0, 0x32, 0xd3, 0x16, 0x7c, 0xb9, 0xf7,
  0xe6, 0xd7, 0x40, 0xc8, 0xc4, 0xe8, 0x51, 0xdf, 0xe5, 0xea, 0x91, 0xc9,
  0x01, 0x7f, 0xb6, 0x7e, 0x29, 0x7c, 0x1c, 0xb0, 0x5d, 0x4e, 0x62, 0xc8,
  0xd5, 0xf0, 0x3c, 0xe3, 0x4b, 0xad, 0x11, 0xab, 0xf2, 0x69, 0xa3, 0x42,
  0xf6, 0x8b, 0xca, 0xdc, 0xe5, 0xff, 0xfe, 0x52, 0xf9, 0x4e, 0xcb, 0x04,
  0xbb, 0x42, 0xea, 0xc8, 0xdc, 0x5c, 0x38, 0x3d, 0x6f, 0x32, 0x10, 0x03,
  0x37, 0x3e, 0x06, 0x0b, 0x2b, 0x81, 0x18, 0x97, 0xba, 0x52, 0x01, 0x05,
  0x2d, 0x66, 0x3d, 0x97, 0x33, 0x53, 0x2e, 0x04, 0xb3, 0xb0, 0x4c, 0x55,
  0x4f, 0x4d, 0x46, 0xf6, 0x1a, 0xe8, 0x53, 0x81, 0x46, 0x01, 0x95, 0xd0,
  0xb0, 0xaf, 0xb1, 0x56, 0x49, 0x0c, 0xeb, 0x38, 0xf3, 0xe0, 0x0a, 0x73,
  0x61, 0x55, 0xc1, 0xdb, 0x17, 0x67, 0xb1, 0xe9, 0x37, 0x22, 0x35, 0x43,
  0xc0, 0x6d, 0xcb, 0xea, 0xa2, 0x18, 0xb5, 0x9c, 0x0e, 0xca, 0xda, 0xa5,
  0xe2, 0xd4, 0x44, 0x1b, 0xf6, 0x5d, 0x4f, 0x39, 0xd2, 0x49, 0xdf, 0xc9,
  0xa9, 0xd1, 0xcd, 0xb3, 0xe3, 0xe2, 0xb3, 0xbb, 0x3f, 0xe1, 0xf2, 0x3a,
  0x46, 0x58, 0x18, 0x00, 0xe7, 0x1a, 0xc7, 0x95, 0xd3, 0xdf, 0x11, 0x00,
  0xd6, 0x19, 0x37, 0xc3, 0xb2, 0xbc, 0x8c, 0x73, 0xb8, 0x74, 0xad, 0xcb,
  0x41, 0x89, 0x33, 0x3f, 0xb4, 0x1d, 0x5e, 0xe4, 0x0b, 0xe6, 0x1e, 0x48,
  0xaf, 0xd6, 0xe0, 0x0a, 0x25, 0xb8, 0x29, 0x0a, 0x4f, 0x1e, 0x3d, 0xdc,
  0xb8, 0x46, 0xeb, 0x41, 0x8e, 0x7f, 0x61, 0x01, 0x4e, 0xd5, 0xfd, 0x27,
  0xe8, 0xe9, 0x1d, 0xfa, 0xa6, 0xf2, 0xb7, 0x3e, 0x1a, 0xc0, 0xba, 0x5c,
  0xab, 0xf6, 0x42, 0x01, 0xeb, 0xba, 0x35, 0xc9, 0x34, 0x57, 0xbe, 0xbe,
  0xce, 0xb8, 0xd6, 0x70, 0x11, 0xee, 0x26, 0xb2, 0xb5, 0x56, 0x16, 0xe4,
  0xf8, 0x1d, 0xb3, 0x4b, 0xa1, 0xce, 0xc8, 0xc1, 0xa7, 0xfd, 0x00, 0x59,
  0x8e, 0x27, 0x0e, 0xcf, 0x61, 0x49, 0x72, 0xb1, 0xd1, 0x0d, 0x59, 0xb1,
  0xd8, 0x0b, 0x1a, 0xb6, 0x14, 0x5b, 0x5d, 0xb0, 0x81, 0xec, 0xb8, 0x12,
  0xc3, 0xa8, 0x6a, 0x48, 0x7e, 0x90, 0xf9, 0x7f, 0xd2, 0xe3, 0x8f, 0x27,
  0xba, 0xdc, 0x26, 0xbc, 0x7f, 0x4a, 0xdf, 0x37, 0x5a, 0xde, 0x50, 0x55,
  0xcc, 0xf8, 0x50, 0xc2, 0xe1, 0x08, 0x65, 0x3a, 0xa4, 0x4d, 0xe0, 0x67,
  0x8d, 0xe3, 0x12, 0xc8, 0xca, 0x5a, 0x49, 0x32, 0x3d, 0xa4, 0x04, 0x21,
  0x30, 0xcf, 0xcb, 0xfa, 0xb4, 0x67, 0x00, 0xe7, 0xcf, 0x9a, 0xf0, 0xf6,
  0x15, 0xc0, 0xdc, 0xba, 0x2e, 0x54, 0x94, 0x37, 0xfb, 0x75, 0x58, 0x0a,
  0xdf, 0x67, 0xd6, 0xd8, 0x36, 0x22, 0xc0, 0xed, 0xc9, 0xf8, 0xd4, 0x15,
  0xd5, 0x20, 0x2a, 0xc2, 0x5b, 0x14, 0xac, 0x81, 0xfc, 0xfb, 0x2d, 0xc5,
  0x07, 0x23, 0xdf, 0x5e, 0xc7, 0xdd, 0x86, 0x31, 0x34, 0xa7, 0x6e, 0xb2,
  0x91, 0xe1, 0x40, 0x64, 0xfc, 0x6e, 0x12, 0xc5, 0x55, 0x14, 0x9d, 0xe2,
  0x40, 0x48, 0xcd, 0x59, 0xc9, 0x53, 0xcc, 0x60, 0xda, 0x12, 0x23, 0x9c,
  0x2c, 0xd6, 0xf9, 0x3e, 0xfd, 0x10, 0xbf, 0xa1, 0xb2, 0x46, 0xe5, 0xd2,
  0xfa, 0x5f, 0x60, 0xa0, 0x32, 0xec, 0x43, 0xb4, 0x02, 0x29, 0x33, 0x36,
  0x17, 0xbf, 0x42, 0x0a, 0x22, 0x3a, 0x12, 0xb0, 0xd5, 0xe3, 0x3a, 0x39,
  0xc3, 0x6a, 0xfa, 0xed, 0xa8, 0xef, 0xf7, 0xd8, 0x5f, 0xfc, 0x1c, 0xc5,
  0xa2, 0x58, 0x15, 0xb4, 0xbd, 0xb0, 0xd2, 0x0c, 0x07, 0x08, 0x4d, 0x5d,
  0x48, 0x9c, 0x6f, 0x4e, 0x3a, 0x9e, 0x0d, 0xe1, 0x7f, 0xbd, 0x26, 0x14,
  0x1f, 0x52, 0x65, 0x93, 0xcc, 0x67, 0xa3, 0xd5, 0x1a, 0x7c, 0x72, 0x22,
  0x08, 0x11, 0x94, 0xb7, 0x5a, 0xf7, 0x93, 0x34, 0x3b, 0x6a, 0xa2, 0xc3,
  0xc9, 0x41, 0xc3, 0xaa, 0x22, 0x22, 0xee, 0xcb, 0xc4, 0x68, 0x3c, 0xff,
  0x0e, 0x3a, 0x18, 0xdb, 0xff, 0xa6, 0xf5, 0xf5, 0x61, 0x15, 0x1b, 0x52,
  0x09, 0x0d, 0x4f, 0x32, 0xf9, 0x51, 0xbb, 0x9d, 0x11, 0x33, 0xf5, 0x22,
  0x63, 0x51, 0x14, 0xec, 0x32, 0xe6, 0x42, 0x7f, 0xd2, 0x11, 0xc9, 0x9d,
  0xcb, 0x9f, 0x51, 0x2f, 0x49, 0xb6, 0x4b, 0xfb, 0x05, 0x5d, 0x36, 0x28,
  0x3d, 0x06, 0x11, 0xa0, 0x18, 0xcd, 0xef, 0x19, 0xf7, 0x13, 0x60, 0x10,
  0xcc, 0xa2, 0x50, 0x4f, 0xda, 0xec, 0x16, 0x29, 0xf9, 0xb7, 0x24, 0xe3,
  0xb4, 0x02, 0x06, 0x5e, 0x05, 0x56, 0x49, 0x12, 0xf3, 0x3d, 0xb9, 0x93,
  0x15, 0x25, 0x16, 0x1c, 0xe2, 0x46, 0xe8, 0xd3, 0xa8, 0x06, 0x0c, 0x39,
  0xf1, 0xc3, 0xad, 0x48, 0x1e, 0xc3, 0x9b, 0x60, 0x55, 0x41, 0xc5, 0x81,
  0xb2, 0xa9, 0xb8, 0x4f, 0xff, 0x5f, 0xa9, 0x2f, 0x3c, 0x25, 0xec, 0xa3,
  0xab, 0xf0, 0x32, 0x1a, 0x04, 0xdf, 0xf8, 0xfa, 0x0a, 0xe2, 0xb4, 0xb7,
  0xdb, 0xde, 0x65, 0x6a, 0x81, 0x2a, 0x43, 0xa6, 0x25, 0xc2, 0xa4, 0x1f,
  0x32, 0xc7, 0xc0, 0xb9, 0x45, 0xbb, 0xe4, 0x1f, 0x15, 0x5b, 0xa5, 0x38,
  0xd4, 0x45, 0x54, 0x3c, 0x10, 0xda, 0x4d, 0xd4, 0x39, 0x56, 0xe8, 0x26,
  0xc6, 0xc2, 0x37, 0x11, 0x00, 0xf7, 0x46, 0xcf, 0xf9, 0xba, 0xec, 0xed,
  0xd5, 0xe5, 0xfd, 0x05, 0x07, 0xe4, 0xf2, 0xb8, 0xb4, 0xf3, 0x2f, 0x99,
  0x33, 0xf7, 0x2f, 0xcd, 0xfc, 0x39, 0x20, 0xd7, 0x74, 0x29, 0x20, 0x0d,
  0x3b, 0xff, 0x0a, 0xe7, 0x00, 0x7d, 0xc0, 0x0e, 0x52, 0x65, 0x12, 0x6f,
  0x24, 0x74, 0x66, 0xb1, 0x68, 0xf3, 0xe7, 0x05, 0x2c, 0xae, 0x35, 0xf4,
  0xa2, 0x1a, 0x09, 0xf9, 0xf1, 0xc4, 0x20, 0x61, 0x93, 0xd1, 0xc8, 0x7f,
  0xf7, 0x3f, 0x69, 0x7f, 0xa3, 0x60, 0x68, 0x4a, 0xd6, 0xea, 0x08, 0xa2,
  0xf4, 0xab, 0x07, 0x18, 0xe8, 0xfd, 0x55, 0xa7, 0x4c, 0x6e, 0xfe, 0x1d,
  0xc6, 0xfc, 0x16, 0x39, 0xf4, 0x46, 0xf2, 0xc3, 0x58, 0x0a, 0x3e, 0x52,
  0xcc, 0x4c, 0xc9, 0xab, 0x1b, 0x41, 0xdb, 0x43, 0xbc, 0x24, 0x6b, 0x73,
  0xab, 0x26, 0xd4, 0x46, 0xc8, 0xef, 0x61, 0x63, 0xa7, 0x63, 0x1a, 0x0a,
  0x99, 0xdd, 0x0c, 0xe5, 0x18, 0x02, 0x92, 0x0e, 0xa0, 0x12, 0xb0, 0x3b,
  0xca, 0xfd, 0xef, 0xbb, 0x61, 0x92, 0xa1, 0x41, 0x0f, 0x41, 0x4a, 0xa4,
  0xf1, 0x2b, 0xc6, 0x9e, 0xc7, 0x2d, 0x56, 0xdc, 0x07, 0xaa, 0x7f, 0x06,
  0x38, 0x41, 0xe5, 0xb8, 0xe3, 0x9e, 0x26, 0xac, 0xc4, 0x10, 0x90, 0x27,
  0x9c, 0x3c, 0xfd, 0x97, 0xa7, 0x59, 0xc8, 0xc2, 0x3a, 0x00, 0x1f, 0x5c,
  0xcd, 0xcf, 0x3f, 0x24, 0x64, 0xac, 0x62, 0x24, 0x5e, 0x90, 0xdc, 0xc2,
  0xf6, 0x23, 0xe5, 0x18, 0xd7, 0x53, 0xf8, 0xee, 0x41, 0xe9, 0xd6, 0xac,
  0xc4, 0x18, 0x3a, 0xcc, 0xc1, 0x3e, 0x2e, 0xf8, 0x58, 0x00, 0x46, 0xde,
  0x38, 0x4c, 0xbf, 0xe5, 0x38, 0xd8, 0x26, 0xb8, 0xf0, 0x49, 0xe9, 0x48,
  0x3c, 0xa9, 0x06, 0xb1, 0x23, 0x2a, 0xad, 0xce, 0xdd, 0x63, 0x13, 0x81,
  0x5e, 0xff, 0xd4, 0xe9, 0xe7, 0x03, 0x41, 0x41, 0x02, 0x45, 0x7f, 0xcf,
  0xf7, 0x68, 0x4f, 0x47, 0xa6, 0xde, 0xaa, 0x13, 0x6a, 0xa7, 0xa6, 0x04,
  0xaf, 0x5c, 0xda, 0x1b, 0x98, 0x4c, 0xf6, 0xc7, 0x48, 0xf5, 0x6e, 0x62,
  0xb8, 0xb0, 0xaa, 0xd0, 0x61, 0xf1, 0x11, 0xad, 0x34, 0x13, 0x37, 0x24,
  0x4c, 0xe6, 0x3d, 0x23, 0x03, 0xc6, 0xa3, 0x92, 0x45, 0x4b, 0x57, 0x58,
  0x2c, 0xfe, 0x9c, 0x2b, 0xa7, 0xff, 0xfc, 0xd4, 0x6e, 0xec, 0x24, 0xfa,
  0x51, 0x3f, 0x29, 0xdf, 0xfc, 0x00, 0x21, 0x6c, 0x36, 0x39, 0x30, 0x71,
  0x20, 0xe7, 0xf4, 0xfb, 0x3e, 0x09, 0xef, 0x4a, 0xbd, 0x4e, 0xe8, 0x34,
  0x15, 0xd6, 0xee, 0x2c, 0x36, 0x33, 0xfd, 0x02, 0x3d, 0xe2, 0xd2, 0xf4,
  0xb8, 0xd4, 0x02, 0x1f, 0xab, 0x5f, 0x0f, 0xc6, 0x28, 0xd6, 0xb8, 0xc9,
  0x82, 0x56, 0x01, 0xcf, 0x70, 0xba, 0x90, 0x2f, 0xac, 0x09, 0xe9, 0x21,
  0x45, 0x35, 0xd7, 0xf2, 0xde, 0x55, 0xd4, 0x45, 0xbf, 0xa0, 0xdd, 0x04,
  0x81, 0x31, 0x39, 0xa3, 0x30, 0x25, 0x54, 0x95, 0xb3, 0x35, 0x94, 0x92,
  0xe9, 0xe3, 0x0a, 0xda, 0xa4, 0x46, 0xc6, 0x50, 0xdb, 0xfa, 0x04, 0xfc,
  0x0b, 0x0c, 0x47, 0x3d, 0x05, 0xd9, 0x6b, 0x3e, 0x5b, 0x96, 0xd2, 0xba,
  0xc6, 0xc7, 0xff, 0x31, 0x1e, 0x33, 0xc7, 0x9b, 0x42, 0x55, 0xae, 0x15,
  0x23, 0xd2, 0x12, 0xa5, 0x4f, 0x18, 0xcf, 0x81, 0xaa, 0x3a, 0x9b, 0xaa,
  0xc2, 0x49, 0x3f, 0x24, 0xa8, 0x61, 0xd4, 0x92, 0xaa, 0x12, 0x94, 0x3e,
  0xe9, 0xff, 0x38, 0xc0, 0xf3, 0x7e, 0xc6, 0x17, 0x0c, 0x7d, 0xcb, 0x05,
  0xae, 0xb5, 0xa6, 0xa4, 0xd3, 0x44, 0x1e, 0x4f, 0xcc, 0x27, 0x20, 0x02,
  0xbb, 0x04, 0x38, 0x2f, 0xa0, 0xc3, 0x57, 0x01, 0x51, 0xef, 0x1b, 0xb1,
  0x7f, 0x09, 0x25, 0x41, 0x22, 0x2b, 0x52, 0x3e, 0x97, 0x3c, 0x2f, 0xb5,
  0xd7, 0x27, 0x76, 0x2f, 0x44, 0xee, 0x9d, 0x98, 0xdf, 0x06, 0x24, 0xd1,
  0x15, 0x35, 0xb2, 0x6f, 0x02, 0xf4, 0xa2, 0xfe, 0x43, 0xcd, 0xfe, 0x21,
  0x81, 0xd7, 0x5e, 0xe5, 0x88, 0xae, 0x6f, 0xc2, 0x1d, 0xaa, 0xe5, 0x0d,
  0x66, 0x97, 0xb2, 0x9f, 0x55, 0xcf, 0xfa, 0xb3, 0xff, 0xa2, 0xfb, 0xa1,
  0x3b, 0x4c, 0x43, 0x29, 0xcb, 0x47, 0x24, 0xfb, 0xa4, 0xa7, 0xe7, 0xff,
  0x95, 0x38, 0x3a, 0xbd, 0x02, 0xb8, 0x61, 0xd7, 0x01, 0x16, 0xbe, 0xee,
  0xd5, 0x0b, 0x20, 0x17, 0xe0, 0xdd, 0xb8, 0x66, 0xf1, 0x01, 0x81, 0x07,
  0x54, 0xe8, 0x58, 0x98, 0x2e, 0xbb, 0x2a, 0x9f, 0x6b, 0xfe, 0x30, 0x24,
  0x6f, 0x12, 0x11, 0xd1, 0xe1, 0x0e, 0x10, 0x42, 0xdd, 0xc6, 0x5c, 0xa2,
  0x1e, 0xd7, 0x03, 0x76, 0xed, 0x0b, 0x71, 0xf4, 0x23, 0x50, 0xbe, 0x69,
  0xb9, 0x4d, 0x4f, 0x14, 0x94, 0x4d, 0x21, 0xbd, 0x29, 0xe2, 0x62, 0x3d,
  0xc7, 0x6e, 0xbb, 0xb3, 0x6b, 0xf2, 0x41, 0x2b, 0xf8, 0xf0, 0xa9, 0xbb,
  0xab, 0xfd, 0xaa, 0x7f, 0xb3, 0x4c, 0x47, 0xa2, 0x9c, 0x41, 0x6d, 0xc3,
  0x3b, 0xe1, 0x24, 0xbc, 0x2d, 0xce, 0x04, 0x97, 0x37, 0xae, 0xfa, 0xd6,
  0x07, 0xbd, 0x2a, 0x3b, 0xef, 0xd7, 0xc3, 0x35, 0xee, 0x31, 0x33, 0xab,
  0xe3, 0x5d, 0x2c, 0x11, 0xf8, 0x97, 0x6e, 0xda, 0xbf, 0x3b, 0x4e, 0xc6,
  0x88, 0x64, 0x41, 0xa6, 0x26, 0xcb, 0xba, 0x50, 0x5b, 0x1d, 0xb6, 0x09,
  0x3c, 0x65, 0x3c, 0xfb, 0xa4, 0x2a, 0xb3, 0x3a, 0x69, 0x94, 0x1c, 0xb0,
  0xbc, 0x50, 0x53, 0x5d, 0xa6, 0x0d, 0xae, 0x1d, 0xd8, 0x12, 0xbe, 0xaf,
  0x54, 0xbb, 0x81, 0xc5, 0xa2, 0xfb, 0x2a, 0x1a, 0x2f, 0x4d, 0x54, 0xdc,
  0xea, 0xaf, 0x5e, 0x01, 0x30, 0xb2, 0xac, 0x28, 0xbd, 0x71, 0xe2, 0x53,
  0x3d, 0xd5, 0x96, 0x9c, 0x52, 0xc9, 0x5d, 0x59, 0xda, 0xec, 0x21, 0xe5,
  0xa1, 0x3f, 0xe4, 0x72, 0x41, 0x6e, 0x55, 0xb5, 0xdf, 0x45, 0x63, 0xb9,
  0x8e, 0x17, 0x4f, 0xf9, 0xcb, 0xae, 0x6f, 0xe8, 0x46, 0x45, 0xfd, 0xfa,
  0x4d, 0x40, 0xc9, 0x46, 0x41, 0xdf, 0x4b, 0x3d, 0x4c, 0x70, 0x7f, 0x64,
  0x02, 0xff, 0x06, 0xb8, 0xe1, 0x61, 0xd3, 0x21, 0xbe, 0xca, 0xf8, 0xda,
  0xde, 0xe7, 0xa8, 0x01, 0xbe, 0xda, 0xff, 0xff, 0x04, 0x00, 0x00, 0x00,
  0x60, 0x00, 0x00, 0x00, 0x60, 0xfb, 0xff, 0xff, 0x52, 0x04, 0x00, 0x00,
  0x3f, 0xea, 0xff, 0xff, 0x54, 0x00, 0x00, 0x00, 0xe1, 0xf4, 0xff, 0xff,
  0x28, 0xeb, 0xff, 0xff, 0x49, 0xf0, 0xff, 0xff, 0xc7, 0xfd, 0xff, 0xff,
  0x8d, 0xf5, 0xff, 0xff, 0xdc, 0xf9, 0xff, 0xff, 0x8a, 0xee, 0xff, 0xff,
  0x9b, 0xf3, 0xff, 0xff, 0xf6, 0xf5, 0xff, 0xff, 0xf3, 0xf1, 0xff, 0xff,
  0xdd, 0xf8, 0xff, 0xff, 0x99, 0xfd, 0xff, 0xff, 0xa9, 0xf0, 0xff, 0xff,
  0x25, 0x05, 0x00, 0x00, 0xd6, 0xff, 0xff, 0xff, 0xc3, 0xf0, 0xff, 0xff,
  0x03, 0xfc, 0xff, 0xff, 0x29, 0xee, 0xff, 0xff, 0xa6, 0xf4, 0xff, 0xff,
  0xec, 0xfd, 0xff, 0xff, 0x2a, 0xdb, 0xff, 0xff, 0x04, 0x00, 0x00, 0x00,
  0xc0, 0x06, 0x00, 0x00, 0x96, 0xe7, 0xd6, 0x4e, 0xd1, 0xf2, 0x28, 0x41,
  0x7e, 0x34, 0xd5, 0x3e, 0xb2, 0xa9, 0x4e, 0xcb, 0x49, 0x2e, 0xe1, 0xce,
  0x12, 0x9a, 0xec, 0x41, 0x9f, 0x1b, 0xad, 0xf0, 0x3c, 0x8a, 0xb3, 0x16,
  0x1c, 0xb1, 0x00, 0xfd, 0xa5, 0x30, 0x35, 0xce, 0x40, 0x91, 0x36, 0x1a,
  0x8a, 0x51, 0x81, 0x07, 0x42, 0x33, 0xdd, 0x96, 0xcc, 0xff, 0xc9, 0x36,
  0xc1, 0x40, 0x43, 0xbf, 0xf0, 0xe3, 0xd4, 0xe5, 0x8e, 0xa6, 0x23, 0x5b,
  0x84, 0x22, 0xf6, 0x50, 0x25, 0x3d, 0x07, 0xcf, 0x17, 0x43, 0xc5, 0x2d,
  0xd7, 0xe0, 0x52, 0x0b, 0x11, 0xb4, 0x24, 0xd7, 0xf5, 0x1a, 0xdc, 0x0f,
  0xc6, 0x0b, 0xf2, 0xf2, 0xca, 0x2e, 0x3a, 0xda, 0xec, 0xc9, 0x81, 0xbb,
  0x23, 0x0c, 0xf7, 0x84, 0xc0, 0xd5, 0xf8, 0xf4, 0x2d, 0x2c, 0x18, 0xce,
  0x3e, 0x0d, 0x49, 0xa2, 0x3c, 0x2b, 0xb1, 0xf3, 0x30, 0xc7, 0xe5, 0xc2,
  0x29, 0xee, 0xe2, 0x18, 0xe1, 0xbe, 0x09, 0x92, 0x0d, 0x33, 0xca, 0xd3,
  0xda, 0x21, 0xe6, 0xc4, 0xb3, 0x58, 0xdd, 0xcf, 0xbc, 0xb2, 0x08, 0x1f,
  0xef, 0x63, 0x47, 0xbd, 0x8c, 0x35, 0xb3, 0x8b, 0xb1, 0x10, 0xc3, 0xba,
  0xe5, 0x03, 0xc5, 0x3e, 0xd4, 0x03, 0x4f, 0xb0, 0x8a, 0xf2, 0x12, 0x19,
  0xe5, 0xf1, 0x21, 0x86, 0xfb, 0xf3, 0xdd, 0xac, 0xeb, 0xb0, 0x85, 0x31,
  0xd8, 0x29, 0xfb, 0xc3, 0x81, 0xc5, 0x1b, 0xd1, 0xbe, 0xb1, 0x3f, 0xc7,
  0xa1, 0xbb, 0x2f, 0x1c, 0xbd, 0xa8, 0xa1, 0x4b, 0xc6, 0x05, 0xbe, 0x35,
  0x43, 0xe1, 0xd9, 0x31, 0x9e, 0x30, 0xd8, 0xb3, 0x05, 0x2e, 0x2a, 0x8e,
  0x1f, 0x17, 0x4e, 0x3c, 0xa1, 0xfc, 0xb4, 0x37, 0xcf, 0xbc, 0xc2, 0xc9,
  0xcc, 0xba, 0xb3, 0x87, 0x39, 0xef, 0xe8, 0xfe, 0x94, 0x2d, 0xc3, 0xd5,
  0x5c, 0x6c, 0xb0, 0xdb, 0x4a, 0xa5, 0xfa, 0x90, 0xa4, 0x5c, 0xa0, 0xcb,
  0xcc, 0xf4, 0xcc, 0x81, 0xf8, 0xd7, 0x1e, 0x15, 0x1b, 0x9d, 0x08, 0xa0,
  0xc9, 0xb2, 0xf1, 0x1a, 0xbd, 0xf5, 0xf6, 0x08, 0xe8, 0xe4, 0x1d, 0x46,
  0x95, 0x9d, 0x9c, 0xfd, 0xa2, 0xcc, 0x47, 0x4c, 0x28, 0xe6, 0x7d, 0x84,
  0xea, 0xba, 0x13, 0x46, 0x65, 0xda, 0xa0, 0xd1, 0x36, 0x81, 0xe5, 0x01,
  0xae, 0xb8, 0x75, 0xd7, 0x2c, 0xf8, 0x0d, 0x22, 0x5d, 0x69, 0xd2, 0x8a,
  0x42, 0x78, 0xa6, 0xe1, 0x13, 0x6e, 0xfd, 0x62, 0xe0, 0xf1, 0x07, 0x57,
  0x56, 0x59, 0xb9, 0x95, 0x38, 0xba, 0x01, 0x40, 0x30, 0x7c, 0x0c, 0xe4,
  0x63, 0xa2, 0x07, 0x6a, 0x23, 0xf7, 0x02, 0x3b, 0xe6, 0x96, 0xe1, 0x63,
  0x49, 0x38, 0xa4, 0xf0, 0xba, 0x4c, 0xa7, 0xec, 0xfe, 0x12, 0x2e, 0xa8,
  0x1a, 0x05, 0x0f, 0xf7, 0x54, 0x4c, 0x57, 0xf1, 0xf8, 0xe9, 0xa4, 0x3b,
  0xc8, 0xbb, 0x3e, 0xce, 0x4c, 0x5b, 0x09, 0x35, 0xd0, 0x22, 0x9a, 0x52,
  0x64, 0xf8, 0x95, 0xad, 0xbd, 0x01, 0x55, 0x11, 0x64, 0x20, 0x09, 0xba,
  0xad, 0x95, 0xc5, 0x06, 0x0d, 0x30, 0x51, 0x31, 0xba, 0x5e, 0xa9, 0x3b,
  0xe4, 0x6d, 0x81, 0x6b, 0x4f, 0xae, 0xcd, 0x01, 0xcd, 0x49, 0xb2, 0xb8,
  0xaf, 0x49, 0x16, 0xf7, 0x11, 0x20, 0xb3, 0xe9, 0x29, 0x08, 0xa3, 0x44,
  0xd6, 0x05, 0x97, 0xaf, 0xd2, 0x32, 0x45, 0x81, 0x26, 0xb4, 0x21, 0x37,
  0xa2, 0x47, 0x44, 0xb0, 0xee, 0xa1, 0xff, 0xac, 0x1b, 0x26, 0x3d, 0x3f,
  0xd5, 0xfe, 0x46, 0x40, 0x31, 0xd0, 0xad, 0x93, 0x1c, 0xb8, 0x35, 0x13,
  0x0f, 0x3a, 0x3b, 0xbb, 0x9f, 0xce, 0x04, 0xf5, 0xb8, 0x43, 0xd8, 0xd3,
  0xa2, 0x4c, 0xcf, 0xce, 0xb6, 0x21, 0xdf, 0x1c, 0x29, 0x19, 0x85, 0xc0,
  0x85, 0xfe, 0xe5, 0xc4, 0x1f, 0x28, 0x13, 0x00, 0xfe, 0xe8, 0x5c, 0x15,
  0x22, 0x99, 0x18, 0x00, 0x12, 0xe8, 0x9c, 0x08, 0x67, 0xcc, 0xc0, 0xc6,
  0x2d, 0xc3, 0xa0, 0x1d, 0x01, 0xea, 0x60, 0x8c, 0xc6, 0x33, 0x96, 0xa3,
  0x56, 0x44, 0xf5, 0x6d, 0x1c, 0x5e, 0xe3, 0x7c, 0xd1, 0x15, 0xfd, 0x5e,
  0xe8, 0xe2, 0x7f, 0x85, 0x44, 0xdc, 0xa8, 0xf2, 0xfe, 0xb7, 0x1d, 0xfb,
  0x76, 0x5a, 0x7b, 0x5c, 0xf1, 0xb1, 0x82, 0xb8, 0xfb, 0xdb, 0xd9, 0xf6,
  0x43, 0xd7, 0xbe, 0xe9, 0x66, 0x54, 0x40, 0xb1, 0x51, 0x40, 0x22, 0xfc,
  0xb3, 0x49, 0x47, 0x42, 0xa6, 0xb6, 0xc0, 0x98, 0xe5, 0xb7, 0x9e, 0xc2,
  0xf5, 0x42, 0x41, 0xbc, 0x0f, 0xe3, 0xb4, 0xc7, 0xe2, 0xce, 0x06, 0x5a,
  0x40, 0x56, 0x49, 0x43, 0x8a, 0xd6, 0x09, 0x31, 0xab, 0x84, 0x34, 0x40,
  0x3d, 0x50, 0x2c, 0xc4, 0xb7, 0x3f, 0x1e, 0xc5, 0x24, 0xab, 0x39, 0x30,
  0xd0, 0xbd, 0x27, 0x2a, 0xca, 0x3b, 0xec, 0x81, 0x05, 0x26, 0x07, 0xb6,
  0xe2, 0xf1, 0x3c, 0xd3, 0x57, 0x6a, 0x42, 0x20, 0x2a, 0x11, 0x61, 0x55,
  0x09, 0x38, 0xd7, 0x1f, 0x90, 0x5f, 0x18, 0x4e, 0x70, 0xe3, 0xb0, 0xeb,
  0x81, 0x4d, 0xc4, 0xe4, 0xaa, 0x96, 0xf5, 0xf3, 0xd2, 0xc3, 0x15, 0x3e,
  0x3d, 0x18, 0xdc, 0xd5, 0x33, 0x2e, 0x6c, 0x18, 0x05, 0x6c, 0xf3, 0x71,
  0xaa, 0x0f, 0x46, 0x47, 0xb7, 0xb2, 0xf3, 0x86, 0xfd, 0x2a, 0x01, 0x6e,
  0x26, 0xb6, 0xcc, 0xa7, 0xf7, 0xca, 0x24, 0xa0, 0x54, 0xa5, 0x9b, 0x6c,
  0xec, 0x54, 0xb9, 0xa8, 0x17, 0xf6, 0xff, 0xab, 0x21, 0x09, 0xeb, 0x45,
  0x68, 0xa8, 0x37, 0x72, 0x0d, 0xa9, 0xfa, 0xca, 0x48, 0x98, 0xbb, 0x51,
  0x3f, 0x38, 0x43, 0xad, 0x5b, 0x81, 0x08, 0x25, 0xcb, 0x5c, 0x14, 0xb9,
  0x6f, 0xd6, 0xd2, 0x59, 0x9d, 0x15, 0x13, 0x63, 0x5f, 0xea, 0x92, 0x69,
  0xc2, 0x6f, 0xd4, 0x10, 0x4d, 0x05, 0xe3, 0x30, 0x9a, 0x60, 0x0f, 0x24,
  0xf5, 0xf8, 0x57, 0x8e, 0xf2, 0x39, 0x58, 0x6b, 0x34, 0x0b, 0xbd, 0xb7,
  0x44, 0x6b, 0xc5, 0xfd, 0x29, 0xd0, 0x20, 0x44, 0xe8, 0x01, 0xc7, 0x7b,
  0x3e, 0x4a, 0x1e, 0xf5, 0x2c, 0x44, 0xd4, 0x2b, 0xd1, 0x1a, 0x88, 0x48,
  0x12, 0xbe, 0xc6, 0xaa, 0xcf, 0x69, 0xff, 0xe7, 0x00, 0x67, 0x4b, 0xca,
  0x5a, 0x05, 0x63, 0x3d, 0x3d, 0xa2, 0xc7, 0x35, 0x35, 0x4c, 0x81, 0xd2,
  0x2e, 0x46, 0xb3, 0x50, 0xfd, 0x5a, 0x20, 0x31, 0x06, 0xb7, 0xba, 0xff,
  0x02, 0xac, 0x09, 0x37, 0xe8, 0xad, 0xc0, 0xa7, 0x3f, 0xf5, 0xe3, 0xe0,
  0xef, 0xdb, 0xce, 0xd1, 0x59, 0x4c, 0xe5, 0xb7, 0x1c, 0xab, 0xb9, 0x38,
  0x98, 0x03, 0x39, 0x9d, 0xda, 0x4d, 0x01, 0x0d, 0x01, 0x0a, 0xe0, 0x4e,
  0x4e, 0xdf, 0xb1, 0x21, 0x4f, 0xcd, 0xaa, 0x81, 0x2c, 0xd6, 0xd8, 0x6c,
  0xb3, 0x59, 0xc2, 0xac, 0xf2, 0x49, 0xbb, 0xae, 0xcc, 0x1e, 0x0a, 0x2b,
  0xc1, 0x08, 0xe2, 0xd1, 0x04, 0xce, 0x50, 0xe1, 0xd1, 0xb6, 0xb8, 0xd9,
  0xd9, 0x53, 0xde, 0x1b, 0xeb, 0x18, 0x38, 0x2c, 0x0a, 0xba, 0xc8, 0x53,
  0x11, 0x64, 0x74, 0xee, 0xe6, 0xc8, 0xc0, 0xa6, 0x1f, 0xa9, 0xce, 0x13,
  0xc5, 0xb5, 0xcf, 0xc9, 0xa2, 0x2e, 0x2f, 0xcf, 0x02, 0x2f, 0xe2, 0x37,
  0xa4, 0xe5, 0x33, 0xae, 0x0d, 0x01, 0xc1, 0xda, 0xd6, 0xdb, 0xa7, 0xc1,
  0x08, 0x81, 0xce, 0x05, 0xa7, 0xfa, 0x44, 0x16, 0x44, 0xae, 0xcb, 0x34,
  0x1e, 0xd3, 0xa9, 0xe2, 0x07, 0x33, 0xd4, 0xc2, 0x00, 0xd0, 0x30, 0xe5,
  0xc9, 0xfc, 0x0a, 0x1f, 0xf6, 0xed, 0xc2, 0x44, 0xf4, 0xc6, 0x94, 0xeb,
  0xc6, 0xb0, 0xc8, 0xd5, 0xeb, 0x46, 0x2c, 0xe6, 0x09, 0x4b, 0x23, 0x21,
  0xaa, 0x64, 0x45, 0xe8, 0x1d, 0xf7, 0xf5, 0xb0, 0xb4, 0x3e, 0x8b, 0xee,
  0x0a, 0xcd, 0xb3, 0xfb, 0x17, 0x3f, 0x32, 0x37, 0xbf, 0xfe, 0x0c, 0xdc,
  0xe7, 0x37, 0x90, 0xce, 0xc2, 0xcb, 0x38, 0x05, 0xeb, 0xdf, 0x81, 0x5b,
  0x14, 0x25, 0xa3, 0xc4, 0x52, 0xf7, 0x14, 0x27, 0xbc, 0x33, 0xb1, 0xd2,
  0xc9, 0xb5, 0xfb, 0x1b, 0xf2, 0x2a, 0xe7, 0xb3, 0x25, 0x11, 0xe1, 0xdb,
  0x3d, 0x50, 0xff, 0x14, 0xda, 0xdc, 0xeb, 0xcf, 0xee, 0x06, 0x05, 0x15,
  0x2c, 0x29, 0x2b, 0xdf, 0x26, 0x03, 0x25, 0x32, 0xd3, 0x00, 0x4a, 0xa2,
  0xef, 0x09, 0x15, 0xfd, 0x34, 0xa8, 0xdc, 0xeb, 0xc0, 0x57, 0xb4, 0x41,
  0xc1, 0xbc, 0x44, 0xb9, 0xf2, 0xd3, 0xc2, 0xb9, 0xe3, 0xfe, 0x09, 0xa9,
  0xa0, 0x2f, 0xf2, 0x34, 0xe6, 0xb3, 0x0c, 0x56, 0xdb, 0x81, 0x24, 0x31,
  0xf6, 0xdd, 0xd0, 0x26, 0x20, 0xd5, 0xf0, 0xad, 0x19, 0x0b, 0x08, 0xca,
  0xf9, 0x40, 0x3f, 0xd1, 0xa3, 0xbe, 0x0f, 0x18, 0xb4, 0xb4, 0xbc, 0x2b,
  0xf3, 0xd7, 0x2b, 0xfd, 0x0f, 0xc9, 0x29, 0xf0, 0xc8, 0x44, 0x8c, 0x1d,
  0xb4, 0xad, 0xc3, 0x81, 0x21, 0xe7, 0xb6, 0xde, 0xc5, 0x4c, 0xdd, 0xf0,
  0x95, 0xe7, 0x4d, 0x0f, 0xc0, 0xd0, 0xb4, 0x19, 0x4d, 0x46, 0xb4, 0x90,
  0xc9, 0x1c, 0xf6, 0x9f, 0xae, 0x0d, 0xed, 0xcc, 0xc4, 0xeb, 0x06, 0x90,
  0xc6, 0xe2, 0xa9, 0xd1, 0x83, 0x1c, 0xb6, 0x08, 0x58, 0xe6, 0xeb, 0xa4,
  0x59, 0xee, 0xdd, 0xc2, 0x56, 0x4e, 0xc5, 0x4d, 0xcd, 0xb4, 0x1c, 0xff,
  0xd3, 0xaa, 0xf2, 0xbf, 0xea, 0x01, 0xff, 0xe9, 0xbf, 0x09, 0x0c, 0xc2,
  0x3c, 0x49, 0xc1, 0xab, 0xbc, 0xc5, 0xe8, 0x3a, 0x91, 0x81, 0x33, 0x01,
  0xd9, 0xe8, 0xc8, 0xae, 0x41, 0xcd, 0x15, 0xc4, 0xff, 0xd2, 0xdf, 0x22,
  0x4d, 0x98, 0x27, 0x2e, 0x1a, 0xa6, 0x1a, 0x1c, 0x98, 0xcb, 0x68, 0x4b,
  0xc0, 0xde, 0xa3, 0x44, 0x1a, 0xfb, 0x52, 0x2f, 0xd2, 0xd1, 0xed, 0x14,
  0xdd, 0xc2, 0xd5, 0xdc, 0x05, 0x2f, 0xc3, 0xfe, 0x2a, 0x37, 0x85, 0xfb,
  0xb2, 0x0b, 0xce, 0x2e, 0x8e, 0xec, 0xf8, 0xca, 0x65, 0x4e, 0x32, 0xb7,
  0xe3, 0xad, 0x57, 0x09, 0x1c, 0x52, 0xa2, 0x13, 0x96, 0x63, 0x44, 0x67,
  0x62, 0x4d, 0x4e, 0x2e, 0xdd, 0x1c, 0x87, 0x1c, 0x11, 0xec, 0x2c, 0xa1,
  0x01, 0x95, 0xf7, 0x40, 0x9a, 0xa0, 0x06, 0x13, 0x8a, 0x3d, 0x42, 0x5d,
  0x67, 0x66, 0x30, 0xec, 0x21, 0x40, 0x61, 0x4e, 0x3c, 0x81, 0xde, 0xe6,
  0x8c, 0xaa, 0x40, 0x0a, 0x57, 0x14, 0x0f, 0x37, 0xb6, 0x61, 0xf4, 0xe2,
  0x12, 0xf4, 0x39, 0x53, 0xcd, 0x4a, 0x58, 0x44, 0xf7, 0xa9, 0x03, 0x47,
  0xfc, 0xa6, 0xdc, 0x3d, 0x0d, 0xee, 0x5d, 0x28, 0xf4, 0xa6, 0x4c, 0x52,
  0xb7, 0xe5, 0x25, 0xa8, 0xd4, 0x24, 0xf0, 0x81, 0x23, 0xd0, 0xe9, 0xee,
  0xbf, 0xb6, 0x26, 0x09, 0x0b, 0x0e, 0xee, 0x10, 0x40, 0x9f, 0xe4, 0x60,
  0xb4, 0xd1, 0xd3, 0x64, 0x15, 0x3d, 0x63, 0x21, 0x66, 0x3c, 0x54, 0xfd,
  0xa7, 0xcb, 0x41, 0x10, 0xbe, 0x74, 0x52, 0x44, 0xf3, 0xba, 0xbb, 0x96,
  0x4c, 0x03, 0xe5, 0x01, 0x33, 0xee, 0xc3, 0xc0, 0x81, 0xba, 0x14, 0x02,
  0xb5, 0x72, 0xcb, 0xcd, 0x08, 0xc7, 0x01, 0x3b, 0xff, 0x0d, 0x59, 0x91,
  0x5b, 0x22, 0x17, 0x87, 0xdf, 0x3a, 0xa7, 0x48, 0x26, 0xa8, 0xc7, 0xdc,
  0x83, 0xa6, 0x35, 0x12, 0xd0, 0xb8, 0x5a, 0xb2, 0x55, 0xd3, 0xc2, 0xb5,
  0x7e, 0x2c, 0xa9, 0x5a, 0xe7, 0x9b, 0x3e, 0x93, 0xbf, 0xd3, 0xda, 0xce,
  0x50, 0x94, 0x3f, 0xae, 0xc1, 0x18, 0x90, 0x38, 0xf0, 0xac, 0xec, 0xb9,
  0x2d, 0xe6, 0x04, 0xd8, 0xec, 0xe2, 0x15, 0x42, 0xd8, 0xb2, 0x47, 0x57,
  0xff, 0x3d, 0x1b, 0xba, 0x05, 0x09, 0x2f, 0x87, 0x33, 0x4d, 0x20, 0x39,
  0x50, 0x35, 0x5d, 0x08, 0xbe, 0x9b, 0x10, 0x38, 0xea, 0xad, 0x9e, 0x6a,
  0xd0, 0x4e, 0x59, 0xcf, 0x33, 0x81, 0x27, 0xf3, 0xe3, 0xd3, 0x2d, 0xcc,
  0x49, 0x49, 0xb1, 0xf7, 0x90, 0x50, 0xc2, 0xd0, 0x2b, 0xaf, 0xa2, 0xf3,
  0xca, 0xbe, 0x56, 0x02, 0x1b, 0xbe, 0x5b, 0x1e, 0xd1, 0xb8, 0x23, 0x99,
  0xc9, 0x26, 0xb1, 0xc2, 0xc9, 0x53, 0xf9, 0x10, 0x01, 0xae, 0x0c, 0x0b,
  0x40, 0xab, 0x55, 0xd3, 0xc8, 0xaf, 0x48, 0xe2, 0xe9, 0x2e, 0x35, 0xd1,
  0x03, 0xf1, 0xfe, 0xa0, 0xea, 0x40, 0x9d, 0x68, 0xb2, 0xe0, 0x10, 0x34,
  0x35, 0x2d, 0xc4, 0xbe, 0xd3, 0x81, 0x4d, 0xcb, 0x01, 0x0e, 0x35, 0xc4,
  0x9f, 0x95, 0xa6, 0xab, 0xbc, 0xea, 0x1e, 0xb7, 0xc6, 0x25, 0x2a, 0x39,
  0x09, 0x1b, 0xf1, 0x27, 0xcd, 0x2e, 0x3e, 0x1c, 0xdb, 0x10, 0xe9, 0x00,
  0xe1, 0xbf, 0x01, 0x23, 0xfd, 0xce, 0x99, 0xf4, 0xf8, 0xa9, 0x2b, 0x04,
  0xef, 0xcb, 0x54, 0x33, 0x07, 0x2a, 0x53, 0x8e, 0xa5, 0xac, 0xa0, 0x08,
  0xac, 0xcd, 0x2f, 0x84, 0x41, 0xad, 0xdc, 0x26, 0x31, 0xc6, 0xa8, 0x7f,
  0x06, 0x4c, 0x0d, 0x5d, 0xff, 0xfb, 0xeb, 0x2c, 0x0a, 0x4c, 0x32, 0xb7,
  0xe7, 0xed, 0x4d, 0x99, 0x21, 0xd9, 0x13, 0xd2, 0x5e, 0x3e, 0xbc, 0x0d,
  0xeb, 0x33, 0x60, 0x2d, 0xf6, 0xe1, 0xff, 0xff, 0x04, 0x00, 0x00, 0x00,
  0x60, 0x00, 0x00, 0x00, 0x00, 0xcb, 0xff, 0xff, 0xfa, 0x0c, 0x00, 0x00,
  0x85, 0xd9, 0xff, 0xff, 0xf1, 0xda, 0xff, 0xff, 0x39, 0xf4, 0xff, 0xff,
  0xf2, 0xf3, 0xff, 0xff, 0xbd, 0xc8, 0xff, 0xff, 0x72, 0xe4, 0xff, 0xff,
  0x66, 0xeb, 0xff, 0xff, 0x63, 0xe2, 0xff, 0xff, 0x2e, 0xe8, 0xff, 0xff,
  0xf4, 0xf8, 0xff, 0xff, 0x34, 0x00, 0x00, 0x00, 0x25, 0xe1, 0xff, 0xff,
  0x3f, 0x02, 0x00, 0x00, 0x59, 0xe6, 0xff, 0xff, 0x83, 0xc0, 0xff, 0xff,
  0x10, 0xe7, 0xff, 0xff, 0x9e, 0xca, 0xff, 0xff, 0x48, 0xe5, 0xff, 0xff,
  0x4e, 0xd9, 0xff, 0xff, 0x9a, 0xd2, 0xff, 0xff, 0x01, 0xf6, 0xff, 0xff,
  0x76, 0xef, 0xff, 0xff, 0x62, 0xe2, 0xff, 0xff, 0x04, 0x00, 0x00, 0x00,
  0xc0, 0x06, 0x00, 0x00, 0x01, 0xfa, 0xf3, 0x38, 0x51, 0xc6, 0x62, 0x0c,
  0xb0, 0xb8, 0xf6, 0x2e, 0x46, 0xfa, 0x34, 0xc2, 0xe5, 0xe6, 0xfe, 0xa9,
  0x4e, 0xf0, 0x5e, 0xbd, 0x1e, 0x56, 0x1f, 0x21, 0x4c, 0x4b, 0x79, 0x5f,
  0xb9, 0x42, 0x16, 0xe3, 0x9b, 0x9b, 0x42, 0x14, 0xc7, 0x7f, 0x0a, 0x4f,
  0x63, 0x13, 0xf7, 0x59, 0xfb, 0x28, 0xea, 0x33, 0x5d, 0x1d, 0x1f, 0x52,
  0xcd, 0x2e, 0x53, 0xfa, 0xfc, 0xe0, 0xf8, 0x62, 0x3b, 0xed, 0xfd, 0xc8,
  0x9b, 0x13, 0xcf, 0x20, 0x31, 0x22, 0x0e, 0xa9, 0x47, 0x50, 0xe6, 0xd1,
  0xc7, 0xd8, 0x60, 0xb2, 0xeb, 0x3d, 0x1c, 0x29, 0x2d, 0xc5, 0x40, 0x81,
  0x5a, 0x36, 0x56, 0xea, 0x13, 0x0f, 0x26, 0xb8, 0xb0, 0xbe, 0x4f, 0xdb,
  0xae, 0x54, 0xec, 0xca, 0xc5, 0x20, 0x38, 0xdf, 0x12, 0x0a, 0x6c, 0xee,
  0x5d, 0x4b, 0x0a, 0x49, 0xe3, 0xf3, 0xb5, 0xc9, 0x49, 0xad, 0x38, 0x94,
  0xbf, 0x1d, 0x31, 0x21, 0x90, 0xf5, 0x08, 0xdc, 0x1e, 0x1b, 0x8e, 0xbd,
  0x20, 0xc3, 0xfb, 0x55, 0x37, 0x31, 0x9a, 0xf6, 0x8d, 0x49, 0xf4, 0x25,
  0x84, 0xaf, 0x52, 0x3c, 0xee, 0x9e, 0xf9, 0xc3, 0x4c, 0xea, 0x29, 0x4d,
  0x81, 0x63, 0xf5, 0x9e, 0x33, 0x1f, 0xc8, 0xb9, 0xaf, 0x71, 0xc6, 0xde,
  0x40, 0xb5, 0x3f, 0x65, 0xbe, 0x14, 0xbb, 0xd5, 0x0e, 0xe3, 0x4e, 0x15,
  0x52, 0xca, 0xfc, 0x36, 0x59, 0x48, 0xf6, 0x57, 0x47, 0x9c, 0x79, 0x9e,
  0x32, 0x04, 0xa2, 0x1b, 0x11, 0xdd, 0xe5, 0x4f, 0x32, 0x5f, 0x18, 0x48,
  0x15, 0x74, 0xe5, 0xa9, 0xe9, 0xd3, 0x18, 0xa8, 0xaa, 0x2a, 0xe9, 0x04,
  0x36, 0x11, 0xd5, 0xfd, 0x54, 0x90, 0x7e, 0x21, 0xe0, 0xe4, 0xb9, 0x2c,
  0x02, 0xbf, 0x79, 0x59, 0xbf, 0xc2, 0xbc, 0xd7, 0x9d, 0xbf, 0xd6, 0x94,
  0x2b, 0x1c, 0x4b, 0xbb, 0xae, 0xba, 0xdf, 0x9e, 0x45, 0x21, 0xe0, 0xed,
  0xa7, 0x18, 0xcf, 0xf4, 0x20, 0x0e, 0xee, 0x95, 0x0c, 0x5f, 0xe2, 0xd0,
  0xf1, 0x23, 0x48, 0x44, 0x15, 0xf8, 0x7f, 0x4e, 0x36, 0xd6, 0x29, 0x2e,
  0x03, 0xe6, 0xd6, 0xd8, 0xcf, 0xb2, 0xf8, 0x81, 0xc5, 0xac, 0xcd, 0x32,
  0x07, 0x3d, 0x16, 0x1e, 0xc8, 0x10, 0xd8, 0x56, 0x34, 0xb4, 0xae, 0xb5,
  0xa0, 0x50, 0xe0, 0x5c, 0x37, 0x01, 0x0e, 0x86, 0xf3, 0xd5, 0xd4, 0xe5,
  0xe6, 0x0b, 0xe3, 0xe4, 0x00, 0xfc, 0xea, 0x37, 0x43, 0x73, 0x25, 0xe0,
  0xa4, 0xbb, 0xaa, 0xc8, 0x31, 0x33, 0xae, 0x87, 0x2a, 0x2f, 0x0d, 0xb2,
  0x23, 0x4b, 0x23, 0xe5, 0x90, 0xd0, 0x56, 0x5b, 0x6c, 0xb5, 0x37, 0x0c,
  0x03, 0x3c, 0xc1, 0xde, 0x32, 0x74, 0xb1, 0x26, 0x2f, 0xaa, 0x09, 0xae,
  0x19, 0x15, 0x6a, 0x2f, 0x9d, 0x84, 0xf1, 0x04, 0x53, 0x52, 0x15, 0x96,
  0xed, 0xe1, 0xb9, 0xbe, 0xb4, 0xe8, 0xe4, 0xb1, 0x3f, 0x7f, 0xbf, 0xb2,
  0x2e, 0xbc, 0xe8, 0x2c, 0xa8, 0x2b, 0x29, 0x54, 0xcb, 0x5a, 0x35, 0x28,
  0x7b, 0xb8, 0x66, 0x58, 0x90, 0x21, 0x74, 0x33, 0x64, 0xe5, 0xed, 0xfc,
  0x53, 0xaf, 0x6f, 0xdf, 0x11, 0xd4, 0x65, 0xa1, 0x2d, 0x05, 0x4c, 0x47,
  0x19, 0x76, 0xf3, 0x67, 0x03, 0xd8, 0xb9, 0x32, 0x98, 0x34, 0x32, 0x6e,
  0x4a, 0x44, 0xed, 0xe3, 0xec, 0x09, 0xba, 0x6e, 0x34, 0x46, 0xff, 0xd7,
  0x0d, 0xb0, 0xcb, 0x09, 0xa3, 0xe9, 0x36, 0xcb, 0x41, 0x52, 0xfe, 0x58,
  0xc8, 0xcc, 0x0e, 0x22, 0x36, 0xd7, 0x51, 0xdf, 0x2f, 0xed, 0x2a, 0x01,
  0x25, 0x5b, 0xcf, 0x0d, 0xb9, 0x37, 0xeb, 0xb1, 0x96, 0x7f, 0xf5, 0x3c,
  0xde, 0x50, 0x8f, 0xd9, 0xb3, 0xbe, 0x02, 0x0d, 0x41, 0x0d, 0xb0, 0x12,
  0xa9, 0x4b, 0x25, 0x09, 0xdf, 0xd0, 0x57, 0x62, 0xd5, 0xe5, 0x3c, 0x5f,
  0x32, 0x34, 0xbe, 0xf0, 0x4e, 0x4c, 0xd9, 0x20, 0xcc, 0x22, 0x43, 0x98,
  0x8f, 0x10, 0x29, 0xfe, 0x13, 0xc0, 0xb6, 0x55, 0x4d, 0x81, 0xd1, 0x54,
  0xec, 0x72, 0x6c, 0xa4, 0xc0, 0x35, 0xd0, 0xc7, 0x1c, 0x05, 0xae, 0x93,
  0x8a, 0xc6, 0xdc, 0xaf, 0x8d, 0xc4, 0xb9, 0xb9, 0x4b, 0xee, 0xc4, 0xf9,
  0xab, 0x2b, 0xbe, 0x24, 0x4d, 0xec, 0x57, 0xde, 0x1e, 0x21, 0xe9, 0x59,
  0x2a, 0x3a, 0x65, 0x67, 0x51, 0xd1, 0xb1, 0xe5, 0xfb, 0x12, 0x2e, 0x1c,
  0x11, 0x2d, 0x38, 0x44, 0x1c, 0x14, 0xad, 0xca, 0xd7, 0xda, 0xbd, 0x14,
  0xfa, 0xb4, 0xf8, 0x56, 0xe0, 0xf1, 0x0e, 0xc8, 0xf1, 0xd3, 0x7f, 0xed,
  0xfa, 0xd6, 0x33, 0x38, 0x3f, 0xf1, 0x26, 0x50, 0x13, 0xf0, 0x1b, 0x9c,
  0xe4, 0xc2, 0xdd, 0x33, 0x33, 0x13, 0xca, 0x1c, 0x35, 0x34, 0xf3, 0x42,
  0x32, 0xf1, 0x0e, 0xf9, 0xb4, 0xca, 0xba, 0x3e, 0x1d, 0xe4, 0xfd, 0xe9,
  0x11, 0x2b, 0x14, 0xcc, 0x9f, 0x00, 0xe8, 0x34, 0xaa, 0x23, 0x4a, 0x20,
  0x15, 0xe3, 0x1f, 0xc2, 0xde, 0xd7, 0xf1, 0x3e, 0x63, 0xcf, 0xc9, 0x81,
  0xd5, 0xbc, 0xd4, 0xf0, 0xc9, 0x6c, 0x3a, 0x4a, 0xe9, 0xf5, 0x26, 0xde,
  0xd5, 0x6e, 0x4c, 0x1a, 0x92, 0x19, 0xee, 0x20, 0x25, 0x4d, 0x0a, 0xc5,
  0x02, 0xb3, 0x18, 0xdd, 0x9e, 0x58, 0x9c, 0xb3, 0x90, 0x56, 0x08, 0x5d,
  0x02, 0xab, 0x3a, 0xbb, 0xd6, 0x1b, 0x58, 0xc2, 0x31, 0xbe, 0xe1, 0x2e,
  0x4c, 0x24, 0x44, 0xe4, 0xca, 0xcb, 0x41, 0x0b, 0x9a, 0x06, 0xf0, 0x5e,
  0xc2, 0xdc, 0xaf, 0x91, 0xf0, 0xcb, 0xec, 0x2b, 0x5e, 0x6f, 0x4b, 0x22,
  0x0a, 0x27, 0x28, 0x27, 0x38, 0xca, 0x86, 0x64, 0x4e, 0xe4, 0xb2, 0xf4,
  0xf3, 0x24, 0xde, 0x0f, 0xd8, 0x05, 0x7a, 0xed, 0xbd, 0x5d, 0x46, 0x8f,
  0x83, 0xb5, 0xa9, 0xc8, 0x64, 0x03, 0x2f, 0xe6, 0xbb, 0x55, 0x7f, 0x17,
  0x32, 0x7b, 0x18, 0xe9, 0xb4, 0xb7, 0x99, 0x3b, 0x65, 0x8f, 0x9f, 0x75,
  0xb6, 0x0b, 0x05, 0x10, 0xed, 0x2d, 0x18, 0x35, 0xa2, 0x3e, 0xfe, 0xa7,
  0x5d, 0xe7, 0x49, 0x55, 0xea, 0x06, 0x59, 0x6e, 0x35, 0x13, 0x19, 0xa2,
  0x31, 0x53, 0x27, 0x59, 0x56, 0x74, 0x3c, 0xd4, 0xc0, 0xcc, 0xe0, 0xd0,
  0x5d, 0x20, 0xcf, 0xef, 0xd8, 0x2e, 0xdc, 0x4a, 0x4b, 0xcc, 0xde, 0xa1,
  0x2e, 0x4a, 0x13, 0xee, 0xb9, 0xff, 0xa8, 0x19, 0xcd, 0x7f, 0x08, 0x31,
  0x50, 0xbb, 0xd6, 0x0e, 0x44, 0xb3, 0x62, 0x07, 0x67, 0xc0, 0x00, 0x45,
  0xd8, 0xd7, 0x38, 0x16, 0xfa, 0x7a, 0xe3, 0xdc, 0xd2, 0x2c, 0x1c, 0x19,
  0xcd, 0x67, 0x23, 0x35, 0x6a, 0x9c, 0x43, 0xdb, 0xe8, 0x3f, 0x31, 0xa6,
  0x39, 0x13, 0x45, 0x55, 0x20, 0xfc, 0xdc, 0xd6, 0x51, 0x37, 0xd3, 0xb8,
  0x2a, 0xde, 0xd9, 0x41, 0x1b, 0xa9, 0x03, 0x19, 0x65, 0x58, 0x70, 0xb2,
  0xe4, 0x56, 0x18, 0x44, 0xc1, 0x4c, 0xd7, 0x44, 0xf7, 0x44, 0xb9, 0x06,
  0x74, 0xe2, 0x9f, 0xe0, 0x95, 0x81, 0xae, 0x20, 0x64, 0xd5, 0xec, 0x9c,
  0x0b, 0xf3, 0x1c, 0x32, 0x20, 0x19, 0xc5, 0x08, 0xb7, 0xa7, 0xed, 0xa5,
  0x2e, 0x11, 0xdf, 0x9d, 0xd8, 0x5a, 0xa7, 0x4e, 0x7b, 0xff, 0x2c, 0xf9,
  0x05, 0x5a, 0x0a, 0xf3, 0x32, 0x4a, 0xe7, 0x2e, 0xa3, 0x73, 0x7f, 0x49,
  0x69, 0xd6, 0x98, 0xfb, 0x13, 0xbe, 0xc4, 0x27, 0xe7, 0xa5, 0x91, 0x10,
  0xe6, 0xf8, 0x1c, 0x4a, 0x01, 0x37, 0x99, 0x92, 0x3f, 0xcd, 0xe3, 0xcb,
  0x13, 0x61, 0x70, 0x4d, 0x88, 0x5b, 0x69, 0xda, 0xa7, 0x71, 0x4c, 0xae,
  0xd2, 0x88, 0x44, 0x97, 0xbe, 0x61, 0xa1, 0xfa, 0xc9, 0x3e, 0xde, 0x98,
  0x96, 0x10, 0x9d, 0x29, 0x4e, 0xe2, 0xf8, 0x0e, 0x52, 0x5a, 0x98, 0x4e,
  0xa5, 0xdd, 0x62, 0x20, 0x12, 0x0d, 0x2f, 0x95, 0xce, 0x4a, 0x36, 0xf4,
  0x59, 0x60, 0xdd, 0xd6, 0x3d, 0xd0, 0xd0, 0x48, 0xad, 0xc4, 0xd1, 0xd0,
  0x4d, 0x35, 0xe3, 0x54, 0x31, 0x0b, 0xb9, 0x2c, 0x47, 0xaa, 0x65, 0xab,
  0x8f, 0x18, 0x3a, 0xf3, 0xe2, 0x01, 0x7f, 0x2c, 0x10, 0xd5, 0x56, 0xe1,
  0x00, 0xb2, 0xa9, 0x20, 0x5e, 0x27, 0xcf, 0xbc, 0xea, 0x50, 0x28, 0x4d,
  0x21, 0xe2, 0x4a, 0xb3, 0xcd, 0x27, 0xdd, 0x67, 0xbf, 0xee, 0x52, 0x47,
  0xa6, 0x23, 0xd3, 0x4c, 0x47, 0x3a, 0x81, 0x3f, 0x2a, 0xb2, 0xef, 0x3c,
  0xc4, 0xe9, 0xf4, 0x4e, 0x36, 0x3f, 0x59, 0x0b, 0x23, 0xf4, 0x94, 0xb2,
  0x05, 0xb0, 0xbe, 0x03, 0xd3, 0x11, 0x2d, 0xbe, 0x03, 0x92, 0x55, 0x65,
  0x28, 0x63, 0xe6, 0x06, 0x9d, 0xa6, 0xbc, 0xb3, 0x56, 0xbd, 0x3d, 0x48,
  0xf4, 0xb0, 0xd7, 0x07, 0xac, 0x03, 0x04, 0x53, 0xcd, 0x04, 0x2f, 0x5e,
  0xb0, 0xcd, 0x5e, 0xb8, 0xfb, 0xc9, 0x1e, 0x58, 0x18, 0x04, 0xc0, 0xc2,
  0xa8, 0xee, 0x42, 0x4b, 0x3c, 0x17, 0xca, 0x4f, 0xbe, 0xb0, 0x10, 0x66,
  0x04, 0xd5, 0x05, 0xd7, 0x07, 0x4b, 0x28, 0x2c, 0x16, 0x53, 0x4c, 0x28,
  0x93, 0x34, 0xce, 0xa4, 0x2a, 0xb9, 0x41, 0xcd, 0x08, 0x0a, 0x7f, 0x5b,
  0x1d, 0x31, 0xb6, 0xe9, 0x3c, 0x21, 0x1d, 0xf5, 0x37, 0xcb, 0x1a, 0x3a,
  0xed, 0xe7, 0x1a, 0xe8, 0xff, 0x5c, 0xcd, 0xe5, 0x35, 0x42, 0x25, 0x81,
  0x54, 0x26, 0x75, 0xcf, 0xf7, 0xdb, 0xd2, 0x20, 0xf5, 0x38, 0x50, 0xdc,
  0x16, 0x07, 0x12, 0x63, 0x9a, 0xe9, 0x89, 0x3f, 0x2f, 0x07, 0xcd, 0x88,
  0x41, 0xef, 0x42, 0xf5, 0xd0, 0xdb, 0xf4, 0xa5, 0x51, 0xd5, 0x07, 0x28,
  0xee, 0xad, 0x73, 0x29, 0x02, 0x26, 0x99, 0x01, 0x8f, 0x2b, 0xfb, 0xb6,
  0x17, 0xfc, 0xb8, 0x1b, 0xc5, 0xc1, 0x56, 0x0d, 0x4e, 0x0f, 0x9d, 0x9e,
  0xfc, 0x01, 0xdf, 0x1c, 0xbd, 0xed, 0x2e, 0x5b, 0xf0, 0xd7, 0x3f, 0x4a,
  0x91, 0x71, 0x10, 0x11, 0xdc, 0x81, 0xfa, 0x0b, 0x75, 0x30, 0x15, 0xb8,
  0x91, 0x0b, 0xa3, 0x04, 0xab, 0x7f, 0xaf, 0x9f, 0x09, 0x54, 0x4a, 0xa7,
  0xc3, 0xa4, 0x02, 0x51, 0x52, 0xf3, 0xae, 0x4b, 0x4b, 0x0a, 0xa3, 0xde,
  0x58, 0xb9, 0x0f, 0x69, 0x33, 0x7e, 0x06, 0x05, 0x55, 0x6b, 0x53, 0xe9,
  0x5c, 0xf3, 0xbf, 0x4c, 0xbd, 0x35, 0x8e, 0xc7, 0x71, 0x98, 0x26, 0xb1,
  0xfc, 0x44, 0x2a, 0x5e, 0xa9, 0x2c, 0x7f, 0x2d, 0xf9, 0x43, 0x13, 0xc5,
  0x15, 0x45, 0x0d, 0xf4, 0xca, 0xcc, 0x69, 0x1b, 0x4e, 0x64, 0xcc, 0x01,
  0x24, 0x3f, 0xfd, 0x9e, 0xf8, 0x19, 0xbd, 0x16, 0xaf, 0x25, 0x3a, 0x07,
  0x0c, 0x55, 0x64, 0xa9, 0x62, 0x9a, 0xbf, 0x63, 0x9b, 0x17, 0x5b, 0xd5,
  0x3d, 0xc8, 0x98, 0x5e, 0xfd, 0x1b, 0xe3, 0x65, 0x6e, 0x74, 0x3f, 0x99,
  0x03, 0x1c, 0xe5, 0x17, 0x28, 0x64, 0x24, 0xd9, 0x09, 0x6c, 0x41, 0xd7,
  0xa4, 0x75, 0x97, 0x35, 0x39, 0x0d, 0xf4, 0x3d, 0x0a, 0xa8, 0xd2, 0x06,
  0xba, 0x20, 0xca, 0xf6, 0xff, 0xf1, 0x3a, 0xaa, 0xef, 0xca, 0xbc, 0xd8,
  0xc9, 0xd1, 0x26, 0xbe, 0xce, 0x10, 0xc4, 0x24, 0xf4, 0x03, 0xfa, 0x20,
  0x29, 0xcb, 0xd8, 0xd8, 0xc4, 0xdf, 0xda, 0xff, 0xde, 0xf5, 0xe0, 0xff,
  0xbd, 0xea, 0x28, 0xf8, 0x05, 0xdc, 0x81, 0xf8, 0xab, 0xc8, 0x00, 0x33,
  0x0b, 0x46, 0xcf, 0xce, 0x2b, 0xe1, 0x00, 0x2d, 0x49, 0x2f, 0xf2, 0x37,
  0xc1, 0xf1, 0xcb, 0xb4, 0x42, 0x23, 0xfe, 0x94, 0xd3, 0xe6, 0x29, 0xc6,
  0x1e, 0x59, 0xf6, 0xe5, 0xc6, 0xe8, 0xe6, 0xd4, 0xd9, 0x16, 0x03, 0x10,
  0x23, 0x22, 0x32, 0xd0, 0xb7, 0x3c, 0xe8, 0x04, 0xbc, 0xca, 0x08, 0xb9,
  0x2b, 0xc7, 0x04, 0xc9, 0x0d, 0x22, 0x11, 0xe8, 0x02, 0xd6, 0xd4, 0xb9,
  0xeb, 0x16, 0xcc, 0x57, 0x11, 0xc8, 0x22, 0x85, 0xac, 0x5c, 0x29, 0x81,
  0xd7, 0x19, 0xe2, 0xe5, 0x3c, 0xe9, 0x18, 0xbe, 0x3e, 0xce, 0xb7, 0x15,
  0xb2, 0xbd, 0xe7, 0xdd, 0x1b, 0x0b, 0xbd, 0x2e, 0x16, 0x22, 0x32, 0x20,
  0x42, 0x37, 0x12, 0x29, 0xfe, 0xd8, 0x8a, 0x08, 0xd6, 0xdb, 0xc6, 0x3a,
  0xd4, 0xdc, 0xe8, 0x51, 0x6d, 0x2b, 0x81, 0xbc, 0x22, 0xb1, 0x3b, 0x2b,
  0xf6, 0xb6, 0xfc, 0xab, 0x10, 0x72, 0xfb, 0x25, 0xf0, 0xe1, 0xba, 0x67,
  0xd2, 0xa9, 0x23, 0xf7, 0x2d, 0xfb, 0xf4, 0x49, 0x64, 0x00, 0x3c, 0x55,
  0x3e, 0xbd, 0x19, 0xa6, 0x42, 0x32, 0x3f, 0x4d, 0xd3, 0x2f, 0x08, 0xc0,
  0x84, 0x15, 0x6e, 0x5b, 0x49, 0x4e, 0xe8, 0x33, 0xfb, 0x4a, 0xd5, 0xb9,
  0x31, 0x28, 0x06, 0xfc, 0xd4, 0x8e, 0xfc, 0x71, 0xb9, 0xe3, 0x4a, 0x0c,
  0x12, 0x27, 0xc3, 0xe0, 0x39, 0xfc, 0x10, 0xa2, 0xa2, 0x5b, 0x47, 0xbb,
  0xf3, 0x13, 0x41, 0xe7, 0x94, 0xb6, 0xc9, 0x23, 0x73, 0xf5, 0x0c, 0xb2,
  0x47, 0x1a, 0xd9, 0xc6, 0x91, 0x40, 0x5b, 0xdd, 0x26, 0x19, 0xc2, 0x9d,
  0xf2, 0x54, 0xcf, 0x9f, 0xf1, 0x81, 0xa2, 0x43, 0x11, 0xa2, 0xe8, 0x00,
  0x82, 0x13, 0xef, 0x4c, 0xe0, 0xa7, 0xff, 0xff, 0xe4, 0xa7, 0xff, 0xff,
  0xe8, 0xa7, 0xff, 0xff, 0x3a, 0xe9, 0xff, 0xff, 0x04, 0x00, 0x00, 0x00,
  0x60, 0x00, 0x00, 0x00, 0x00, 0x00, 0x00, 0x00, 0x00, 0x00, 0x00, 0x00,
  0x00, 0x00, 0x00, 0x00, 0x00, 0x00, 0x00, 0x00, 0x00, 0x00, 0x00, 0x00,
  0x00, 0x00, 0x00, 0x00, 0x00, 0x00, 0x00, 0x00, 0x00, 0x00, 0x00, 0x00,
  0x00, 0x00, 0x00, 0x00, 0x00, 0x00, 0x00, 0x00, 0x00, 0x00, 0x00, 0x00,
  0x00, 0x00, 0x00, 0x00, 0x00, 0x00, 0x00, 0x00, 0x00, 0x00, 0x00, 0x00,
  0x00, 0x00, 0x00, 0x00, 0x00, 0x00, 0x00, 0x00, 0x00, 0x00, 0x00, 0x00,
  0x00, 0x00, 0x00, 0x00, 0x00, 0x00, 0x00, 0x00, 0x00, 0x00, 0x00, 0x00,
  0x00, 0x00, 0x00, 0x00, 0x00, 0x00, 0x00, 0x00, 0x00, 0x00, 0x00, 0x00,
  0x00, 0x00, 0x00, 0x00, 0xa6, 0xe9, 0xff, 0xff, 0x04, 0x00, 0x00, 0x00,
  0x18, 0x00, 0x00, 0x00, 0x0a, 0xe0, 0xe0, 0xe3, 0x80, 0x1d, 0xe3, 0xe3,
  0x1f, 0xe1, 0x38, 0xd9, 0x19, 0x1f, 0xbd, 0x08, 0x44, 0xdf, 0xe4, 0x15,
  0x0f, 0xb8, 0x7f, 0x8f, 0xca, 0xe9, 0xff, 0xff, 0x04, 0x00, 0x00, 0x00,
  0xc0, 0x06, 0x00, 0x00, 0x59, 0xb4, 0xf6, 0x39, 0xf7, 0xb8, 0x04, 0x31,
  0xa0, 0xbf, 0x62, 0x6f, 0x38, 0x18, 0xe9, 0x46, 0xad, 0x1c, 0xe4, 0x9a,
  0x21, 0xa5, 0xf7, 0x30, 0x3d, 0xa9, 0xc2, 0x66, 0xd1, 0x64, 0x2c, 0xd2,
  0xad, 0xef, 0x00, 0x36, 0xbc, 0x1b, 0x8b, 0xfd, 0xc7, 0xd4, 0x07, 0xa6,
  0xe9, 0x28, 0xda, 0x64, 0x65, 0xb1, 0xdb, 0x27, 0x28, 0x94, 0x81, 0x0e,
  0x53, 0xb3, 0xa5, 0x39, 0xab, 0x27, 0xb2, 0xe5, 0x92, 0xf7, 0x2f, 0x5a,
  0x0a, 0x3e, 0xc8, 0x5f, 0xd8, 0x51, 0xd4, 0x4e, 0xbe, 0xc4, 0xaa, 0xf6,
  0x30, 0x23, 0x64, 0x1a, 0xb5, 0x31, 0x06, 0x4e, 0x1d, 0x2a, 0x28, 0xf9,
  0xfc, 0x4f, 0x04, 0xa2, 0x43, 0xa8, 0x52, 0x32, 0x86, 0xd2, 0x39, 0x14,
  0x34, 0x51, 0x2e, 0xe7, 0x0a, 0x2b, 0x11, 0x1f, 0x41, 0x44, 0xcb, 0xf2,
  0xec, 0xe2, 0x47, 0x3c, 0x94, 0x4f, 0xd9, 0x45, 0x34, 0xa3, 0x81, 0x48,
  0x1c, 0xe0, 0x64, 0x82, 0x2d, 0x13, 0x03, 0x76, 0xcd, 0xc3, 0xed, 0xe6,
  0x58, 0x85, 0x16, 0xbd, 0x81, 0x9f, 0x3e, 0x00, 0xf4, 0x2a, 0xe8, 0xf2,
  0x18, 0xc9, 0x9f, 0xb7, 0x06, 0x03, 0x2a, 0x07, 0xd5, 0x1c, 0xdf, 0xf5,
  0xd6, 0xbc, 0x4b, 0xdc, 0xa5, 0x1a, 0xa2, 0xb6, 0xbd, 0xf3, 0xc4, 0x21,
  0x18, 0x46, 0xf9, 0xa9, 0xcc, 0x2e, 0x33, 0x99, 0xd8, 0xb1, 0xd0, 0x0a,
  0x42, 0x1b, 0x07, 0x2a, 0xc0, 0x35, 0x0a, 0xb8, 0xd7, 0xad, 0xf4, 0xbc,
  0xb4, 0xb3, 0x34, 0x1a, 0xfe, 0xce, 0x30, 0x1b, 0xc5, 0xf9, 0xc2, 0x3a,
  0x1a, 0xe4, 0x2a, 0x02, 0xdc, 0x1b, 0xc2, 0x18, 0xdc, 0xf4, 0xcb, 0x2b,
  0x6f, 0x30, 0x9f, 0xbc, 0x6a, 0x0a, 0x60, 0x31, 0x33, 0x2a, 0x0e, 0xc1,
  0xa0, 0x3c, 0x2d, 0x0c, 0xbe, 0xa9, 0x90, 0x9a, 0x66, 0x17, 0xc0, 0x39,
  0x97, 0xdb, 0x02, 0x05, 0x83, 0x46, 0xd7, 0xa9, 0xe0, 0x3e, 0x6c, 0x17,
  0x81, 0x49, 0x40, 0x5f, 0xbd, 0x9b, 0x95, 0xa1, 0xe8, 0x2b, 0xcf, 0xd7,
  0xfd, 0xab, 0x86, 0x3a, 0x33, 0xcf, 0xad, 0xe2, 0xb0, 0x24, 0xe0, 0xc6,
  0x0f, 0x9b, 0xf9, 0x1c, 0x0c, 0x66, 0xb2, 0xde, 0xb0, 0x66, 0x72, 0x5d,
  0xfa, 0xf2, 0xe7, 0xbd, 0xf6, 0x0e, 0xf8, 0xe3, 0xcd, 0xf6, 0x03, 0x4b,
  0xb7, 0x34, 0xd2, 0xbd, 0x7b, 0xfc, 0x09, 0x37, 0xff, 0xb6, 0xfd, 0xf4,
  0x74, 0x65, 0xab, 0xdc, 0x36, 0x1a, 0x5d, 0xac, 0x0f, 0xbe, 0xc4, 0x93,
  0x32, 0x02, 0x48, 0xe1, 0xf5, 0xeb, 0x38, 0x40, 0x0e, 0x16, 0x65, 0x95,
  0xb6, 0x6d, 0x4c, 0x2c, 0x31, 0x2f, 0x1a, 0xf0, 0x90, 0x9c, 0x15, 0xc7,
  0x3f, 0xc6, 0x81, 0xe3, 0xde, 0x52, 0xdd, 0x4c, 0x1f, 0xf1, 0x62, 0xe8,
  0x47, 0x12, 0x9e, 0xea, 0xbf, 0x1c, 0xbc, 0x55, 0xdb, 0x13, 0x14, 0xe5,
  0x2b, 0xf5, 0xd1, 0xe2, 0xec, 0xc3, 0x81, 0x25, 0x1e, 0x57, 0xfc, 0x10,
  0x8f, 0x45, 0xde, 0x2b, 0x1a, 0xb9, 0x8d, 0x50, 0xac, 0xe6, 0x64, 0x20,
  0xb5, 0xab, 0x4a, 0x41, 0x2d, 0x29, 0xf4, 0x5f, 0xe2, 0x82, 0xea, 0x83,
  0x5e, 0x39, 0xa9, 0x15, 0xf8, 0x17, 0x3f, 0xbb, 0xab, 0xee, 0x50, 0x25,
  0x06, 0x20, 0xdb, 0x66, 0xae, 0x42, 0xd7, 0x37, 0xe5, 0x61, 0x4c, 0x12,
  0xf3, 0xcd, 0xcd, 0x32, 0x06, 0xd1, 0xfd, 0x62, 0xa7, 0xf6, 0x50, 0x31,
  0xcc, 0x64, 0xb5, 0xd8, 0x6c, 0x1f, 0xe3, 0xd7, 0xe0, 0xa2, 0xaa, 0x63,
  0xc1, 0x3e, 0x98, 0xd9, 0xf1, 0x06, 0x38, 0x3b, 0xef, 0xda, 0xa8, 0x98,
  0xdb, 0xc6, 0xe7, 0xb4, 0xe0, 0xe9, 0x2b, 0xf6, 0x4b, 0xbf, 0xa4, 0xcd,
  0x2c, 0x54, 0xdb, 0x3f, 0x70, 0x36, 0x61, 0x44, 0xde, 0x04, 0x7f, 0xd1,
  0x37, 0x79, 0xcb, 0x2e, 0x54, 0xab, 0x6a, 0x78, 0x49, 0xdb, 0xdf, 0x5c,
  0x5f, 0xe0, 0x9d, 0xea, 0x1e, 0x14, 0x3e, 0x68, 0x81, 0xfb, 0x2b, 0x46,
  0xf2, 0x45, 0x43, 0x62, 0xf5, 0x47, 0x0f, 0x97, 0xc7, 0x2d, 0x89, 0x03,
  0x38, 0x9d, 0xfa, 0x10, 0xdb, 0x87, 0x47, 0x62, 0xd4, 0xfb, 0x4c, 0xae,
  0x44, 0xf6, 0xe4, 0x98, 0x62, 0x04, 0x65, 0x07, 0xdf, 0x3a, 0xfc, 0x63,
  0x02, 0xae, 0xf1, 0xf3, 0xd2, 0x40, 0xdb, 0x36, 0x2a, 0x1c, 0x6d, 0x2b,
  0x8d, 0x4e, 0xdb, 0x2a, 0x50, 0x36, 0x0f, 0x11, 0xe6, 0xbc, 0xc8, 0x00,
  0x0f, 0x4f, 0xb6, 0x01, 0x8a, 0x55, 0x59, 0x3b, 0xb8, 0x9a, 0x3e, 0x1d,
  0xc1, 0xdf, 0xa8, 0xac, 0xd6, 0x7f, 0xb1, 0x5c, 0x48, 0x29, 0xd5, 0x2e,
  0x04, 0xa9, 0x8d, 0xe6, 0x71, 0x11, 0x2b, 0x16, 0x2e, 0xe0, 0x09, 0xb9,
  0xd7, 0x06, 0x9b, 0x2e, 0xf8, 0xed, 0x89, 0x5e, 0xfd, 0x8e, 0xdf, 0x17,
  0xf4, 0x3f, 0xcd, 0x32, 0xcd, 0x32, 0x68, 0x3b, 0x5f, 0x11, 0x03, 0x27,
  0xac, 0x16, 0x24, 0x52, 0x9e, 0xbf, 0x2c, 0xb1, 0x10, 0x03, 0x3b, 0x5f,
  0x20, 0x10, 0x2e, 0x8d, 0x11, 0xd5, 0xad, 0xdd, 0xde, 0xde, 0x45, 0x12,
  0xab, 0xcd, 0xe9, 0x9c, 0xe7, 0x8d, 0x24, 0xce, 0x46, 0x4c, 0x24, 0x31,
  0xb9, 0xda, 0xf4, 0x3f, 0xb4, 0x2b, 0x05, 0x43, 0x35, 0x85, 0x5c, 0x13,
  0xbf, 0x0b, 0x1e, 0x15, 0xc0, 0x21, 0x2f, 0xc4, 0x21, 0xdb, 0x16, 0x84,
  0x81, 0xdb, 0x3a, 0x03, 0x9a, 0x01, 0x35, 0x95, 0xd5, 0x2b, 0x8b, 0x37,
  0x75, 0xc2, 0xd9, 0xf3, 0xe5, 0x04, 0xf1, 0xd8, 0xde, 0xfe, 0x5a, 0xfa,
  0xf5, 0x4b, 0x4b, 0xf9, 0x43, 0x37, 0xaa, 0x03, 0x28, 0xf0, 0xb3, 0x30,
  0x1b, 0xb7, 0xad, 0xce, 0xd4, 0x20, 0xbe, 0x07, 0xbc, 0x81, 0xc5, 0x27,
  0xce, 0xc2, 0xb4, 0xe9, 0x07, 0x11, 0x99, 0xb9, 0xe0, 0xd8, 0x05, 0xc0,
  0xf5, 0x1b, 0x48, 0x08, 0xf6, 0x31, 0x32, 0xd6, 0xe4, 0x24, 0x2d, 0xc9,
  0xfb, 0xff, 0x05, 0x37, 0xe5, 0xbc, 0xb8, 0x06, 0xaa, 0x41, 0xf6, 0xd6,
  0x0c, 0x38, 0x3c, 0xf7, 0x76, 0x1b, 0x69, 0x45, 0x95, 0x9e, 0xeb, 0x2f,
  0x50, 0xe4, 0x41, 0x7b, 0x9c, 0x50, 0x2d, 0x40, 0xc9, 0x44, 0x8a, 0xd6,
  0x58, 0xa7, 0x8d, 0xf1, 0x05, 0xe1, 0xa6, 0x5a, 0xf3, 0x11, 0xa7, 0xdb,
  0xf2, 0x01, 0xeb, 0x2d, 0x9a, 0x0b, 0xb5, 0xd1, 0x9d, 0xde, 0x06, 0x10,
  0xa0, 0xe9, 0x2e, 0x72, 0x34, 0x99, 0x56, 0xa9, 0x7a, 0xa4, 0x3c, 0x3c,
  0x2e, 0xba, 0xb7, 0x46, 0x1f, 0x4d, 0x22, 0x07, 0x5c, 0xaa, 0x6d, 0x7f,
  0xaa, 0x65, 0xdf, 0x4a, 0x0d, 0xfb, 0xb5, 0x21, 0x9a, 0xcf, 0x2a, 0x27,
  0x26, 0xca, 0x12, 0x37, 0x42, 0x58, 0x57, 0x2d, 0xc2, 0xd3, 0x25, 0x16,
  0xd8, 0x27, 0x58, 0x81, 0x49, 0x01, 0xeb, 0xe1, 0x21, 0x03, 0x63, 0xb3,
  0xad, 0xf7, 0xe6, 0xa5, 0xbd, 0xb9, 0x2f, 0x58, 0xc8, 0xea, 0xbd, 0x43,
  0x55, 0xdf, 0x95, 0xe6, 0x19, 0x11, 0xb6, 0xbb, 0x6d, 0x53, 0x41, 0x3f,
  0x52, 0x20, 0xc6, 0xce, 0xa1, 0xb4, 0x25, 0x3f, 0xfa, 0x54, 0x02, 0x55,
  0x24, 0xea, 0x0f, 0x4b, 0xd2, 0x0e, 0x93, 0x7a, 0x3b, 0x22, 0xc7, 0xa7,
  0x12, 0x0c, 0xe0, 0x30, 0x5f, 0xd3, 0xed, 0xde, 0xc0, 0x4d, 0x37, 0x3d,
  0x1a, 0xd5, 0x26, 0x69, 0x38, 0x69, 0x24, 0xa9, 0x5d, 0x58, 0x42, 0x00,
  0x48, 0x55, 0x18, 0x46, 0xcb, 0x05, 0x6c, 0xd7, 0x3d, 0x4a, 0xa9, 0xe0,
  0xe2, 0xb7, 0xc4, 0xbd, 0xa5, 0x1f, 0x8e, 0x66, 0xd4, 0x4c, 0x39, 0xaa,
  0x92, 0x23, 0xa2, 0xf8, 0x1d, 0x97, 0x63, 0x84, 0x08, 0x1b, 0x38, 0x37,
  0x3b, 0x5f, 0x81, 0xbb, 0x21, 0xf2, 0xee, 0x18, 0x91, 0xa8, 0xff, 0x5f,
  0xfa, 0xe3, 0xea, 0xcb, 0xc8, 0x6e, 0x50, 0x04, 0x92, 0x31, 0x7f, 0xdb,
  0x2d, 0x49, 0x09, 0xb5, 0xf7, 0x94, 0x03, 0xbd, 0xdb, 0x29, 0x24, 0x4c,
  0x8c, 0x29, 0xb0, 0xde, 0xb2, 0xae, 0xb5, 0xa8, 0x45, 0x51, 0x27, 0x4d,
  0x5c, 0xf0, 0x9f, 0x91, 0x13, 0x1b, 0x14, 0x57, 0x30, 0x1e, 0x6d, 0xa1,
  0xcb, 0xe1, 0x35, 0x3b, 0xb3, 0xdd, 0x90, 0x9d, 0x1f, 0xf9, 0xb1, 0xd4,
  0x26, 0x02, 0x34, 0xff, 0xf2, 0xca, 0x49, 0xdc, 0xcd, 0x0e, 0x40, 0xe4,
  0xfa, 0x1f, 0x90, 0x37, 0x19, 0x31, 0x45, 0xf6, 0x0d, 0xe2, 0x2b, 0x34,
  0xe9, 0x3c, 0xdb, 0xdf, 0xf4, 0xe1, 0xe0, 0x0b, 0x0a, 0x1e, 0xfe, 0x2e,
  0xfe, 0xf4, 0xbc, 0xd4, 0xe1, 0xd7, 0x35, 0x1d, 0xc8, 0xde, 0xe9, 0x30,
  0xb9, 0x32, 0xff, 0xe5, 0xc8, 0xd1, 0xca, 0xbf, 0x1d, 0xda, 0xaf, 0xef,
  0xb7, 0xc6, 0xb1, 0xc6, 0x42, 0x2c, 0x0a, 0xe4, 0x07, 0xfd, 0x0c, 0x3e,
  0xb1, 0x40, 0x81, 0xf9, 0xd1, 0x4b, 0x76, 0xce, 0xda, 0x8a, 0x3a, 0x65,
  0x59, 0x94, 0x85, 0x62, 0xbf, 0x61, 0x22, 0x6f, 0xe8, 0x00, 0xec, 0xb0,
  0xbd, 0x97, 0xdb, 0xd0, 0x55, 0x4e, 0x95, 0x8f, 0xbe, 0x6b, 0x11, 0xc2,
  0x12, 0x72, 0x41, 0x43, 0xda, 0x51, 0x81, 0x6a, 0xab, 0xb0, 0xfd, 0xfc,
  0xe1, 0xe0, 0x74, 0x52, 0xfa, 0x62, 0xec, 0x50, 0x57, 0x2c, 0x9a, 0x72,
  0x8b, 0xe5, 0xd0, 0x8a, 0xa9, 0xba, 0x9b, 0x7c, 0xe2, 0x41, 0x8b, 0xc8,
  0x2d, 0xe8, 0x1b, 0xb8, 0xbf, 0x26, 0xff, 0x2f, 0x9c, 0x81, 0xfd, 0x6e,
  0x4f, 0xb6, 0x61, 0x11, 0x62, 0xf9, 0xbc, 0x2d, 0xa1, 0x13, 0x4b, 0x43,
  0xe5, 0x28, 0x89, 0x0b, 0xbd, 0x55, 0x06, 0x53, 0x08, 0xe2, 0xb7, 0xfd,
  0x99, 0x1a, 0x8c, 0x1a, 0xbb, 0x51, 0xd1, 0x5f, 0x63, 0x9d, 0xe7, 0x1f,
  0xc3, 0xd9, 0xeb, 0x1d, 0xe1, 0xb2, 0x0f, 0xc0, 0x0b, 0x85, 0xfc, 0xa7,
  0xa2, 0x02, 0x9e, 0xb5, 0x71, 0x2f, 0xc0, 0x49, 0x42, 0xef, 0x89, 0xe6,
  0x35, 0x21, 0xf3, 0xcf, 0x3d, 0xdb, 0xff, 0x9e, 0x18, 0x2c, 0x42, 0x04,
  0xd6, 0xdc, 0x26, 0x3f, 0x81, 0x40, 0x9e, 0x2f, 0x36, 0x37, 0xb8, 0x41,
  0x10, 0xf1, 0xfb, 0xab, 0x31, 0xa9, 0x24, 0x06, 0xbe, 0x9f, 0xd9, 0xc5,
  0x99, 0x23, 0xe4, 0xcd, 0xde, 0x4b, 0x33, 0xbd, 0x4c, 0x54, 0x01, 0x1d,
  0xa0, 0xc0, 0x07, 0x35, 0xef, 0xc9, 0xa3, 0xc8, 0xdb, 0x02, 0x16, 0xb2,
  0xff, 0x0f, 0x07, 0xef, 0xf3, 0x0b, 0x03, 0x51, 0xfe, 0xd5, 0x2f, 0xb1,
  0x3e, 0xfd, 0x23, 0x27, 0x12, 0x06, 0x26, 0x04, 0xe4, 0x28, 0x42, 0x7f,
  0xa9, 0xb0, 0xfd, 0xad, 0x03, 0xc3, 0xc7, 0xad, 0x9e, 0xcf, 0xd0, 0xd1,
  0x52, 0xa3, 0xd6, 0xac, 0x40, 0x46, 0x30, 0x89, 0xb5, 0xac, 0x1f, 0x2c,
  0xa5, 0x58, 0x15, 0xd8, 0x9e, 0xce, 0xb5, 0xc6, 0xcd, 0x14, 0x19, 0x7b,
  0x60, 0x1a, 0xc1, 0x8e, 0x08, 0xe7, 0x84, 0xb3, 0x81, 0x3c, 0x83, 0xa1,
  0x9d, 0x1d, 0x3d, 0x5b, 0x4b, 0xfe, 0xe2, 0xa8, 0xda, 0x97, 0xfd, 0xaf,
  0x4e, 0xe1, 0x41, 0xbc, 0x32, 0xdc, 0xbe, 0x1b, 0xa8, 0x46, 0x8c, 0xbc,
  0xb7, 0xfd, 0x64, 0x7f, 0x11, 0x0a, 0x4e, 0xac, 0xb6, 0xa0, 0xac, 0x4d,
  0x7d, 0x24, 0x94, 0xe1, 0xd8, 0xf7, 0x98, 0x04, 0xbc, 0xa0, 0x4c, 0x5a,
  0xbf, 0x83, 0x91, 0x4a, 0x19, 0xbe, 0x57, 0x4b, 0xc4, 0x41, 0x2c, 0x53,
  0x7d, 0x4b, 0x95, 0x2f, 0x0e, 0x4b, 0x40, 0xa4, 0xbf, 0xbb, 0xf2, 0x11,
  0x92, 0xb9, 0xff, 0xb7, 0xf2, 0xb2, 0x3a, 0x60, 0xd6, 0x55, 0x1b, 0xf7,
  0xbc, 0x09, 0xfd, 0xeb, 0x58, 0x46, 0xd7, 0xe4, 0x87, 0x20, 0xa0, 0x88,
  0xae, 0xb6, 0x2e, 0xde, 0x4b, 0xf6, 0xfb, 0x64, 0x65, 0x8f, 0x4d, 0xb9,
  0x64, 0x07, 0x4b, 0x6f, 0x12, 0x85, 0x5e, 0x41, 0x85, 0x20, 0x12, 0x4a,
  0x40, 0x4e, 0x39, 0x3a, 0xdd, 0xf2, 0x30, 0xac, 0xba, 0x5d, 0xd6, 0x40,
  0x42, 0x81, 0x45, 0x05, 0x04, 0x87, 0x11, 0x02, 0x25, 0xf1, 0x4d, 0x3e,
  0x14, 0x13, 0xef, 0xa2, 0xa4, 0xbe, 0xad, 0x23, 0x38, 0x92, 0x08, 0x25,
  0xc0, 0x8a, 0xc0, 0x52, 0x17, 0x98, 0xa9, 0x2e, 0x64, 0x9c, 0x12, 0xe3,
  0x2d, 0x3d, 0xf1, 0x50, 0x2f, 0x3f, 0xad, 0xd2, 0x36, 0xa3, 0x59, 0x26,
  0xe1, 0x52, 0x95, 0xac, 0xff, 0x43, 0x44, 0xab, 0x44, 0x16, 0x2f, 0xbe,
  0x0e, 0xb7, 0x1e, 0x9d, 0x81, 0x49, 0xc5, 0x3c, 0xa1, 0x24, 0x02, 0x07,
  0x46, 0x2d, 0x19, 0xaf, 0xcd, 0xd5, 0xd7, 0x1b, 0xf1, 0x1c, 0x25, 0xaa,
  0xa6, 0x45, 0xea, 0xbe, 0x14, 0x2a, 0x56, 0xc7, 0x2d, 0x09, 0xe2, 0x2e,
  0xdd, 0xac, 0x34, 0x5c, 0x68, 0x25, 0x30, 0xb9, 0x66, 0x92, 0xce, 0xbf,
  0x0e, 0xd8, 0xec, 0xe2, 0xd7, 0xe3, 0xd1, 0xfd, 0x3f, 0x54, 0xce, 0x7f,
  0x3b, 0x36, 0x3d, 0xe9, 0x41, 0x01, 0x24, 0x97, 0x22, 0xe5, 0x8f, 0xc8,
  0x14, 0x09, 0xf6, 0x1f, 0x20, 0xe0, 0x04, 0x37, 0x67, 0x37, 0xb2, 0x11,
  0x17, 0xb0, 0x13, 0xed, 0x60, 0x28, 0x3c, 0x3b, 0x36, 0x11, 0x92, 0xec,
  0x28, 0x36, 0xef, 0xba, 0xed, 0xd7, 0x0e, 0x5c, 0x07, 0xdd, 0x55, 0xa2,
  0x1c, 0xbb, 0x2d, 0x23, 0x96, 0xf0, 0xff, 0xff, 0x04, 0x00, 0x00, 0x00,
  0x18, 0x00, 0x00, 0x00, 0xce, 0x19, 0x80, 0x2e, 0xba, 0x88, 0x07, 0xec,
  0xbb, 0x9c, 0xcd, 0xb6, 0xb1, 0xcc, 0xf9, 0x7f, 0xcd, 0xa8, 0xba, 0x08,
  0x83, 0x86, 0x9c, 0x1f, 0xba, 0xf0, 0xff, 0xff, 0x04, 0x00, 0x00, 0x00,
  0xc0, 0x06, 0x00, 0x00, 0xc3, 0x8b, 0x5f, 0x13, 0xe6, 0x5d, 0xf0, 0x90,
  0xeb, 0xd3, 0x38, 0x31, 0x56, 0xf4, 0xb2, 0x17, 0xc0, 0x60, 0x6d, 0x0e,
  0x13, 0xc9, 0x60, 0x49, 0x32, 0x90, 0xab, 0x9b, 0xbb, 0x8e, 0x2f, 0x81,
  0xc1, 0x4b, 0x4d, 0xb9, 0x5f, 0x36, 0xe7, 0x2f, 0x4c, 0xd9, 0x0b, 0x3d,
  0x0b, 0x55, 0xbb, 0xa6, 0xe4, 0x49, 0xc9, 0xe3, 0x16, 0x0f, 0x5f, 0xcb,
  0xdb, 0xae, 0x2b, 0x6c, 0x4f, 0x00, 0x14, 0xa4, 0xf7, 0x62, 0xd7, 0xdc,
  0xe3, 0x68, 0x4f, 0xe9, 0xdb, 0x41, 0xf8, 0x09, 0x36, 0x76, 0xca, 0x52,
  0xe7, 0x28, 0x9a, 0xd2, 0x3d, 0xce, 0x2c, 0x1f, 0xa1, 0xae, 0xa8, 0x31,
  0x9f, 0x59, 0xac, 0xec, 0x48, 0xa4, 0x24, 0xcd, 0xaa, 0xd3, 0xde, 0x13,
  0xf4, 0x5c, 0x12, 0x0d, 0x35, 0xc9, 0x84, 0x7a, 0x26, 0xc7, 0x10, 0xf0,
  0xa2, 0x2d, 0x52, 0x50, 0x2c, 0xc7, 0x06, 0xa5, 0x81, 0x5e, 0x04, 0x88,
  0x06, 0xee, 0xf6, 0x2e, 0xe2, 0x4d, 0xcf, 0xb5, 0x59, 0x47, 0xb9, 0xe4,
  0x48, 0x11, 0x63, 0xce, 0xd9, 0x3e, 0x2f, 0x2c, 0xc2, 0xa8, 0xd4, 0x00,
  0xa7, 0xda, 0xf7, 0xd9, 0x00, 0xf1, 0x7f, 0xbe, 0x53, 0xed, 0xcb, 0xb5,
  0xb3, 0x68, 0xd7, 0xd7, 0x02, 0x11, 0x1e, 0x0e, 0x42, 0xcb, 0x47, 0xc3,
  0x36, 0x27, 0xcc, 0x37, 0xbd, 0xf9, 0x73, 0xa0, 0xb2, 0x25, 0x3b, 0x18,
  0x2e, 0x62, 0x0b, 0x36, 0xb7, 0xac, 0x16, 0xe0, 0x3f, 0x8d, 0x9c, 0xf2,
  0xb5, 0x99, 0x40, 0x50, 0xb9, 0xbe, 0x60, 0xa7, 0x3a, 0x6d, 0xdc, 0x3b,
  0x05, 0xc2, 0xd3, 0x0f, 0x1c, 0x2e, 0xd7, 0xab, 0xa1, 0x91, 0xcf, 0xd7,
  0x9d, 0x5d, 0x2d, 0xd3, 0xc8, 0x89, 0x3a, 0x01, 0x0e, 0x3c, 0x39, 0x94,
  0x62, 0x87, 0xcb, 0x3c, 0xd9, 0xee, 0x1a, 0x3c, 0x8c, 0x4a, 0xdb, 0x03,
  0xe3, 0x30, 0xee, 0xea, 0xe5, 0x33, 0x19, 0xcf, 0xb8, 0x37, 0x36, 0x0c,
  0xfe, 0x06, 0x2c, 0x3c, 0x42, 0xa5, 0x4e, 0x29, 0x39, 0x5e, 0x5d, 0x33,
  0x62, 0x6c, 0x50, 0xcc, 0xe7, 0x30, 0x0a, 0x1f, 0xa4, 0xe9, 0x9d, 0x0f,
  0xf0, 0x1a, 0x7f, 0xce, 0x1c, 0x19, 0xa1, 0x95, 0x05, 0xcc, 0x51, 0xec,
  0x2e, 0xaa, 0x0f, 0x4a, 0x0d, 0x1d, 0xff, 0x2f, 0x5a, 0x67, 0xcb, 0x6f,
  0x3c, 0x09, 0xfe, 0x17, 0xc7, 0x77, 0xdb, 0xb9, 0xc4, 0x55, 0xc5, 0xb2,
  0xe7, 0x81, 0x09, 0xb0, 0x53, 0xa3, 0x1b, 0x54, 0x19, 0xc9, 0xdd, 0x60,
  0x6e, 0xab, 0x46, 0x09, 0x16, 0x46, 0xd0, 0x21, 0x62, 0x0d, 0x58, 0xfb,
  0x0a, 0x66, 0x4b, 0xf6, 0x5a, 0x2b, 0x3f, 0xad, 0xdc, 0xc7, 0x33, 0xe0,
  0xf5, 0x0c, 0xd3, 0x17, 0x81, 0x8e, 0x9e, 0x44, 0x64, 0xc1, 0xcf, 0x0c,
  0x1f, 0x63, 0xcc, 0xe7, 0x4c, 0x02, 0x67, 0x62, 0xd6, 0xe1, 0xfa, 0x49,
  0x39, 0xf1, 0x03, 0xe2, 0x60, 0x49, 0xc6, 0x0b, 0x60, 0x30, 0x6f, 0xb8,
  0xeb, 0xb5, 0x63, 0xf4, 0x27, 0x84, 0x33, 0x90, 0x01, 0xef, 0xe1, 0xdb,
  0x73, 0x95, 0xd3, 0xa9, 0xd0, 0xc2, 0x98, 0xd1, 0xbf, 0x36, 0xac, 0x94,
  0x89, 0x04, 0x4a, 0x70, 0x20, 0xc8, 0x49, 0xf1, 0x38, 0xfc, 0x4c, 0xc7,
  0x31, 0x1f, 0xf5, 0x2e, 0x34, 0x30, 0xfa, 0x1c, 0xef, 0xf3, 0x25, 0xcd,
  0x14, 0x0b, 0x41, 0xdc, 0x12, 0x9c, 0xd0, 0xed, 0xf4, 0xea, 0xbe, 0xcb,
  0x44, 0x32, 0xc5, 0x37, 0xa4, 0x02, 0xf0, 0xc0, 0x3c, 0x81, 0x1d, 0xba,
  0x2d, 0x2c, 0x09, 0x41, 0x14, 0x44, 0x40, 0x2e, 0x29, 0x48, 0x40, 0xfb,
  0xd9, 0x2a, 0x03, 0x20, 0xfb, 0xc4, 0xa8, 0x39, 0x2b, 0x02, 0x05, 0x23,
  0x40, 0xcb, 0xe8, 0x3b, 0xb7, 0xca, 0x10, 0x53, 0xbc, 0xad, 0xa7, 0x30,
  0xb2, 0x53, 0x1f, 0x08, 0xef, 0xc4, 0xf3, 0x78, 0x0f, 0x40, 0x23, 0x3e,
  0xd7, 0x2c, 0x3c, 0x47, 0x13, 0x05, 0xae, 0x06, 0x53, 0x37, 0xb7, 0x2c,
  0xbd, 0x19, 0xca, 0x14, 0x59, 0x4f, 0xcd, 0xaf, 0x39, 0x71, 0xed, 0x7f,
  0xba, 0x28, 0x11, 0xbf, 0x4f, 0x47, 0xdf, 0x5f, 0xdd, 0xd6, 0x4d, 0x48,
  0xf8, 0xde, 0x5a, 0xf9, 0x6b, 0xca, 0x3c, 0x50, 0xec, 0x6b, 0xff, 0xab,
  0xa5, 0x3c, 0x9d, 0x74, 0xc1, 0x6e, 0x2a, 0xca, 0x02, 0x21, 0x05, 0x44,
  0xff, 0x3a, 0xf7, 0xa2, 0xa6, 0xf3, 0x5d, 0x81, 0xdd, 0x2d, 0xa2, 0xd8,
  0x47, 0x50, 0x37, 0xf9, 0xed, 0xb0, 0x78, 0xe4, 0x5d, 0x9f, 0x92, 0x34,
  0xb7, 0xc4, 0xc0, 0x0f, 0xf7, 0x4c, 0x42, 0xc6, 0x2d, 0xa4, 0x19, 0x5a,
  0xdc, 0x63, 0x50, 0x5d, 0x53, 0xcf, 0x3b, 0x05, 0x10, 0x99, 0xfd, 0x11,
  0xa9, 0xe3, 0x2a, 0x8b, 0x8f, 0xe6, 0xe3, 0x99, 0x64, 0x9c, 0x24, 0x2f,
  0xe5, 0xa7, 0xe5, 0xb9, 0xcb, 0x04, 0xd6, 0xd8, 0xfb, 0xe5, 0x43, 0xfb,
  0x47, 0xe4, 0xd1, 0xfc, 0xf7, 0x06, 0x41, 0xc7, 0x00, 0xf5, 0xbc, 0x81,
  0x27, 0x0f, 0xdb, 0x1b, 0x02, 0x00, 0x0b, 0xcd, 0xfd, 0x42, 0x98, 0x2b,
  0xf2, 0xdd, 0x03, 0x09, 0x22, 0x15, 0x5a, 0xc0, 0xa1, 0xcd, 0xef, 0xcc,
  0xb0, 0x4d, 0xa8, 0xc9, 0xc4, 0xb1, 0x32, 0x4e, 0x33, 0xc6, 0x50, 0xa6,
  0xd1, 0xbe, 0x4e, 0xcb, 0xf7, 0xbd, 0xd3, 0x0a, 0xb7, 0x43, 0x5b, 0x0b,
  0x9a, 0x63, 0x03, 0x23, 0x29, 0xa1, 0xb2, 0xe4, 0x12, 0x3b, 0xfb, 0xc3,
  0xa5, 0xe8, 0x19, 0x52, 0xd8, 0xb1, 0x8c, 0xb0, 0xe7, 0xae, 0x52, 0x81,
  0x56, 0x49, 0x24, 0x3a, 0x4a, 0x1b, 0x22, 0x51, 0xe4, 0x3e, 0x23, 0xa6,
  0x81, 0x47, 0xbb, 0xe1, 0x43, 0xc3, 0x55, 0xfd, 0xc9, 0x5c, 0x7f, 0xf5,
  0xce, 0x38, 0x11, 0x3c, 0x1d, 0x51, 0xac, 0x5b, 0xcb, 0xed, 0x53, 0xb0,
  0x36, 0xd7, 0x3e, 0x40, 0xf6, 0xa6, 0x4b, 0xd4, 0xc1, 0x08, 0xff, 0xba,
  0x48, 0xac, 0xc5, 0x66, 0xae, 0x19, 0x50, 0x08, 0xf7, 0x94, 0x40, 0xd9,
  0xe1, 0xb3, 0x4d, 0xdd, 0xb2, 0x31, 0x93, 0x93, 0xdb, 0x55, 0x33, 0xab,
  0x4d, 0xd5, 0xdd, 0x1f, 0x45, 0x98, 0xd5, 0xba, 0xa0, 0xdc, 0x3b, 0x01,
  0x2d, 0xea, 0x30, 0xc6, 0x53, 0xce, 0x97, 0x1f, 0xdc, 0xa2, 0x15, 0xf7,
  0xa8, 0x5c, 0x11, 0x50, 0xdf, 0x51, 0x52, 0x26, 0x45, 0xf0, 0x27, 0x23,
  0x2c, 0xcd, 0x08, 0x9f, 0x51, 0xcd, 0x81, 0xd7, 0x15, 0xef, 0x61, 0xfb,
  0xcb, 0xbf, 0xc7, 0xc2, 0xfb, 0xc1, 0xf7, 0x35, 0xa6, 0x46, 0xe8, 0x9b,
  0x07, 0xff, 0x28, 0x09, 0xaa, 0x3a, 0x24, 0xc0, 0x33, 0xab, 0x2b, 0xd9,
  0xeb, 0x19, 0x40, 0x65, 0x65, 0x5d, 0xcd, 0xdd, 0xba, 0xd7, 0x22, 0xf7,
  0xee, 0x7a, 0x28, 0x58, 0x27, 0x32, 0x44, 0xd2, 0x4e, 0xd1, 0x4a, 0x49,
  0x4d, 0xad, 0xcf, 0x3d, 0x41, 0x05, 0xf3, 0x19, 0x24, 0x40, 0xb7, 0xc6,
  0xff, 0xef, 0x0f, 0xb4, 0x35, 0xba, 0x81, 0xe3, 0x9c, 0xab, 0xb4, 0x37,
  0xc9, 0xdf, 0x9c, 0xb7, 0xdc, 0x38, 0x50, 0x06, 0xfb, 0xb0, 0x27, 0x07,
  0xe1, 0xd6, 0xe2, 0xcc, 0xdf, 0x26, 0x46, 0x9d, 0x15, 0xad, 0xf7, 0xb8,
  0x25, 0x6e, 0x13, 0x1c, 0x5e, 0x92, 0x4c, 0x0e, 0xdf, 0xda, 0xcc, 0x2c,
  0x01, 0x1e, 0x35, 0xef, 0x81, 0xe6, 0x02, 0x4d, 0xad, 0xf9, 0x2a, 0x3d,
  0xd1, 0xf4, 0xff, 0xd4, 0xed, 0x42, 0xce, 0x04, 0x48, 0x27, 0xaf, 0x42,
  0xea, 0xb1, 0xeb, 0xee, 0x2d, 0xea, 0x05, 0xea, 0xf2, 0x2d, 0x60, 0xc1,
  0x96, 0xd3, 0x4a, 0x68, 0xd1, 0xd1, 0x43, 0x27, 0x9c, 0xd1, 0x4f, 0xd0,
  0x39, 0x27, 0x3b, 0x36, 0xa7, 0x4f, 0x45, 0x4b, 0xd3, 0x3e, 0xe9, 0xa4,
  0x5c, 0x42, 0xd4, 0x5b, 0x52, 0x13, 0xa2, 0xbe, 0x16, 0xc0, 0xab, 0xd6,
  0x82, 0x52, 0xe8, 0xce, 0xf8, 0x4b, 0xe4, 0x81, 0x9e, 0xe1, 0xf6, 0x2e,
  0xbd, 0xbf, 0x0e, 0x59, 0xf2, 0xe9, 0xdb, 0xe7, 0x0b, 0xd1, 0x51, 0xf4,
  0x03, 0x08, 0xde, 0xca, 0xa2, 0xf9, 0x01, 0x84, 0x26, 0xca, 0xd9, 0xfe,
  0x59, 0xb1, 0x48, 0x4f, 0xb5, 0x5e, 0xaa, 0x4c, 0x3a, 0xfd, 0xdb, 0xf8,
  0x6d, 0xff, 0x1c, 0xd1, 0xa3, 0x4e, 0xa8, 0xb5, 0x57, 0xe7, 0x50, 0x10,
  0x16, 0xb5, 0xe8, 0x66, 0xcb, 0x35, 0xfb, 0x57, 0x11, 0xb0, 0x44, 0xe6,
  0x99, 0x9c, 0xf8, 0xc9, 0x4a, 0x8c, 0xb6, 0xd2, 0xe5, 0x4d, 0x6a, 0xcf,
  0x17, 0xe6, 0x70, 0x3f, 0x64, 0xa5, 0x33, 0x71, 0xda, 0x66, 0xc0, 0xbd,
  0x39, 0xdb, 0x45, 0x66, 0x18, 0xcd, 0x0c, 0x37, 0x31, 0x35, 0xd9, 0x3f,
  0xae, 0xdb, 0xfa, 0x22, 0x1b, 0xa9, 0xbc, 0xb5, 0x01, 0x01, 0xa6, 0x54,
  0x81, 0xee, 0xe5, 0xdc, 0x10, 0xe1, 0xac, 0xf9, 0x18, 0xe4, 0x28, 0x25,
  0xf6, 0x29, 0xc8, 0x38, 0xb6, 0x01, 0x48, 0x1a, 0x35, 0xe5, 0xcf, 0x42,
  0xc3, 0x0c, 0xec, 0xff, 0xf7, 0x09, 0xc4, 0x15, 0x25, 0xba, 0x02, 0xc2,
  0x09, 0x23, 0x0f, 0xd0, 0x0b, 0xd2, 0xd2, 0xd3, 0x05, 0x27, 0x3d, 0x1f,
  0xa3, 0xdc, 0x01, 0x15, 0x1a, 0x25, 0x27, 0x26, 0xe0, 0x30, 0x0d, 0x53,
  0x0a, 0xc0, 0xe9, 0x01, 0xe7, 0xc9, 0xd6, 0xc4, 0xd6, 0x0a, 0x27, 0x1a,
  0x81, 0x1c, 0x0c, 0xd0, 0xff, 0xfe, 0xbb, 0x0d, 0xe4, 0xe2, 0x3a, 0x9c,
  0xf6, 0x40, 0x19, 0x23, 0x51, 0xe6, 0xb9, 0xd0, 0xb7, 0xa6, 0xaf, 0x02,
  0x00, 0xdd, 0xf6, 0xb1, 0xf2, 0x0a, 0x41, 0xb4, 0x99, 0xf2, 0xeb, 0x29,
  0xa4, 0xea, 0x56, 0xfc, 0xe1, 0xb6, 0x7f, 0x54, 0x28, 0x1d, 0xc0, 0x15,
  0x2f, 0xc9, 0xca, 0x33, 0xe3, 0xc1, 0xd9, 0x2b, 0xa7, 0xef, 0x3e, 0x3e,
  0x08, 0xcd, 0xdb, 0x2c, 0x18, 0xaa, 0xe5, 0x07, 0xc0, 0x1d, 0xdb, 0x3a,
  0x88, 0xc0, 0x0d, 0xa4, 0xa8, 0x1e, 0x35, 0xc1, 0xce, 0xcc, 0xc3, 0x16,
  0x96, 0xfa, 0xb4, 0x16, 0xae, 0xe5, 0x64, 0x8f, 0x4a, 0x06, 0xaf, 0x5c,
  0xe9, 0xf0, 0x63, 0x1c, 0xae, 0x1e, 0x54, 0x81, 0xb8, 0x5b, 0xb2, 0xb9,
  0x64, 0xc2, 0x41, 0xfd, 0x62, 0x41, 0xbb, 0x20, 0xb4, 0xb1, 0xd4, 0x4e,
  0x04, 0xb3, 0xbe, 0x52, 0xc7, 0x07, 0xea, 0x38, 0xb1, 0xbd, 0x8d, 0xf4,
  0x07, 0xe2, 0x64, 0x1f, 0x38, 0x47, 0x56, 0x97, 0x39, 0x65, 0xb5, 0xbc,
  0x27, 0x2b, 0x2e, 0xcd, 0x7f, 0xdd, 0x5a, 0x4d, 0xa0, 0x27, 0x56, 0x55,
  0xe2, 0x40, 0x41, 0xfd, 0xb8, 0x00, 0xc4, 0xe3, 0x0a, 0xe9, 0x2b, 0x61,
  0xe9, 0xa7, 0x24, 0x25, 0x4d, 0x4a, 0xc7, 0xf3, 0x47, 0xdc, 0xb2, 0x49,
  0x28, 0xcd, 0x18, 0x3f, 0x0a, 0x56, 0x41, 0xd3, 0xe6, 0xf1, 0x5f, 0xa4,
  0xb2, 0x6a, 0xcd, 0x2f, 0xf3, 0x53, 0xba, 0xbd, 0xe1, 0x57, 0x32, 0xd9,
  0x44, 0x3a, 0xd1, 0x41, 0x4e, 0x4b, 0xb2, 0x09, 0xa7, 0x1c, 0xbc, 0x09,
  0xc5, 0x7f, 0x0f, 0xfd, 0x3c, 0xb6, 0x5c, 0xcb, 0xd3, 0x37, 0xf9, 0xaf,
  0xdb, 0x43, 0x2b, 0x0c, 0xd8, 0xc6, 0xe4, 0x1f, 0xb6, 0x59, 0xf9, 0x24,
  0xe5, 0x4d, 0xf5, 0x00, 0xe3, 0xb8, 0x0e, 0xb6, 0x2e, 0xd3, 0xc4, 0xb5,
  0xb9, 0x1f, 0xfc, 0x02, 0x47, 0xd7, 0x48, 0xe3, 0xe2, 0xbb, 0xda, 0xf7,
  0xe0, 0x25, 0x45, 0x1f, 0x3b, 0xa1, 0x69, 0x81, 0x9b, 0x40, 0x30, 0x33,
  0x3c, 0xed, 0xf0, 0xee, 0xe0, 0x51, 0x45, 0x21, 0xd1, 0x48, 0xc5, 0x02,
  0x0f, 0x35, 0x48, 0xc3, 0xde, 0x7f, 0x36, 0xae, 0xe8, 0xc0, 0xf8, 0x63,
  0x96, 0x1f, 0x17, 0x14, 0xe2, 0x17, 0xe0, 0x11, 0x12, 0xd9, 0x93, 0x05,
  0xb4, 0x0a, 0xb0, 0xdf, 0xeb, 0x3c, 0xfc, 0x43, 0x30, 0xdf, 0xea, 0xe0,
  0xa1, 0x26, 0x12, 0xb8, 0x95, 0x2f, 0x36, 0x50, 0xb4, 0xd1, 0x87, 0xbb,
  0x94, 0xb2, 0xa1, 0x16, 0x1a, 0x2a, 0x1e, 0xfe, 0xea, 0xad, 0xf1, 0x92,
  0xd5, 0xe1, 0x5e, 0xfc, 0x6c, 0xd0, 0xc6, 0xec, 0x39, 0x65, 0x82, 0x63,
  0x27, 0x51, 0x63, 0x18, 0x58, 0x4f, 0x46, 0xf5, 0xe4, 0x3b, 0x55, 0x38,
  0x40, 0xc6, 0x23, 0x56, 0xcd, 0x9b, 0x11, 0xc8, 0x38, 0x2b, 0xe6, 0xb2,
  0xb4, 0xed, 0x00, 0xa3, 0x81, 0x30, 0x51, 0xe0, 0x05, 0xdf, 0x4a, 0xed,
  0x25, 0x04, 0xe8, 0x0b, 0x56, 0x50, 0xf0, 0x0f, 0x0d, 0x30, 0xa9, 0xb3,
  0xc3, 0xe6, 0x0b, 0xd6, 0x31, 0xd6, 0xd6, 0xd2, 0x2a, 0x18, 0x59, 0x13,
  0xf3, 0x36, 0xc8, 0x40, 0x6c, 0x3d, 0x0d, 0xc2, 0x30, 0x0a, 0x06, 0x95,
  0x55, 0xf7, 0x32, 0x52, 0xe9, 0x03, 0x06, 0x2a, 0xce, 0x2c, 0x0a, 0x18,
  0xc1, 0x3d, 0xf5, 0xac, 0x38, 0x8e, 0xc7, 0x3e, 0x10, 0xa6, 0xe3, 0xb8,
  0xf7, 0x3d, 0x65, 0xc7, 0x50, 0xbc, 0x3c, 0x49, 0xe7, 0x8e, 0x10, 0x29,
  0xcd, 0x5c, 0x0e, 0xe2, 0xc5, 0x21, 0x32, 0xdb, 0xeb, 0x94, 0x2b, 0x50,
  0xde, 0xd4, 0x3d, 0xf3, 0xa5, 0xf5, 0x42, 0x0f, 0x36, 0x7f, 0xc3, 0x9d,
  0x05, 0x3a, 0xfb, 0x18, 0x9c, 0x88, 0x10, 0x13, 0xb5, 0xb9, 0x0b, 0xf4,
  0x99, 0x4b, 0xa0, 0x45, 0x86, 0xf7, 0xff, 0xff, 0x04, 0x00, 0x00, 0x00,
  0x18, 0x00, 0x00, 0x00, 0xfd, 0xc8, 0x59, 0x15, 0x3e, 0x0d, 0x20, 0x5c,
  0x1e, 0x8e, 0xc6, 0xaf, 0x1f, 0x8f, 0x85, 0x68, 0x5d, 0x80, 0x3b, 0x7f,
  0x23, 0x38, 0xf3, 0x23, 0xaa, 0xf7, 0xff, 0xff, 0x04, 0x00, 0x00, 0x00,
  0xc0, 0x06, 0x00, 0x00, 0xa4, 0xfb, 0x33, 0xda, 0x1e, 0xc0, 0x1c, 0x87,
  0xff, 0xd8, 0x51, 0x55, 0x94, 0xeb, 0xda, 0x2d, 0xd9, 0xd1, 0xb1, 0xff,
  0xc6, 0x45, 0x37, 0xf1, 0x40, 0x96, 0x9c, 0xb8, 0x29, 0x81, 0xef, 0xac,
  0x18, 0x27, 0x2e, 0xbf, 0x07, 0xb5, 0x3e, 0x91, 0x02, 0x29, 0x41, 0x9a,
  0xee, 0x9a, 0xd3, 0xa3, 0x1d, 0xb5, 0xa9, 0x33, 0x08, 0xef, 0xd1, 0xe5,
  0x39, 0xe1, 0xef, 0xb9, 0x4f, 0x54, 0xa2, 0xd2, 0xc9, 0x0f, 0x45, 0x0d,
  0x25, 0x69, 0x0a, 0xe0, 0xe1, 0xc7, 0x06, 0xfa, 0xba, 0x1f, 0xde, 0xd5,
  0x23, 0x27, 0x27, 0x07, 0xc7, 0xd7, 0xf6, 0xe1, 0x23, 0x1c, 0xb2, 0xf5,
  0xf5, 0x1d, 0xd6, 0x06, 0x3c, 0x3c, 0x25, 0x07, 0xe5, 0xfa, 0xb0, 0xf8,
  0x4a, 0x23, 0x02, 0xf8, 0xf0, 0x27, 0x2d, 0x1b, 0x17, 0xc8, 0xa6, 0xcc,
  0x24, 0xe2, 0x0f, 0xb9, 0xef, 0xd5, 0x1e, 0x34, 0xc1, 0x31, 0xad, 0xfc,
  0x03, 0xe4, 0xee, 0xe0, 0x04, 0x1b, 0x1b, 0xfe, 0x2a, 0x40, 0x9d, 0x3c,
  0x18, 0x3a, 0xcb, 0x81, 0x17, 0x3e, 0xc2, 0xd6, 0xd2, 0x3a, 0x38, 0x19,
  0xb4, 0x4e, 0xad, 0x35, 0xdd, 0xd3, 0xaf, 0xf3, 0x4f, 0x9e, 0xad, 0xda,
  0x00, 0x8b, 0xca, 0xe7, 0x25, 0x47, 0x8c, 0x24, 0x9f, 0x15, 0x24, 0xae,
  0xa1, 0x82, 0x1e, 0xf3, 0xeb, 0xce, 0x43, 0xea, 0xd8, 0x1d, 0x5a, 0x34,
  0x40, 0x4e, 0xae, 0x8c, 0xa1, 0x4c, 0x14, 0x60, 0xeb, 0x35, 0x9b, 0xae,
  0xef, 0x41, 0xe5, 0x6e, 0x0a, 0xe7, 0x89, 0xd7, 0xd0, 0x9e, 0x81, 0xc6,
  0xca, 0x41, 0x6c, 0x3b, 0x4b, 0xef, 0xc4, 0x4b, 0x2d, 0x25, 0x54, 0xac,
  0xc9, 0xc7, 0xb0, 0xdd, 0xcf, 0x3d, 0x0f, 0xbc, 0x1e, 0xea, 0x0b, 0xf8,
  0x13, 0x0e, 0xc9, 0x7f, 0xed, 0xbb, 0xa3, 0xd4, 0x1e, 0xfa, 0xc6, 0x31,
  0x21, 0x56, 0xd3, 0xea, 0xb8, 0xd1, 0x08, 0xe1, 0xab, 0xc8, 0xd9, 0xb9,
  0x1e, 0xb7, 0x39, 0xf3, 0x44, 0xcb, 0xea, 0xfe, 0x14, 0xf9, 0xe5, 0xe0,
  0x17, 0xae, 0x2a, 0xfe, 0xa2, 0xd6, 0xc7, 0x0d, 0xfe, 0xf5, 0x18, 0xbd,
  0x9e, 0x33, 0x01, 0xdc, 0x56, 0xc1, 0x58, 0xff, 0xa7, 0x07, 0xe0, 0x42,
  0xf9, 0xf6, 0x10, 0x3f, 0x0b, 0x5c, 0x56, 0xfe, 0xdd, 0xe5, 0x16, 0x86,
  0x32, 0x98, 0x1a, 0x0b, 0xe2, 0xb9, 0xd5, 0x6a, 0x70, 0x5a, 0x48, 0xd6,
  0xc6, 0xac, 0xc8, 0x04, 0x23, 0x03, 0xb7, 0x8e, 0x2d, 0xf4, 0x16, 0xf3,
  0xe7, 0xe2, 0x46, 0xe0, 0x42, 0x24, 0x91, 0x37, 0x22, 0xf4, 0xbd, 0xfd,
  0x5e, 0x8b, 0x0a, 0x0d, 0x53, 0xf1, 0xc2, 0x1c, 0x45, 0x4e, 0x7f, 0x11,
  0xdd, 0xdd, 0x06, 0x19, 0xaa, 0x4d, 0x85, 0x0f, 0x81, 0x21, 0x5b, 0xdd,
  0xe7, 0xa8, 0x52, 0x53, 0xd3, 0xb0, 0xc2, 0x30, 0x65, 0x5d, 0x90, 0x43,
  0xf3, 0xce, 0xd6, 0xd3, 0x3b, 0x25, 0xa0, 0xb1, 0x2d, 0xa3, 0x99, 0xed,
  0xb7, 0x3c, 0xb7, 0xbb, 0x14, 0x56, 0xc1, 0x35, 0x29, 0x98, 0x30, 0x96,
  0x20, 0xbb, 0x16, 0x31, 0x08, 0x49, 0x07, 0x1c, 0xb2, 0xe0, 0xd7, 0x47,
  0xcc, 0x14, 0x24, 0xd0, 0x3b, 0x28, 0xb6, 0xfa, 0x01, 0xd3, 0x30, 0xb1,
  0xa1, 0xcb, 0x4b, 0xfc, 0x69, 0xab, 0x4f, 0x05, 0xf8, 0xe6, 0xd5, 0xeb,
  0x8b, 0x4d, 0x2c, 0x0e, 0x55, 0xda, 0xaa, 0x39, 0x32, 0xfb, 0x2f, 0xfd,
  0x30, 0x2e, 0x81, 0xb5, 0x55, 0x5d, 0x64, 0x70, 0xc7, 0x15, 0xed, 0x99,
  0x59, 0x21, 0x29, 0xbf, 0x36, 0x42, 0xda, 0x6f, 0xde, 0x47, 0xf5, 0x4d,
  0xa6, 0x24, 0x96, 0xb0, 0x1b, 0xf3, 0x01, 0x91, 0x60, 0x0a, 0x0f, 0xc7,
  0xd7, 0xd9, 0x6b, 0xa5, 0xbd, 0x7e, 0x38, 0xb6, 0x64, 0x1f, 0x2b, 0x8e,
  0x7c, 0xea, 0x08, 0x6b, 0xd2, 0xeb, 0x17, 0x4b, 0x36, 0x6f, 0xf9, 0xcf,
  0x32, 0xe6, 0xf4, 0x15, 0xdc, 0x56, 0x30, 0x1a, 0x0b, 0x91, 0xfd, 0xb6,
  0x38, 0xb3, 0xa4, 0x24, 0xf9, 0xcd, 0x57, 0x4d, 0x7f, 0x0e, 0xd9, 0x5d,
  0xe7, 0x04, 0xe8, 0xca, 0x2c, 0xe1, 0xec, 0xdb, 0xa3, 0xe0, 0xea, 0x04,
  0xdf, 0x39, 0xb0, 0xb2, 0xa7, 0xea, 0x52, 0x09, 0x72, 0x6f, 0xae, 0xe0,
  0x31, 0xfb, 0x21, 0xee, 0xed, 0xab, 0xd2, 0x01, 0x24, 0xa4, 0xbf, 0xf1,
  0x59, 0xf7, 0xf1, 0x2c, 0xe8, 0xb7, 0xb6, 0x85, 0x10, 0x87, 0x1f, 0x58,
  0xc7, 0xc4, 0xd9, 0x3a, 0xc1, 0x1e, 0xdb, 0x25, 0x8e, 0x26, 0xae, 0x95,
  0xda, 0x13, 0x07, 0xdf, 0x96, 0x4e, 0x16, 0xaf, 0xe0, 0x38, 0xf3, 0x1e,
  0x81, 0x43, 0xb5, 0x9c, 0x4e, 0xde, 0xef, 0x3e, 0xc1, 0x2e, 0x99, 0x9d,
  0xa3, 0x96, 0xac, 0xfc, 0x03, 0xed, 0xe1, 0xc9, 0xbc, 0xc9, 0xd6, 0xca,
  0x46, 0x6e, 0xb9, 0xc3, 0x23, 0x2c, 0x0b, 0xd0, 0x83, 0xdd, 0xfe, 0xf0,
  0x25, 0x36, 0x83, 0x48, 0xd6, 0xa9, 0x14, 0x0a, 0xb6, 0xc0, 0xee, 0x0b,
  0xa0, 0xa4, 0xe0, 0x53, 0x94, 0xfe, 0xe3, 0x24, 0xc7, 0xe8, 0xd4, 0x15,
  0x0a, 0x42, 0xd8, 0xb6, 0xb6, 0xa7, 0x04, 0xde, 0x07, 0x3a, 0x92, 0xb9,
  0x98, 0x41, 0x9d, 0xe2, 0xb7, 0x0d, 0xfe, 0xf2, 0x48, 0x38, 0xf5, 0xdc,
  0xa0, 0xfb, 0xda, 0xe1, 0xc5, 0x17, 0x2d, 0xfc, 0x27, 0xce, 0x1c, 0x05,
  0x0b, 0xf7, 0x4f, 0xd3, 0xa7, 0xf2, 0xff, 0x9b, 0x81, 0xd3, 0x02, 0x0b,
  0xcf, 0x2a, 0x4e, 0x53, 0xb7, 0x44, 0x0b, 0xfa, 0xdf, 0x13, 0x97, 0x9b,
  0xac, 0xb9, 0xc6, 0xcf, 0xd7, 0xfe, 0x5a, 0xe1, 0x50, 0xd1, 0xb1, 0x0a,
  0xf5, 0xd4, 0x0c, 0xbe, 0x41, 0x15, 0x02, 0x96, 0xd3, 0x2b, 0x4a, 0x09,
  0xe9, 0x18, 0x9e, 0x27, 0x3f, 0xb6, 0x06, 0xd0, 0x0e, 0xa0, 0x51, 0xaf,
  0x47, 0x29, 0x34, 0x96, 0x1b, 0xe8, 0xa1, 0xda, 0xbf, 0xdc, 0x30, 0x9e,
  0x96, 0x97, 0x81, 0xd2, 0xa7, 0x9b, 0x16, 0xab, 0x5f, 0x2a, 0x8d, 0x23,
  0x12, 0xac, 0x1d, 0xff, 0x14, 0x81, 0x1d, 0x1d, 0x5b, 0x02, 0x58, 0xae,
  0xdb, 0x08, 0xe0, 0x1a, 0x2f, 0xc6, 0xd3, 0x1c, 0xa8, 0x25, 0x82, 0x3b,
  0xaa, 0xca, 0x52, 0x90, 0x8d, 0xf6, 0x44, 0xbc, 0xfe, 0xc7, 0xe3, 0x0e,
  0xfe, 0x2b, 0x18, 0x34, 0xe4, 0x31, 0x22, 0xdc, 0x9e, 0x3c, 0x06, 0x85,
  0x99, 0x5c, 0x8b, 0xb3, 0x51, 0x52, 0x13, 0x2a, 0x7a, 0x81, 0x88, 0x16,
  0x4c, 0x2d, 0x43, 0xed, 0xca, 0x22, 0xc9, 0xb0, 0xe3, 0x26, 0xfb, 0xf9,
  0xe2, 0xc5, 0xfc, 0x06, 0x15, 0x18, 0x3d, 0x2d, 0x20, 0xbf, 0xdc, 0x39,
  0xc0, 0xd5, 0x3e, 0xd0, 0xe5, 0xd6, 0x32, 0x18, 0x36, 0xe5, 0x30, 0x0d,
  0x0f, 0xfb, 0xfb, 0xf8, 0x0c, 0x2d, 0xdf, 0xc7, 0x0c, 0x00, 0xc4, 0x2e,
  0x09, 0x32, 0xf8, 0x21, 0x3b, 0xe4, 0xd6, 0x0b, 0xfa, 0x35, 0xee, 0xc0,
  0xbe, 0x11, 0x30, 0xe8, 0x46, 0xdd, 0xca, 0x2f, 0x29, 0xcf, 0xe6, 0xd0,
  0x0b, 0x3d, 0xf8, 0xf3, 0xd7, 0xd0, 0x03, 0x39, 0x35, 0x2f, 0x14, 0xc6,
  0x0a, 0xb4, 0xdc, 0x81, 0xdd, 0xf7, 0xa8, 0xff, 0xcc, 0x30, 0x06, 0xd3,
  0x0b, 0xec, 0x1f, 0x12, 0xb7, 0xf8, 0x20, 0xe2, 0xc9, 0x35, 0x03, 0x24,
  0xb1, 0xa9, 0x35, 0xce, 0xdd, 0xa7, 0xc2, 0x30, 0xe7, 0xd2, 0x25, 0x14,
  0x36, 0xe9, 0x30, 0xe9, 0x1a, 0x4a, 0xda, 0x20, 0x50, 0x2d, 0xb3, 0x57,
  0xfd, 0x21, 0xf6, 0xcb, 0x3c, 0x14, 0xb6, 0xa4, 0x40, 0xfb, 0xc6, 0xcd,
  0xf0, 0xef, 0xce, 0xd6, 0xaa, 0xff, 0x11, 0xbd, 0x37, 0x2a, 0x81, 0xd7,
  0xf0, 0xac, 0xc9, 0x65, 0x9b, 0x3a, 0xf9, 0xa5, 0xa3, 0x07, 0x03, 0xe5,
  0xca, 0xbe, 0xce, 0x5f, 0x35, 0x4f, 0x23, 0x03, 0xad, 0x3f, 0x1b, 0x0d,
  0xc3, 0x81, 0x35, 0xb7, 0x36, 0x49, 0x5c, 0x43, 0x9e, 0x3b, 0x0e, 0xd7,
  0xc8, 0x03, 0xdd, 0x2d, 0xd4, 0x1d, 0x3b, 0x9d, 0x59, 0x97, 0xdc, 0xd7,
  0x1b, 0xc1, 0x5e, 0xcc, 0x22, 0xba, 0x93, 0x69, 0xa0, 0xf0, 0x26, 0xa9,
  0xc3, 0xd3, 0x9e, 0xea, 0x10, 0xb9, 0x03, 0x49, 0x6c, 0xaf, 0xb4, 0xe6,
  0xbc, 0xdf, 0x6b, 0xea, 0x8f, 0x11, 0x21, 0xad, 0x44, 0x17, 0x20, 0xe8,
  0xef, 0x53, 0x64, 0x39, 0xf1, 0x0c, 0x06, 0x6a, 0xe7, 0x2f, 0x16, 0x43,
  0x25, 0x0d, 0xa5, 0x19, 0x53, 0xaf, 0xe5, 0x0a, 0x22, 0xe2, 0xf0, 0x04,
  0x46, 0x03, 0xff, 0xba, 0xf1, 0x09, 0xc7, 0xf3, 0xb5, 0x03, 0xc4, 0x3a,
  0x52, 0x55, 0x4a, 0xac, 0x9d, 0x1c, 0x7f, 0x28, 0xe3, 0x6d, 0x20, 0xf9,
  0x1a, 0x1b, 0xf3, 0xb1, 0x6b, 0x37, 0xfb, 0x2a, 0xa1, 0xfb, 0x1f, 0xd4,
  0xd9, 0xa8, 0xb2, 0x0f, 0xe3, 0xc0, 0x6f, 0x24, 0xb9, 0x29, 0x86, 0xac,
  0xce, 0xcc, 0x54, 0x99, 0x01, 0xa1, 0x90, 0xa9, 0x51, 0xec, 0x18, 0x04,
  0x51, 0x4b, 0x45, 0x2d, 0x74, 0xe6, 0x22, 0x02, 0x4c, 0xc8, 0xe0, 0x1e,
  0xc1, 0x5a, 0x2b, 0x6a, 0xf1, 0x16, 0x54, 0xd0, 0xe5, 0x1f, 0xcd, 0x2f,
  0x81, 0x0a, 0x95, 0x62, 0x40, 0xe9, 0xa4, 0x00, 0x4a, 0x0f, 0xeb, 0x09,
  0xa9, 0xc7, 0x15, 0xb7, 0xfc, 0xf2, 0x32, 0x3b, 0x36, 0x1c, 0xb4, 0xd4,
  0xd2, 0xb7, 0x9d, 0xc7, 0x43, 0xb8, 0x26, 0x1f, 0xb2, 0xb6, 0xc0, 0x9f,
  0x08, 0x39, 0x3b, 0xd7, 0xba, 0x9a, 0xbd, 0x40, 0xc4, 0x87, 0x95, 0x58,
  0xcb, 0x1f, 0xf2, 0xe4, 0x2c, 0xf5, 0xc3, 0xa0, 0x38, 0xfc, 0x4f, 0xdf,
  0xef, 0xe6, 0x0f, 0xd0, 0x1b, 0x05, 0x48, 0xf1, 0xbf, 0x81, 0xae, 0x08,
  0x43, 0xb8, 0x46, 0xb8, 0xa6, 0x30, 0x1c, 0xab, 0xe6, 0xf5, 0x3a, 0x0c,
  0xe6, 0x08, 0xba, 0x2a, 0xb0, 0x86, 0x54, 0x13, 0x33, 0x95, 0xc6, 0xb3,
  0xbc, 0xd5, 0xde, 0x35, 0x08, 0x41, 0xe6, 0x2b, 0x13, 0x35, 0x35, 0xd4,
  0x37, 0xbe, 0xf9, 0xb0, 0xb3, 0xab, 0x9b, 0x89, 0xed, 0x81, 0x3d, 0xbb,
  0xdc, 0xb7, 0xe9, 0x1d, 0x3f, 0x98, 0x0b, 0x33, 0x0b, 0x51, 0x12, 0xd9,
  0x3c, 0xa7, 0xb5, 0x23, 0xe0, 0x02, 0xf8, 0xe2, 0x2d, 0xda, 0x26, 0x94,
  0xb1, 0x4f, 0x09, 0x3e, 0x1d, 0x07, 0xe6, 0xda, 0x1e, 0x28, 0xfb, 0x90,
  0x5e, 0xd6, 0xae, 0x7e, 0x9a, 0x09, 0xa6, 0xca, 0xee, 0x5b, 0xca, 0xa6,
  0x28, 0xbb, 0xc4, 0xbd, 0x52, 0x23, 0x2d, 0x2a, 0x9f, 0x52, 0x95, 0xc1,
  0xaf, 0xda, 0xcb, 0x1b, 0x51, 0xb9, 0xc3, 0xd1, 0xfd, 0xe6, 0x9a, 0xd2,
  0xf3, 0x42, 0xd8, 0xdc, 0xaf, 0x29, 0x07, 0xd2, 0x0a, 0xdf, 0x14, 0xb3,
  0x11, 0x4b, 0xf6, 0xb7, 0x0a, 0x3c, 0x0c, 0x4b, 0x2b, 0x2f, 0x29, 0xb0,
  0xc5, 0x99, 0xc1, 0x0c, 0xcf, 0x0a, 0x1a, 0x5f, 0x06, 0x26, 0x1a, 0x1a,
  0xb9, 0xe8, 0x45, 0x11, 0x42, 0x05, 0xa5, 0xbc, 0xf8, 0xce, 0x81, 0x48,
  0x07, 0xfb, 0x5a, 0x3b, 0xae, 0xc8, 0x66, 0xb1, 0x4f, 0xb1, 0x19, 0x0b,
  0x2e, 0xf2, 0xcf, 0x33, 0xc4, 0x4a, 0xd2, 0x49, 0xf1, 0x47, 0x81, 0x06,
  0xda, 0x50, 0xe1, 0xb2, 0xbc, 0xa7, 0x90, 0x1c, 0xc8, 0x89, 0x44, 0xbb,
  0x4f, 0x47, 0x42, 0xd8, 0x11, 0x96, 0xeb, 0x44, 0xe0, 0xcc, 0x84, 0x4c,
  0xe7, 0x3b, 0xf3, 0x9d, 0xfd, 0xad, 0x0c, 0xd3, 0xd9, 0x3e, 0xef, 0xf6,
  0x49, 0xd6, 0x14, 0x47, 0x50, 0xd2, 0xd6, 0xf7, 0x72, 0x30, 0x00, 0x59,
  0x6a, 0xe6, 0xa4, 0x9e, 0x2e, 0xfb, 0x14, 0xca, 0x15, 0xb0, 0xfd, 0xc7,
  0xfd, 0xe5, 0xbe, 0xdf, 0xb0, 0x52, 0xc9, 0x36, 0xa8, 0x98, 0xf2, 0xec,
  0x42, 0xf9, 0xff, 0x9d, 0xc5, 0xf1, 0xed, 0xe1, 0xd3, 0xac, 0x27, 0xba,
  0xce, 0x36, 0xf4, 0xc9, 0x23, 0xd5, 0xb2, 0x20, 0x17, 0xd9, 0x9d, 0x06,
  0xc4, 0x0a, 0xd9, 0x3b, 0xa6, 0x1f, 0x27, 0x15, 0x0d, 0xbe, 0xa6, 0xff,
  0xba, 0xf1, 0xfa, 0x2f, 0xca, 0xe8, 0x81, 0x20, 0x13, 0x6a, 0xf1, 0xb8,
  0xfc, 0x20, 0xb4, 0xe8, 0x3d, 0xd7, 0xba, 0xb4, 0xf5, 0x1b, 0x06, 0xf8,
  0xa6, 0x2a, 0x49, 0x2d, 0xc6, 0xb8, 0xd8, 0xd5, 0x45, 0x99, 0xfe, 0x39,
  0x03, 0x1b, 0x3d, 0xf1, 0x0c, 0x52, 0x0b, 0xe4, 0x03, 0x4a, 0xc4, 0x02,
  0x4e, 0x1b, 0xd1, 0x1e, 0x10, 0xc9, 0xfa, 0xcb, 0xed, 0xa4, 0x29, 0x53,
  0xaf, 0xce, 0x43, 0x0d, 0xd4, 0x22, 0xb5, 0x12, 0xdc, 0xc1, 0xf2, 0x45,
  0xe4, 0xc1, 0xee, 0xfd, 0xab, 0xdd, 0x2e, 0x20, 0x16, 0x81, 0x5d, 0x0a,
  0xb7, 0xd2, 0xae, 0xd5, 0x3f, 0x4f, 0x11, 0x2f, 0x08, 0xc0, 0x57, 0x29,
  0x67, 0xb3, 0x13, 0x95, 0x34, 0x40, 0xb8, 0x27, 0xba, 0xcc, 0xa6, 0x5a,
  0x99, 0xd7, 0x17, 0x3c, 0x87, 0x82, 0xbe, 0x18, 0x67, 0x28, 0x35, 0x01,
  0x50, 0xcf, 0x40, 0x05, 0xdc, 0x00, 0x2a, 0x45, 0x2a, 0xa8, 0x4a, 0x34,
  0xc6, 0x0e, 0x70, 0xe7, 0xe0, 0x01, 0xe5, 0x1d, 0x9e, 0x03, 0x1b, 0x6a,
  0xc9, 0xf2, 0xc2, 0x4d, 0xef, 0x81, 0x37, 0xa1, 0x54, 0xa6, 0xcc, 0xd3,
  0x14, 0x97, 0xfa, 0x1f, 0x76, 0xfe, 0xff, 0xff, 0x04, 0x00, 0x00, 0x00,
  0x18, 0x00, 0x00, 0x00, 0xdf, 0x0b, 0x08, 0xb0, 0xb6, 0x0c, 0x08, 0x3e,
  0xb6, 0x91, 0xd9, 0xc4, 0x44, 0xfe, 0x2f, 0x5b, 0x7f, 0x80, 0xc3, 0x36,
  0xec, 0xcd, 0xf3, 0x5b, 0x9a, 0xfe, 0xff, 0xff, 0x04, 0x00, 0x00, 0x00,
  0x18, 0x00, 0x00, 0x00, 0x6b, 0xc4, 0x9b, 0x33, 0x47, 0xa5, 0x16, 0x37,
  0xb1, 0xa3, 0x53, 0xc8, 0xcf, 0x7f, 0xbb, 0x17, 0xec, 0x30, 0xca, 0xc5,
  0xa4, 0xbe, 0x21, 0xdd, 0xbe, 0xfe, 0xff, 0xff, 0x04, 0x00, 0x00, 0x00,
  0x04, 0x00, 0x00, 0x00, 0x3a, 0xfe, 0xff, 0xff, 0xce, 0xfe, 0xff, 0xff,
  0x04, 0x00, 0x00, 0x00, 0x0c, 0x00, 0x00, 0x00, 0x01, 0x00, 0x00, 0x00,
  0x01, 0x00, 0x00, 0x00, 0x01, 0x00, 0x00, 0x00, 0xe6, 0xfe, 0xff, 0xff,
  0x04, 0x00, 0x00, 0x00, 0x0c, 0x00, 0x00, 0x00, 0x00, 0x00, 0x00, 0x00,
  0x00, 0x00, 0x00, 0x00, 0x00, 0x00, 0x00, 0x00, 0xfe, 0xfe, 0xff, 0xff,
  0x04, 0x00, 0x00, 0x00, 0x0c, 0x00, 0x00, 0x00, 0x00, 0x00, 0x00, 0x00,
  0xff, 0xff, 0xff, 0xff, 0x00, 0x00, 0x00, 0x00, 0x16, 0xff, 0xff, 0xff,
  0x04, 0x00, 0x00, 0x00, 0x0c, 0x00, 0x00, 0x00, 0xff, 0xff, 0xff, 0xff,
  0x06, 0x00, 0x00, 0x00, 0x18, 0x00, 0x00, 0x00, 0x2e, 0xff, 0xff, 0xff,
  0x04, 0x00, 0x00, 0x00, 0x04, 0x00, 0x00, 0x00, 0x04, 0x00, 0x00, 0x00,
  0x3e, 0xff, 0xff, 0xff, 0x04, 0x00, 0x00, 0x00, 0x18, 0x00, 0x00, 0x00,
  0x00, 0x00, 0x00, 0x00, 0x00, 0x00, 0x00, 0x00, 0x08, 0x00, 0x00, 0x00,
  0x00, 0x00, 0x00, 0x00, 0x00, 0x00, 0x00, 0x00, 0x00, 0x00, 0x00, 0x00,
  0x62, 0xff, 0xff, 0xff, 0x04, 0x00, 0x00, 0x00, 0x0c, 0x00, 0x00, 0x00,
  0xff, 0xff, 0xff, 0xff, 0x0c, 0x00, 0x00, 0x00, 0x18, 0x00, 0x00, 0x00,
  0x7a, 0xff, 0xff, 0xff, 0x04, 0x00, 0x00, 0x00, 0x08, 0x00, 0x00, 0x00,
  0x00, 0x00, 0x00, 0x00, 0x00, 0x00, 0x00, 0x00, 0x8e, 0xff, 0xff, 0xff,
  0x04, 0x00, 0x00, 0x00, 0x04, 0x00, 0x00, 0x00, 0x02, 0x00, 0x00, 0x00,
  0x9e, 0xff, 0xff, 0xff, 0x04, 0x00, 0x00, 0x00, 0x18, 0x00, 0x00, 0x00,
  0x00, 0x00, 0x00, 0x00, 0x00, 0x00, 0x00, 0x00, 0x04, 0x00, 0x00, 0x00,
  0x00, 0x00, 0x00, 0x00, 0x00, 0x00, 0x00, 0x00, 0x00, 0x00, 0x00, 0x00,
  0xc2, 0xff, 0xff, 0xff, 0x04, 0x00, 0x00, 0x00, 0x18, 0x00, 0x00, 0x00,
  0x00, 0x00, 0x00, 0x00, 0x00, 0x00, 0x00, 0x00, 0x02, 0x00, 0x00, 0x00,
  0x00, 0x00, 0x00, 0x00, 0x00, 0x00, 0x00, 0x00, 0x00, 0x00, 0x00, 0x00,
  0xe6, 0xff, 0xff, 0xff, 0x04, 0x00, 0x00, 0x00, 0x0c, 0x00, 0x00, 0x00,
  0xff, 0xff, 0xff, 0xff, 0x18, 0x00, 0x00, 0x00, 0x18, 0x00, 0x00, 0x00,
  0x00, 0x00, 0x06, 0x00, 0x08, 0x00, 0x04, 0x00, 0x06, 0x00, 0x00, 0x00,
  0x04, 0x00, 0x00, 0x00, 0x04, 0x00, 0x00, 0x00, 0xfd, 0xff, 0xff, 0xff,
  0xc8, 0xbe, 0xff, 0xff, 0xcc, 0xbe, 0xff, 0xff, 0x0f, 0x00, 0x00, 0x00,
  0x4d, 0x4c, 0x49, 0x52, 0x20, 0x43, 0x6f, 0x6e, 0x76, 0x65, 0x72, 0x74,
  0x65, 0x64, 0x2e, 0x00, 0x01, 0x00, 0x00, 0x00, 0x14, 0x00, 0x00, 0x00,
  0x00, 0x00, 0x0e, 0x00, 0x18, 0x00, 0x14, 0x00, 0x10, 0x00, 0x0c, 0x00,
  0x08, 0x00, 0x04, 0x00, 0x0e, 0x00, 0x00, 0x00, 0x14, 0x00, 0x00, 0x00,
  0x1c, 0x00, 0x00, 0x00, 0x70, 0x09, 0x00, 0x00, 0x74, 0x09, 0x00, 0x00,
  0x78, 0x09, 0x00, 0x00, 0x04, 0x00, 0x00, 0x00, 0x6d, 0x61, 0x69, 0x6e,
  0x00, 0x00, 0x00, 0x00, 0x2c, 0x00, 0x00, 0x00, 0x28, 0x09, 0x00, 0x00,
  0xcc, 0x08, 0x00, 0x00, 0x94, 0x08, 0x00, 0x00, 0x54, 0x08, 0x00, 0x00,
  0x14, 0x08, 0x00, 0x00, 0xc0, 0x07, 0x00, 0x00, 0x98, 0x07, 0x00, 0x00,
  0x64, 0x07, 0x00, 0x00, 0x34, 0x07, 0x00, 0x00, 0xec, 0x06, 0x00, 0x00,
  0xb8, 0x06, 0x00, 0x00, 0x90, 0x06, 0x00, 0x00, 0x5c, 0x06, 0x00, 0x00,
  0x30, 0x06, 0x00, 0x00, 0x00, 0x06, 0x00, 0x00, 0xb0, 0x05, 0x00, 0x00,
  0x88, 0x05, 0x00, 0x00, 0x5c, 0x05, 0x00, 0x00, 0x1c, 0x05, 0x00, 0x00,
  0xe8, 0x04, 0x00, 0x00, 0xbc, 0x04, 0x00, 0x00, 0x8c, 0x04, 0x00, 0x00,
  0x48, 0x04, 0x00, 0x00, 0x20, 0x04, 0x00, 0x00, 0xf4, 0x03, 0x00, 0x00,
  0xbc, 0x03, 0x00, 0x00, 0x88, 0x03, 0x00, 0x00, 0x54, 0x03, 0x00, 0x00,
  0x28, 0x03, 0x00, 0x00, 0xf8, 0x02, 0x00, 0x00, 0xb4, 0x02, 0x00, 0x00,
  0x8c, 0x02, 0x00, 0x00, 0x60, 0x02, 0x00, 0x00, 0x28, 0x02, 0x00, 0x00,
  0xf4, 0x01, 0x00, 0x00, 0xc8, 0x01, 0x00, 0x00, 0x98, 0x01, 0x00, 0x00,
  0x54, 0x01, 0x00, 0x00, 0x2c, 0x01, 0x00, 0x00, 0x00, 0x01, 0x00, 0x00,
  0xc8, 0x00, 0x00, 0x00, 0x94, 0x00, 0x00, 0x00, 0x3c, 0x00, 0x00, 0x00,
  0x04, 0x00, 0x00, 0x00, 0x5e, 0xf8, 0xff, 0xff, 0x14, 0x00, 0x00, 0x00,
  0x00, 0x00, 0x00, 0x08, 0x10, 0x00, 0x00, 0x00, 0x14, 0x00, 0x00, 0x00,
  0x08, 0x00, 0x00, 0x00, 0xec, 0xbf, 0xff, 0xff, 0x01, 0x00, 0x00, 0x00,
  0x4d, 0x00, 0x00, 0x00, 0x03, 0x00, 0x00, 0x00, 0x4c, 0x00, 0x00, 0x00,
  0x0f, 0x00, 0x00, 0x00, 0x0e, 0x00, 0x00, 0x00, 0x22, 0xf8, 0xff, 0xff,
  0x24, 0x00, 0x00, 0x00, 0x00, 0x00, 0x00, 0x20, 0x2c, 0x00, 0x00, 0x00,
  0x30, 0x00, 0x00, 0x00, 0x07, 0x00, 0x00, 0x00, 0x00, 0x00, 0x0e, 0x00,
  0x10, 0x00, 0x0c, 0x00, 0x08, 0x00, 0x00, 0x00, 0x00, 0x00, 0x04, 0x00,
  0x0e, 0x00, 0x00, 0x00, 0x02, 0x00, 0x00, 0x00, 0x05, 0x00, 0x00, 0x00,
  0x05, 0x00, 0x00, 0x00, 0x01, 0x00, 0x00, 0x00, 0x4c, 0x00, 0x00, 0x00,
  0x04, 0x00, 0x00, 0x00, 0x4b, 0x00, 0x00, 0x00, 0x0b, 0x00, 0x00, 0x00,
  0x0c, 0x00, 0x00, 0x00, 0x0d, 0x00, 0x00, 0x00, 0xe6, 0xf8, 0xff, 0xff,
  0x14, 0x00, 0x00, 0x00, 0x00, 0x00, 0x00, 0x0b, 0x10, 0x00, 0x00, 0x00,
  0x14, 0x00, 0x00, 0x00, 0x04, 0x00, 0x00, 0x00, 0x74, 0xc0, 0xff, 0xff,
  0x01, 0x00, 0x00, 0x00, 0x4b, 0x00, 0x00, 0x00, 0x02, 0x00, 0x00, 0x00,
  0x3c, 0x00, 0x00, 0x00, 0x4a, 0x00, 0x00, 0x00, 0x16, 0xf9, 0xff, 0xff,
  0x14, 0x00, 0x00, 0x00, 0x00, 0x00, 0x00, 0x0b, 0x14, 0x00, 0x00, 0x00,
  0x18, 0x00, 0x00, 0x00, 0x04, 0x00, 0x00, 0x00, 0x02, 0xfc, 0xff, 0xff,
  0x00, 0x00, 0x00, 0x01, 0x01, 0x00, 0x00, 0x00, 0x4a, 0x00, 0x00, 0x00,
  0x02, 0x00, 0x00, 0x00, 0x49, 0x00, 0x00, 0x00, 0x10, 0x00, 0x00, 0x00,
  0x0a, 0xf9, 0xff, 0xff, 0x0c, 0x00, 0x00, 0x00, 0x10, 0x00, 0x00, 0x00,
  0x06, 0x00, 0x00, 0x00, 0x01, 0x00, 0x00, 0x00, 0x49, 0x00, 0x00, 0x00,
  0x03, 0x00, 0x00, 0x00, 0x48, 0x00, 0x00, 0x00, 0x09, 0x00, 0x00, 0x00,
  0x06, 0x00, 0x00, 0x00, 0x32, 0xf9, 0xff, 0xff, 0x0c, 0x00, 0x00, 0x00,
  0x10, 0x00, 0x00, 0x00, 0x02, 0x00, 0x00, 0x00, 0x01, 0x00, 0x00, 0x00,
  0x48, 0x00, 0x00, 0x00, 0x02, 0x00, 0x00, 0x00, 0x47, 0x00, 0x00, 0x00,
  0x0a, 0x00, 0x00, 0x00, 0x96, 0xf9, 0xff, 0xff, 0x14, 0x00, 0x00, 0x00,
  0x00, 0x00, 0x00, 0x01, 0x1c, 0x00, 0x00, 0x00, 0x20, 0x00, 0x00, 0x00,
  0x01, 0x00, 0x00, 0x00, 0xfa, 0xfb, 0xff, 0xff, 0x01, 0x00, 0x00, 0x00,
  0x01, 0x00, 0x00, 0x00, 0x00, 0x00, 0x00, 0x01, 0x01, 0x00, 0x00, 0x00,
  0x47, 0x00, 0x00, 0x00, 0x03, 0x00, 0x00, 0x00, 0x46, 0x00, 0x00, 0x00,
  0x11, 0x00, 0x00, 0x00, 0x1a, 0x00, 0x00, 0x00, 0x0e, 0xf9, 0xff, 0xff,
  0x10, 0x00, 0x00, 0x00, 0x00, 0x00, 0x00, 0x34, 0x0c, 0x00, 0x00, 0x00,
  0x10, 0x00, 0x00, 0x00, 0x60, 0xc1, 0xff, 0xff, 0x01, 0x00, 0x00, 0x00,
  0x46, 0x00, 0x00, 0x00, 0x02, 0x00, 0x00, 0x00, 0x45, 0x00, 0x00, 0x00,
  0x01, 0x00, 0x00, 0x00, 0xc2, 0xf9, 0xff, 0xff, 0x0c, 0x00, 0x00, 0x00,
  0x10, 0x00, 0x00, 0x00, 0x05, 0x00, 0x00, 0x00, 0x01, 0x00, 0x00, 0x00,
  0x45, 0x00, 0x00, 0x00, 0x03, 0x00, 0x00, 0x00, 0x44, 0x00, 0x00, 0x00,
  0x09, 0x00, 0x00, 0x00, 0x06, 0x00, 0x00, 0x00, 0x2a, 0xfa, 0xff, 0xff,
  0x14, 0x00, 0x00, 0x00, 0x00, 0x00, 0x00, 0x16, 0x10, 0x00, 0x00, 0x00,
  0x14, 0x00, 0x00, 0x00, 0x03, 0x00, 0x00, 0x00, 0xb8, 0xc1, 0xff, 0xff,
  0x01, 0x00, 0x00, 0x00, 0x44, 0x00, 0x00, 0x00, 0x02, 0x00, 0x00, 0x00,
  0x43, 0x00, 0x00, 0x00, 0x08, 0x00, 0x00, 0x00, 0x5a, 0xfa, 0xff, 0xff,
  0x14, 0x00, 0x00, 0x00, 0x00, 0x00, 0x00, 0x0b, 0x14, 0x00, 0x00, 0x00,
  0x18, 0x00, 0x00, 0x00, 0x04, 0x00, 0x00, 0x00, 0x46, 0xfd, 0xff, 0xff,
  0x00, 0x00, 0x00, 0x01, 0x01, 0x00, 0x00, 0x00, 0x43, 0x00, 0x00, 0x00,
  0x02, 0x00, 0x00, 0x00, 0x42, 0x00, 0x00, 0x00, 0x12, 0x00, 0x00, 0x00,
  0x4e, 0xfa, 0xff, 0xff, 0x0c, 0x00, 0x00, 0x00, 0x10, 0x00, 0x00, 0x00,
  0x06, 0x00, 0x00, 0x00, 0x01, 0x00, 0x00, 0x00, 0x42, 0x00, 0x00, 0x00,
  0x03, 0x00, 0x00, 0x00, 0x41, 0x00, 0x00, 0x00, 0x09, 0x00, 0x00, 0x00,
  0x06, 0x00, 0x00, 0x00, 0x76, 0xfa, 0xff, 0xff, 0x0c, 0x00, 0x00, 0x00,
  0x10, 0x00, 0x00, 0x00, 0x02, 0x00, 0x00, 0x00, 0x01, 0x00, 0x00, 0x00,
  0x41, 0x00, 0x00, 0x00, 0x02, 0x00, 0x00, 0x00, 0x40, 0x00, 0x00, 0x00,
  0x0a, 0x00, 0x00, 0x00, 0xda, 0xfa, 0xff, 0xff, 0x14, 0x00, 0x00, 0x00,
  0x00, 0x00, 0x00, 0x01, 0x1c, 0x00, 0x00, 0x00, 0x20, 0x00, 0x00, 0x00,
  0x01, 0x00, 0x00, 0x00, 0x3e, 0xfd, 0xff, 0xff, 0x01, 0x00, 0x00, 0x00,
  0x01, 0x00, 0x00, 0x00, 0x00, 0x00, 0x00, 0x01, 0x01, 0x00, 0x00, 0x00,
  0x40, 0x00, 0x00, 0x00, 0x03, 0x00, 0x00, 0x00, 0x3f, 0x00, 0x00, 0x00,
  0x13, 0x00, 0x00, 0x00, 0x19, 0x00, 0x00, 0x00, 0x52, 0xfa, 0xff, 0xff,
  0x10, 0x00, 0x00, 0x00, 0x00, 0x00, 0x00, 0x34, 0x0c, 0x00, 0x00, 0x00,
  0x10, 0x00, 0x00, 0x00, 0xa4, 0xc2, 0xff, 0xff, 0x01, 0x00, 0x00, 0x00,
  0x3f, 0x00, 0x00, 0x00, 0x02, 0x00, 0x00, 0x00, 0x3e, 0x00, 0x00, 0x00,
  0x01, 0x00, 0x00, 0x00, 0x06, 0xfb, 0xff, 0xff, 0x0c, 0x00, 0x00, 0x00,
  0x10, 0x00, 0x00, 0x00, 0x05, 0x00, 0x00, 0x00, 0x01, 0x00, 0x00, 0x00,
  0x3e, 0x00, 0x00, 0x00, 0x03, 0x00, 0x00, 0x00, 0x3d, 0x00, 0x00, 0x00,
  0x09, 0x00, 0x00, 0x00, 0x06, 0x00, 0x00, 0x00, 0x6e, 0xfb, 0xff, 0xff,
  0x14, 0x00, 0x00, 0x00, 0x00, 0x00, 0x00, 0x16, 0x10, 0x00, 0x00, 0x00,
  0x14, 0x00, 0x00, 0x00, 0x03, 0x00, 0x00, 0x00, 0xfc, 0xc2, 0xff, 0xff,
  0x01, 0x00, 0x00, 0x00, 0x3d, 0x00, 0x00, 0x00, 0x02, 0x00, 0x00, 0x00,
  0x3c, 0x00, 0x00, 0x00, 0x08, 0x00, 0x00, 0x00, 0x9e, 0xfb, 0xff, 0xff,
  0x14, 0x00, 0x00, 0x00, 0x00, 0x00, 0x00, 0x0b, 0x10, 0x00, 0x00, 0x00,
  0x14, 0x00, 0x00, 0x00, 0x04, 0x00, 0x00, 0x00, 0x2c, 0xc3, 0xff, 0xff,
  0x01, 0x00, 0x00, 0x00, 0x3c, 0x00, 0x00, 0x00, 0x02, 0x00, 0x00, 0x00,
  0x2d, 0x00, 0x00, 0x00, 0x3b, 0x00, 0x00, 0x00, 0xce, 0xfb, 0xff, 0xff,
  0x14, 0x00, 0x00, 0x00, 0x00, 0x00, 0x00, 0x0b, 0x14, 0x00, 0x00, 0x00,
  0x18, 0x00, 0x00, 0x00, 0x04, 0x00, 0x00, 0x00, 0xba, 0xfe, 0xff, 0xff,
  0x00, 0x00, 0x00, 0x01, 0x01, 0x00, 0x00, 0x00, 0x3b, 0x00, 0x00, 0x00,
  0x02, 0x00, 0x00, 0x00, 0x3a, 0x00, 0x00, 0x00, 0x14, 0x00, 0x00, 0x00,
  0xc2, 0xfb, 0xff, 0xff, 0x0c, 0x00, 0x00, 0x00, 0x10, 0x00, 0x00, 0x00,
  0x06, 0x00, 0x00, 0x00, 0x01, 0x00, 0x00, 0x00, 0x3a, 0x00, 0x00, 0x00,
  0x03, 0x00, 0x00, 0x00, 0x39, 0x00, 0x00, 0x00, 0x05, 0x00, 0x00, 0x00,
  0x06, 0x00, 0x00, 0x00, 0xea, 0xfb, 0xff, 0xff, 0x0c, 0x00, 0x00, 0x00,
  0x10, 0x00, 0x00, 0x00, 0x02, 0x00, 0x00, 0x00, 0x01, 0x00, 0x00, 0x00,
  0x39, 0x00, 0x00, 0x00, 0x02, 0x00, 0x00, 0x00, 0x38, 0x00, 0x00, 0x00,
  0x07, 0x00, 0x00, 0x00, 0x4e, 0xfc, 0xff, 0xff, 0x14, 0x00, 0x00, 0x00,
  0x00, 0x00, 0x00, 0x01, 0x1c, 0x00, 0x00, 0x00, 0x20, 0x00, 0x00, 0x00,
  0x01, 0x00, 0x00, 0x00, 0xb2, 0xfe, 0xff, 0xff, 0x01, 0x00, 0x00, 0x00,
  0x01, 0x00, 0x00, 0x00, 0x00, 0x00, 0x00, 0x01, 0x01, 0x00, 0x00, 0x00,
  0x38, 0x00, 0x00, 0x00, 0x03, 0x00, 0x00, 0x00, 0x37, 0x00, 0x00, 0x00,
  0x15, 0x00, 0x00, 0x00, 0x18, 0x00, 0x00, 0x00, 0xc6, 0xfb, 0xff, 0xff,
  0x10, 0x00, 0x00, 0x00, 0x00, 0x00, 0x00, 0x34, 0x0c, 0x00, 0x00, 0x00,
  0x10, 0x00, 0x00, 0x00, 0x18, 0xc4, 0xff, 0xff, 0x01, 0x00, 0x00, 0x00,
  0x37, 0x00, 0x00, 0x00, 0x02, 0x00, 0x00, 0x00, 0x36, 0x00, 0x00, 0x00,
  0x01, 0x00, 0x00, 0x00, 0x7a, 0xfc, 0xff, 0xff, 0x0c, 0x00, 0x00, 0x00,
  0x10, 0x00, 0x00, 0x00, 0x05, 0x00, 0x00, 0x00, 0x01, 0x00, 0x00, 0x00,
  0x36, 0x00, 0x00, 0x00, 0x03, 0x00, 0x00, 0x00, 0x35, 0x00, 0x00, 0x00,
  0x05, 0x00, 0x00, 0x00, 0x06, 0x00, 0x00, 0x00, 0xe2, 0xfc, 0xff, 0xff,
  0x14, 0x00, 0x00, 0x00, 0x00, 0x00, 0x00, 0x16, 0x10, 0x00, 0x00, 0x00,
  0x14, 0x00, 0x00, 0x00, 0x03, 0x00, 0x00, 0x00, 0x70, 0xc4, 0xff, 0xff,
  0x01, 0x00, 0x00, 0x00, 0x35, 0x00, 0x00, 0x00, 0x02, 0x00, 0x00, 0x00,
  0x34, 0x00, 0x00, 0x00, 0x04, 0x00, 0x00, 0x00, 0xa2, 0xfc, 0xff, 0xff,
  0x1c, 0x00, 0x00, 0x00, 0x00, 0x00, 0x00, 0x0b, 0x1c, 0x00, 0x00, 0x00,
  0x20, 0x00, 0x00, 0x00, 0x04, 0x00, 0x00, 0x00, 0x00, 0x00, 0x06, 0x00,
  0x08, 0x00, 0x07, 0x00, 0x06, 0x00, 0x00, 0x00, 0x00, 0x00, 0x00, 0x01,
  0x01, 0x00, 0x00, 0x00, 0x34, 0x00, 0x00, 0x00, 0x02, 0x00, 0x00, 0x00,
  0x33, 0x00, 0x00, 0x00, 0x16, 0x00, 0x00, 0x00, 0x0e, 0xfd, 0xff, 0xff,
  0x0c, 0x00, 0x00, 0x00, 0x10, 0x00, 0x00, 0x00, 0x06, 0x00, 0x00, 0x00,
  0x01, 0x00, 0x00, 0x00, 0x33, 0x00, 0x00, 0x00, 0x03, 0x00, 0x00, 0x00,
  0x32, 0x00, 0x00, 0x00, 0x05, 0x00, 0x00, 0x00, 0x06, 0x00, 0x00, 0x00,
  0x36, 0xfd, 0xff, 0xff, 0x0c, 0x00, 0x00, 0x00, 0x10, 0x00, 0x00, 0x00,
  0x02, 0x00, 0x00, 0x00, 0x01, 0x00, 0x00, 0x00, 0x32, 0x00, 0x00, 0x00,
  0x02, 0x00, 0x00, 0x00, 0x31, 0x00, 0x00, 0x00, 0x07, 0x00, 0x00, 0x00,
  0x2a, 0xfd, 0xff, 0xff, 0x20, 0x00, 0x00, 0x00, 0x00, 0x00, 0x00, 0x01,
  0x28, 0x00, 0x00, 0x00, 0x2c, 0x00, 0x00, 0x00, 0x01, 0x00, 0x00, 0x00,
  0x00, 0x00, 0x0a, 0x00, 0x10, 0x00, 0x0f, 0x00, 0x08, 0x00, 0x04, 0x00,
  0x0a, 0x00, 0x00, 0x00, 0x01, 0x00, 0x00, 0x00, 0x01, 0x00, 0x00, 0x00,
  0x00, 0x00, 0x00, 0x01, 0x01, 0x00, 0x00, 0x00, 0x31, 0x00, 0x00, 0x00,
  0x03, 0x00, 0x00, 0x00, 0x30, 0x00, 0x00, 0x00, 0x1b, 0x00, 0x00, 0x00,
  0x17, 0x00, 0x00, 0x00, 0x1e, 0xfd, 0xff, 0xff, 0x10, 0x00, 0x00, 0x00,
  0x00, 0x00, 0x00, 0x34, 0x0c, 0x00, 0x00, 0x00, 0x10, 0x00, 0x00, 0x00,
  0x70, 0xc5, 0xff, 0xff, 0x01, 0x00, 0x00, 0x00, 0x30, 0x00, 0x00, 0x00,
  0x02, 0x00, 0x00, 0x00, 0x2f, 0x00, 0x00, 0x00, 0x01, 0x00, 0x00, 0x00,
  0xd2, 0xfd, 0xff, 0xff, 0x0c, 0x00, 0x00, 0x00, 0x10, 0x00, 0x00, 0x00,
  0x05, 0x00, 0x00, 0x00, 0x01, 0x00, 0x00, 0x00, 0x2f, 0x00, 0x00, 0x00,
  0x03, 0x00, 0x00, 0x00, 0x2e, 0x00, 0x00, 0x00, 0x05, 0x00, 0x00, 0x00,
  0x06, 0x00, 0x00, 0x00, 0x3a, 0xfe, 0xff, 0xff, 0x14, 0x00, 0x00, 0x00,
  0x00, 0x00, 0x00, 0x16, 0x10, 0x00, 0x00, 0x00, 0x14, 0x00, 0x00, 0x00,
  0x03, 0x00, 0x00, 0x00, 0xc8, 0xc5, 0xff, 0xff, 0x01, 0x00, 0x00, 0x00,
  0x2e, 0x00, 0x00, 0x00, 0x02, 0x00, 0x00, 0x00, 0x2d, 0x00, 0x00, 0x00,
  0x04, 0x00, 0x00, 0x00, 0x2a, 0xfe, 0xff, 0xff, 0x0c, 0x00, 0x00, 0x00,
  0x10, 0x00, 0x00, 0x00, 0x02, 0x00, 0x00, 0x00, 0x01, 0x00, 0x00, 0x00,
  0x2d, 0x00, 0x00, 0x00, 0x02, 0x00, 0x00, 0x00, 0x2c, 0x00, 0x00, 0x00,
  0x02, 0x00, 0x00, 0x00, 0x8e, 0xfe, 0xff, 0xff, 0x14, 0x00, 0x00, 0x00,
  0x00, 0x00, 0x00, 0x0b, 0x10, 0x00, 0x00, 0x00, 0x14, 0x00, 0x00, 0x00,
  0x04, 0x00, 0x00, 0x00, 0x1c, 0xc6, 0xff, 0xff, 0x01, 0x00, 0x00, 0x00,
  0x2c, 0x00, 0x00, 0x00, 0x02, 0x00, 0x00, 0x00, 0x23, 0x00, 0x00, 0x00,
  0x2b, 0x00, 0x00, 0x00, 0xbe, 0xfe, 0xff, 0xff, 0x14, 0x00, 0x00, 0x00,
  0x00, 0x00, 0x00, 0x01, 0x20, 0x00, 0x00, 0x00, 0x24, 0x00, 0x00, 0x00,
  0x01, 0x00, 0x00, 0x00, 0x3c, 0xff, 0xff, 0xff, 0x00, 0x00, 0x00, 0x01,
  0x01, 0x00, 0x00, 0x00, 0x01, 0x00, 0x00, 0x00, 0x00, 0x00, 0x00, 0x01,
  0x01, 0x00, 0x00, 0x00, 0x2b, 0x00, 0x00, 0x00, 0x03, 0x00, 0x00, 0x00,
  0x2a, 0x00, 0x00, 0x00, 0x1d, 0x00, 0x00, 0x00, 0x1c, 0x00, 0x00, 0x00,
  0x3a, 0xfe, 0xff, 0xff, 0x10, 0x00, 0x00, 0x00, 0x00, 0x00, 0x00, 0x34,
  0x0c, 0x00, 0x00, 0x00, 0x10, 0x00, 0x00, 0x00, 0x8c, 0xc6, 0xff, 0xff,
  0x01, 0x00, 0x00, 0x00, 0x2a, 0x00, 0x00, 0x00, 0x02, 0x00, 0x00, 0x00,
  0x29, 0x00, 0x00, 0x00, 0x01, 0x00, 0x00, 0x00, 0x2e, 0xff, 0xff, 0xff,
  0x14, 0x00, 0x00, 0x00, 0x00, 0x00, 0x00, 0x16, 0x10, 0x00, 0x00, 0x00,
  0x14, 0x00, 0x00, 0x00, 0x03, 0x00, 0x00, 0x00, 0xbc, 0xc6, 0xff, 0xff,
  0x01, 0x00, 0x00, 0x00, 0x29, 0x00, 0x00, 0x00, 0x02, 0x00, 0x00, 0x00,
  0x28, 0x00, 0x00, 0x00, 0x03, 0x00, 0x00, 0x00, 0x1e, 0xff, 0xff, 0xff,
  0x0c, 0x00, 0x00, 0x00, 0x10, 0x00, 0x00, 0x00, 0x02, 0x00, 0x00, 0x00,
  0x01, 0x00, 0x00, 0x00, 0x28, 0x00, 0x00, 0x00, 0x02, 0x00, 0x00, 0x00,
  0x27, 0x00, 0x00, 0x00, 0x02, 0x00, 0x00, 0x00, 0x82, 0xff, 0xff, 0xff,
  0x20, 0x00, 0x00, 0x00, 0x00, 0x00, 0x00, 0x01, 0x2c, 0x00, 0x00, 0x00,
  0x30, 0x00, 0x00, 0x00, 0x01, 0x00, 0x00, 0x00, 0x0c, 0x00, 0x14, 0x00,
  0x13, 0x00, 0x0c, 0x00, 0x08, 0x00, 0x07, 0x00, 0x0c, 0x00, 0x00, 0x00,
  0x00, 0x00, 0x00, 0x01, 0x01, 0x00, 0x00, 0x00, 0x01, 0x00, 0x00, 0x00,
  0x00, 0x00, 0x00, 0x01, 0x01, 0x00, 0x00, 0x00, 0x27, 0x00, 0x00, 0x00,
  0x03, 0x00, 0x00, 0x00, 0x26, 0x00, 0x00, 0x00, 0x1f, 0x00, 0x00, 0x00,
  0x1e, 0x00, 0x00, 0x00, 0x0a, 0xff, 0xff, 0xff, 0x10, 0x00, 0x00, 0x00,
  0x00, 0x00, 0x00, 0x34, 0x0c, 0x00, 0x00, 0x00, 0x10, 0x00, 0x00, 0x00,
  0x5c, 0xc7, 0xff, 0xff, 0x01, 0x00, 0x00, 0x00, 0x26, 0x00, 0x00, 0x00,
  0x02, 0x00, 0x00, 0x00, 0x25, 0x00, 0x00, 0x00, 0x01, 0x00, 0x00, 0x00,
  0x00, 0x00, 0x0e, 0x00, 0x18, 0x00, 0x14, 0x00, 0x10, 0x00, 0x0c, 0x00,
  0x0b, 0x00, 0x04, 0x00, 0x0e, 0x00, 0x00, 0x00, 0x14, 0x00, 0x00, 0x00,
  0x00, 0x00, 0x00, 0x16, 0x10, 0x00, 0x00, 0x00, 0x14, 0x00, 0x00, 0x00,
  0x03, 0x00, 0x00, 0x00, 0x9c, 0xc7, 0xff, 0xff, 0x01, 0x00, 0x00, 0x00,
  0x25, 0x00, 0x00, 0x00, 0x02, 0x00, 0x00, 0x00, 0x24, 0x00, 0x00, 0x00,
  0x03, 0x00, 0x00, 0x00, 0x00, 0x00, 0x0a, 0x00, 0x10, 0x00, 0x0c, 0x00,
  0x08, 0x00, 0x04, 0x00, 0x0a, 0x00, 0x00, 0x00, 0x0c, 0x00, 0x00, 0x00,
  0x10, 0x00, 0x00, 0x00, 0x02, 0x00, 0x00, 0x00, 0x01, 0x00, 0x00, 0x00,
  0x24, 0x00, 0x00, 0x00, 0x02, 0x00, 0x00, 0x00, 0x23, 0x00, 0x00, 0x00,
  0x02, 0x00, 0x00, 0x00, 0x00, 0x00, 0x0e, 0x00, 0x1a, 0x00, 0x14, 0x00,
  0x10, 0x00, 0x0c, 0x00, 0x0b, 0x00, 0x04, 0x00, 0x0e, 0x00, 0x00, 0x00,
  0x20, 0x00, 0x00, 0x00, 0x00, 0x00, 0x00, 0x01, 0x24, 0x00, 0x00, 0x00,
  0x28, 0x00, 0x00, 0x00, 0x01, 0x00, 0x00, 0x00, 0x00, 0x00, 0x0a, 0x00,
  0x0c, 0x00, 0x00, 0x00, 0x08, 0x00, 0x04, 0x00, 0x0a, 0x00, 0x00, 0x00,
  0x01, 0x00, 0x00, 0x00, 0x01, 0x00, 0x00, 0x00, 0x01, 0x00, 0x00, 0x00,
  0x23, 0x00, 0x00, 0x00, 0x03, 0x00, 0x00, 0x00, 0x22, 0x00, 0x00, 0x00,
  0x21, 0x00, 0x00, 0x00, 0x20, 0x00, 0x00, 0x00, 0x00, 0x00, 0x0e, 0x00,
  0x14, 0x00, 0x00, 0x00, 0x10, 0x00, 0x0c, 0x00, 0x0b, 0x00, 0x04, 0x00,
  0x0e, 0x00, 0x00, 0x00, 0x10, 0x00, 0x00, 0x00, 0x00, 0x00, 0x00, 0x34,
  0x0c, 0x00, 0x00, 0x00, 0x10, 0x00, 0x00, 0x00, 0x60, 0xc8, 0xff, 0xff,
  0x01, 0x00, 0x00, 0x00, 0x22, 0x00, 0x00, 0x00, 0x02, 0x00, 0x00, 0x00,
  0x00, 0x00, 0x00, 0x00, 0x01, 0x00, 0x00, 0x00, 0x01, 0x00, 0x00, 0x00,
  0x4d, 0x00, 0x00, 0x00, 0x01, 0x00, 0x00, 0x00, 0x00, 0x00, 0x00, 0x00,
  0x4e, 0x00, 0x00, 0x00, 0xc0, 0x37, 0x00, 0x00, 0x54, 0x37, 0x00, 0x00,
  0xec, 0x36, 0x00, 0x00, 0x9c, 0x36, 0x00, 0x00, 0x4c, 0x36, 0x00, 0x00,
  0xe8, 0x35, 0x00, 0x00, 0x88, 0x35, 0x00, 0x00, 0x38, 0x35, 0x00, 0x00,
  0xe8, 0x34, 0x00, 0x00, 0x84, 0x34, 0x00, 0x00, 0x34, 0x34, 0x00, 0x00,
  0xe0, 0x33, 0x00, 0x00, 0x8c, 0x33, 0x00, 0x00, 0x38, 0x33, 0x00, 0x00,
  0xc8, 0x32, 0x00, 0x00, 0x64, 0x32, 0x00, 0x00, 0xf0, 0x31, 0x00, 0x00,
  0x6c, 0x30, 0x00, 0x00, 0xf8, 0x2f, 0x00, 0x00, 0x74, 0x2e, 0x00, 0x00,
  0x00, 0x2e, 0x00, 0x00, 0x7c, 0x2c, 0x00, 0x00, 0x08, 0x2c, 0x00, 0x00,
  0x8c, 0x2a, 0x00, 0x00, 0x10, 0x29, 0x00, 0x00, 0x94, 0x27, 0x00, 0x00,
  0x18, 0x26, 0x00, 0x00, 0x94, 0x24, 0x00, 0x00, 0x08, 0x23, 0x00, 0x00,
  0x84, 0x21, 0x00, 0x00, 0xf8, 0x1f, 0x00, 0x00, 0x74, 0x1e, 0x00, 0x00,
  0xf0, 0x1c, 0x00, 0x00, 0x6c, 0x1b, 0x00, 0x00, 0xd8, 0x1a, 0x00, 0x00,
  0xe4, 0x19, 0x00, 0x00, 0x24, 0x19, 0x00, 0x00, 0xa8, 0x18, 0x00, 0x00,
  0x10, 0x18, 0x00, 0x00, 0x04, 0x17, 0x00, 0x00, 0x2c, 0x16, 0x00, 0x00,
  0xb0, 0x15, 0x00, 0x00, 0x18, 0x15, 0x00, 0x00, 0x0c, 0x14, 0x00, 0x00,
  0xc8, 0x12, 0x00, 0x00, 0x88, 0x11, 0x00, 0x00, 0x0c, 0x11, 0x00, 0x00,
  0x78, 0x10, 0x00, 0x00, 0xe0, 0x0f, 0x00, 0x00, 0x54, 0x0f, 0x00, 0x00,
  0xcc, 0x0e, 0x00, 0x00, 0x38, 0x0e, 0x00, 0x00, 0xa4, 0x0d, 0x00, 0x00,
  0x28, 0x0d, 0x00, 0x00, 0x94, 0x0c, 0x00, 0x00, 0xfc, 0x0b, 0x00, 0x00,
  0x70, 0x0b, 0x00, 0x00, 0xe8, 0x0a, 0x00, 0x00, 0x54, 0x0a, 0x00, 0x00,
  0xc0, 0x09, 0x00, 0x00, 0x44, 0x09, 0x00, 0x00, 0xc8, 0x08, 0x00, 0x00,
  0x34, 0x08, 0x00, 0x00, 0x9c, 0x07, 0x00, 0x00, 0x10, 0x07, 0x00, 0x00,
  0x88, 0x06, 0x00, 0x00, 0xf4, 0x05, 0x00, 0x00, 0x60, 0x05, 0x00, 0x00,
  0xe4, 0x04, 0x00, 0x00, 0x50, 0x04, 0x00, 0x00, 0xb8, 0x03, 0x00, 0x00,
  0x2c, 0x03, 0x00, 0x00, 0xa4, 0x02, 0x00, 0x00, 0x10, 0x02, 0x00, 0x00,
  0x7c, 0x01, 0x00, 0x00, 0x00, 0x01, 0x00, 0x00, 0x80, 0x00, 0x00, 0x00,
  0x04, 0x00, 0x00, 0x00, 0x8e, 0xc9, 0xff, 0xff, 0x00, 0x00, 0x00, 0x01,
  0x18, 0x00, 0x00, 0x00, 0x20, 0x00, 0x00, 0x00, 0x3c, 0x00, 0x00, 0x00,
  0x4e, 0x00, 0x00, 0x00, 0x00, 0x00, 0x00, 0x09, 0x50, 0x00, 0x00, 0x00,
  0x02, 0x00, 0x00, 0x00, 0xff, 0xff, 0xff, 0xff, 0x01, 0x00, 0x00, 0x00,
  0x74, 0xc9, 0xff, 0xff, 0x08, 0x00, 0x00, 0x00, 0x10, 0x00, 0x00, 0x00,
  0x01, 0x00, 0x00, 0x00, 0x80, 0xff, 0xff, 0xff, 0xff, 0xff, 0xff, 0xff,
  0x01, 0x00, 0x00, 0x00, 0x53, 0xb7, 0x5b, 0x3b, 0x19, 0x00, 0x00, 0x00,
  0x53, 0x74, 0x61, 0x74, 0x65, 0x66, 0x75, 0x6c, 0x50, 0x61, 0x72, 0x74,
  0x69, 0x74, 0x69, 0x6f, 0x6e, 0x65, 0x64, 0x43, 0x61, 0x6c, 0x6c, 0x3a,
  0x30, 0x00, 0x00, 0x00, 0x02, 0x00, 0x00, 0x00, 0x01, 0x00, 0x00, 0x00,
  0x01, 0x00, 0x00, 0x00, 0x06, 0xca, 0xff, 0xff, 0x00, 0x00, 0x00, 0x01,
  0x18, 0x00, 0x00, 0x00, 0x20, 0x00, 0x00, 0x00, 0x40, 0x00, 0x00, 0x00,
  0x4d, 0x00, 0x00, 0x00, 0x00, 0x00, 0x00, 0x09, 0x54, 0x00, 0x00, 0x00,
  0x02, 0x00, 0x00, 0x00, 0xff, 0xff, 0xff, 0xff, 0x18, 0x00, 0x00, 0x00,
  0xec, 0xc9, 0xff, 0xff, 0x08, 0x00, 0x00, 0x00, 0x14, 0x00, 0x00, 0x00,
  0x01, 0x00, 0x00, 0x00, 0x2e, 0x00, 0x00, 0x00, 0x00, 0x00, 0x00, 0x00,
  0x00, 0x00, 0x00, 0x00, 0x01, 0x00, 0x00, 0x00, 0xfb, 0xd0, 0xa6, 0x3b,
  0x1a, 0x00, 0x00, 0x00, 0x6d, 0x6f, 0x64, 0x65, 0x6c, 0x2f, 0x6c, 0x61,
  0x6d, 0x62, 0x64, 0x61, 0x2f, 0x73, 0x74, 0x72, 0x69, 0x64, 0x65, 0x64,
  0x5f, 0x73, 0x6c, 0x69, 0x63, 0x65, 0x00, 0x00, 0x02, 0x00, 0x00, 0x00,
  0x01, 0x00, 0x00, 0x00, 0x18, 0x00, 0x00, 0x00, 0x82, 0xca, 0xff, 0xff,
  0x00, 0x00, 0x00, 0x01, 0x18, 0x00, 0x00, 0x00, 0x24, 0x00, 0x00, 0x00,
  0x44, 0x00, 0x00, 0x00, 0x4c, 0x00, 0x00, 0x00, 0x00, 0x00, 0x00, 0x09,
  0x4c, 0x00, 0x00, 0x00, 0x03, 0x00, 0x00, 0x00, 0xff, 0xff, 0xff, 0xff,
  0x18, 0x00, 0x00, 0x00, 0x18, 0x00, 0x00, 0x00, 0x6c, 0xca, 0xff, 0xff,
  0x08, 0x00, 0x00, 0x00, 0x14, 0x00, 0x00, 0x00, 0x01, 0x00, 0x00, 0x00,
  0x2e, 0x00, 0x00, 0x00, 0x00, 0x00, 0x00, 0x00, 0x00, 0x00, 0x00, 0x00,
  0x01, 0x00, 0x00, 0x00, 0xfb, 0xd0, 0xa6, 0x3b, 0x0f, 0x00, 0x00, 0x00,
  0x6d, 0x6f, 0x64, 0x65, 0x6c, 0x2f, 0x61, 0x64, 0x64, 0x5f, 0x32, 0x2f,
  0x61, 0x64, 0x64, 0x00, 0x03, 0x00, 0x00, 0x00, 0x01, 0x00, 0x00, 0x00,
  0x18, 0x00, 0x00, 0x00, 0x18, 0x00, 0x00, 0x00, 0xfa, 0xca, 0xff, 0xff,
  0x00, 0x00, 0x00, 0x01, 0x18, 0x00, 0x00, 0x00, 0x24, 0x00, 0x00, 0x00,
  0x40, 0x00, 0x00, 0x00, 0x4b, 0x00, 0x00, 0x00, 0x00, 0x00, 0x00, 0x09,
  0x64, 0x00, 0x00, 0x00, 0x03, 0x00, 0x00, 0x00, 0xff, 0xff, 0xff, 0xff,
  0x18, 0x00, 0x00, 0x00, 0x18, 0x00, 0x00, 0x00, 0xe4, 0xca, 0xff, 0xff,
  0x08, 0x00, 0x00, 0x00, 0x10, 0x00, 0x00, 0x00, 0x01, 0x00, 0x00, 0x00,
  0x2e, 0x00, 0x00, 0x00, 0x00, 0x00, 0x00, 0x00, 0x01, 0x00, 0x00, 0x00,
  0xfb, 0xd0, 0xa6, 0x3b, 0x2a, 0x00, 0x00, 0x00, 0x6d, 0x6f, 0x64, 0x65,
  0x6c, 0x2f, 0x63, 0x6f, 0x6e, 0x76, 0x31, 0x64, 0x5f, 0x36, 0x2f, 0x52,
  0x65, 0x6c, 0x75, 0x3b, 0x6d, 0x6f, 0x64, 0x65, 0x6c, 0x2f, 0x63, 0x6f,
  0x6e, 0x76, 0x31, 0x64, 0x5f, 0x36, 0x2f, 0x42, 0x69, 0x61, 0x73, 0x41,
  0x64, 0x64, 0x00, 0x00, 0x03, 0x00, 0x00, 0x00, 0x01, 0x00, 0x00, 0x00,
  0x18, 0x00, 0x00, 0x00, 0x18, 0x00, 0x00, 0x00, 0x8a, 0xcb, 0xff, 0xff,
  0x00, 0x00, 0x00, 0x01, 0x18, 0x00, 0x00, 0x00, 0x24, 0x00, 0x00, 0x00,
  0x44, 0x00, 0x00, 0x00, 0x4a, 0x00, 0x00, 0x00, 0x00, 0x00, 0x00, 0x09,
  0x64, 0x00, 0x00, 0x00, 0x03, 0x00, 0x00, 0x00, 0xff, 0xff, 0xff, 0xff,
  0x18, 0x00, 0x00, 0x00, 0x18, 0x00, 0x00, 0x00, 0x74, 0xcb, 0xff, 0xff,
  0x08, 0x00, 0x00, 0x00, 0x14, 0x00, 0x00, 0x00, 0x01, 0x00, 0x00, 0x00,
  0x21, 0x00, 0x00, 0x00, 0x00, 0x00, 0x00, 0x00, 0x00, 0x00, 0x00, 0x00,
  0x01, 0x00, 0x00, 0x00, 0xeb, 0xd9, 0xbf, 0x3a, 0x24, 0x00, 0x00, 0x00,
  0x6d, 0x6f, 0x64, 0x65, 0x6c, 0x2f, 0x63, 0x6f, 0x6e, 0x76, 0x31, 0x64,
  0x5f, 0x36, 0x2f, 0x43, 0x6f, 0x6e, 0x76, 0x31, 0x44, 0x2f, 0x42, 0x61,
  0x74, 0x63, 0x68, 0x54, 0x6f, 0x53, 0x70, 0x61, 0x63, 0x65, 0x4e, 0x44,
  0x00, 0x00, 0x00, 0x00, 0x03, 0x00, 0x00, 0x00, 0x01, 0x00, 0x00, 0x00,
  0x18, 0x00, 0x00, 0x00, 0x18, 0x00, 0x00, 0x00, 0x1a, 0xcc, 0xff, 0xff,
  0x00, 0x00, 0x00, 0x01, 0x18, 0x00, 0x00, 0x00, 0x24, 0x00, 0x00, 0x00,
  0x40, 0x00, 0x00, 0x00, 0x49, 0x00, 0x00, 0x00, 0x00, 0x00, 0x00, 0x09,
  0x58, 0x00, 0x00, 0x00, 0x03, 0x00, 0x00, 0x00, 0xff, 0xff, 0xff, 0xff,
  0x06, 0x00, 0x00, 0x00, 0x18, 0x00, 0x00, 0x00, 0x04, 0xcc, 0xff, 0xff,
  0x08, 0x00, 0x00, 0x00, 0x10, 0x00, 0x00, 0x00, 0x01, 0x00, 0x00, 0x00,
  0x21, 0x00, 0x00, 0x00, 0x00, 0x00, 0x00, 0x00, 0x01, 0x00, 0x00, 0x00,
  0xeb, 0xd9, 0xbf, 0x3a, 0x1e, 0x00, 0x00, 0x00, 0x6d, 0x6f, 0x64, 0x65,
  0x6c, 0x2f, 0x63, 0x6f, 0x6e, 0x76, 0x31, 0x64, 0x5f, 0x36, 0x2f, 0x43,
  0x6f, 0x6e, 0x76, 0x31, 0x44, 0x2f, 0x53, 0x71, 0x75, 0x65, 0x65, 0x7a,
  0x65, 0x31, 0x00, 0x00, 0x03, 0x00, 0x00, 0x00, 0x01, 0x00, 0x00, 0x00,
  0x06, 0x00, 0x00, 0x00, 0x18, 0x00, 0x00, 0x00, 0x9e, 0xcc, 0xff, 0xff,
  0x00, 0x00, 0x00, 0x01, 0x18, 0x00, 0x00, 0x00, 0x28, 0x00, 0x00, 0x00,
  0x48, 0x00, 0x00, 0x00, 0x48, 0x00, 0x00, 0x00, 0x00, 0x00, 0x00, 0x09,
  0x58, 0x00, 0x00, 0x00, 0x04, 0x00, 0x00, 0x00, 0xff, 0xff, 0xff, 0xff,
  0x01, 0x00, 0x00, 0x00, 0x06, 0x00, 0x00, 0x00, 0x18, 0x00, 0x00, 0x00,
  0x8c, 0xcc, 0xff, 0xff, 0x08, 0x00, 0x00, 0x00, 0x14, 0x00, 0x00, 0x00,
  0x01, 0x00, 0x00, 0x00, 0x21, 0x00, 0x00, 0x00, 0x00, 0x00, 0x00, 0x00,
