const unsigned char g_tcn_model_data[] __attribute__((aligned(16))) = {
  0x20, 0x00, 0x00, 0x00, 0x54, 0x46, 0x4c, 0x33, 0x00, 0x00, 0x00, 0x00,
  0x14, 0x00, 0x20, 0x00, 0x1c, 0x00, 0x18, 0x00, 0x14, 0x00, 0x10, 0x00,
  0x0c, 0x00, 0x00, 0x00, 0x08, 0x00, 0x04, 0x00, 0x14, 0x00, 0x00, 0x00,
  0x1c, 0x00, 0x00, 0x00, 0x80, 0x00, 0x00, 0x00, 0xd8, 0x00, 0x00, 0x00,
  0xc8, 0x30, 0x00, 0x00, 0xd8, 0x30, 0x00, 0x00, 0xbc, 0x72, 0x00, 0x00,
  0x03, 0x00, 0x00, 0x00, 0x01, 0x00, 0x00, 0x00, 0x04, 0x00, 0x00, 0x00,
  0x7a, 0xc6, 0xff, 0xff, 0x0c, 0x00, 0x00, 0x00, 0x1c, 0x00, 0x00, 0x00,
  0x38, 0x00, 0x00, 0x00, 0x0f, 0x00, 0x00, 0x00, 0x73, 0x65, 0x72, 0x76,
  0x69, 0x6e, 0x67, 0x5f, 0x64, 0x65, 0x66, 0x61, 0x75, 0x6c, 0x74, 0x00,
  0x01, 0x00, 0x00, 0x00, 0x04, 0x00, 0x00, 0x00, 0x9c, 0xff, 0xff, 0xff,
  0x4d, 0x00, 0x00, 0x00, 0x04, 0x00, 0x00, 0x00, 0x05, 0x00, 0x00, 0x00,
  0x64, 0x65, 0x6e, 0x73, 0x65, 0x00, 0x00, 0x00, 0x01, 0x00, 0x00, 0x00,
  0x04, 0x00, 0x00, 0x00, 0xba, 0xcf, 0xff, 0xff, 0x04, 0x00, 0x00, 0x00,
  0x07, 0x00, 0x00, 0x00, 0x69, 0x6e, 0x70, 0x75, 0x74, 0x5f, 0x31, 0x00,
  0x02, 0x00, 0x00, 0x00, 0x34, 0x00, 0x00, 0x00, 0x04, 0x00, 0x00, 0x00,
  0xdc, 0xff, 0xff, 0xff, 0x50, 0x00, 0x00, 0x00, 0x04, 0x00, 0x00, 0x00,
  0x13, 0x00, 0x00, 0x00, 0x43, 0x4f, 0x4e, 0x56, 0x45, 0x52, 0x53, 0x49,
  0x4f, 0x4e, 0x5f, 0x4d, 0x45, 0x54, 0x41, 0x44, 0x41, 0x54, 0x41, 0x00,
  0x08, 0x00, 0x0c, 0x00, 0x08, 0x00, 0x04, 0x00, 0x08, 0x00, 0x00, 0x00,
  0x4f, 0x00, 0x00, 0x00, 0x04, 0x00, 0x00, 0x00, 0x13, 0x00, 0x00, 0x00,
  0x6d, 0x69, 0x6e, 0x5f, 0x72, 0x75, 0x6e, 0x74, 0x69, 0x6d, 0x65, 0x5f,
  0x76, 0x65, 0x72, 0x73, 0x69, 0x6f, 0x6e, 0x00, 0x51, 0x00, 0x00, 0x00,
  0xec, 0x2f, 0x00, 0x00, 0xe4, 0x2f, 0x00, 0x00, 0xd0, 0x2f, 0x00, 0x00,
  0xac, 0x2f, 0x00, 0x00, 0x84, 0x2f, 0x00, 0x00, 0x5c, 0x2f, 0x00, 0x00,
  0x48, 0x2f, 0x00, 0x00, 0x30, 0x2f, 0x00, 0x00, 0x14, 0x2f, 0x00, 0x00,
  0xec, 0x2e, 0x00, 0x00, 0xd8, 0x2e, 0x00, 0x00, 0xbc, 0x2e, 0x00, 0x00,
  0xa0, 0x2e, 0x00, 0x00, 0x84, 0x2e, 0x00, 0x00, 0x68, 0x2e, 0x00, 0x00,
  0x54, 0x2e, 0x00, 0x00, 0x2c, 0x2e, 0x00, 0x00, 0x04, 0x2e, 0x00, 0x00,
  0x34, 0x27, 0x00, 0x00, 0x0c, 0x27, 0x00, 0x00, 0x3c, 0x20, 0x00, 0x00,
  0x14, 0x20, 0x00, 0x00, 0x44, 0x19, 0x00, 0x00, 0x1c, 0x19, 0x00, 0x00,
  0xac, 0x18, 0x00, 0x00, 0xa4, 0x18, 0x00, 0x00, 0x9c, 0x18, 0x00, 0x00,
  0x94, 0x18, 0x00, 0x00, 0xc4, 0x11, 0x00, 0x00, 0x54, 0x11, 0x00, 0x00,
  0x84, 0x0a, 0x00, 0x00, 0x14, 0x0a, 0x00, 0x00, 0x44, 0x03, 0x00, 0x00,
  0xd4, 0x02, 0x00, 0x00, 0xec, 0x01, 0x00, 0x00, 0xe4, 0x01, 0x00, 0x00,
  0xdc, 0x01, 0x00, 0x00, 0xd4, 0x01, 0x00, 0x00, 0xcc, 0x01, 0x00, 0x00,
  0xc4, 0x01, 0x00, 0x00, 0xbc, 0x01, 0x00, 0x00, 0xb4, 0x01, 0x00, 0x00,
  0xac, 0x01, 0x00, 0x00, 0xa4, 0x01, 0x00, 0x00, 0x9c, 0x01, 0x00, 0x00,
  0x94, 0x01, 0x00, 0x00, 0x8c, 0x01, 0x00, 0x00, 0x84, 0x01, 0x00, 0x00,
  0x7c, 0x01, 0x00, 0x00, 0x74, 0x01, 0x00, 0x00, 0x6c, 0x01, 0x00, 0x00,
  0x64, 0x01, 0x00, 0x00, 0x5c, 0x01, 0x00, 0x00, 0x54, 0x01, 0x00, 0x00,
  0x4c, 0x01, 0x00, 0x00, 0x44, 0x01, 0x00, 0x00, 0x3c, 0x01, 0x00, 0x00,
  0x34, 0x01, 0x00, 0x00, 0x2c, 0x01, 0x00, 0x00, 0x24, 0x01, 0x00, 0x00,
  0x1c, 0x01, 0x00, 0x00, 0x14, 0x01, 0x00, 0x00, 0x0c, 0x01, 0x00, 0x00,
  0x04, 0x01, 0x00, 0x00, 0xfc, 0x00, 0x00, 0x00, 0xf4, 0x00, 0x00, 0x00,
  0xec, 0x00, 0x00, 0x00, 0xe4, 0x00, 0x00, 0x00, 0xdc, 0x00, 0x00, 0x00,
  0xd4, 0x00, 0x00, 0x00, 0xcc, 0x00, 0x00, 0x00, 0xc4, 0x00, 0x00, 0x00,
  0xbc, 0x00, 0x00, 0x00, 0xb4, 0x00, 0x00, 0x00, 0xac, 0x00, 0x00, 0x00,
  0xa4, 0x00, 0x00, 0x00, 0x9c, 0x00, 0x00, 0x00, 0x94, 0x00, 0x00, 0x00,
  0x8c, 0x00, 0x00, 0x00, 0x6c, 0x00, 0x00, 0x00, 0x04, 0x00, 0x00, 0x00,
  0x72, 0xd1, 0xff, 0xff, 0x04, 0x00, 0x00, 0x00, 0x58, 0x00, 0x00, 0x00,
  0x0c, 0x00, 0x00, 0x00, 0x08, 0x00, 0x0e, 0x00, 0x08, 0x00, 0x04, 0x00,
  0x08, 0x00, 0x00, 0x00, 0x10, 0x00, 0x00, 0x00, 0x28, 0x00, 0x00, 0x00,
  0x00, 0x00, 0x06, 0x00, 0x08, 0x00, 0x04, 0x00, 0x06, 0x00, 0x00, 0x00,
  0x04, 0x00, 0x00, 0x00, 0x01, 0x00, 0x00, 0x00, 0xeb, 0x03, 0x00, 0x00,
  0x00, 0x00, 0x0a, 0x00, 0x10, 0x00, 0x0c, 0x00, 0x08, 0x00, 0x04, 0x00,
  0x0a, 0x00, 0x00, 0x00, 0x02, 0x00, 0x00, 0x00, 0x02, 0x00, 0x00, 0x00,
  0x04, 0x00, 0x00, 0x00, 0x06, 0x00, 0x00, 0x00, 0x32, 0x2e, 0x31, 0x35,
  0x2e, 0x30, 0x00, 0x00, 0xd6, 0xd1, 0xff, 0xff, 0x04, 0x00, 0x00, 0x00,
  0x10, 0x00, 0x00, 0x00, 0x32, 0x2e, 0x33, 0x2e, 0x30, 0x00, 0x00, 0x00,
  0x00, 0x00, 0x00, 0x00, 0x00, 0x00, 0x00, 0x00, 0xb4, 0x90, 0xff, 0xff,
  0xb8, 0x90, 0xff, 0xff, 0xbc, 0x90, 0xff, 0xff, 0xc0, 0x90, 0xff, 0xff,
  0xc4, 0x90, 0xff, 0xff, 0xc8, 0x90, 0xff, 0xff, 0xcc, 0x90, 0xff, 0xff,
  0xd0, 0x90, 0xff, 0xff, 0xd4, 0x90, 0xff, 0xff, 0xd8, 0x90, 0xff, 0xff,
  0xdc, 0x90, 0xff, 0xff, 0xe0, 0x90, 0xff, 0xff, 0xe4, 0x90, 0xff, 0xff,
  0xe8, 0x90, 0xff, 0xff, 0xec, 0x90, 0xff, 0xff, 0xf0, 0x90, 0xff, 0xff,
  0xf4, 0x90, 0xff, 0xff, 0xf8, 0x90, 0xff, 0xff, 0xfc, 0x90, 0xff, 0xff,
  0x00, 0x91, 0xff, 0xff, 0x04, 0x91, 0xff, 0xff, 0x08, 0x91, 0xff, 0xff,
  0x0c, 0x91, 0xff, 0xff, 0x10, 0x91, 0xff, 0xff, 0x14, 0x91, 0xff, 0xff,
  0x18, 0x91, 0xff, 0xff, 0x1c, 0x91, 0xff, 0xff, 0x20, 0x91, 0xff, 0xff,
  0x24, 0x91, 0xff, 0xff, 0x28, 0x91, 0xff, 0xff, 0x2c, 0x91, 0xff, 0xff,
  0x30, 0x91, 0xff, 0xff, 0x34, 0x91, 0xff, 0xff, 0x38, 0x91, 0xff, 0xff,
  0x3c, 0x91, 0xff, 0xff, 0x40, 0x91, 0xff, 0xff, 0x44, 0x91, 0xff, 0xff,
  0x48, 0x91, 0xff, 0xff, 0x4c, 0x91, 0xff, 0xff, 0x50, 0x91, 0xff, 0xff,
  0x54, 0x91, 0xff, 0xff, 0x58, 0x91, 0xff, 0xff, 0x5c, 0x91, 0xff, 0xff,
  0x60, 0x91, 0xff, 0xff, 0xa2, 0xd2, 0xff, 0xff, 0x04, 0x00, 0x00, 0x00,
  0xd8, 0x00, 0x00, 0x00, 0xb6, 0xe1, 0x49, 0x1e, 0x66, 0x06, 0x81, 0xfa,
  0x16, 0x73, 0xff, 0x10, 0x7f, 0x3d, 0xe0, 0x68, 0x22, 0x05, 0xda, 0x81,
  0x08, 0xd3, 0x48, 0x2f, 0xa2, 0xe8, 0xea, 0xe8, 0xc9, 0xed, 0xcb, 0x77,
  0x81, 0xa2, 0xb7, 0x56, 0xc9, 0xd5, 0x56, 0x7f, 0xf2, 0x3b, 0x5e, 0xb4,
  0x3c, 0xe2, 0x11, 0x7f, 0x2e, 0xbf, 0x1b, 0x99, 0x28, 0xa8, 0xf2, 0x1e,
  0x1d, 0x2c, 0xec, 0x44, 0x7f, 0x05, 0xd6, 0x81, 0xc9, 0xaf, 0x45, 0xe2,
  0xdf, 0xf2, 0x93, 0x24, 0x7f, 0xf6, 0x9d, 0x9c, 0x97, 0x69, 0x92, 0xbf,
  0xd6, 0x1e, 0x81, 0x65, 0x35, 0x37, 0xd0, 0x38, 0x27, 0xea, 0x3d, 0x15,
  0xa0, 0x81, 0x72, 0x2c, 0x1a, 0x3c, 0x7a, 0x1e, 0x99, 0xc0, 0xeb, 0xa4,
  0xd2, 0x14, 0x7f, 0x02, 0x81, 0x4d, 0xf1, 0x35, 0x3d, 0xb2, 0xfc, 0x11,
  0x0a, 0x6d, 0x81, 0xef, 0x1a, 0x46, 0xce, 0xb5, 0xe0, 0x20, 0x4a, 0x93,
  0x46, 0xa7, 0x17, 0x33, 0x81, 0xd7, 0xe0, 0x57, 0xfd, 0xf3, 0x10, 0xaa,
  0x54, 0x7f, 0xeb, 0xb3, 0x7f, 0xc7, 0x85, 0xb1, 0x6d, 0x98, 0x75, 0x4d,
  0x75, 0x44, 0x52, 0x33, 0xe3, 0x5c, 0x38, 0xa7, 0x96, 0x81, 0x03, 0x51,
  0x29, 0xd9, 0xd9, 0x7f, 0x96, 0x6c, 0xc3, 0xfa, 0x58, 0xf9, 0xad, 0x06,
  0xad, 0xbb, 0x81, 0x04, 0xb4, 0x4a, 0x2c, 0xc4, 0x7a, 0xe7, 0x81, 0xfe,
  0xf1, 0xaf, 0x81, 0xa5, 0x8d, 0xe5, 0x15, 0x09, 0x1a, 0x4c, 0x81, 0xb1,
  0xec, 0x8e, 0x96, 0x7c, 0x0b, 0x4d, 0x6b, 0x93, 0x81, 0x3a, 0xde, 0x88,
  0x6c, 0x5c, 0x46, 0x0e, 0x86, 0xd3, 0xff, 0xff, 0x04, 0x00, 0x00, 0x00,
  0x60, 0x00, 0x00, 0x00, 0xf6, 0xf3, 0xff, 0xff, 0x71, 0x0a, 0x00, 0x00,
  0x9f, 0x0d, 0x00, 0x00, 0x2e, 0xfc, 0xff, 0xff, 0xd5, 0x05, 0x00, 0x00,
  0x51, 0x07, 0x00, 0x00, 0x1b, 0xf4, 0xff, 0xff, 0x29, 0x04, 0x00, 0x00,
  0x72, 0x0c, 0x00, 0x00, 0x3f, 0xf5, 0xff, 0xff, 0x4a, 0xf6, 0xff, 0xff,
  0x2d, 0x03, 0x00, 0x00, 0x50, 0xf6, 0xff, 0xff, 0x6b, 0xf0, 0xff, 0xff,
  0xb7, 0xeb, 0xff, 0xff, 0xe6, 0x03, 0x00, 0x00, 0x23, 0xfe, 0xff, 0xff,
  0x74, 0xed, 0xff, 0xff, 0x04, 0xeb, 0xff, 0xff, 0x56, 0xff, 0xff, 0xff,
  0x6c, 0xf3, 0xff, 0xff, 0xfd, 0x18, 0x00, 0x00, 0x59, 0xee, 0xff, 0xff,
  0x2c, 0xf7, 0xff, 0xff, 0xf2, 0xd3, 0xff, 0xff, 0x04, 0x00, 0x00, 0x00,
  0xc0, 0x06, 0x00, 0x00, 0xba, 0xf5, 0x15, 0x5b, 0xc6, 0xab, 0xc3, 0xb5,
  0x5f, 0xb9, 0x8b, 0xbd, 0xff, 0x0f, 0x44, 0x1f, 0x8d, 0x1e, 0x8f, 0x62,
  0x2e, 0x04, 0x10, 0xf3, 0x3d, 0x33, 0x42, 0xf2, 0xfd, 0x4d, 0x2b, 0x61,
  0x37, 0xa7, 0x32, 0xa0, 0x08, 0x52, 0x08, 0x53, 0xba, 0x57, 0x2c, 0xeb,
  0xce, 0x6c, 0xbd, 0x73, 0xce, 0x2c, 0xe8, 0x82, 0xed, 0xb7, 0x0b, 0xce,
  0x75, 0x01, 0x3d, 0x26, 0xa6, 0x34, 0x25, 0xf1, 0xf3, 0x81, 0x57, 0x76,
  0xc5, 0x97, 0x1c, 0x03, 0x7f, 0xa3, 0x0c, 0x76, 0x0a, 0xe9, 0x30, 0x25,
  0x6c, 0x07, 0x03, 0x29, 0x66, 0x17, 0xfd, 0x33, 0x32, 0xa6, 0x4f, 0x13,
  0x39, 0x76, 0x52, 0x19, 0x14, 0xb7, 0xec, 0x17, 0x05, 0xe2, 0xee, 0xa7,
  0x28, 0xfa, 0xc9, 0xd5, 0x39, 0x13, 0x4c, 0xed, 0x42, 0xb3, 0xa2, 0xc6,
  0xf4, 0x48, 0x47, 0x08, 0xc3, 0x26, 0x63, 0x77, 0xbb, 0xc9, 0x96, 0xf0,
  0x28, 0xd3, 0x9c, 0xe8, 0xd5, 0xb5, 0x0f, 0xf1, 0xe7, 0x2e, 0x09, 0xc1,
  0x63, 0xed, 0x32, 0x5f, 0xbc, 0xa8, 0x40, 0xff, 0x54, 0x59, 0x23, 0x25,
  0x91, 0x28, 0x30, 0x4b, 0xb1, 0x7a, 0x46, 0xc0, 0xbb, 0x3f, 0x2a, 0x52,
  0x02, 0x6c, 0xed, 0x0e, 0x52, 0xd0, 0xc2, 0xcb, 0xee, 0x1d, 0x9f, 0xd5,
  0xdb, 0x5c, 0xa7, 0x9e, 0x48, 0x52, 0x48, 0x68, 0x69, 0x00, 0xcd, 0xc4,
  0xf7, 0x31, 0x7f, 0x54, 0x52, 0x45, 0x68, 0xdc, 0x4b, 0x5a, 0xe8, 0x5e,
  0xc0, 0xea, 0x30, 0xff, 0xe2, 0xa7, 0xd4, 0x62, 0x1e, 0x35, 0xed, 0x6e,
  0xdd, 0xb6, 0x4a, 0x5a, 0xcb, 0x26, 0x13, 0x15, 0xe9, 0x01, 0x23, 0xb5,
  0x47, 0xc2, 0x24, 0x07, 0x21, 0x4c, 0x07, 0xfd, 0xa2, 0xe6, 0x21, 0xdf,
  0x4f, 0x48, 0xf4, 0x7f, 0xc2, 0x1d, 0x3f, 0xee, 0xb6, 0xee, 0xf8, 0x0b,
  0x29, 0xda, 0xf9, 0x4d, 0x56, 0x55, 0x0c, 0x0b, 0xfa, 0x25, 0x06, 0xf0,
  0xb4, 0xf9, 0xd7, 0x50, 0x47, 0x42, 0xea, 0x33, 0x38, 0xb3, 0x47, 0xdb,
  0xef, 0xdb, 0xf4, 0xc0, 0x2f, 0x37, 0xf4, 0x09, 0x34, 0x19, 0x17, 0x4e,
  0xaf, 0xf4, 0x21, 0x24, 0xf0, 0xb0, 0x9f, 0xff, 0xaa, 0x26, 0x3f, 0x19,
  0x9c, 0x41, 0x27, 0x95, 0x0e, 0x25, 0xc9, 0xad, 0x19, 0xed, 0x5e, 0x4c,
  0x44, 0xe5, 0x1b, 0x1c, 0xdf, 0x58, 0x49, 0xc4, 0x7f, 0x1a, 0xcd, 0x1f,
  0x61, 0x70, 0x2a, 0x37, 0x61, 0xd5, 0xd4, 0x04, 0xf3, 0xae, 0x6e, 0xa6,
  0x9e, 0x95, 0xb5, 0xb1, 0xe4, 0x9c, 0x60, 0x6a, 0xbe, 0x96, 0x17, 0xf1,
  0x1c, 0x5d, 0xfd, 0xa4, 0xf7, 0xf8, 0xc1, 0xc6, 0xec, 0xe4, 0x3c, 0xbe,
  0xb0, 0xb5, 0x46, 0x08, 0xf8, 0x06, 0xaa, 0x41, 0x5b, 0xf6, 0xef, 0x74,
  0xa9, 0x4d, 0x91, 0xd4, 0x37, 0x09, 0x30, 0x11, 0x9f, 0x87, 0x9e, 0xd8,
  0x0b, 0x54, 0xbc, 0x73, 0x0b, 0x2d, 0xba, 0x1a, 0x85, 0xca, 0x49, 0xe4,
  0xa5, 0x14, 0x41, 0x24, 0x0d, 0x3d, 0x15, 0xde, 0x69, 0xcb, 0xef, 0xc1,
  0x37, 0xa2, 0xd1, 0xda, 0x03, 0xa2, 0xe0, 0xad, 0x81, 0x35, 0xc4, 0xce,
  0x4a, 0xb7, 0xe8, 0x70, 0x9d, 0xde, 0x07, 0xcf, 0xf4, 0x1b, 0x44, 0x49,
  0xe9, 0x66, 0x35, 0x31, 0xd4, 0xc1, 0x3c, 0x91, 0x23, 0xbc, 0xe2, 0x43,
  0x50, 0xff, 0x3e, 0x1f, 0x25, 0x1a, 0x63, 0xb2, 0x5f, 0x3f, 0xc6, 0x41,
  0x96, 0xe6, 0x52, 0x11, 0xd5, 0x57, 0xab, 0x37, 0x3e, 0x86, 0xde, 0x2d,
  0xdd, 0xc8, 0x48, 0x98, 0xda, 0x4e, 0x44, 0xf4, 0x40, 0xa0, 0x49, 0xce,
  0x00, 0xc3, 0xae, 0x9e, 0x0a, 0xd3, 0xde, 0x9f, 0xb8, 0x52, 0xaf, 0x37,
  0x70, 0x9f, 0x81, 0xda, 0x28, 0xa0, 0x0c, 0xc0, 0xd0, 0x62, 0x48, 0xc5,
  0x50, 0x1e, 0xb2, 0xe6, 0x1f, 0xc5, 0x9e, 0xc0, 0x3d, 0xe3, 0xbb, 0x21,
  0x08, 0x4c, 0xbd, 0x77, 0x4c, 0x3b, 0xd4, 0xeb, 0x23, 0xe7, 0xea, 0x2b,
  0xae, 0x3e, 0x51, 0xd1, 0x21, 0x93, 0xf5, 0x1a, 0x18, 0xf1, 0x5c, 0x07,
  0x48, 0x38, 0x33, 0xc0, 0xc8, 0x95, 0xea, 0xd2, 0xfb, 0x24, 0xcd, 0xbf,
  0x44, 0xc9, 0x56, 0x06, 0x2e, 0xe1, 0xd0, 0x9f, 0x0e, 0x3e, 0x3a, 0xff,
  0xdf, 0x1a, 0x99, 0x6d, 0xd2, 0x1f, 0x3a, 0x76, 0x1b, 0x82, 0x95, 0x5b,
  0xb6, 0x33, 0x54, 0x7f, 0x3c, 0x04, 0xd2, 0xa5, 0xb1, 0xed, 0xe4, 0xf0,
  0x33, 0x95, 0x61, 0x04, 0xf2, 0x4f, 0xa1, 0x42, 0xf6, 0x2f, 0x93, 0x43,
  0x12, 0xe9, 0xc7, 0xb9, 0xdb, 0xf2, 0x7f, 0x1e, 0x01, 0xa8, 0xff, 0x77,
  0x45, 0xde, 0xb7, 0x60, 0x55, 0x32, 0x86, 0x61, 0xe5, 0xf7, 0xb2, 0xbf,
  0xf1, 0xd5, 0xd1, 0xd7, 0xfb, 0xae, 0x00, 0xeb, 0x1a, 0x20, 0xac, 0x5b,
  0x22, 0xf6, 0xaf, 0xee, 0xb6, 0xeb, 0x40, 0x3a, 0x29, 0x52, 0xaf, 0xd1,
  0xc9, 0xb8, 0xc3, 0xb8, 0xaa, 0x29, 0x09, 0xef, 0x4b, 0xe0, 0x44, 0xf7,
  0x9f, 0x15, 0x81, 0xff, 0x8e, 0x4d, 0x5c, 0x37, 0xe9, 0x94, 0x2a, 0xbd,
  0x5e, 0x45, 0x04, 0xb5, 0xb7, 0xb3, 0x07, 0xe2, 0xe0, 0x05, 0x21, 0x22,
  0x56, 0x7d, 0xfc, 0xee, 0xc5, 0xd9, 0x92, 0x42, 0xdb, 0x0f, 0x53, 0x70,
  0x10, 0xdb, 0xf9, 0xcf, 0x1f, 0x81, 0x66, 0xe0, 0xea, 0xbc, 0xd6, 0x4b,
  0x70, 0x3f, 0x08, 0xe8, 0xfd, 0xfc, 0x7a, 0x37, 0xca, 0x61, 0x2c, 0x9f,
  0xbb, 0x4f, 0xe6, 0x64, 0x51, 0xee, 0xd7, 0xd7, 0x1c, 0x25, 0x53, 0xcd,
  0x0b, 0xf2, 0x18, 0x0a, 0x14, 0xe1, 0x4b, 0x81, 0xe1, 0x3c, 0x06, 0x35,
  0xca, 0x23, 0xe5, 0xe6, 0xe8, 0x24, 0xea, 0x46, 0x3e, 0xe9, 0x2f, 0xd0,
  0xb9, 0x3a, 0xa3, 0x2c, 0x54, 0xe6, 0x56, 0xd7, 0xc1, 0x1f, 0x29, 0x31,
  0xd3, 0x36, 0xef, 0x2e, 0xdd, 0x45, 0xaf, 0x96, 0x51, 0xa9, 0xd1, 0x0a,
  0xfa, 0xe4, 0xd1, 0x0e, 0xcc, 0xa6, 0x45, 0xb6, 0xa9, 0x05, 0xee, 0x40,
  0xc7, 0xea, 0xea, 0x23, 0xa8, 0xdc, 0xdd, 0x88, 0x1b, 0x10, 0xa3, 0xfb,
  0x33, 0x45, 0x2d, 0xce, 0x0a, 0xf6, 0x88, 0xb2, 0x96, 0xff, 0x8f, 0x1a,
  0xac, 0xc6, 0x67, 0x55, 0x4d, 0xfc, 0xe8, 0x1a, 0x81, 0xaa, 0x44, 0xc2,
  0x7d, 0x02, 0x8e, 0xfb, 0xc7, 0x22, 0xb6, 0x54, 0x41, 0xfe, 0xc4, 0xf5,
  0x83, 0xcb, 0x6b, 0xf6, 0xdf, 0xb3, 0xb7, 0xa8, 0xc9, 0xe7, 0xbb, 0xd0,
  0xc1, 0x41, 0x17, 0xd2, 0xc4, 0xde, 0x3f, 0xd5, 0xc7, 0x2a, 0x09, 0x4f,
  0x46, 0xd9, 0xb5, 0xca, 0x0a, 0xe7, 0xb1, 0x3d, 0x46, 0x9c, 0x2d, 0x0c,
  0x58, 0x5a, 0x10, 0x2c, 0xf7, 0x3a, 0xae, 0x01, 0xa3, 0xd9, 0x4c, 0x40,
  0xfa, 0xab, 0xd1, 0xb7, 0xc7, 0x3d, 0xfd, 0x2a, 0xd9, 0xa2, 0x13, 0x34,
  0xea, 0xc1, 0xcf, 0x40, 0x8a, 0xd4, 0x57, 0xcd, 0x2b, 0x54, 0xf0, 0x38,
  0x20, 0xba, 0x2f, 0xc4, 0x9e, 0x22, 0xf8, 0xd8, 0x2a, 0x30, 0xe2, 0x62,
  0x37, 0x2a, 0x56, 0x4a, 0x42, 0xb8, 0x0b, 0xf6, 0x05, 0x90, 0x9e, 0x37,
  0x81, 0xfb, 0x56, 0xe2, 0xad, 0xbe, 0xe7, 0xbb, 0xff, 0xde, 0x3f, 0x7f,
  0xee, 0x1c, 0x46, 0xe1, 0x5a, 0x25, 0xa7, 0x13, 0x9c, 0x4e, 0xab, 0x51,
  0xdc, 0x10, 0x6b, 0xfd, 0x02, 0xbe, 0xfb, 0x02, 0xb7, 0xac, 0xf0, 0xec,
  0x24, 0x5d, 0xf2, 0x13, 0xb9, 0x24, 0x31, 0x13, 0x00, 0x16, 0x10, 0x3e,
  0x37, 0xc1, 0x18, 0x10, 0x96, 0x94, 0xe6, 0x1b, 0x1d, 0xe5, 0xfd, 0xff,
  0xf0, 0xa9, 0xfc, 0x76, 0x53, 0xa6, 0x05, 0xd3, 0xcc, 0x81, 0x29, 0xd4,
  0x20, 0x6f, 0xb9, 0xe8, 0xdf, 0xa0, 0x59, 0xf5, 0x1a, 0xa6, 0xd9, 0x17,
  0xa2, 0xa3, 0xd2, 0xbf, 0x84, 0xfb, 0x92, 0x7f, 0x88, 0x36, 0x34, 0x59,
  0x87, 0x5e, 0x56, 0xf8, 0x42, 0xa7, 0xe7, 0x45, 0xfb, 0x95, 0xfe, 0xec,
  0xfb, 0xd2, 0xcd, 0x29, 0xda, 0xdf, 0x66, 0x8f, 0x5c, 0xec, 0xac, 0x84,
  0xb6, 0xe5, 0xf0, 0x3f, 0x2b, 0xbc, 0x02, 0xf7, 0x48, 0xd9, 0x16, 0x16,
  0xb1, 0x50, 0x11, 0xd3, 0xba, 0xfa, 0x4c, 0x8e, 0x46, 0xef, 0xfa, 0xab,
  0xee, 0x00, 0x2b, 0xce, 0x5e, 0x8f, 0x46, 0x14, 0xf5, 0xb0, 0x09, 0xcf,
  0x4c, 0x35, 0x20, 0x62, 0xa6, 0xe5, 0x0b, 0xda, 0x45, 0x78, 0x9a, 0xd3,
  0x59, 0xec, 0x1c, 0x20, 0x2d, 0xc8, 0xf2, 0xd1, 0x3f, 0x07, 0xa8, 0x42,
  0x71, 0xbb, 0x9d, 0x28, 0x18, 0x3a, 0xec, 0x45, 0xc7, 0x1b, 0x14, 0x3a,
  0x55, 0x6a, 0x50, 0x11, 0xe6, 0x63, 0x0c, 0x37, 0x4a, 0x54, 0xf3, 0x6a,
  0x33, 0xe9, 0x28, 0x99, 0x00, 0x91, 0x30, 0xdc, 0x1b, 0xc8, 0x55, 0x7f,
  0x58, 0x1f, 0x42, 0xb0, 0x87, 0x96, 0x09, 0x06, 0x4e, 0x13, 0x26, 0xef,
  0xea, 0x62, 0x8e, 0xc5, 0x32, 0x81, 0xf0, 0xb9, 0x10, 0xca, 0xf4, 0xce,
  0x60, 0x0d, 0xec, 0xe0, 0xeb, 0x0d, 0xc3, 0xde, 0x8f, 0xc3, 0x11, 0x6d,
  0xbc, 0xea, 0xeb, 0xbf, 0xe1, 0xdd, 0xfe, 0x64, 0x9e, 0xcf, 0x5a, 0x51,
  0xc1, 0x6d, 0xd3, 0x39, 0x4b, 0xb8, 0x2d, 0x30, 0x4c, 0x03, 0x10, 0x32,
  0xb0, 0x17, 0xd8, 0x4c, 0xeb, 0xa2, 0x07, 0x9c, 0x2a, 0xb1, 0x70, 0x17,
  0x5d, 0x27, 0x73, 0x1e, 0xfe, 0xb8, 0xc3, 0x28, 0xea, 0xeb, 0x9f, 0x18,
  0x50, 0x22, 0x4f, 0x0a, 0xf4, 0x02, 0x50, 0x08, 0x1e, 0xd8, 0xc0, 0x41,
  0x2c, 0x11, 0x69, 0x06, 0xa3, 0x05, 0x1c, 0x3a, 0x6e, 0xbb, 0x81, 0xf6,
  0x67, 0x95, 0xd7, 0x07, 0xdd, 0x98, 0xc1, 0xeb, 0x2a, 0xb7, 0xd7, 0x6c,
  0x0e, 0xcf, 0x54, 0xcb, 0x90, 0x81, 0xcc, 0x40, 0xb2, 0xeb, 0x84, 0xc3,
  0xd2, 0x3f, 0xd8, 0x7f, 0xa7, 0x1f, 0x33, 0xd8, 0xdb, 0xdc, 0x18, 0x6e,
  0x00, 0xb3, 0xdf, 0x27, 0x87, 0x32, 0xfe, 0xfe, 0xb6, 0x6e, 0x81, 0x08,
  0x71, 0x22, 0x95, 0xd7, 0xe9, 0xa0, 0x2d, 0xb2, 0xf6, 0x5a, 0x27, 0x40,
  0x99, 0x13, 0x13, 0xad, 0xe7, 0x55, 0x4f, 0x16, 0xed, 0xdc, 0xf3, 0x34,
  0x50, 0x43, 0xe6, 0x4d, 0x54, 0x2e, 0x63, 0xf6, 0x3e, 0x11, 0x3e, 0x44,
  0x0e, 0xf0, 0x60, 0x6d, 0xf5, 0xfe, 0xdb, 0x26, 0x3f, 0xc3, 0x0a, 0x43,
  0x0d, 0xdf, 0x41, 0x70, 0xba, 0x85, 0xe9, 0xe5, 0x62, 0xe9, 0xa0, 0x72,
  0x11, 0xb5, 0x28, 0x79, 0x1b, 0xa2, 0x30, 0xe5, 0xb3, 0x3c, 0xaf, 0x74,
  0x69, 0x24, 0x9c, 0xdf, 0xde, 0xb6, 0xda, 0x02, 0x58, 0xac, 0xd5, 0x0a,
  0xa1, 0x4a, 0x7f, 0x75, 0xfc, 0x3f, 0x9b, 0xe1, 0xb7, 0xd7, 0x56, 0xba,
  0xc6, 0xf3, 0xea, 0xf4, 0x35, 0xc9, 0xc7, 0x97, 0xb6, 0xf8, 0x09, 0xcf,
  0x48, 0x6b, 0xac, 0x21, 0x32, 0x54, 0xf1, 0xb8, 0xef, 0x9b, 0xd8, 0xd0,
  0xac, 0x51, 0xbc, 0xb4, 0x70, 0xe2, 0x2e, 0x5d, 0x3f, 0x06, 0x5a, 0xd4,
  0x35, 0xd4, 0xbf, 0xcd, 0x52, 0x2e, 0xc4, 0x2e, 0x5d, 0x18, 0x45, 0x7e,
  0xda, 0xd9, 0xdc, 0x38, 0x33, 0x5d, 0xe8, 0x05, 0x38, 0x15, 0x9f, 0x25,
  0x68, 0xe8, 0x50, 0x09, 0xcf, 0x5a, 0xd1, 0xd4, 0x57, 0xd0, 0xd2, 0x6f,
  0xf6, 0xd9, 0x81, 0xc3, 0xe5, 0xf1, 0xd9, 0xd1, 0xfe, 0x2c, 0xc9, 0x2d,
  0x68, 0xa8, 0x61, 0xc9, 0xf0, 0xae, 0x60, 0x84, 0xd1, 0x0b, 0x97, 0x41,
  0x76, 0xed, 0x5e, 0x17, 0x27, 0x44, 0xca, 0xa2, 0x2c, 0x01, 0x2a, 0x5d,
  0x15, 0xa6, 0x8f, 0x8b, 0x40, 0x13, 0x59, 0x3b, 0xb6, 0x82, 0xb2, 0xcd,
  0xb1, 0x01, 0xb1, 0x4b, 0xb9, 0xcf, 0x0b, 0x0c, 0x24, 0xc3, 0xcf, 0x34,
  0xda, 0x34, 0xbc, 0xc0, 0x1d, 0x4d, 0xba, 0x59, 0xb7, 0xe2, 0xcc, 0x61,
  0xd3, 0x4d, 0x45, 0x41, 0xdb, 0x32, 0xa5, 0xfe, 0xda, 0xe3, 0xed, 0x38,
  0x2f, 0x11, 0x69, 0xf6, 0xb4, 0x45, 0xbb, 0x46, 0x04, 0xc8, 0x2f, 0xe5,
  0x41, 0x0b, 0xd2, 0x7f, 0xad, 0x6a, 0x45, 0x5b, 0x86, 0xc6, 0xea, 0xd6,
  0xe7, 0x30, 0x4d, 0xb2, 0xc3, 0xbf, 0x20, 0xea, 0x32, 0xa1, 0x3d, 0x75,
  0xd5, 0x1c, 0xad, 0xc4, 0xc5, 0x15, 0x8f, 0x2b, 0xb5, 0x45, 0x67, 0x69,
  0xa3, 0x67, 0xee, 0xf9, 0xa9, 0xf3, 0xfc, 0x55, 0xa0, 0x0f, 0x6f, 0xd6,
  0x12, 0x52, 0xd0, 0xc9, 0x52, 0x90, 0x3e, 0x66, 0xed, 0x4b, 0x9e, 0xd5,
  0x05, 0x53, 0x31, 0xaf, 0xd4, 0xf4, 0x42, 0x57, 0xd4, 0x2d, 0xc8, 0x7f,
  0x76, 0x6c, 0xfb, 0xb4, 0x50, 0xa8, 0x2e, 0x8e, 0x11, 0xf0, 0xa7, 0xdc,
  0xc9, 0x5f, 0x62, 0x25, 0x03, 0x07, 0x18, 0x51, 0x25, 0x19, 0xcb, 0x1d,
  0xe4, 0x49, 0x2c, 0xd8, 0x1f, 0xd1, 0xd7, 0x20, 0xd0, 0xe8, 0xac, 0xef,
  0x2f, 0x21, 0x04, 0x12, 0xfe, 0x0d, 0x1e, 0x5a, 0x50, 0x0f, 0xed, 0x2d,
  0x05, 0x30, 0xc2, 0xe7, 0x14, 0xea, 0xc8, 0xff, 0x10, 0xe2, 0x07, 0xe9,
  0x1e, 0x25, 0xe8, 0xf0, 0x62, 0x12, 0x40, 0x03, 0x4f, 0x0c, 0x16, 0xd8,
  0xc0, 0xf6, 0xf1, 0xd4, 0x6e, 0xa2, 0x2b, 0x81, 0xf7, 0xe4, 0xf8, 0x44,
  0x0a, 0xfe, 0x0f, 0xe4, 0xbe, 0xda, 0xff, 0xff, 0x04, 0x00, 0x00, 0x00,
  0x60, 0x00, 0x00, 0x00, 0xd4, 0xf5, 0xff, 0xff, 0x00, 0xf3, 0xff, 0xff,
  0xf1, 0xfc, 0xff, 0xff, 0xe8, 0xfd, 0xff, 0xff, 0x34, 0x00, 0x00, 0x00,
  0x29, 0xf9, 0xff, 0xff, 0xfa, 0xfa, 0xff, 0xff, 0xac, 0xf2, 0xff, 0xff,
  0x70, 0xf5, 0xff, 0xff, 0x7e, 0xfa, 0xff, 0xff, 0x28, 0xfd, 0xff, 0xff,
  0xe3, 0xf2, 0xff, 0xff, 0x81, 0xfd, 0xff, 0xff, 0x29, 0xf7, 0xff, 0xff,
  0x67, 0x03, 0x00, 0x00, 0xaf, 0xfb, 0xff, 0xff, 0x12, 0xf8, 0xff, 0xff,
  0x17, 0xf5, 0xff, 0xff, 0xc7, 0xfa, 0xff, 0xff, 0xa0, 0xf9, 0xff, 0xff,
  0x79, 0xfb, 0xff, 0xff, 0x1b, 0xf4, 0xff, 0xff, 0x00, 0x00, 0x00, 0x00,
  0xda, 0x04, 0x00, 0x00, 0x2a, 0xdb, 0xff, 0xff, 0x04, 0x00, 0x00, 0x00,
  0xc0, 0x06, 0x00, 0x00, 0xa4, 0x98, 0x37, 0xf7, 0xfa, 0xf0, 0x0f, 0x9d,
  0x04, 0x5d, 0xba, 0xda, 0x64, 0x48, 0xcd, 0xc2, 0xa3, 0xbe, 0xbd, 0x52,
  0x37, 0xf4, 0x0c, 0x86, 0xf5, 0x5b, 0xdd, 0x1a, 0xaf, 0x2d, 0xd6, 0x1b,
  0xcf, 0x64, 0x99, 0x4d, 0x02, 0x8a, 0x6d, 0x3e, 0xd3, 0xbf, 0xc4, 0x01,
  0x27, 0x00, 0xd8, 0xcf, 0xff, 0xb3, 0xa6, 0x21, 0xc6, 0x81, 0xa2, 0x06,
  0x42, 0xe8, 0x91, 0xb1, 0x31, 0x32, 0x31, 0xe3, 0xc8, 0x94, 0xb1, 0x11,
  0x48, 0x55, 0xd0, 0x12, 0xd7, 0xf9, 0xe7, 0x15, 0x36, 0xcc, 0xf3, 0x42,
  0xae, 0xb0, 0x00, 0x3f, 0xcc, 0x15, 0xdb, 0x42, 0xd5, 0x54, 0xcd, 0x13,
  0x50, 0x3c, 0x49, 0x9d, 0x2b, 0x34, 0x4a, 0xfa, 0x00, 0x00, 0xc8, 0x03,
  0xa6, 0xca, 0x0c, 0xe3, 0xc1, 0xd0, 0x03, 0xdc, 0x4c, 0xba, 0x1d, 0x0a,
  0xb8, 0x3a, 0xc7, 0xdb, 0x06, 0xe3, 0xda, 0xbc, 0x15, 0x49, 0x3d, 0x30,
  0xfd, 0x3f, 0xf1, 0xce, 0x99, 0x01, 0x0e, 0x02, 0xcc, 0x1f, 0x3d, 0xfe,
  0x05, 0x3e, 0x07, 0x81, 0x0f, 0x1d, 0xcc, 0xf1, 0x00, 0x5d, 0x9a, 0x03,
  0x64, 0x5c, 0xd3, 0xac, 0x3f, 0xa5, 0xac, 0x28, 0x49, 0x5e, 0xb6, 0x1b,
  0xfb, 0x7d, 0x88, 0x94, 0xbe, 0x01, 0x1e, 0x32, 0x15, 0x6c, 0x9c, 0x36,
  0x1e, 0x40, 0x57, 0x53, 0x86, 0x97, 0xcb, 0x32, 0xd5, 0xe2, 0x22, 0xc8,
  0x32, 0x2b, 0xf1, 0xcb, 0xf2, 0xe3, 0xd7, 0x2c, 0xe4, 0xa1, 0x7f, 0x32,
  0x12, 0x28, 0x34, 0x2d, 0xd9, 0x5a, 0x40, 0x37, 0x38, 0x44, 0xd7, 0x33,
  0xdc, 0xa7, 0x6a, 0xad, 0xde, 0xf5, 0x0a, 0x81, 0x03, 0x40, 0xae, 0xa3,
  0xbd, 0x35, 0xd5, 0xc7, 0xba, 0x40, 0x3c, 0xed, 0xc7, 0xe6, 0x48, 0x0d,
  0xa0, 0xed, 0x11, 0xd1, 0xf6, 0x3d, 0x32, 0x92, 0x2c, 0x0b, 0xfd, 0xfe,
  0xfb, 0x3b, 0x9a, 0xd8, 0x33, 0xec, 0xe1, 0x24, 0xa5, 0x49, 0x35, 0x9a,
  0xfe, 0xd5, 0x6b, 0x12, 0x21, 0x4b, 0x34, 0x95, 0xf8, 0x3e, 0x60, 0xf5,
  0xf2, 0x3c, 0xf3, 0x56, 0xc7, 0xb0, 0xe0, 0xf5, 0xd4, 0xf7, 0xaa, 0xf2,
  0xfb, 0x0c, 0x2b, 0x97, 0xe7, 0x42, 0x3d, 0x4d, 0x4f, 0xc5, 0xbf, 0xd9,
  0xf1, 0xa2, 0xee, 0x27, 0xc6, 0xd5, 0xab, 0x43, 0x17, 0xbf, 0xae, 0x51,
  0xfb, 0x5a, 0x14, 0x93, 0x32, 0xfd, 0x3b, 0xee, 0xff, 0xff, 0xf3, 0x51,
  0xe9, 0xe3, 0xbd, 0x58, 0xe1, 0x5e, 0x18, 0x6c, 0xc5, 0x73, 0x13, 0x46,
  0xcc, 0x4a, 0x59, 0xa6, 0x0d, 0xc0, 0x18, 0xcb, 0xaa, 0x3e, 0xd6, 0xc7,
  0x03, 0xc5, 0x07, 0x68, 0x0e, 0x63, 0x03, 0xc1, 0xbe, 0xc2, 0xd1, 0xbe,
  0xdb, 0x0b, 0x3d, 0x81, 0x0a, 0x4e, 0x42, 0xe1, 0xf1, 0x56, 0xc0, 0x5f,
  0x62, 0xff, 0xfc, 0x24, 0x4d, 0xe6, 0x1d, 0xfc, 0x49, 0xdf, 0x1f, 0xec,
  0x4f, 0x06, 0xc1, 0xa3, 0x98, 0x53, 0x18, 0xb9, 0x3a, 0xef, 0xc1, 0xdf,
  0x06, 0x1b, 0x3b, 0xc7, 0x20, 0xc8, 0x33, 0xfe, 0x2c, 0xc9, 0xd1, 0x3a,
  0xce, 0x1f, 0xcf, 0xab, 0x96, 0x07, 0x52, 0x98, 0x00, 0xec, 0x2f, 0x12,
  0xd2, 0x9b, 0x3b, 0xf0, 0xe2, 0x5a, 0xba, 0x61, 0xde, 0xd2, 0xef, 0xdd,
  0xbf, 0x30, 0x2e, 0x81, 0xd7, 0x28, 0xae, 0x86, 0xc6, 0x9c, 0xda, 0xb7,
  0x97, 0xa2, 0xda, 0x34, 0xc6, 0xfe, 0x45, 0x44, 0x3c, 0x88, 0x7f, 0x3b,
  0xd5, 0xad, 0x0c, 0x94, 0x9c, 0x95, 0x1b, 0xcb, 0xa3, 0x38, 0xd6, 0xad,
  0xfb, 0xe7, 0x1c, 0x5a, 0x45, 0x9e, 0xf7, 0x60, 0x5f, 0x73, 0x73, 0x52,
  0xb4, 0xfa, 0xf4, 0xa8, 0x8c, 0xf3, 0x32, 0x25, 0xfc, 0xa5, 0x86, 0x5e,
  0x81, 0x4e, 0x2e, 0xee, 0xd5, 0xa4, 0x40, 0x96, 0x2d, 0x9e, 0x25, 0x89,
  0x83, 0x58, 0x09, 0xe8, 0x1a, 0x17, 0xa5, 0x19, 0x8a, 0x06, 0xe3, 0xe9,
  0xc2, 0xf8, 0xf2, 0x31, 0xd7, 0x4b, 0xa4, 0xc5, 0x6d, 0x1d, 0xef, 0x26,
  0xaa, 0xad, 0xa3, 0x1d, 0x93, 0xf6, 0xca, 0xff, 0xa3, 0x1c, 0xb1, 0xec,
  0x20, 0x9c, 0xaf, 0xc8, 0x81, 0x1e, 0x93, 0xc8, 0x6a, 0xdf, 0x88, 0xe0,
  0x3f, 0xc9, 0x12, 0x30, 0xee, 0x34, 0xa3, 0x2a, 0xab, 0x18, 0xa3, 0xc2,
  0x9c, 0x9b, 0x18, 0xdf, 0xc3, 0x2e, 0x57, 0x2a, 0x4c, 0x48, 0xd8, 0xeb,
  0xa5, 0x12, 0xc5, 0xe3, 0x47, 0x1b, 0xfc, 0x50, 0xf3, 0xf9, 0x7f, 0x69,
  0xa5, 0x3b, 0x0e, 0x08, 0x1a, 0xb8, 0xe4, 0x74, 0x5b, 0x20, 0x08, 0xc7,
  0xc5, 0xe4, 0xef, 0xe7, 0x9b, 0xf9, 0xe7, 0x44, 0x54, 0xbe, 0xa2, 0x5d,
  0x26, 0xfc, 0xe7, 0xc0, 0x17, 0xc6, 0xcf, 0xd7, 0xe0, 0xac, 0xcb, 0x3e,
  0xe4, 0x7b, 0xbb, 0xd0, 0x17, 0xbe, 0x50, 0x0b, 0x34, 0xdf, 0xef, 0xc9,
  0x28, 0xec, 0xb8, 0xa3, 0xdc, 0x7e, 0x29, 0xb4, 0xdf, 0xc2, 0xd3, 0xa9,
  0xb7, 0xe4, 0xae, 0xeb, 0x97, 0x2c, 0xe3, 0xf3, 0xd4, 0xa8, 0xdb, 0xc6,
  0xc3, 0xbc, 0xfd, 0xd4, 0x5f, 0xbe, 0x31, 0xcb, 0x38, 0x51, 0xf6, 0xdc,
  0xb5, 0x0c, 0x45, 0x05, 0xf9, 0x19, 0xe0, 0x10, 0x21, 0xd4, 0x48, 0x12,
  0x4e, 0x53, 0xd2, 0x19, 0xe5, 0xeb, 0xcf, 0xec, 0x1a, 0x47, 0xe0, 0x9f,
  0x00, 0x81, 0x13, 0xd4, 0xda, 0xc7, 0xa2, 0xc6, 0x55, 0x94, 0x24, 0xf2,
  0xdd, 0xed, 0xde, 0x9a, 0x5f, 0x21, 0xca, 0xf8, 0x4a, 0xa7, 0x29, 0x4b,
  0x1b, 0xd4, 0x00, 0xcd, 0x36, 0x4c, 0x86, 0xa9, 0xe5, 0x9c, 0x4a, 0x99,
  0xe4, 0x2f, 0x15, 0x4b, 0xaa, 0x04, 0xfb, 0x4d, 0xc8, 0x3d, 0xa8, 0x26,
  0x38, 0xba, 0xe4, 0x1a, 0xb1, 0xe5, 0x8e, 0xa1, 0x22, 0xf4, 0x2b, 0x98,
  0xe8, 0xe1, 0xca, 0xe8, 0x54, 0xcc, 0xf9, 0xde, 0xe4, 0x0f, 0x8e, 0x91,
  0xc1, 0x50, 0x1b, 0xe3, 0x3f, 0xb3, 0x9f, 0x89, 0x81, 0xbc, 0xa5, 0x34,
  0xf7, 0xfa, 0x3f, 0x56, 0xe8, 0x8c, 0x3f, 0x70, 0x37, 0x12, 0x2a, 0x4a,
  0xda, 0x89, 0x42, 0x18, 0xe5, 0x56, 0x49, 0xe1, 0x0c, 0xef, 0x31, 0x87,
  0x11, 0x2f, 0xd3, 0xda, 0x05, 0x0e, 0x9a, 0xc7, 0xd6, 0x95, 0x1d, 0x8b,
  0x93, 0xef, 0xb1, 0x9e, 0x8c, 0x53, 0x0d, 0xd0, 0xb5, 0xbf, 0x2e, 0xb8,
  0xe4, 0xea, 0x21, 0xb3, 0xd2, 0xd0, 0x5d, 0x7c, 0x0f, 0x3a, 0x16, 0xc1,
  0xbf, 0xcb, 0xe5, 0x0f, 0xef, 0xb2, 0x07, 0x2a, 0x05, 0xca, 0x28, 0x1c,
  0x38, 0x9b, 0x21, 0x13, 0x1e, 0x97, 0x69, 0xbc, 0x30, 0x3e, 0xf1, 0x41,
  0x2a, 0x81, 0xae, 0x95, 0xa5, 0x5b, 0xd3, 0x08, 0x8f, 0xb4, 0xe9, 0x2c,
  0xfe, 0xb2, 0xf5, 0x8b, 0xd4, 0x1a, 0xf8, 0x00, 0x17, 0x7f, 0x17, 0xfb,
  0x95, 0x97, 0xba, 0x84, 0x2d, 0x09, 0x32, 0x21, 0x2c, 0xdf, 0x81, 0xa1,
  0x39, 0x2d, 0xe9, 0xa7, 0x3e, 0x3a, 0xb5, 0x52, 0x4a, 0xac, 0x41, 0x11,
  0xc1, 0x42, 0x3b, 0x82, 0xa3, 0x47, 0x07, 0xa7, 0x1d, 0x54, 0xb4, 0x24,
  0xae, 0xfe, 0x31, 0x50, 0xea, 0x49, 0x39, 0x68, 0xe6, 0xd9, 0xa3, 0x15,
  0xcb, 0x00, 0x17, 0xef, 0x35, 0x19, 0xda, 0x82, 0x95, 0xc4, 0x50, 0xfb,
  0xaa, 0x4f, 0xa7, 0xad, 0x02, 0xe0, 0xbd, 0xb3, 0xe8, 0x12, 0x61, 0x14,
  0xd8, 0x05, 0xa3, 0xf2, 0xa0, 0x8e, 0x24, 0x82, 0x97, 0x4d, 0x2a, 0x81,
  0x43, 0x37, 0xd0, 0x0a, 0x14, 0x44, 0x7b, 0xa6, 0x86, 0x09, 0x00, 0x0b,
  0x27, 0x52, 0xe0, 0xc5, 0x06, 0xd1, 0xa7, 0xf2, 0x3d, 0x2c, 0x9e, 0xe9,
  0xef, 0x91, 0x2b, 0xd9, 0x56, 0x51, 0x25, 0x5b, 0x55, 0x3f, 0x9e, 0x8b,
  0x1f, 0x20, 0x21, 0xe7, 0x95, 0x59, 0x47, 0x52, 0x89, 0xcf, 0x23, 0xbc,
  0x4c, 0xed, 0xed, 0x48, 0x59, 0x21, 0xf4, 0xb4, 0x18, 0x88, 0x58, 0xbb,
  0xc2, 0x52, 0x25, 0xab, 0xe8, 0x1f, 0x86, 0x21, 0x12, 0x87, 0xff, 0x35,
  0x4c, 0xea, 0x81, 0xa4, 0x53, 0x15, 0xa8, 0xd1, 0x47, 0x69, 0x18, 0x14,
  0x96, 0xf1, 0xaa, 0xce, 0xe3, 0x4e, 0x3a, 0x55, 0x87, 0xdf, 0xcd, 0x94,
  0xad, 0x29, 0xfa, 0x34, 0x36, 0xa6, 0x07, 0x08, 0xe4, 0xf1, 0xea, 0xe8,
  0xc4, 0xad, 0x2b, 0x0e, 0xb0, 0x13, 0x5c, 0xdf, 0x51, 0x40, 0x09, 0x61,
  0x62, 0xcc, 0xbb, 0x2a, 0x42, 0x65, 0x65, 0x0b, 0x0c, 0x76, 0x22, 0x25,
  0xde, 0xa0, 0xd5, 0xdb, 0x1f, 0x81, 0xca, 0x44, 0x12, 0x0d, 0x34, 0x48,
  0xd9, 0x8f, 0xf9, 0xe6, 0x2a, 0xf7, 0x6a, 0xa6, 0xb2, 0x0f, 0xa8, 0xfb,
  0x0f, 0xd4, 0x6d, 0xe2, 0xe6, 0x90, 0x95, 0xfd, 0xff, 0xfd, 0x0e, 0x0c,
  0xdf, 0x6e, 0xc8, 0xf2, 0x4d, 0x47, 0x46, 0x48, 0xfa, 0x15, 0xf7, 0x1f,
  0xe3, 0x8e, 0xb6, 0xe7, 0xfb, 0xe9, 0x2b, 0x81, 0x98, 0x1f, 0xba, 0x49,
  0x2d, 0x5b, 0x92, 0x69, 0x37, 0xc3, 0xdf, 0x4d, 0x5f, 0xa2, 0x8d, 0x4d,
  0x1c, 0xeb, 0xe5, 0x1a, 0xea, 0xee, 0xa3, 0xdd, 0x64, 0xc4, 0x68, 0x87,
  0x15, 0x48, 0xa3, 0x1c, 0x43, 0xad, 0x57, 0x92, 0xb2, 0xe1, 0xc3, 0x3b,
  0xc9, 0xef, 0x51, 0xce, 0xb3, 0x27, 0xf8, 0x17, 0xf1, 0x76, 0x3b, 0x88,
  0x4b, 0x27, 0x88, 0xfe, 0x62, 0x9d, 0xb0, 0x67, 0x85, 0xaa, 0xe8, 0x28,
  0x9d, 0xb4, 0xc0, 0xb4, 0xde, 0xca, 0x89, 0xab, 0x5b, 0xfd, 0x0c, 0x47,
  0x23, 0x52, 0x8d, 0x38, 0xfc, 0x15, 0x55, 0x8c, 0xbe, 0x87, 0x5f, 0x60,
  0xd8, 0xee, 0x65, 0x37, 0xd5, 0xb5, 0x94, 0xe8, 0x82, 0x41, 0x29, 0x10,
  0x1d, 0x17, 0x09, 0x38, 0x2f, 0x1a, 0x81, 0xde, 0xfd, 0xcd, 0x9f, 0x92,
  0xa5, 0xef, 0xa3, 0xa8, 0x9b, 0x92, 0x8c, 0x92, 0x8a, 0x63, 0x3e, 0xa2,
  0xf6, 0x1c, 0xec, 0x34, 0x1e, 0xef, 0x1f, 0x64, 0x87, 0x60, 0x33, 0x5a,
  0x17, 0x50, 0xfc, 0x8b, 0x70, 0x5a, 0xe6, 0xaa, 0xb2, 0x53, 0xeb, 0x9e,
  0xfc, 0xc7, 0x04, 0xad, 0xb8, 0xdd, 0x2a, 0x8f, 0x96, 0x5b, 0x75, 0xe4,
  0xf4, 0x84, 0x66, 0xe7, 0xec, 0x09, 0x9c, 0x51, 0x81, 0x54, 0xbc, 0xca,
  0xcf, 0xdf, 0x10, 0x27, 0x10, 0xcf, 0xd7, 0x5e, 0x19, 0x04, 0xd1, 0x9c,
  0x3e, 0x28, 0xed, 0x1b, 0xae, 0xcd, 0xc7, 0x50, 0x3f, 0x4f, 0x87, 0x04,
  0x26, 0xaa, 0xf9, 0x42, 0x05, 0x8b, 0x2a, 0x07, 0x57, 0xe9, 0xbb, 0xe5,
  0xa7, 0x42, 0xdf, 0xce, 0xf9, 0xc7, 0x4e, 0x4b, 0x13, 0xa4, 0x14, 0xff,
  0xb0, 0xfa, 0xab, 0x28, 0xc6, 0x46, 0x05, 0xd5, 0xe9, 0xec, 0xb6, 0x36,
  0x94, 0x82, 0xad, 0x8a, 0x81, 0xe1, 0xf7, 0x25, 0x2d, 0xf5, 0xee, 0x4a,
  0x74, 0x1a, 0x38, 0xce, 0xea, 0xb3, 0x39, 0xaf, 0x08, 0xa1, 0x53, 0xff,
  0x3c, 0x98, 0x06, 0xcc, 0xcc, 0x56, 0xae, 0xcd, 0x5d, 0xd9, 0x3c, 0x48,
  0xd8, 0xd2, 0x1c, 0xbe, 0xc1, 0xed, 0xff, 0x34, 0x6a, 0xba, 0x4f, 0xe5,
  0x4e, 0xc3, 0x1d, 0xd8, 0x4c, 0xa3, 0xb4, 0x1c, 0x0d, 0xa2, 0xf3, 0x5b,
  0x50, 0x4e, 0xa0, 0xcb, 0x1e, 0x5c, 0x86, 0x02, 0x92, 0x24, 0x1a, 0x05,
  0xd5, 0x81, 0x59, 0xf0, 0x3a, 0xa6, 0xf3, 0xca, 0x2c, 0xbb, 0x03, 0x58,
  0x01, 0x47, 0x06, 0xe5, 0x26, 0xa9, 0x13, 0x55, 0x97, 0xfc, 0x2c, 0x07,
  0xf4, 0x34, 0x27, 0x9b, 0xd2, 0x45, 0x5d, 0x90, 0x12, 0xe5, 0x2d, 0xaf,
  0x1b, 0xa8, 0xd8, 0xdc, 0x48, 0x2f, 0x35, 0x46, 0x16, 0xc9, 0x51, 0x09,
  0x1c, 0xbc, 0xc5, 0xd0, 0x14, 0x02, 0xf6, 0x41, 0x3b, 0x19, 0xab, 0xff,
  0x94, 0x2c, 0x52, 0x0e, 0x00, 0xba, 0x51, 0xdb, 0x72, 0xa5, 0x06, 0x11,
  0xe3, 0x51, 0x3e, 0x0b, 0xa6, 0x07, 0x26, 0x1a, 0x76, 0x2b, 0xc3, 0x7f,
  0x83, 0xb8, 0x76, 0x6e, 0xc8, 0xec, 0xa8, 0xf0, 0xde, 0x5c, 0xbc, 0xeb,
  0x1d, 0xcc, 0x52, 0xe4, 0x51, 0x02, 0x2b, 0xb1, 0xd5, 0x2e, 0x59, 0x49,
  0x0a, 0xe7, 0x7d, 0x53, 0x07, 0x22, 0x61, 0x59, 0xc7, 0x70, 0xbf, 0x6f,
  0xf1, 0x0c, 0x07, 0x28, 0xe1, 0x22, 0xd1, 0x3f, 0x2d, 0xfb, 0x29, 0xa0,
  0x12, 0x56, 0xf6, 0x51, 0xb3, 0xb7, 0xac, 0x61, 0xe7, 0x4f, 0x24, 0x1b,
  0xf5, 0x03, 0x5f, 0xd9, 0xae, 0xb7, 0xab, 0x4f, 0x3d, 0xf6, 0xc7, 0xc1,
  0x33, 0x3d, 0x08, 0x1a, 0x20, 0xe1, 0xdc, 0xf1, 0xa7, 0x1a, 0xfb, 0xbe,
  0xb8, 0x99, 0x05, 0xe1, 0x0d, 0x1c, 0x25, 0x5c, 0xfc, 0x89, 0x97, 0x36,
  0xdb, 0x0a, 0x2e, 0x41, 0x3d, 0x0c, 0x27, 0x48, 0xae, 0x0a, 0x30, 0xee,
  0x58, 0x06, 0xab, 0x81, 0x3a, 0x5c, 0x58, 0xae, 0x8e, 0x39, 0xa7, 0x20,
  0xbe, 0x9a, 0x94, 0xe5, 0x81, 0x0a, 0xdc, 0x40, 0xfe, 0xa0, 0x6e, 0xa5,
  0x4a, 0xd3, 0x10, 0x07, 0x99, 0x34, 0x06, 0xc9, 0x1c, 0x36, 0xbc, 0x3b,
  0xb3, 0xe0, 0x2f, 0xfb, 0x56, 0xf1, 0xd6, 0x31, 0xe4, 0xde, 0x2e, 0x84,
  0x5d, 0x36, 0xfc, 0xf5, 0x18, 0x32, 0x8b, 0xec, 0xa0, 0xb5, 0xeb, 0x3d,
  0x28, 0x39, 0x5a, 0xda, 0x89, 0x33, 0x0c, 0x33, 0xf1, 0xa6, 0x34, 0x8c,
  0xb5, 0x13, 0x4f, 0xdf, 0xf6, 0xe1, 0xff, 0xff, 0x04, 0x00, 0x00, 0x00,
  0x60, 0x00, 0x00, 0x00, 0x8e, 0xe0, 0xff, 0xff, 0x03, 0x08, 0x00, 0x00,
  0xfe, 0xea, 0xff, 0xff, 0x30, 0xdf, 0xff, 0xff, 0x7e, 0xf4, 0xff, 0xff,
  0x0c, 0xeb, 0xff, 0xff, 0x9e, 0xe7, 0xff, 0xff, 0xfb, 0x90, 0xff, 0xff,
  0x32, 0xe4, 0xff, 0xff, 0x24, 0xcb, 0xff, 0xff, 0x8e, 0xe2, 0xff, 0xff,
  0x73, 0xc3, 0xff, 0xff, 0x59, 0xe6, 0xff, 0xff, 0xcf, 0xe4, 0xff, 0xff,
  0x79, 0xd2, 0xff, 0xff, 0x96, 0xe3, 0xff, 0xff, 0x6a, 0xe5, 0xff, 0xff,
  0x69, 0xdf, 0xff, 0xff, 0x28, 0xe1, 0xff, 0xff, 0x9d, 0x0b, 0x00, 0x00,
  0x1f, 0xd6, 0xff, 0xff, 0xcf, 0x28, 0x00, 0x00, 0x3a, 0xf2, 0xff, 0xff,
  0x91, 0xe2, 0xff, 0xff, 0x62, 0xe2, 0xff, 0xff, 0x04, 0x00, 0x00, 0x00,
  0xc0, 0x06, 0x00, 0x00, 0x1c, 0x89, 0xb7, 0x42, 0xc7, 0xb3, 0x28, 0xe8,
  0x3d, 0x95, 0xc6, 0x61, 0x9c, 0xe5, 0xed, 0xcb, 0x8f, 0x52, 0xe4, 0xe1,
  0xdc, 0xd6, 0xb7, 0xfc, 0x25, 0xd7, 0x99, 0x2b, 0x02, 0x44, 0x35, 0xb6,
  0x21, 0x45, 0x27, 0xfb, 0x57, 0x10, 0x15, 0xec, 0xb0, 0x0f, 0x3e, 0x2e,
  0x3b, 0xf5, 0x18, 0xf2, 0xb0, 0x14, 0x47, 0x3b, 0x54, 0xa3, 0xc6, 0xd2,
  0x6b, 0x2a, 0xbb, 0xce, 0xc3, 0x89, 0x58, 0xcc, 0x81, 0xa5, 0xb7, 0x25,
  0xfb, 0x0b, 0x15, 0x5f, 0x26, 0x2d, 0xca, 0xd1, 0xdc, 0x1d, 0xea, 0x97,
  0x35, 0x71, 0x72, 0x1f, 0xd8, 0x52, 0xd0, 0x26, 0x50, 0xf4, 0x49, 0x34,
  0xdf, 0x05, 0x04, 0xe0, 0x30, 0xde, 0x27, 0x13, 0x9c, 0xb9, 0x48, 0x52,
  0x46, 0xd8, 0x31, 0x1f, 0x04, 0x4f, 0xe4, 0x18, 0x32, 0xa3, 0xdd, 0x78,
  0xfa, 0xea, 0x4c, 0x14, 0xd8, 0x27, 0x24, 0x65, 0xa1, 0xf4, 0xa3, 0x4f,
  0x38, 0x5e, 0x7f, 0x38, 0xe0, 0x53, 0x22, 0x31, 0xbb, 0x57, 0xad, 0xe8,
  0xfc, 0xf3, 0x5f, 0xd7, 0xfd, 0xd8, 0xac, 0x4a, 0x05, 0xb8, 0x44, 0x02,
  0x5a, 0xc7, 0xb8, 0x29, 0x30, 0x45, 0x40, 0xda, 0xcb, 0x15, 0xd5, 0xd5,
  0xba, 0xc6, 0xcd, 0x91, 0x9a, 0x29, 0xc2, 0x39, 0xbe, 0x85, 0x1c, 0x3e,
  0xb0, 0x25, 0xf6, 0x65, 0x1f, 0xa1, 0x34, 0x38, 0x28, 0x4b, 0x60, 0xfc,
  0xe7, 0x11, 0x01, 0xa2, 0xfa, 0xa0, 0xa8, 0xd7, 0x07, 0xff, 0xdf, 0x4d,
  0x48, 0x98, 0x43, 0xb2, 0x81, 0x8a, 0x86, 0x31, 0x9c, 0x06, 0x94, 0xe1,
  0x51, 0xe4, 0x49, 0xd5, 0xd0, 0x8c, 0x15, 0x07, 0x93, 0x05, 0x81, 0x00,
  0x1b, 0xb8, 0xdf, 0x05, 0x29, 0x32, 0xcc, 0x9a, 0x22, 0x56, 0x04, 0x4a,
  0x15, 0xd8, 0xf6, 0x3d, 0xa8, 0xd6, 0x2d, 0x02, 0xc5, 0x55, 0x33, 0x77,
  0x38, 0xfe, 0x25, 0xf2, 0x16, 0x14, 0xd8, 0xac, 0xc4, 0xaa, 0x38, 0xbd,
  0xcc, 0x99, 0x2e, 0xa7, 0x9c, 0x89, 0x13, 0x46, 0xf1, 0xcb, 0xff, 0x8e,
  0xf5, 0xec, 0xfa, 0x2e, 0xac, 0x0f, 0x61, 0x9a, 0xa8, 0xa7, 0x0e, 0xd4,
  0xfd, 0x4a, 0x45, 0x92, 0xc1, 0xd8, 0x85, 0xda, 0xf7, 0x28, 0x65, 0xae,
  0x22, 0xb8, 0xc3, 0x36, 0x9a, 0xb8, 0xc9, 0x0c, 0x46, 0x11, 0x32, 0x11,
  0x3e, 0xf7, 0x0f, 0x6b, 0xe7, 0xe4, 0xa8, 0x7f, 0x17, 0xc3, 0x3c, 0x4c,
  0xe6, 0x5a, 0xf3, 0xc7, 0xf0, 0xe7, 0x61, 0x45, 0x4f, 0xfb, 0x1b, 0xfb,
  0x24, 0xac, 0x5c, 0x1c, 0x73, 0xa9, 0xc2, 0x09, 0x94, 0xa3, 0x3b, 0xbb,
  0xbd, 0x3c, 0xe7, 0x63, 0xaf, 0xd8, 0xdb, 0x59, 0xa5, 0x56, 0xea, 0x04,
  0x2b, 0x15, 0x7f, 0xe4, 0x9a, 0x9a, 0x4c, 0x09, 0x3f, 0xcc, 0x74, 0x38,
  0x48, 0xfd, 0xb2, 0x5f, 0x58, 0xf7, 0x0e, 0xef, 0xfa, 0xa7, 0x32, 0xff,
  0xdf, 0x8f, 0x6c, 0x44, 0xa0, 0xfb, 0x50, 0x49, 0x5f, 0xe7, 0x15, 0x19,
  0x36, 0x5e, 0xde, 0x64, 0x11, 0x55, 0x35, 0xde, 0x4f, 0x53, 0xb0, 0x12,
  0xd1, 0x06, 0xfb, 0x03, 0xcb, 0x4c, 0x25, 0x81, 0xd0, 0xf8, 0x09, 0x23,
  0xb7, 0x56, 0xb5, 0x5a, 0x3d, 0x87, 0xff, 0x35, 0xa2, 0x9c, 0xe2, 0xfd,
  0xa9, 0x1a, 0xe5, 0xa1, 0x2c, 0xdf, 0xaa, 0x40, 0x95, 0xc1, 0xd2, 0x0a,
  0x4d, 0xd0, 0xf7, 0x4a, 0xb5, 0xd4, 0xdd, 0x43, 0x0b, 0xb6, 0x0d, 0x60,
  0x1e, 0x4c, 0xe4, 0xc0, 0xf9, 0xf5, 0xfd, 0x30, 0xdc, 0xf8, 0xef, 0x36,
  0x08, 0x03, 0x3e, 0xc7, 0x37, 0x1c, 0xe6, 0x81, 0x15, 0x52, 0xcd, 0xce,
  0xa2, 0x3b, 0xb8, 0x15, 0x05, 0xcc, 0xda, 0xd9, 0x8c, 0x2e, 0xa2, 0x2b,
  0xaf, 0xf5, 0xe9, 0x4d, 0xc4, 0xca, 0xc0, 0xe8, 0x14, 0xb1, 0xf6, 0xe5,
  0x44, 0xde, 0x44, 0x63, 0x05, 0xc8, 0xea, 0xd2, 0x25, 0xd9, 0xd3, 0xeb,
  0xc5, 0xf4, 0xf8, 0xcd, 0x44, 0x46, 0xf7, 0xc9, 0x07, 0x43, 0xfe, 0xdd,
  0xcc, 0x05, 0x4a, 0x7f, 0x04, 0x11, 0x90, 0xfc, 0xac, 0x04, 0x35, 0xf1,
  0xfc, 0xfd, 0xe8, 0xf4, 0x44, 0x3b, 0xcf, 0xc1, 0xd7, 0x14, 0x4a, 0xe7,
  0xbc, 0x12, 0x16, 0xe8, 0xc6, 0x0d, 0xcd, 0x40, 0xc9, 0xf8, 0xe7, 0xe3,
  0xfa, 0x03, 0xc0, 0x52, 0x3e, 0x16, 0xb8, 0x26, 0xc9, 0xd7, 0x3c, 0xd1,
  0x01, 0xf3, 0x10, 0x39, 0xdd, 0xc3, 0x2d, 0xf0, 0x2c, 0x9b, 0xf2, 0xac,
  0xda, 0xa2, 0xa3, 0x4f, 0xef, 0xd0, 0x26, 0xf6, 0x16, 0xd2, 0x43, 0xdb,
  0xe7, 0x9b, 0x6e, 0xa2, 0xcf, 0x3e, 0xb0, 0x04, 0xe6, 0xca, 0xd3, 0x53,
  0x09, 0x4c, 0x5f, 0xdf, 0x07, 0x14, 0xbd, 0x9b, 0xbb, 0xd8, 0xe4, 0xd2,
  0xc2, 0xd6, 0x36, 0x0c, 0x2e, 0xd6, 0x9b, 0x7f, 0x56, 0xd2, 0xbc, 0xd4,
  0xfa, 0xd2, 0xe7, 0x5d, 0xd6, 0x37, 0x2d, 0x0c, 0x32, 0x3d, 0xf5, 0x25,
  0xf9, 0xe1, 0x2a, 0xc4, 0xd5, 0x11, 0x43, 0x0e, 0x12, 0xa3, 0x0d, 0x4b,
  0xc6, 0x04, 0xf6, 0xf3, 0x5b, 0xf4, 0xa8, 0x49, 0x4b, 0x34, 0x2f, 0x36,
  0xc8, 0x02, 0x41, 0x08, 0x0c, 0xe6, 0xbe, 0xda, 0x16, 0xcd, 0x1d, 0xfe,
  0xc1, 0xb3, 0x09, 0x43, 0xa4, 0xcb, 0x13, 0xe5, 0xb1, 0xd6, 0xc3, 0xd5,
  0xf6, 0xb9, 0xd5, 0xf9, 0xa0, 0xd6, 0x95, 0x2f, 0x98, 0xb9, 0xef, 0x62,
  0xd0, 0x05, 0xe5, 0x24, 0x16, 0x1e, 0x10, 0xc8, 0x4f, 0x21, 0x7f, 0x33,
  0x4a, 0xaa, 0x20, 0xf3, 0x29, 0xa8, 0xef, 0x9e, 0x25, 0xda, 0x34, 0xa5,
  0x09, 0x8f, 0xa9, 0x3b, 0xce, 0xfd, 0x1e, 0xc6, 0xee, 0xcc, 0x57, 0x45,
  0xfa, 0xfb, 0x58, 0x0a, 0x54, 0xd5, 0x2f, 0xc5, 0xbb, 0x8f, 0x2d, 0xf5,
  0xde, 0xac, 0x42, 0x6d, 0x25, 0xec, 0x07, 0x9e, 0xdb, 0x40, 0x81, 0x7b,
  0xc7, 0xdc, 0x4a, 0x5a, 0x4e, 0xb9, 0x47, 0xc2, 0xa0, 0xa8, 0xfa, 0xd4,
  0xa4, 0xff, 0x3f, 0x4e, 0x17, 0xd8, 0x9a, 0x98, 0xcd, 0x4a, 0xe8, 0x0f,
  0xae, 0xc4, 0x91, 0x46, 0xd7, 0x42, 0x10, 0x89, 0x29, 0xc8, 0x81, 0x1c,
  0x2d, 0xe2, 0x51, 0x4f, 0xde, 0xe7, 0xb1, 0x02, 0x8d, 0xa4, 0xc0, 0xff,
  0xa9, 0x54, 0x59, 0xe0, 0x00, 0xae, 0x2a, 0x3a, 0xee, 0xe7, 0x37, 0x1c,
  0x64, 0xa7, 0x2c, 0xed, 0x0c, 0xd4, 0x31, 0x20, 0x35, 0x37, 0xc7, 0xcd,
  0xea, 0x59, 0xaf, 0xe4, 0xe7, 0x16, 0x9d, 0x16, 0xdb, 0x95, 0x84, 0x6a,
  0xe8, 0x00, 0xe6, 0xd5, 0xe8, 0x8c, 0x47, 0x17, 0xf2, 0x3a, 0xc7, 0x7c,
  0x3e, 0x48, 0x06, 0x00, 0xb9, 0xe1, 0xda, 0x8e, 0x10, 0x1a, 0xa8, 0x4a,
  0xd3, 0xc4, 0x34, 0x29, 0xea, 0x1d, 0x99, 0x45, 0x0c, 0x41, 0xac, 0x4f,
  0x32, 0xb2, 0x05, 0x15, 0x04, 0xd4, 0x0b, 0x52, 0xb0, 0x45, 0x0c, 0x2e,
  0x70, 0xa9, 0xf3, 0x02, 0x84, 0x54, 0x37, 0x2e, 0x0f, 0x43, 0x2d, 0xcf,
  0xd4, 0xb8, 0x12, 0xdb, 0x2c, 0x81, 0x3e, 0x3a, 0xef, 0x27, 0x90, 0xf3,
  0xb2, 0xac, 0x4f, 0xf6, 0xca, 0x2a, 0xcb, 0xee, 0x03, 0x17, 0x07, 0xec,
  0x15, 0xc4, 0x3e, 0x08, 0x3c, 0x26, 0xed, 0xc5, 0xa7, 0x0f, 0xc6, 0xe6,
  0xe8, 0x21, 0xf5, 0xc0, 0x01, 0x43, 0xb7, 0x43, 0xf2, 0x30, 0x91, 0xf6,
  0x2b, 0x6b, 0x01, 0x1c, 0x1c, 0x08, 0x4f, 0x4b, 0xe5, 0xe4, 0xe7, 0x7b,
  0x1e, 0x1f, 0x39, 0xf6, 0xe9, 0xd4, 0x02, 0xbc, 0xdb, 0x2e, 0x85, 0x3a,
  0x16, 0x38, 0x2a, 0x52, 0x81, 0xa7, 0x0b, 0xc0, 0xd0, 0xec, 0x18, 0xf9,
  0xcc, 0x8c, 0xae, 0x70, 0x11, 0x6c, 0x35, 0x33, 0x03, 0xe4, 0xce, 0x6e,
  0x2f, 0xeb, 0x64, 0x3a, 0x91, 0x51, 0x7d, 0x97, 0x35, 0x40, 0x0b, 0x5c,
  0x08, 0xe7, 0x0f, 0xf8, 0x0f, 0x19, 0x2c, 0x18, 0x59, 0x5e, 0x47, 0x57,
  0xea, 0xf3, 0x19, 0x5a, 0xf6, 0xd7, 0x55, 0xb0, 0x41, 0xb4, 0x01, 0x38,
  0xb8, 0x8f, 0xac, 0xdb, 0x4d, 0x28, 0xf1, 0xd4, 0xe7, 0x04, 0xe6, 0x14,
  0x51, 0x49, 0x87, 0xa4, 0xdc, 0xe6, 0x7f, 0xb2, 0xbb, 0xe0, 0x5b, 0xef,
  0x72, 0xc2, 0x23, 0x55, 0x3f, 0xfe, 0x06, 0xe4, 0x26, 0xd6, 0xd0, 0x19,
  0x49, 0x35, 0xe9, 0x19, 0xe8, 0xb9, 0xa2, 0xd1, 0xc4, 0x3a, 0xe0, 0x9f,
  0x4b, 0x00, 0xf5, 0x31, 0xc6, 0x56, 0x32, 0xe0, 0x2c, 0xac, 0x44, 0x06,
  0x38, 0x91, 0xee, 0x64, 0x8b, 0xdb, 0x2a, 0xf8, 0x41, 0x9b, 0x07, 0x1f,
  0x30, 0x36, 0x9a, 0xab, 0x3b, 0x36, 0x12, 0xcf, 0xd2, 0x5a, 0xc7, 0xfc,
  0xb9, 0x5f, 0xfc, 0x73, 0xfb, 0x09, 0xdd, 0x27, 0x2d, 0x10, 0x12, 0x2c,
  0x28, 0x81, 0x08, 0x67, 0x1d, 0xdc, 0xa7, 0xf6, 0xa4, 0x51, 0x99, 0xc7,
  0xf9, 0xb7, 0x91, 0x5d, 0x59, 0x28, 0xc6, 0xf0, 0xc7, 0xeb, 0xda, 0x00,
  0x0c, 0x82, 0x53, 0xbe, 0x36, 0x23, 0x03, 0x41, 0x20, 0x47, 0x4b, 0x14,
  0x9a, 0xa1, 0xee, 0xb8, 0x03, 0x01, 0xa4, 0xd4, 0x1a, 0xbf, 0xc1, 0x46,
  0x4e, 0xb8, 0xa5, 0x7f, 0x14, 0x48, 0xb3, 0x99, 0xb4, 0xd1, 0x3c, 0xff,
  0x22, 0x41, 0x23, 0x8c, 0xe9, 0xc0, 0x00, 0x14, 0x3e, 0x1d, 0xaa, 0xa4,
  0x79, 0x00, 0xf5, 0x73, 0xc4, 0x4b, 0x3e, 0xd9, 0xee, 0x55, 0x40, 0x26,
  0x57, 0x4c, 0xe9, 0x3c, 0xa3, 0x0d, 0xbc, 0xde, 0x8d, 0xde, 0xd3, 0x60,
  0xf6, 0xa0, 0xed, 0xce, 0x41, 0x38, 0x4e, 0x4a, 0x0d, 0x6a, 0x6d, 0x00,
  0x45, 0xe4, 0xfd, 0x2e, 0xa6, 0x31, 0xa2, 0xc0, 0x90, 0xb6, 0x53, 0x20,
  0xc2, 0xac, 0xf8, 0xbc, 0xe3, 0xb6, 0xa8, 0xab, 0xdf, 0xc6, 0x37, 0xe7,
  0x1d, 0xb9, 0xf7, 0xdd, 0xe0, 0xff, 0xad, 0x31, 0x52, 0x50, 0x1d, 0x40,
  0xb6, 0x97, 0x49, 0xc7, 0x97, 0xd4, 0x61, 0xb7, 0x22, 0x57, 0x2a, 0xb6,
  0x28, 0xb9, 0x7f, 0x25, 0x49, 0x9f, 0x1c, 0xb8, 0xcb, 0xca, 0xee, 0xf2,
  0xdc, 0x04, 0xea, 0xdf, 0x09, 0x44, 0x30, 0x49, 0x07, 0x3d, 0x44, 0x14,
  0x0f, 0x0f, 0x7f, 0xee, 0xd3, 0xc9, 0xe7, 0x0d, 0xf1, 0x45, 0x54, 0xd3,
  0x4f, 0x49, 0xc9, 0x05, 0xf3, 0xec, 0x01, 0xed, 0xef, 0xe6, 0xcb, 0xe8,
  0x2a, 0xbe, 0x2b, 0x59, 0x00, 0xb2, 0x11, 0xd8, 0x3d, 0x48, 0x0f, 0xe9,
  0xbf, 0xda, 0xd2, 0xcc, 0xdd, 0x03, 0x1e, 0xf1, 0x12, 0x0c, 0xc0, 0xcf,
  0x1f, 0xc0, 0x2d, 0x6d, 0xe5, 0xd9, 0x59, 0xaf, 0xab, 0x0c, 0xbf, 0xfe,
  0x5a, 0xde, 0x85, 0xa8, 0x70, 0x28, 0x1a, 0x2e, 0xe6, 0x57, 0x2b, 0x34,
  0x96, 0xce, 0x8d, 0x76, 0x20, 0x9f, 0xf2, 0x9d, 0x54, 0x45, 0x2a, 0x03,
  0xa6, 0x48, 0x87, 0x20, 0x68, 0xeb, 0x89, 0x9d, 0x52, 0xda, 0x3d, 0x36,
  0x0d, 0x90, 0x97, 0xb9, 0x9e, 0x20, 0x1d, 0x6a, 0x7f, 0xc3, 0xef, 0x67,
  0x5f, 0xce, 0xee, 0x9a, 0xd5, 0x0b, 0xf3, 0x4b, 0x1d, 0xde, 0x0b, 0xef,
  0x52, 0x46, 0x36, 0xa3, 0x96, 0xa3, 0x3b, 0x27, 0x05, 0xed, 0x10, 0x00,
  0x10, 0xe9, 0xc5, 0xb3, 0xd3, 0x38, 0xbd, 0x8c, 0x81, 0x3d, 0x27, 0x38,
  0x2b, 0x3a, 0xf9, 0x43, 0xa4, 0xb0, 0xf7, 0x53, 0xa5, 0x07, 0xff, 0x4e,
  0x4a, 0xbf, 0xe3, 0xb9, 0xc2, 0xf8, 0xd6, 0xa4, 0x44, 0xf5, 0x16, 0x59,
  0xfc, 0xaa, 0xf3, 0x16, 0xa2, 0xeb, 0x0c, 0xd4, 0x39, 0xd6, 0xa1, 0x41,
  0x1b, 0x32, 0xb6, 0x40, 0x2b, 0x16, 0xbc, 0xb4, 0xb3, 0x15, 0xbf, 0xea,
  0xfe, 0x1f, 0x4b, 0x50, 0x3f, 0xe7, 0x02, 0xbc, 0x9a, 0xc8, 0x8c, 0xbb,
  0x0a, 0xa7, 0x23, 0xdd, 0xf7, 0x18, 0x43, 0x4a, 0x45, 0xf6, 0x1a, 0xb4,
  0x3e, 0x1a, 0x2c, 0x5d, 0xf4, 0xbb, 0xde, 0xd6, 0xb9, 0x4e, 0x4b, 0x2f,
  0xbf, 0x10, 0x49, 0xe7, 0xfb, 0x98, 0x32, 0x3a, 0x81, 0x16, 0x34, 0x4c,
  0x46, 0x42, 0x31, 0xcf, 0xd7, 0x3d, 0xd0, 0x1c, 0x89, 0xeb, 0xc7, 0x0b,
  0x27, 0x3d, 0x0b, 0x63, 0x27, 0x29, 0xeb, 0x15, 0x1b, 0x13, 0x13, 0x27,
  0xd9, 0xce, 0xed, 0xc7, 0xab, 0x4e, 0x9b, 0xea, 0xd1, 0x02, 0x2b, 0x39,
  0xc3, 0xe1, 0x4d, 0x04, 0x51, 0xf9, 0x17, 0x0b, 0x50, 0xd5, 0x1c, 0xea,
  0xaf, 0x11, 0x7f, 0x06, 0x62, 0xaa, 0xb9, 0x65, 0xaa, 0x27, 0xb2, 0x20,
  0x4a, 0x56, 0x18, 0xe4, 0xd2, 0x0d, 0x5c, 0xe1, 0xf1, 0xbc, 0xec, 0x25,
  0x4d, 0xc3, 0x37, 0xbf, 0x19, 0xb7, 0xfa, 0x51, 0xdf, 0x51, 0x30, 0x9d,
  0xeb, 0x34, 0xd5, 0x39, 0x3b, 0x30, 0x6a, 0xe6, 0xa2, 0xcb, 0x3b, 0x0e,
  0xf9, 0x36, 0xf9, 0x46, 0x50, 0xd3, 0x9c, 0x07, 0x28, 0xc8, 0x0b, 0x79,
  0xfc, 0xb3, 0xdd, 0x4b, 0xea, 0xd9, 0xc5, 0xdb, 0x9e, 0x08, 0xfb, 0xc3,
  0xb0, 0x21, 0x45, 0xbb, 0xaa, 0x81, 0xca, 0x3e, 0x2f, 0xf3, 0x89, 0xce,
  0xdf, 0x29, 0xe9, 0xcf, 0x25, 0x00, 0xae, 0x9a, 0x30, 0xa1, 0x9e, 0x26,
  0x49, 0xca, 0x05, 0xb1, 0x18, 0xca, 0xbf, 0x02, 0x4a, 0x19, 0xc9, 0x06,
  0x10, 0x0d, 0xc6, 0xb9, 0x16, 0xb5, 0xb0, 0x8e, 0x2d, 0xf3, 0x97, 0x54,
  0x05, 0x9e, 0xe2, 0xf4, 0xf0, 0xa7, 0xff, 0xff, 0xf4, 0xa7, 0xff, 0xff,
  0xf8, 0xa7, 0xff, 0xff, 0x3a, 0xe9, 0xff, 0xff, 0x04, 0x00, 0x00, 0x00,
  0x60, 0x00, 0x00, 0x00, 0x00, 0x00, 0x00, 0x00, 0x00, 0x00, 0x00, 0x00,
  0x00, 0x00, 0x00, 0x00, 0x00, 0x00, 0x00, 0x00, 0x00, 0x00, 0x00, 0x00,
  0x00, 0x00, 0x00, 0x00, 0x00, 0x00, 0x00, 0x00, 0x00, 0x00, 0x00, 0x00,
  0x00, 0x00, 0x00, 0x00, 0x00, 0x00, 0x00, 0x00, 0x00, 0x00, 0x00, 0x00,
  0x00, 0x00, 0x00, 0x00, 0x00, 0x00, 0x00, 0x00, 0x00, 0x00, 0x00, 0x00,
  0x00, 0x00, 0x00, 0x00, 0x00, 0x00, 0x00, 0x00, 0x00, 0x00, 0x00, 0x00,
  0x00, 0x00, 0x00, 0x00, 0x00, 0x00, 0x00, 0x00, 0x00, 0x00, 0x00, 0x00,
  0x00, 0x00, 0x00, 0x00, 0x00, 0x00, 0x00, 0x00, 0x00, 0x00, 0x00, 0x00,
  0x00, 0x00, 0x00, 0x00, 0xa6, 0xe9, 0xff, 0xff, 0x04, 0x00, 0x00, 0x00,
  0x18, 0x00, 0x00, 0x00, 0xc6, 0x53, 0xc4, 0x4b, 0x12, 0xf9, 0xbd, 0xac,
  0x11, 0xf5, 0xd4, 0x88, 0x98, 0xe3, 0xf2, 0xcc, 0xcf, 0xe7, 0xee, 0x7f,
  0xc1, 0xbb, 0x45, 0x80, 0xca, 0xe9, 0xff, 0xff, 0x04, 0x00, 0x00, 0x00,
  0xc0, 0x06, 0x00, 0x00, 0xd0, 0xc4, 0xfb, 0xe9, 0xa1, 0x96, 0xd5, 0x36,
  0x81, 0xd5, 0x62, 0x3b, 0x2e, 0xe6, 0xab, 0xef, 0xe5, 0xff, 0xab, 0x47,
  0xee, 0xb0, 0xf2, 0xc5, 0xd0, 0x01, 0x3d, 0x5f, 0x9e, 0xd1, 0xaa, 0x94,
  0x21, 0x04, 0x4e, 0xc8, 0x38, 0x18, 0xbb, 0xf0, 0x4e, 0x0d, 0xf5, 0x0e,
  0xfb, 0xe5, 0xc2, 0xe7, 0x79, 0xc2, 0xb4, 0x61, 0xbb, 0xf8, 0x26, 0xaf,
  0x43, 0xa8, 0xeb, 0x33, 0x3f, 0x6c, 0x10, 0xe2, 0x66, 0x5b, 0xb0, 0xa5,
  0x18, 0x82, 0x34, 0x90, 0x7d, 0xe5, 0xc5, 0x54, 0x8b, 0xc6, 0xe3, 0xf4,
  0x52, 0xa7, 0x65, 0xf0, 0xb1, 0xee, 0xfd, 0xe4, 0xe2, 0x1c, 0xeb, 0x34,
  0x06, 0x70, 0x12, 0x30, 0xc5, 0xe6, 0x30, 0x43, 0x08, 0x0a, 0x32, 0xc3,
  0xd5, 0x10, 0xd6, 0x92, 0xb4, 0x4c, 0x32, 0x07, 0x75, 0xbc, 0x4d, 0x9d,
  0xd5, 0xb1, 0x0f, 0x58, 0x5e, 0x66, 0x57, 0xc1, 0x24, 0x0a, 0x18, 0x24,
  0xf2, 0x6c, 0xff, 0xb6, 0xd7, 0xdc, 0xe9, 0x65, 0x9a, 0x46, 0xae, 0x52,
  0x08, 0x66, 0x11, 0x7f, 0xdc, 0xbf, 0x50, 0xb0, 0x32, 0xeb, 0x20, 0xf2,
  0x28, 0xd6, 0x2b, 0xf3, 0x2b, 0x26, 0xb0, 0x51, 0x6c, 0xe1, 0xb2, 0x60,
  0xd1, 0xdf, 0xde, 0x09, 0x21, 0x15, 0xd9, 0xc7, 0xeb, 0x17, 0x10, 0xc0,
  0x2c, 0x51, 0x13, 0xf0, 0x5c, 0xfd, 0xad, 0xc5, 0xb9, 0x13, 0x4d, 0xc9,
  0xc6, 0x25, 0x20, 0x4f, 0x4e, 0x3c, 0xb8, 0x01, 0x56, 0x98, 0xc9, 0xa5,
  0x03, 0x1a, 0xcd, 0xc6, 0xd0, 0x72, 0xb0, 0x76, 0xdd, 0xe7, 0x45, 0x81,
  0x13, 0x29, 0x5e, 0x4e, 0x3c, 0x82, 0xe3, 0xe7, 0x4e, 0x13, 0x7f, 0x39,
  0xf8, 0xed, 0x59, 0xe7, 0xa5, 0x40, 0x68, 0xf9, 0x95, 0xb0, 0x6b, 0x1f,
  0x42, 0x88, 0x9f, 0x9d, 0x62, 0xe8, 0xac, 0xc0, 0xde, 0xd6, 0x2a, 0x32,
  0xe3, 0xff, 0x1b, 0xe7, 0x90, 0xae, 0xaa, 0xe7, 0x0a, 0x1d, 0x62, 0xee,
  0x36, 0x5a, 0x9d, 0x05, 0x0e, 0x2d, 0xff, 0x35, 0xbe, 0x2d, 0xc9, 0xcf,
  0xac, 0x67, 0xf4, 0x3c, 0x12, 0x15, 0xfa, 0x19, 0xd6, 0x54, 0xe8, 0x21,
  0xfa, 0xa5, 0x90, 0xf6, 0xe3, 0xfe, 0x56, 0xa3, 0x37, 0xd4, 0x9b, 0x1c,
  0x9c, 0xe6, 0xcf, 0xc6, 0xb2, 0xe6, 0x4f, 0x4c, 0xbd, 0xfd, 0x33, 0xa4,
  0xc2, 0x5f, 0x4b, 0x2e, 0x42, 0x13, 0x6b, 0x8f, 0x5e, 0x02, 0x6f, 0xb6,
  0xd5, 0x5c, 0x67, 0xc4, 0x29, 0xf5, 0xc7, 0x0d, 0x29, 0x58, 0x49, 0x40,
  0xe1, 0xc3, 0xd8, 0xd9, 0x45, 0x0e, 0x30, 0x18, 0x58, 0x27, 0x37, 0x0c,
  0x41, 0xc7, 0xf9, 0x0c, 0x9c, 0xc5, 0x04, 0x29, 0x61, 0x7f, 0xf6, 0x34,
  0xe2, 0x45, 0xd6, 0xb8, 0x2a, 0xd2, 0x52, 0xd4, 0xf7, 0x39, 0x4b, 0x63,
  0xfe, 0x4a, 0xc9, 0xcc, 0x04, 0xc4, 0x68, 0x42, 0xce, 0x5c, 0xb6, 0x30,
  0xfa, 0x5e, 0xfc, 0x3b, 0x5b, 0x81, 0x84, 0x02, 0xf9, 0xcc, 0xcc, 0xf6,
  0x52, 0xe5, 0xca, 0xf6, 0x65, 0x0b, 0xcd, 0x3d, 0xfd, 0x19, 0x19, 0x2d,
  0x49, 0xa2, 0xdb, 0xb2, 0x09, 0x2e, 0x1d, 0x6d, 0xfd, 0xe4, 0x14, 0xad,
  0x4b, 0xe0, 0xda, 0xb9, 0xf3, 0xbb, 0x71, 0x0e, 0x6d, 0xf2, 0x5f, 0x38,
  0x2c, 0x50, 0xe8, 0x31, 0x1d, 0x49, 0x91, 0xb6, 0xe0, 0x0e, 0xca, 0xfd,
  0x37, 0x46, 0xc8, 0x9e, 0x38, 0xac, 0x05, 0xb9, 0x08, 0x9b, 0x2f, 0xee,
  0x0a, 0xfe, 0xdf, 0x24, 0x91, 0x2b, 0xc8, 0x53, 0xb0, 0xf7, 0x53, 0x14,
  0xca, 0x0d, 0xc8, 0x32, 0x56, 0xb5, 0xb4, 0x92, 0xdc, 0x1a, 0x84, 0x3c,
  0x08, 0xe6, 0xe8, 0xc1, 0xfb, 0xda, 0xfd, 0xa3, 0x8c, 0x68, 0xd8, 0xb7,
  0xfb, 0xb9, 0xd8, 0xca, 0x63, 0x92, 0x43, 0x91, 0xb1, 0xb4, 0xbe, 0x5d,
  0xef, 0x2c, 0x81, 0x45, 0x4c, 0x34, 0xe6, 0xd4, 0x00, 0x92, 0x62, 0xb1,
  0x95, 0xe5, 0x47, 0xb2, 0x1f, 0x93, 0xc0, 0x13, 0xbf, 0x3f, 0xf6, 0xfb,
  0x48, 0x41, 0xec, 0xa1, 0x04, 0xad, 0x28, 0xa2, 0xfe, 0x0d, 0xd9, 0x26,
  0x62, 0x50, 0x3f, 0x3b, 0x90, 0xd3, 0x97, 0x9b, 0x1a, 0xe4, 0xb4, 0x2d,
  0xf5, 0xf4, 0x93, 0xb8, 0x05, 0xdf, 0xe1, 0xe9, 0xab, 0x8f, 0x15, 0x10,
  0x9f, 0xf2, 0x17, 0x28, 0xef, 0xd1, 0x81, 0xa7, 0xc7, 0xaf, 0x2d, 0xdd,
  0xa7, 0xed, 0x26, 0x38, 0x10, 0xa6, 0x15, 0x98, 0xf2, 0xa6, 0x15, 0x37,
  0x96, 0x23, 0xae, 0x42, 0x47, 0x46, 0xdd, 0xa4, 0x38, 0x4f, 0xc9, 0x8c,
  0x30, 0xdc, 0xcb, 0xb4, 0x42, 0x17, 0xbd, 0x20, 0x26, 0x81, 0x0b, 0x9d,
  0xb6, 0x36, 0x37, 0xe6, 0xf8, 0xf5, 0x32, 0xe2, 0x71, 0xae, 0xc7, 0x2d,
  0x35, 0xee, 0xb2, 0x91, 0x07, 0xbd, 0xd9, 0xb1, 0x22, 0xa8, 0x9e, 0x09,
  0xfe, 0xb1, 0x1c, 0x56, 0x21, 0x4a, 0xe9, 0x1b, 0xc9, 0xaf, 0x24, 0xe8,
  0x22, 0x0b, 0x98, 0xc0, 0x5a, 0xcd, 0x1e, 0xf5, 0xa5, 0x17, 0x81, 0x2a,
  0xfe, 0xd1, 0xf2, 0x52, 0x43, 0xa2, 0x1f, 0xaa, 0xa3, 0xba, 0x21, 0x88,
  0x31, 0x5b, 0x0b, 0x62, 0x0f, 0xf6, 0x4a, 0xbf, 0x3d, 0x06, 0x23, 0xd1,
  0x2d, 0xec, 0x52, 0x04, 0xee, 0xb7, 0xf1, 0x26, 0x31, 0x40, 0xff, 0xba,
  0x9e, 0xd1, 0xfd, 0xe9, 0x63, 0xc6, 0x12, 0xfb, 0xf3, 0x19, 0xc6, 0x30,
  0xfb, 0x4f, 0x31, 0xc0, 0xfb, 0x30, 0xf4, 0xda, 0x04, 0x19, 0x19, 0xb5,
  0x27, 0x0a, 0xb6, 0xe5, 0xd9, 0x02, 0xa7, 0x3b, 0x2e, 0x28, 0xdb, 0x82,
  0x1a, 0xf6, 0xa4, 0xe4, 0xb7, 0x25, 0xdc, 0xf5, 0x42, 0xf1, 0x2b, 0x13,
  0xb6, 0x9f, 0x51, 0xac, 0xc5, 0x17, 0xb2, 0xa9, 0x21, 0x78, 0xb6, 0x96,
  0x3a, 0x52, 0x96, 0xe8, 0xba, 0x88, 0x17, 0x18, 0x38, 0xcc, 0x3d, 0xb7,
  0xc7, 0x99, 0x68, 0x5d, 0x1c, 0x52, 0x44, 0xa1, 0xce, 0xf9, 0x1d, 0x8c,
  0x81, 0x65, 0x4b, 0xc0, 0x9d, 0xa4, 0xc6, 0x41, 0x60, 0xeb, 0xa6, 0x99,
  0x24, 0xa6, 0xf8, 0xbd, 0xf4, 0x18, 0x41, 0xc1, 0x54, 0x3a, 0x81, 0x15,
  0xe0, 0x51, 0xe5, 0x21, 0x9a, 0x67, 0xe1, 0x68, 0xea, 0xdc, 0x1f, 0xf3,
  0x2b, 0x67, 0x0a, 0xc3, 0xf3, 0xae, 0xe4, 0xf3, 0x01, 0x10, 0xdf, 0x5e,
  0xea, 0x21, 0x64, 0x24, 0x9e, 0x3d, 0xaa, 0x4b, 0xe3, 0xee, 0xc4, 0xcc,
  0x15, 0xbf, 0x57, 0x35, 0xee, 0x25, 0x0c, 0x2e, 0xcb, 0x31, 0x19, 0x43,
  0x61, 0xc1, 0xf1, 0xbc, 0xbf, 0x17, 0xa4, 0xd6, 0x04, 0xd5, 0x54, 0x05,
  0x9f, 0x60, 0xbc, 0x23, 0xbc, 0x2c, 0xc3, 0xae, 0xb6, 0x6f, 0x07, 0xad,
  0x13, 0x99, 0xf9, 0x0e, 0xb1, 0xcd, 0x18, 0xda, 0x4c, 0x55, 0x32, 0xb2,
  0x36, 0x9d, 0x21, 0x5d, 0x44, 0xec, 0x52, 0xac, 0xa1, 0x30, 0xf4, 0x81,
  0xfc, 0x53, 0xbd, 0xb3, 0xc8, 0xdf, 0xa5, 0x86, 0x2c, 0xb6, 0xaf, 0x2b,
  0xac, 0xd6, 0xc2, 0x0d, 0xd8, 0xec, 0x08, 0x30, 0xd7, 0x72, 0xf6, 0x9d,
  0xe7, 0x52, 0x61, 0xa8, 0xde, 0x43, 0xa9, 0x03, 0xf9, 0xe3, 0xa8, 0xd5,
  0x53, 0xf4, 0xaf, 0xda, 0x37, 0xe6, 0x92, 0xbc, 0x87, 0x8e, 0x12, 0xd0,
  0xb8, 0xed, 0x5f, 0xef, 0x38, 0xf6, 0xd1, 0x20, 0xd1, 0xd6, 0x97, 0xe9,
  0x30, 0x17, 0xec, 0x9b, 0xf8, 0xf7, 0xed, 0xc0, 0x06, 0x1d, 0xed, 0x98,
  0xaf, 0x21, 0x1b, 0xdf, 0x23, 0x81, 0xa1, 0x5a, 0xc8, 0xa7, 0x26, 0x14,
  0xee, 0x3d, 0x10, 0x51, 0xe1, 0xa9, 0xc8, 0xcb, 0x01, 0xd6, 0x1b, 0x93,
  0x23, 0xae, 0xbd, 0x03, 0x23, 0xc5, 0x36, 0x12, 0x5b, 0x13, 0x31, 0x18,
  0x0a, 0xd4, 0x06, 0x3c, 0x5c, 0x7a, 0xcf, 0xd1, 0x0a, 0xa1, 0xa0, 0x99,
  0xf8, 0xf0, 0x92, 0x4d, 0x22, 0x9f, 0xfb, 0x2d, 0x2d, 0xa6, 0xcd, 0x37,
  0x95, 0xa5, 0xca, 0xdb, 0xa1, 0xb6, 0xe3, 0x20, 0x5b, 0xda, 0x9c, 0xe7,
  0x35, 0x56, 0xb8, 0x3f, 0x00, 0xf0, 0x4f, 0xe0, 0x08, 0x3a, 0x1d, 0x2e,
  0xb4, 0xf5, 0x9b, 0xfd, 0x33, 0x12, 0xf0, 0x3c, 0x9f, 0x52, 0x70, 0x25,
  0x9f, 0x83, 0x81, 0xaa, 0x96, 0x34, 0x0b, 0xf4, 0x59, 0x16, 0xf0, 0xa9,
  0x9e, 0x4b, 0x4c, 0x97, 0xc5, 0xeb, 0xc7, 0x47, 0xf0, 0x75, 0x3e, 0xcf,
  0x9f, 0x78, 0xac, 0xb9, 0x35, 0x1e, 0xb7, 0xee, 0x50, 0x1b, 0xe8, 0xbb,
  0xdf, 0x19, 0xee, 0x56, 0xa5, 0x3a, 0x04, 0xc8, 0xeb, 0x1b, 0x19, 0xbc,
  0xe6, 0x5f, 0x75, 0x0e, 0x32, 0xb9, 0x18, 0xb3, 0x45, 0xc5, 0xa3, 0x17,
  0x06, 0xf1, 0xb3, 0xe3, 0xee, 0xdb, 0x76, 0xca, 0x3d, 0x7f, 0x42, 0xa5,
  0x60, 0x58, 0x9e, 0xdc, 0x91, 0xf5, 0xfb, 0xe6, 0x23, 0xd3, 0x1f, 0x3b,
  0xc7, 0xad, 0xa2, 0xee, 0xd4, 0x43, 0xfc, 0x7f, 0x07, 0x20, 0x8e, 0x74,
  0x9c, 0x62, 0x74, 0x3f, 0x5d, 0x17, 0xda, 0x99, 0xfb, 0xf2, 0x31, 0x70,
  0xed, 0x53, 0xf5, 0xa1, 0x28, 0x04, 0x09, 0x54, 0xfb, 0xae, 0xb0, 0xf8,
  0x00, 0xe5, 0x10, 0x02, 0x5e, 0x2e, 0xd7, 0x05, 0xe8, 0x57, 0x9e, 0x93,
  0x25, 0xa7, 0xd5, 0xe8, 0xb4, 0x09, 0x2b, 0x44, 0x9c, 0x92, 0x36, 0x0f,
  0xc9, 0x4c, 0x1f, 0xe4, 0x60, 0x36, 0x49, 0x0c, 0xba, 0xaa, 0x1d, 0x10,
  0x0d, 0x69, 0x08, 0x14, 0xc1, 0x63, 0x31, 0xab, 0x27, 0x51, 0xc7, 0x59,
  0xbc, 0x35, 0x05, 0xc0, 0xde, 0xbf, 0x4f, 0x2b, 0x19, 0xef, 0x37, 0xd2,
  0xbe, 0xce, 0xaa, 0x3c, 0x9b, 0x1c, 0xd3, 0xcd, 0x91, 0x88, 0xb0, 0xce,
  0x14, 0x13, 0x4f, 0x2c, 0x00, 0x57, 0xd6, 0xe1, 0x1c, 0x0e, 0x31, 0xa7,
  0x58, 0x91, 0xc4, 0x55, 0x1a, 0x91, 0x6d, 0xce, 0x15, 0x0c, 0xb2, 0xdb,
  0xee, 0x0b, 0xcf, 0xf2, 0x0c, 0xbb, 0x81, 0x23, 0x95, 0x5b, 0x44, 0xc0,
  0x09, 0xbb, 0xf9, 0x08, 0x1a, 0xf4, 0x32, 0xd1, 0xb5, 0x1b, 0xe6, 0xba,
  0x44, 0x1d, 0x25, 0x27, 0xc9, 0x17, 0x0e, 0xa9, 0x23, 0xed, 0xef, 0xb5,
  0xd0, 0x02, 0xf5, 0x0e, 0x2f, 0xd6, 0xcb, 0xb7, 0x03, 0xaa, 0x4b, 0x30,
  0x7f, 0x14, 0x30, 0xcb, 0xd6, 0x11, 0x34, 0x3c, 0x3c, 0xf2, 0xb2, 0xb5,
  0xd1, 0xf5, 0xca, 0xe5, 0xd0, 0x4c, 0x2b, 0x0f, 0xb9, 0x40, 0x09, 0xd0,
  0x06, 0xde, 0x0c, 0x77, 0xb0, 0x28, 0x04, 0xef, 0x3d, 0x39, 0xcd, 0xfb,
  0xcd, 0xc9, 0xcf, 0xce, 0x43, 0xff, 0xd8, 0xa9, 0x26, 0xbd, 0xb2, 0x4b,
  0xc6, 0xc5, 0x16, 0xdc, 0x1c, 0xce, 0xf7, 0x68, 0x41, 0xb9, 0x50, 0x31,
  0x9b, 0xc6, 0x30, 0xed, 0x51, 0x9d, 0x21, 0xd6, 0x01, 0xd9, 0x01, 0x81,
  0x43, 0x00, 0x9e, 0xa4, 0xe0, 0x21, 0x9b, 0x35, 0xc0, 0xc5, 0x15, 0x46,
  0xed, 0xcd, 0xca, 0xb9, 0x8e, 0xfa, 0x88, 0x1f, 0xcc, 0x63, 0x39, 0xe2,
  0x97, 0xc4, 0x2f, 0x8a, 0x99, 0xd1, 0x0c, 0xed, 0xf8, 0x1f, 0x9f, 0xb2,
  0xdc, 0x4b, 0x36, 0xe6, 0xf4, 0xdd, 0xfc, 0x6e, 0xa7, 0xeb, 0xc8, 0x59,
  0xa4, 0xdb, 0xea, 0xaa, 0x14, 0x3a, 0x27, 0x82, 0x54, 0xdc, 0x97, 0x36,
  0xac, 0x54, 0x3d, 0x41, 0x87, 0xc2, 0xd2, 0x2f, 0xff, 0xa9, 0xc7, 0xda,
  0xfc, 0x84, 0x19, 0x58, 0xaf, 0xea, 0x08, 0x07, 0x54, 0x0e, 0xa0, 0xfe,
  0x11, 0xd8, 0xb4, 0x09, 0xec, 0x46, 0x53, 0x69, 0x81, 0xc7, 0xe8, 0x97,
  0x89, 0x08, 0x8d, 0x51, 0x58, 0xeb, 0xf8, 0x3d, 0xfd, 0x9d, 0x47, 0xce,
  0xaa, 0x0f, 0x83, 0x8b, 0x0a, 0xe6, 0xfe, 0xc4, 0xb8, 0x69, 0x17, 0x41,
  0xeb, 0x63, 0x3f, 0x7f, 0x5e, 0x9a, 0xa5, 0x18, 0x8e, 0xe8, 0x58, 0x27,
  0x47, 0xfc, 0x98, 0x32, 0x36, 0xa9, 0x21, 0xa1, 0xc4, 0xe6, 0xdd, 0x06,
  0x12, 0xae, 0x3a, 0x4d, 0xad, 0xfc, 0xa9, 0xc5, 0xe2, 0xda, 0x3d, 0xa0,
  0x27, 0xf0, 0xa8, 0xde, 0xd0, 0xc9, 0x63, 0x0b, 0x3b, 0x3c, 0x47, 0xc9,
  0xd5, 0xb6, 0xba, 0x43, 0xfd, 0x1b, 0x72, 0x99, 0xe5, 0xd8, 0xce, 0x3b,
  0x4c, 0x0c, 0x0e, 0x9b, 0x0a, 0xb3, 0xce, 0x8a, 0x0d, 0xcc, 0x39, 0x96,
  0x74, 0x8f, 0x02, 0x4e, 0xee, 0xf2, 0x46, 0x5d, 0xe0, 0x3c, 0x7d, 0xd9,
  0xf5, 0xe6, 0x92, 0x0f, 0xd9, 0xbf, 0x33, 0x90, 0xb4, 0x05, 0x24, 0xe7,
  0x97, 0xb4, 0x81, 0x1d, 0x53, 0x10, 0x08, 0xb7, 0x3e, 0x04, 0xab, 0x4f,
  0x8d, 0xc3, 0x0c, 0xf4, 0x9c, 0x8b, 0x44, 0x0a, 0x23, 0x41, 0x48, 0xe2,
  0xf9, 0x15, 0xa9, 0xad, 0xa3, 0xf6, 0x8f, 0xcf, 0xf7, 0x40, 0x72, 0x9b,
  0x17, 0x38, 0xee, 0xe1, 0xdc, 0xde, 0x4a, 0xd7, 0xbb, 0x0e, 0x00, 0xba,
  0xca, 0x2e, 0x07, 0xd6, 0xe7, 0xca, 0x2a, 0xec, 0xe8, 0xec, 0xb4, 0xfa,
  0xbf, 0x26, 0xd9, 0xec, 0xe2, 0x07, 0xe7, 0x38, 0x3c, 0x42, 0xad, 0xc8,
  0x81, 0xd2, 0x43, 0x31, 0xad, 0xe2, 0xcf, 0xff, 0x11, 0xf1, 0xa5, 0x25,
  0x2f, 0xb5, 0xe3, 0x1d, 0xc2, 0x9b, 0x09, 0xf0, 0xab, 0xae, 0xfe, 0xf0,
  0x05, 0x0d, 0x44, 0x35, 0x3a, 0x1d, 0x0b, 0xd6, 0x01, 0xf9, 0xf4, 0x0b,
  0x24, 0x16, 0xaf, 0x48, 0x96, 0xf0, 0xff, 0xff, 0x04, 0x00, 0x00, 0x00,
  0x18, 0x00, 0x00, 0x00, 0x80, 0x15, 0x13, 0x09, 0x14, 0x1b, 0xff, 0xf3,
  0xcb, 0x14, 0xd6, 0xe5, 0xa7, 0xf7, 0xe3, 0xec, 0x09, 0xfe, 0x04, 0xf4,
  0xfd, 0x7f, 0x2d, 0x01, 0xba, 0xf0, 0xff, 0xff, 0x04, 0x00, 0x00, 0x00,
  0xc0, 0x06, 0x00, 0x00, 0x22, 0xbf, 0x89, 0x3c, 0xc5, 0x4c, 0xc9, 0xc5,
  0xc5, 0x32, 0xd5, 0x17, 0xc4, 0x8f, 0x04, 0x68, 0x57, 0x3f, 0xa8, 0x31,
  0xe5, 0x07, 0xf4, 0x31, 0xac, 0xa4, 0x81, 0x95, 0x46, 0xad, 0x0b, 0x66,
  0xeb, 0x47, 0x4f, 0xbb, 0xbb, 0x9c, 0xfd, 0x5c, 0x17, 0x38, 0x5c, 0xd4,
  0x5f, 0xfb, 0x83, 0x03, 0xfe, 0xa8, 0xfa, 0x5b, 0x37, 0x56, 0xc6, 0x27,
  0x32, 0x9c, 0x5b, 0xaf, 0xdf, 0x3c, 0x9d, 0x11, 0xbd, 0xbc, 0xc1, 0x5e,
  0x9b, 0x4c, 0x15, 0x64, 0x2a, 0x42, 0x31, 0x34, 0xfe, 0xe5, 0x91, 0xd3,
  0xc7, 0x2e, 0xac, 0x39, 0x0d, 0xdf, 0xf2, 0xdc, 0xc2, 0x41, 0xbb, 0xec,
  0x17, 0xfb, 0x02, 0xdd, 0x81, 0xe2, 0x14, 0xbf, 0xea, 0xc8, 0xe7, 0x24,
  0x2a, 0x23, 0xea, 0x60, 0xa1, 0xa8, 0xa2, 0x37, 0x52, 0x05, 0xfc, 0xff,
  0x21, 0xc4, 0x10, 0x0e, 0xce, 0xf5, 0xed, 0xe5, 0x2b, 0x30, 0xae, 0xdd,
  0x05, 0x0f, 0xc8, 0x33, 0x78, 0xc3, 0xb4, 0xca, 0x17, 0x26, 0x34, 0xd5,
  0x1e, 0xed, 0x46, 0x7d, 0x35, 0x35, 0xf4, 0xff, 0xe6, 0x15, 0x53, 0x55,
  0x43, 0xf7, 0xcf, 0xd7, 0x1c, 0xb5, 0x9a, 0x03, 0xb2, 0x17, 0xde, 0x24,
  0xd6, 0xdf, 0x4b, 0xc4, 0x93, 0x27, 0xf3, 0xaf, 0xb6, 0xc6, 0xd3, 0x75,
  0x0e, 0x20, 0xf5, 0x73, 0xcf, 0xee, 0xaa, 0x36, 0xf8, 0x8f, 0xd2, 0xa8,
  0xfb, 0x1e, 0x0f, 0xa1, 0xb6, 0xb1, 0xba, 0xdc, 0x2e, 0xa7, 0xd6, 0xc2,
  0xf8, 0x14, 0x05, 0xb5, 0x04, 0x81, 0x87, 0xda, 0xa4, 0x4c, 0xa6, 0x39,
  0x0c, 0xf9, 0xd7, 0xfa, 0xdb, 0x9a, 0xa9, 0xea, 0xf7, 0x42, 0x65, 0x2a,
  0xf0, 0xce, 0xa7, 0xab, 0xfa, 0x66, 0x5e, 0xba, 0x05, 0x26, 0xf8, 0x33,
  0xe2, 0xa9, 0xd6, 0xbf, 0x37, 0x68, 0x20, 0x48, 0xbd, 0xdd, 0x9a, 0xae,
  0x54, 0xcb, 0x4b, 0xf8, 0x46, 0x5b, 0xfd, 0xac, 0x32, 0x03, 0x63, 0x41,
  0x20, 0xed, 0x1c, 0xe9, 0x51, 0xda, 0x52, 0xff, 0x53, 0x5e, 0x26, 0x1c,
  0x71, 0xb0, 0xc5, 0xe3, 0x26, 0x55, 0x55, 0xf1, 0xa8, 0x07, 0xca, 0x3a,
  0xcf, 0x1a, 0x01, 0x7f, 0x41, 0x92, 0xc7, 0x54, 0x3c, 0x4a, 0x32, 0x62,
  0xeb, 0x86, 0xcc, 0x40, 0x98, 0xbb, 0xc9, 0xfa, 0xe6, 0x44, 0x4d, 0x14,
  0x1d, 0xe1, 0xd1, 0x0d, 0x42, 0xbb, 0x50, 0xc1, 0xc3, 0x42, 0x08, 0xca,
  0x5f, 0x3b, 0xe1, 0x74, 0x31, 0x56, 0x23, 0x29, 0xf6, 0x04, 0x06, 0xfc,
  0xeb, 0xda, 0xcb, 0x27, 0xd9, 0x27, 0x20, 0xa9, 0x81, 0x81, 0x44, 0x5f,
  0x03, 0xed, 0xb9, 0xb4, 0x9b, 0xca, 0xeb, 0x1c, 0x1d, 0x14, 0x54, 0x3c,
  0xc1, 0x44, 0x91, 0x90, 0x33, 0xaf, 0x52, 0x77, 0x42, 0xc2, 0x5b, 0x38,
  0x3f, 0x15, 0xc4, 0xb6, 0xff, 0x7e, 0xed, 0xfe, 0x5c, 0xde, 0x70, 0x3a,
  0x28, 0x2e, 0x5e, 0xc4, 0x20, 0x2f, 0xaa, 0x1d, 0x1b, 0x05, 0x76, 0xc3,
  0xcb, 0x07, 0x08, 0xb8, 0x0d, 0xc3, 0x23, 0xee, 0xfb, 0x33, 0x7f, 0x36,
  0x6b, 0x32, 0x03, 0x4b, 0xda, 0xe4, 0x0b, 0xd2, 0x44, 0x7d, 0x58, 0x08,
  0x40, 0x5e, 0xf5, 0x1f, 0xdd, 0x41, 0xc4, 0x46, 0x7d, 0x04, 0xd1, 0xe8,
  0xd2, 0xc6, 0x74, 0x39, 0x9e, 0x21, 0xcb, 0x59, 0xee, 0xa2, 0xab, 0xbb,
  0xcb, 0xf9, 0x2b, 0xca, 0xfc, 0xae, 0x0b, 0xc0, 0x43, 0x00, 0x84, 0x5b,
  0x30, 0x27, 0x5b, 0xdc, 0x26, 0x01, 0x1b, 0xab, 0x05, 0x35, 0x11, 0xd4,
  0x52, 0xb0, 0xaf, 0xf9, 0xcc, 0xa9, 0x01, 0xa6, 0xef, 0x29, 0xb2, 0x3e,
  0xa9, 0xa8, 0x72, 0xd6, 0xda, 0x02, 0x81, 0x09, 0xb3, 0xb6, 0x2a, 0xe2,
  0x16, 0x21, 0x11, 0x56, 0x89, 0x0d, 0xf6, 0x1f, 0x26, 0x3b, 0xc5, 0x4e,
  0x45, 0x32, 0x11, 0x45, 0x1d, 0x8e, 0x42, 0x67, 0x0a, 0xfd, 0x1d, 0x2d,
  0x2a, 0x98, 0xe2, 0xa2, 0x16, 0x3d, 0xd3, 0x0e, 0x1c, 0x56, 0x54, 0x95,
  0xa4, 0xf6, 0x43, 0x13, 0xba, 0x25, 0x1e, 0x95, 0xcd, 0xb9, 0x8e, 0xf4,
  0x1c, 0xd9, 0xdd, 0x1e, 0xc9, 0xe7, 0x5f, 0xe3, 0x08, 0x1d, 0x4b, 0x48,
  0xba, 0x4a, 0x4f, 0xa1, 0xbb, 0x2b, 0x3e, 0x6c, 0x88, 0x0e, 0xf5, 0x6b,
  0x5c, 0x3f, 0x81, 0x1a, 0x14, 0x58, 0xcf, 0xd3, 0xec, 0x9a, 0xab, 0x43,
  0x93, 0xa4, 0xf0, 0xfc, 0xfb, 0x45, 0xe1, 0x0c, 0xb4, 0x82, 0xa5, 0x7e,
  0x11, 0xa7, 0xf1, 0xd2, 0x2e, 0x5c, 0x09, 0xe9, 0xbd, 0x49, 0xe5, 0x28,
  0x43, 0x0e, 0xe9, 0x47, 0x26, 0xe0, 0xf6, 0xfc, 0x99, 0x0c, 0x52, 0x4c,
  0xb1, 0x48, 0x4b, 0x44, 0xd1, 0x13, 0xa4, 0x60, 0xf5, 0xd6, 0x35, 0x0e,
  0x56, 0x0d, 0x0d, 0x3b, 0xb6, 0xef, 0x82, 0xe5, 0xce, 0x98, 0x4b, 0x6b,
  0xe8, 0x5b, 0x81, 0x12, 0xd5, 0x5a, 0x14, 0xba, 0xee, 0xae, 0xe0, 0xae,
  0xa9, 0x3e, 0xf6, 0xef, 0xc6, 0x46, 0x81, 0x5d, 0xc1, 0x92, 0x0a, 0x5b,
  0x54, 0x62, 0x71, 0x37, 0xdf, 0xca, 0x45, 0x10, 0xb7, 0xa4, 0xf5, 0x25,
  0x1f, 0xf6, 0x18, 0xb5, 0xed, 0xf0, 0x5f, 0x5e, 0x57, 0x6e, 0x22, 0xcd,
  0xfc, 0xbb, 0x4b, 0x4c, 0xb4, 0x61, 0x75, 0xae, 0xc9, 0x27, 0x4b, 0xb4,
  0xe5, 0x3e, 0x54, 0xfb, 0x27, 0xc7, 0x3f, 0xb1, 0x5c, 0x39, 0x9b, 0x9e,
  0x3c, 0x39, 0x9e, 0xaf, 0x54, 0x60, 0x23, 0x21, 0x55, 0x1c, 0x01, 0x9a,
  0xda, 0x18, 0x30, 0xf0, 0x1d, 0xd6, 0x1e, 0xde, 0xeb, 0x89, 0xc8, 0xc3,
  0xc3, 0x10, 0xbb, 0x56, 0xd4, 0x17, 0x4f, 0xec, 0xcb, 0xfb, 0x25, 0x97,
  0xfd, 0x0d, 0x0c, 0xb8, 0x33, 0xd2, 0x63, 0x32, 0x99, 0x46, 0x29, 0x69,
  0x33, 0x9e, 0xcc, 0xee, 0xb9, 0xe6, 0xcd, 0x16, 0xfa, 0x0e, 0x92, 0x38,
  0xfe, 0x58, 0x48, 0xb3, 0x0b, 0xb4, 0x93, 0x92, 0xc1, 0xda, 0x65, 0x25,
  0xc1, 0xab, 0x13, 0xd0, 0xa8, 0x81, 0x5f, 0xe0, 0xcc, 0x01, 0xae, 0x86,
  0x1a, 0xb4, 0xb1, 0x32, 0x3e, 0xd6, 0x85, 0xed, 0x1f, 0x97, 0x3b, 0x15,
  0xff, 0xbe, 0xc7, 0xc3, 0x03, 0xca, 0xee, 0xef, 0x1a, 0x5a, 0x43, 0xc2,
  0x26, 0x29, 0xc5, 0xf6, 0xcf, 0xdd, 0xca, 0x37, 0x16, 0xee, 0xdb, 0xae,
  0xe8, 0x9b, 0xb3, 0x37, 0x36, 0x9b, 0x4e, 0xf4, 0xd5, 0xc2, 0xd9, 0xb4,
  0x4d, 0xaf, 0x02, 0xe3, 0xfd, 0x3c, 0x17, 0xea, 0xf3, 0xce, 0xf6, 0xfa,
  0x51, 0x48, 0xf4, 0xb7, 0xfb, 0x81, 0xff, 0x03, 0x53, 0xc3, 0x50, 0x6c,
  0xb7, 0x28, 0xc8, 0x22, 0x3b, 0x40, 0x4b, 0xdc, 0x03, 0x10, 0xe0, 0xc3,
  0xbe, 0x9f, 0x2c, 0x7f, 0xd7, 0x01, 0x18, 0xc6, 0x4e, 0x27, 0x8e, 0x30,
  0x01, 0x0c, 0x43, 0xfc, 0xf8, 0xb3, 0xd9, 0xb1, 0x10, 0x84, 0x45, 0x0b,
  0xd4, 0xf0, 0x4a, 0x59, 0x03, 0x53, 0x42, 0x16, 0x09, 0x4d, 0xf8, 0x6f,
  0x4d, 0xf8, 0xbf, 0xe2, 0x81, 0xaa, 0x94, 0x96, 0xd1, 0xa0, 0xfc, 0xb4,
  0xfd, 0xf8, 0xf6, 0x6c, 0x2d, 0x4f, 0x10, 0x29, 0xf6, 0xe7, 0x04, 0xaf,
  0x5c, 0x3a, 0xc2, 0xfe, 0x64, 0xd4, 0x0f, 0x9e, 0x06, 0x36, 0xce, 0xb3,
  0xcd, 0xe8, 0xc4, 0x47, 0x59, 0xa8, 0x46, 0xf8, 0x28, 0x3f, 0xf7, 0xb4,
  0xe6, 0x1b, 0x0d, 0x1f, 0xbc, 0x12, 0x64, 0xcc, 0xb1, 0x96, 0x51, 0xb0,
  0xee, 0x22, 0x36, 0xa9, 0xca, 0xdf, 0xcc, 0x1f, 0x0b, 0x03, 0xcd, 0xb3,
  0xd5, 0x0f, 0x46, 0xbb, 0x4f, 0x19, 0x07, 0x31, 0x7f, 0x1b, 0xec, 0x17,
  0xbc, 0x31, 0xf1, 0x5d, 0x21, 0x12, 0xba, 0x0e, 0xea, 0xf2, 0x28, 0xcd,
  0x43, 0x52, 0x4b, 0x26, 0x67, 0x1f, 0x2a, 0x13, 0xcd, 0x28, 0x2a, 0xe4,
  0xd5, 0x0b, 0x0d, 0x06, 0x66, 0xe5, 0xc9, 0x4c, 0x09, 0xc8, 0x27, 0xef,
  0xfb, 0x12, 0x81, 0xea, 0xb4, 0x0d, 0xbb, 0x07, 0x65, 0x39, 0x2e, 0x3e,
  0x3e, 0xf7, 0x33, 0x0d, 0x34, 0xe6, 0xc9, 0x1d, 0x36, 0xd1, 0x4c, 0xdf,
  0x36, 0x9f, 0x16, 0xb5, 0x19, 0x3a, 0x31, 0xae, 0x14, 0xbd, 0xf7, 0x3d,
  0x3a, 0xc3, 0x22, 0xce, 0x1e, 0x2f, 0x03, 0xdf, 0x18, 0xda, 0xb9, 0xf0,
  0x3b, 0x19, 0xd0, 0xde, 0x9a, 0x20, 0x9a, 0xdb, 0x40, 0x29, 0x08, 0x07,
  0x21, 0x55, 0x00, 0xe3, 0x04, 0xf2, 0xb2, 0x3b, 0xc9, 0xfa, 0x2c, 0xba,
  0x0f, 0x6a, 0x03, 0x99, 0xad, 0xde, 0x70, 0xb0, 0xd4, 0xc4, 0xa6, 0xd0,
  0xdb, 0xaa, 0x41, 0xea, 0x1e, 0xc4, 0xd9, 0xff, 0xa4, 0xd8, 0x94, 0x4a,
  0xf9, 0xf2, 0x3b, 0x4e, 0xbc, 0x2e, 0x22, 0xf0, 0x0c, 0x0f, 0x32, 0x47,
  0x0c, 0xf7, 0x89, 0x48, 0xb1, 0xf3, 0xc1, 0x83, 0xf0, 0x97, 0x0b, 0x30,
  0x32, 0xf8, 0x81, 0xf7, 0x68, 0xed, 0xb8, 0xef, 0x63, 0x1b, 0x28, 0x56,
  0x20, 0x1d, 0xfa, 0x2d, 0xf1, 0x5b, 0x6c, 0x4a, 0x54, 0xb3, 0x00, 0x67,
  0x13, 0x11, 0xfd, 0x6c, 0xbf, 0xc6, 0x13, 0x43, 0xc0, 0x5e, 0xc9, 0xa9,
  0x03, 0x37, 0x40, 0x22, 0x3f, 0x4d, 0xad, 0x8f, 0x69, 0x07, 0xab, 0x9c,
  0x06, 0xed, 0x17, 0x1e, 0x9b, 0xa9, 0x23, 0x47, 0xc6, 0x49, 0x0b, 0xe0,
  0x0b, 0xbc, 0x03, 0xdb, 0x40, 0xf2, 0xea, 0x3d, 0x65, 0xb0, 0xe8, 0xc3,
  0xbb, 0x81, 0xb2, 0x2d, 0x24, 0xab, 0xec, 0xc3, 0xf2, 0xe7, 0xca, 0xbe,
  0x02, 0x14, 0xf7, 0x16, 0x00, 0xab, 0xaf, 0x2e, 0x0e, 0xc6, 0x28, 0xcb,
  0x49, 0xdd, 0x25, 0x7b, 0x0a, 0xc1, 0xb6, 0x3f, 0xa0, 0x5f, 0x03, 0xc4,
  0xf2, 0x31, 0xa9, 0x50, 0xcc, 0x8c, 0xa2, 0x34, 0x3b, 0x31, 0x04, 0xf9,
  0xf7, 0x05, 0x68, 0x10, 0x09, 0xe3, 0x94, 0x58, 0xb7, 0x53, 0x54, 0x2b,
  0xbc, 0x1c, 0xd6, 0x46, 0xf2, 0x42, 0xd1, 0xb3, 0xf4, 0x81, 0x0d, 0x02,
  0x8b, 0xd8, 0x2d, 0x65, 0xe2, 0xfd, 0x90, 0x0b, 0xfd, 0x18, 0x3d, 0x7f,
  0xc1, 0x0c, 0xc4, 0x92, 0x49, 0xb6, 0xfa, 0x1b, 0x50, 0x46, 0x79, 0x08,
  0xa9, 0x87, 0xf2, 0x67, 0x32, 0xfb, 0x94, 0xdb, 0xab, 0xe2, 0x5a, 0x54,
  0x1a, 0xe3, 0x1d, 0x1e, 0x56, 0x32, 0x27, 0x02, 0xd6, 0x3b, 0xcc, 0x05,
  0xec, 0xbc, 0x26, 0xd4, 0xbf, 0xea, 0x2f, 0x14, 0xd2, 0xd8, 0xf5, 0x52,
  0x8c, 0x71, 0x40, 0xb5, 0x4f, 0x4e, 0xfc, 0x3b, 0x61, 0xa8, 0x09, 0xec,
  0x37, 0x2f, 0x56, 0x11, 0xd2, 0xad, 0x54, 0xd1, 0x47, 0x3b, 0x0c, 0xd4,
  0x5a, 0x90, 0x1e, 0x69, 0xc4, 0xb8, 0x30, 0x0a, 0xbc, 0xbf, 0xd9, 0x19,
  0x55, 0xd7, 0x23, 0xde, 0x56, 0x9e, 0xb7, 0xa7, 0x8c, 0xe8, 0xb7, 0x36,
  0x36, 0xc8, 0x8a, 0xbb, 0x27, 0x53, 0x3d, 0x44, 0x9b, 0xe2, 0x11, 0x3e,
  0xea, 0x0d, 0xae, 0x53, 0x68, 0xc8, 0xf1, 0xde, 0x31, 0xae, 0x2b, 0x1b,
  0x36, 0xa0, 0xe0, 0xe2, 0x06, 0xfd, 0xae, 0x81, 0x62, 0xe1, 0x74, 0xfc,
  0xef, 0x19, 0x52, 0x43, 0xa5, 0xd0, 0x1d, 0x55, 0x08, 0x28, 0x73, 0x6a,
  0x01, 0x02, 0xb0, 0xf3, 0x8d, 0x45, 0xbd, 0xfe, 0x8e, 0x8f, 0xe8, 0x7e,
  0xf6, 0x07, 0x18, 0x25, 0x95, 0x2f, 0xdc, 0x1c, 0xb5, 0x24, 0xba, 0xad,
  0xfe, 0xf1, 0xbc, 0x48, 0x11, 0x18, 0x3b, 0xec, 0x81, 0x93, 0xc7, 0xe9,
  0x00, 0x07, 0x95, 0xe4, 0x12, 0xe4, 0xbc, 0x05, 0xb5, 0x8d, 0x40, 0xb4,
  0x7e, 0xf4, 0x10, 0x69, 0xc2, 0x16, 0x3a, 0x65, 0xbb, 0x10, 0xcf, 0xbe,
  0x50, 0x77, 0xcf, 0x9c, 0x11, 0xa5, 0xde, 0x35, 0x43, 0xfe, 0xd5, 0xd4,
  0xe2, 0x4a, 0x5a, 0xe9, 0xf0, 0xf9, 0x74, 0xe5, 0xd1, 0x53, 0xe8, 0x15,
  0x31, 0xc1, 0x20, 0x2f, 0xb7, 0x48, 0x8b, 0x02, 0x0d, 0x09, 0x46, 0x5f,
  0xce, 0x2f, 0x61, 0x67, 0xa6, 0x5a, 0xbc, 0x1e, 0x55, 0x23, 0xf5, 0xe7,
  0x61, 0x2b, 0x20, 0x41, 0x0f, 0xe8, 0x02, 0xc3, 0x41, 0x06, 0x04, 0x0e,
  0xfb, 0x8b, 0x2d, 0x35, 0x94, 0x47, 0x2c, 0x45, 0x81, 0xcd, 0xba, 0xc7,
  0x2b, 0xbd, 0x2b, 0x2a, 0xe4, 0xe8, 0xee, 0xc8, 0x0d, 0x28, 0xc3, 0x5b,
  0x39, 0xc7, 0x40, 0x31, 0x4a, 0x1c, 0x10, 0xf9, 0xf5, 0xdc, 0x57, 0xf2,
  0x9e, 0x19, 0x6f, 0xa8, 0x10, 0x1e, 0x11, 0xf5, 0x06, 0x42, 0xbc, 0x60,
  0x67, 0x82, 0xfb, 0x01, 0x0a, 0xdf, 0x1b, 0x44, 0x05, 0xf2, 0x09, 0x7d,
  0xaf, 0x24, 0x4b, 0x28, 0xcb, 0x0d, 0xdb, 0x2f, 0x89, 0xa6, 0x29, 0xd1,
  0x02, 0x59, 0xaa, 0xd9, 0xe9, 0x8c, 0x2e, 0x2c, 0xd3, 0x81, 0xd1, 0x3a,
  0x33, 0xcc, 0x47, 0xc8, 0xa6, 0x41, 0x3b, 0xc7, 0x45, 0x96, 0x2b, 0xd7,
  0x55, 0x42, 0x05, 0xfa, 0x0a, 0x16, 0xeb, 0xed, 0xdc, 0x0a, 0x3e, 0x62,
  0xf9, 0x3f, 0x33, 0xf7, 0x24, 0x33, 0x2c, 0xa0, 0x40, 0x47, 0xe7, 0x12,
  0x72, 0xcb, 0xd0, 0x0b, 0xd7, 0x9f, 0xa8, 0xc3, 0x1a, 0xda, 0xa9, 0x45,
  0xda, 0x96, 0xdd, 0xeb, 0xeb, 0xbb, 0xb6, 0x91, 0xcd, 0xfe, 0xfe, 0x63,
  0x01, 0xab, 0xf1, 0x41, 0x81, 0xb0, 0x23, 0x95, 0xd9, 0x1a, 0x27, 0xdb,
  0x08, 0x22, 0xb1, 0xd3, 0x86, 0xf7, 0xff, 0xff, 0x04, 0x00, 0x00, 0x00,
  0x18, 0x00, 0x00, 0x00, 0xea, 0x80, 0x00, 0x17, 0xec, 0x7f, 0x00, 0x0e,
  0xf8, 0x41, 0x16, 0xfa, 0xd8, 0x28, 0x63, 0xf4, 0x37, 0xdc, 0x2a, 0xcf,
  0x37, 0xfa, 0xed, 0xd5, 0xaa, 0xf7, 0xff, 0xff, 0x04, 0x00, 0x00, 0x00,
  0xc0, 0x06, 0x00, 0x00, 0xae, 0x34, 0x8b, 0xac, 0x41, 0xee, 0xe5, 0x23,
  0x13, 0xd3, 0x27, 0xc1, 0xd3, 0xa8, 0xb0, 0x2b, 0x07, 0xcd, 0x1b, 0x96,
  0xe3, 0x15, 0xff, 0xc4, 0xc8, 0xe8, 0xd1, 0x68, 0x64, 0xfc, 0x81, 0xf3,
  0x83, 0x3d, 0x24, 0xce, 0xdd, 0xf8, 0x20, 0xd0, 0x5e, 0x15, 0x3c, 0x9f,
  0x0a, 0xbb, 0xcd, 0x61, 0xcd, 0x6c, 0x1d, 0xed, 0xbe, 0x29, 0xa1, 0xee,
  0xf7, 0x69, 0x05, 0x03, 0x45, 0xbf, 0x3b, 0x49, 0xa6, 0xf9, 0xc2, 0xee,
  0x27, 0x57, 0xb5, 0x63, 0xb2, 0x5f, 0x46, 0x3c, 0x09, 0xd6, 0x02, 0x3a,
  0xb8, 0x39, 0xdc, 0x7d, 0xd5, 0xd0, 0xfc, 0xba, 0x49, 0x8b, 0x42, 0xe6,
  0xdb, 0xda, 0xd4, 0x18, 0xa2, 0xac, 0xc4, 0xf8, 0x3c, 0xc5, 0x37, 0xd0,
  0x7e, 0x0b, 0x61, 0xaf, 0x73, 0xb7, 0x02, 0xdc, 0x87, 0xad, 0xa9, 0x77,
  0xb4, 0x19, 0x41, 0x83, 0xd6, 0x73, 0x53, 0x9b, 0x4c, 0x8f, 0xa9, 0xd9,
  0x53, 0x57, 0x22, 0x3d, 0xc3, 0x81, 0x16, 0x1f, 0x3a, 0xfa, 0x2a, 0x50,
  0x9e, 0x27, 0xdf, 0xeb, 0xd5, 0xbd, 0xa9, 0x08, 0x2a, 0x30, 0xe9, 0x7f,
  0xfc, 0xad, 0x3c, 0xab, 0xcf, 0xc2, 0xfe, 0x64, 0x88, 0x02, 0xf5, 0x5b,
  0x52, 0xfc, 0xeb, 0x22, 0x0a, 0x23, 0x36, 0x41, 0xe5, 0x11, 0xd2, 0x6e,
  0xb9, 0x1b, 0xdd, 0x10, 0x31, 0x22, 0x94, 0xd9, 0xf7, 0x1a, 0xaa, 0x13,
  0xc2, 0xf9, 0x27, 0x61, 0xb2, 0x34, 0xe4, 0x71, 0x15, 0x36, 0x32, 0x7a,
  0xce, 0xf8, 0x9b, 0x20, 0x61, 0x8a, 0xe6, 0xc6, 0x61, 0x05, 0x15, 0x04,
  0x17, 0x20, 0x3f, 0x1a, 0x30, 0x2c, 0xda, 0x2f, 0xa0, 0x89, 0xb5, 0x3f,
  0x31, 0x97, 0x37, 0x0e, 0x49, 0x03, 0xfc, 0x2b, 0x9b, 0xf7, 0x24, 0x15,
  0xf0, 0xfb, 0xda, 0x9d, 0xf4, 0xb3, 0x89, 0xb6, 0xbb, 0xcc, 0xff, 0xfc,
  0x55, 0x90, 0x0e, 0x08, 0x56, 0x94, 0x9b, 0x5a, 0x91, 0xad, 0xf6, 0x24,
  0x19, 0x0c, 0xb6, 0xc3, 0x1e, 0xe7, 0x02, 0x48, 0x5e, 0x49, 0xc0, 0xf8,
  0x34, 0xfa, 0x4d, 0xe1, 0xf9, 0xca, 0x27, 0xd2, 0x21, 0x81, 0x1d, 0xb0,
  0x08, 0x1e, 0x22, 0x69, 0x43, 0xfc, 0xcc, 0x2c, 0xdd, 0xbe, 0xe9, 0xaf,
  0x04, 0xc5, 0xeb, 0xb2, 0x08, 0xca, 0xe8, 0xf1, 0x29, 0x4e, 0x66, 0xf0,
  0xa9, 0xda, 0x53, 0xd9, 0x11, 0xf0, 0xb2, 0x0b, 0x09, 0xc6, 0x81, 0x31,
  0x15, 0xf7, 0x17, 0x2e, 0xaf, 0xe8, 0xa3, 0xb7, 0xf3, 0x47, 0x49, 0xad,
  0x1c, 0xa0, 0x14, 0x2d, 0x1f, 0xb9, 0x13, 0xfc, 0x05, 0xa0, 0x14, 0xfe,
  0x05, 0x07, 0xd0, 0x05, 0x2d, 0x16, 0x83, 0x82, 0x38, 0x0a, 0x40, 0x1d,
  0xd6, 0xac, 0x6c, 0x3c, 0xfc, 0x2c, 0x3b, 0x2c, 0x3c, 0xc6, 0x07, 0xe1,
  0xca, 0xae, 0xe8, 0x35, 0x0f, 0x3a, 0xac, 0x34, 0x3a, 0x36, 0x1b, 0xb8,
  0xe1, 0xf1, 0xc3, 0x1b, 0xed, 0xdf, 0xf5, 0xbd, 0x26, 0xce, 0x1e, 0x27,
  0x38, 0xd2, 0xdb, 0x0b, 0x2f, 0x32, 0xa1, 0xd9, 0xf7, 0xf1, 0xf0, 0x03,
  0x0e, 0xae, 0xdd, 0x1b, 0xd6, 0xe2, 0xdb, 0x22, 0x0e, 0xba, 0xc4, 0xf6,
  0x03, 0xe3, 0xc2, 0x2a, 0xc5, 0xc6, 0x81, 0xea, 0xd7, 0xe2, 0xc5, 0x10,
  0xeb, 0x0c, 0xc4, 0xdd, 0x26, 0x12, 0xb8, 0x38, 0x5c, 0x9d, 0x20, 0x29,
  0x12, 0x33, 0xc0, 0x4e, 0xbb, 0x00, 0xcf, 0x3f, 0xe0, 0x08, 0x0b, 0x5a,
  0x09, 0x81, 0x03, 0x39, 0x09, 0x04, 0xb3, 0xc5, 0x89, 0xa9, 0xd6, 0x90,
  0xb1, 0xec, 0x2d, 0xea, 0xc0, 0x13, 0x22, 0x81, 0x3b, 0x33, 0xdc, 0x29,
  0xac, 0xa0, 0x11, 0xef, 0x10, 0xd2, 0xd9, 0x33, 0x29, 0x3e, 0xfd, 0x15,
  0xe9, 0x21, 0xbd, 0xea, 0xa9, 0x03, 0xbc, 0x09, 0x52, 0x9f, 0xaf, 0x58,
  0x54, 0xf2, 0xc6, 0x88, 0x4e, 0x00, 0xff, 0x33, 0xa3, 0x58, 0x29, 0x46,
  0x4b, 0x31, 0xce, 0xa9, 0xd8, 0xa3, 0xe0, 0x36, 0x10, 0x4d, 0x12, 0x65,
  0x8f, 0xe7, 0x4c, 0xc8, 0xea, 0x18, 0xe3, 0x0f, 0xa8, 0xc8, 0x04, 0x3e,
  0xeb, 0xc6, 0x72, 0xee, 0x2e, 0xc7, 0xe3, 0x40, 0x99, 0x4c, 0x9b, 0x8a,
  0x22, 0xf8, 0xe0, 0xb2, 0x09, 0xb3, 0xc7, 0xb4, 0xb5, 0x81, 0x48, 0xf7,
  0x0f, 0x21, 0xf9, 0x2f, 0xf0, 0x3a, 0xfe, 0x4e, 0x31, 0x97, 0x8d, 0xdc,
  0xe1, 0x06, 0x2b, 0x19, 0x2a, 0x22, 0x06, 0xc8, 0x02, 0xb0, 0x32, 0xb2,
  0xe4, 0x4b, 0xba, 0xed, 0xc1, 0xf8, 0xef, 0x52, 0x07, 0xef, 0x5e, 0xe2,
  0x2c, 0x52, 0x6e, 0xad, 0xc0, 0xa3, 0xc1, 0x33, 0x18, 0xaf, 0xe4, 0xc8,
  0xeb, 0xc0, 0xa7, 0x1b, 0x46, 0x48, 0x81, 0xc5, 0xaa, 0x10, 0x08, 0x30,
  0xd4, 0xd4, 0x2f, 0x04, 0x5c, 0xc0, 0xf3, 0x4a, 0x5d, 0xa0, 0xbf, 0xfe,
  0x3b, 0x04, 0x37, 0xf1, 0x15, 0xd5, 0xa8, 0xe8, 0x23, 0xe7, 0x09, 0x62,
  0x25, 0x47, 0xea, 0xc9, 0x5b, 0x26, 0xf6, 0x49, 0x1d, 0x1c, 0x95, 0x38,
  0xe9, 0x83, 0xcd, 0x0e, 0x07, 0xa4, 0x5b, 0xd6, 0x29, 0xa3, 0x56, 0x74,
  0x9b, 0xe7, 0xeb, 0x07, 0xc6, 0x99, 0x94, 0x17, 0xa9, 0x4e, 0xfa, 0xe8,
  0x20, 0x1b, 0xd0, 0x85, 0x97, 0xa5, 0x5b, 0x85, 0xb8, 0x26, 0xd2, 0xdb,
  0xe0, 0x81, 0x38, 0xf9, 0x5a, 0x3e, 0xcb, 0x46, 0x11, 0x2d, 0xc7, 0xf8,
  0xd7, 0x0b, 0x02, 0xdf, 0x9f, 0xbb, 0xf2, 0xb7, 0x90, 0xf8, 0xbb, 0xd5,
  0x4c, 0xcc, 0xe5, 0xaa, 0x26, 0x1d, 0xf8, 0x8f, 0x81, 0x4c, 0x01, 0xc9,
  0xe1, 0x42, 0x25, 0x2e, 0xa3, 0xae, 0x9c, 0xe6, 0xe6, 0x45, 0x44, 0x36,
  0x40, 0xb1, 0x0b, 0x37, 0xff, 0x3d, 0xc3, 0xe4, 0xc3, 0xa8, 0xec, 0x17,
  0x22, 0xb9, 0x0a, 0xc7, 0xa7, 0xa2, 0xaa, 0x45, 0x42, 0xef, 0x2f, 0x6e,
  0xe0, 0xaa, 0x91, 0x43, 0x96, 0x0c, 0x61, 0x3a, 0x29, 0x4b, 0xf8, 0xa6,
  0xab, 0xcc, 0x44, 0xde, 0x55, 0xbf, 0x26, 0x5c, 0xad, 0x1f, 0xf7, 0xa1,
  0xe1, 0x22, 0xd7, 0x43, 0xb7, 0xd0, 0x2a, 0xa3, 0x9d, 0x20, 0xeb, 0xa8,
  0xf2, 0xa3, 0x2f, 0xbe, 0x57, 0x9c, 0x18, 0xaa, 0x62, 0xbe, 0x93, 0xfb,
  0x41, 0xb2, 0xf0, 0x1c, 0x6c, 0x0a, 0xd2, 0x61, 0x53, 0x4d, 0x4b, 0x65,
  0x26, 0x0c, 0x1e, 0xf4, 0x57, 0xed, 0x2a, 0x42, 0xad, 0xca, 0xf8, 0x47,
  0x54, 0x3b, 0xc4, 0xaa, 0x56, 0x6a, 0xdc, 0xa4, 0x4d, 0x19, 0xa2, 0x00,
  0xd4, 0x25, 0x9e, 0xde, 0x59, 0xb0, 0x9f, 0xf4, 0xd7, 0xa9, 0x64, 0x08,
  0xdb, 0x28, 0x7f, 0x90, 0x2a, 0x96, 0xd9, 0xf4, 0xc7, 0xb4, 0x8e, 0xdc,
  0x1a, 0x81, 0xca, 0xbb, 0xd5, 0xaa, 0x8d, 0xd5, 0x48, 0x8f, 0xda, 0x4b,
  0x67, 0xe3, 0x56, 0x96, 0x98, 0xbd, 0x94, 0x92, 0x83, 0xaf, 0x9f, 0x20,
  0x22, 0xba, 0x92, 0x15, 0x23, 0xad, 0x0b, 0xb6, 0x49, 0xea, 0xfc, 0x55,
  0xe2, 0xac, 0xfa, 0x32, 0xc0, 0x43, 0x47, 0xe9, 0xa9, 0x4c, 0x5a, 0xaf,
  0x52, 0x37, 0x44, 0x15, 0x59, 0xa3, 0xf6, 0x92, 0x40, 0xed, 0xbd, 0x14,
  0x5a, 0xd7, 0xeb, 0x90, 0x1a, 0xf2, 0xec, 0xca, 0xdb, 0x9a, 0x21, 0xf7,
  0xf6, 0x0b, 0xa3, 0x20, 0x1a, 0x08, 0xe5, 0x49, 0x48, 0xfa, 0xf7, 0x07,
  0x40, 0x49, 0xd2, 0x68, 0xd9, 0xaa, 0xca, 0x03, 0x28, 0x05, 0x01, 0xca,
  0x05, 0x04, 0x60, 0xd6, 0xe6, 0xfe, 0xa7, 0x23, 0x63, 0x0b, 0x1a, 0xe0,
  0xc4, 0x45, 0x3c, 0xd6, 0x36, 0xda, 0x0b, 0xfd, 0xe2, 0xd5, 0x81, 0xa0,
  0xf9, 0x71, 0x38, 0x3b, 0xad, 0x44, 0xeb, 0xfd, 0x1e, 0xb1, 0xbd, 0x23,
  0x5a, 0xf8, 0xde, 0x71, 0x15, 0x42, 0x3f, 0xa5, 0xbb, 0xa1, 0x03, 0x1f,
  0xc8, 0x09, 0x8c, 0x28, 0x39, 0xe9, 0xb2, 0x8e, 0x18, 0x43, 0x8d, 0x24,
  0x45, 0xd0, 0x07, 0xda, 0x00, 0x18, 0xf8, 0x2f, 0xf2, 0xfa, 0x2d, 0x2b,
  0xfa, 0x95, 0x47, 0xe8, 0xb8, 0x1c, 0xd7, 0x1d, 0x29, 0x39, 0xb0, 0xc8,
  0xff, 0x4e, 0x61, 0xc1, 0x24, 0x02, 0xa3, 0x96, 0x6a, 0x11, 0x75, 0x10,
  0xbd, 0x81, 0x42, 0x9d, 0x08, 0x16, 0xda, 0xb9, 0x30, 0x7a, 0x92, 0xde,
  0x43, 0xc2, 0x61, 0xd4, 0x1a, 0xfc, 0x3f, 0xa0, 0x8f, 0x8a, 0xe6, 0xc9,
  0xff, 0x27, 0x39, 0xe6, 0x22, 0xaa, 0xed, 0xb0, 0xab, 0xf8, 0x02, 0xc5,
  0xf7, 0xa8, 0xba, 0x9a, 0x5a, 0xd2, 0x10, 0xd0, 0xeb, 0x4d, 0x3e, 0xf3,
  0xd1, 0xba, 0x28, 0x39, 0x2e, 0xa1, 0x8d, 0x44, 0xb2, 0x89, 0x3e, 0xa5,
  0x5f, 0x81, 0xb6, 0x02, 0x0f, 0x50, 0xec, 0x05, 0x25, 0xd1, 0xa1, 0xbf,
  0x9d, 0xdc, 0xd9, 0xd7, 0xf9, 0x8d, 0x55, 0x37, 0x95, 0xfa, 0x1a, 0x16,
  0xc3, 0x40, 0xf6, 0xcd, 0xae, 0xff, 0x1d, 0x1d, 0xc9, 0xe1, 0x73, 0xa4,
  0xa6, 0x3a, 0x2b, 0xe4, 0xe9, 0xdb, 0x07, 0xe4, 0x40, 0x36, 0x1c, 0x54,
  0xf7, 0x5a, 0x74, 0x81, 0x67, 0x48, 0x8f, 0x1d, 0xce, 0x10, 0xbc, 0x4a,
  0x55, 0xd6, 0xaf, 0xb7, 0xd3, 0xba, 0x05, 0x4e, 0x05, 0x73, 0xc0, 0xa3,
  0x15, 0xa2, 0x2b, 0x42, 0x73, 0xa3, 0xc2, 0x72, 0x70, 0xbf, 0xac, 0x5e,
  0xd5, 0x34, 0x52, 0x63, 0xf6, 0x39, 0xb7, 0x1c, 0x4c, 0x25, 0xc4, 0x22,
  0x42, 0xf4, 0xec, 0x55, 0x23, 0xc9, 0xf2, 0x13, 0x9c, 0xb2, 0xcd, 0xee,
  0xf0, 0x22, 0x2d, 0x06, 0xef, 0xbe, 0x81, 0xad, 0xb7, 0x24, 0xb1, 0x23,
  0xf5, 0x18, 0x28, 0x05, 0xae, 0xb1, 0xd3, 0xf0, 0x3c, 0x2b, 0x57, 0xfd,
  0x48, 0xd1, 0xc7, 0x26, 0xd8, 0x28, 0xd9, 0xc4, 0xe8, 0x05, 0x22, 0x48,
  0x3d, 0x2b, 0x3d, 0xb1, 0x0b, 0xd4, 0xfd, 0x1f, 0xa1, 0xa5, 0x1f, 0x02,
  0xbe, 0x3b, 0x13, 0xd2, 0xe0, 0x18, 0xd0, 0x39, 0xcc, 0xb8, 0x44, 0xb2,
  0x16, 0x00, 0x1c, 0x10, 0xc5, 0x8a, 0xab, 0x56, 0x3c, 0xe4, 0x68, 0xd1,
  0xe7, 0xf5, 0xf6, 0x3d, 0xfb, 0x8d, 0xbb, 0x92, 0x49, 0x60, 0x5b, 0x3d,
  0xcf, 0x23, 0x5e, 0xd1, 0x55, 0xec, 0xde, 0x95, 0x93, 0x20, 0x34, 0x26,
  0x1c, 0xf5, 0x62, 0xac, 0x96, 0x21, 0x91, 0x33, 0x47, 0xf7, 0x27, 0xbd,
  0xc9, 0x3b, 0x55, 0x5b, 0x33, 0x9f, 0x2e, 0xfe, 0xde, 0x44, 0x9d, 0xae,
  0x12, 0x3d, 0x01, 0xc8, 0x99, 0x91, 0xba, 0x56, 0x42, 0x98, 0xda, 0xcc,
  0x65, 0x81, 0x75, 0xbd, 0xbe, 0x07, 0x2a, 0x31, 0xd0, 0x26, 0xa1, 0x2c,
  0x0f, 0xbd, 0xdf, 0xf2, 0xa3, 0xa9, 0xf7, 0xf1, 0x33, 0xc2, 0xfa, 0xf0,
  0x1c, 0x0d, 0xc5, 0x11, 0x2c, 0x26, 0x33, 0xe4, 0x20, 0xe7, 0x2a, 0x2d,
  0xfe, 0x16, 0x4d, 0xd2, 0xec, 0x18, 0x07, 0xe1, 0xe0, 0xfb, 0xcf, 0xd8,
  0xef, 0xc6, 0x06, 0xf3, 0x0d, 0xd8, 0x81, 0xbe, 0x08, 0x18, 0xd1, 0x15,
  0x32, 0xe6, 0xdd, 0x06, 0x01, 0x03, 0x1d, 0x25, 0xd3, 0x0f, 0x2c, 0xf2,
  0xf3, 0x1b, 0x1c, 0xfb, 0xed, 0x8a, 0xf1, 0x20, 0x40, 0xa3, 0x50, 0x08,
  0x8c, 0xa2, 0x4f, 0xb1, 0x36, 0xc5, 0xf4, 0x06, 0x98, 0xea, 0x81, 0x9f,
  0x33, 0xab, 0xe5, 0xf2, 0xef, 0x93, 0xc7, 0x83, 0xe6, 0x41, 0x99, 0xff,
  0x31, 0x4d, 0x10, 0x21, 0x4f, 0xb7, 0xad, 0xe8, 0xd5, 0xf9, 0xde, 0x50,
  0xa7, 0xb0, 0x3a, 0x36, 0x0a, 0x25, 0x27, 0xd5, 0x07, 0xfe, 0x1e, 0x0e,
  0xb3, 0x27, 0x65, 0x87, 0x05, 0x28, 0x0e, 0x15, 0xbb, 0x4b, 0xf6, 0xf7,
  0xe7, 0x18, 0x4b, 0x2e, 0xdf, 0x24, 0x20, 0xf0, 0x6f, 0xbc, 0x22, 0x07,
  0xf5, 0x65, 0xc8, 0xf0, 0xa4, 0xd9, 0xbb, 0x16, 0xf5, 0x2e, 0x21, 0xe7,
  0x07, 0x9c, 0xa9, 0x0e, 0x19, 0x81, 0xfb, 0x66, 0x51, 0x2d, 0xc2, 0xbd,
  0x5c, 0x63, 0x95, 0xeb, 0xe7, 0x0a, 0x93, 0x9a, 0xc1, 0xa6, 0x55, 0x54,
  0x0e, 0xab, 0x44, 0x28, 0x8d, 0x9a, 0xaa, 0x43, 0x34, 0x98, 0xfe, 0xfc,
  0xd0, 0x15, 0x55, 0xf9, 0x8b, 0xec, 0x5d, 0x96, 0xab, 0x93, 0xd8, 0x98,
  0x96, 0xc8, 0x22, 0xd9, 0xb7, 0xc9, 0x0b, 0x03, 0x38, 0xa8, 0xed, 0x3d,
  0x4e, 0x43, 0xe1, 0x28, 0xa0, 0xb7, 0xec, 0x1c, 0xf4, 0x21, 0x31, 0x1d,
  0x1b, 0xdd, 0xfd, 0x06, 0xe6, 0xb0, 0xc4, 0xcf, 0xaf, 0x19, 0xe5, 0x51,
  0xc3, 0xc1, 0xaa, 0x2f, 0x4c, 0x26, 0xc3, 0xbf, 0x4b, 0xac, 0x34, 0xb2,
  0xcb, 0xe8, 0xc7, 0xae, 0xfb, 0x00, 0x47, 0x32, 0xd7, 0x21, 0xb2, 0x0c,
  0xba, 0xbc, 0xd1, 0x25, 0x9c, 0xf5, 0x81, 0xfc, 0xd4, 0xdb, 0xb7, 0xd3,
  0xad, 0x0a, 0xda, 0xd8, 0xbe, 0x9c, 0xfa, 0xaa, 0x42, 0x9e, 0x82, 0x42,
  0x45, 0x06, 0x61, 0xc9, 0x5e, 0x37, 0xcb, 0x21, 0xe0, 0x93, 0xfa, 0x29,
  0xd9, 0xb0, 0xc9, 0x10, 0x0c, 0x28, 0xc4, 0x26, 0x55, 0xe6, 0xdc, 0x19,
  0x31, 0xcf, 0x5a, 0x0f, 0x09, 0xbc, 0x99, 0xe5, 0x9b, 0x34, 0x92, 0xb5,
  0x07, 0x30, 0x81, 0x49, 0xf2, 0xc1, 0x03, 0xd1, 0x52, 0xd7, 0xb5, 0xd8,
  0xa1, 0xff, 0xed, 0x48, 0x0a, 0x28, 0xa9, 0x8e, 0x9a, 0xe6, 0x3b, 0x3f,
  0x46, 0x0f, 0x54, 0xb5, 0x76, 0xfe, 0xff, 0xff, 0x04, 0x00, 0x00, 0x00,
  0x18, 0x00, 0x00, 0x00, 0xe3, 0x3a, 0x05, 0x00, 0x24, 0xf0, 0xd4, 0xe7,
  0x38, 0x80, 0x1c, 0x11, 0xfe, 0x27, 0xc5, 0xf6, 0x45, 0xec, 0x23, 0x94,
  0xf7, 0x22, 0xbd, 0xfb, 0x9a, 0xfe, 0xff, 0xff, 0x04, 0x00, 0x00, 0x00,
  0x18, 0x00, 0x00, 0x00, 0xd9, 0x3a, 0x55, 0x88, 0x4f, 0xc3, 0x81, 0x86,
  0x71, 0x19, 0xec, 0x16, 0xcb, 0xf6, 0x12, 0xf6, 0x44, 0x3f, 0x1e, 0xea,
  0x99, 0xff, 0x9b, 0x88, 0xbe, 0xfe, 0xff, 0xff, 0x04, 0x00, 0x00, 0x00,
  0x04, 0x00, 0x00, 0x00, 0xf1, 0x02, 0x00, 0x00, 0xce, 0xfe, 0xff, 0xff,
  0x04, 0x00, 0x00, 0x00, 0x0c, 0x00, 0x00, 0x00, 0x01, 0x00, 0x00, 0x00,
  0x01, 0x00, 0x00, 0x00, 0x01, 0x00, 0x00, 0x00, 0xe6, 0xfe, 0xff, 0xff,
  0x04, 0x00, 0x00, 0x00, 0x0c, 0x00, 0x00, 0x00, 0x00, 0x00, 0x00, 0x00,
  0x00, 0x00, 0x00, 0x00, 0x00, 0x00, 0x00, 0x00, 0xfe, 0xfe, 0xff, 0xff,
  0x04, 0x00, 0x00, 0x00, 0x0c, 0x00, 0x00, 0x00, 0x00, 0x00, 0x00, 0x00,
  0xff, 0xff, 0xff, 0xff, 0x00, 0x00, 0x00, 0x00, 0x16, 0xff, 0xff, 0xff,
  0x04, 0x00, 0x00, 0x00, 0x0c, 0x00, 0x00, 0x00, 0xff, 0xff, 0xff, 0xff,
  0x06, 0x00, 0x00, 0x00, 0x18, 0x00, 0x00, 0x00, 0x2e, 0xff, 0xff, 0xff,
  0x04, 0x00, 0x00, 0x00, 0x04, 0x00, 0x00, 0x00, 0x04, 0x00, 0x00, 0x00,
  0x3e, 0xff, 0xff, 0xff, 0x04, 0x00, 0x00, 0x00, 0x18, 0x00, 0x00, 0x00,
  0x00, 0x00, 0x00, 0x00, 0x00, 0x00, 0x00, 0x00, 0x08, 0x00, 0x00, 0x00,
  0x00, 0x00, 0x00, 0x00, 0x00, 0x00, 0x00, 0x00, 0x00, 0x00, 0x00, 0x00,
  0x62, 0xff, 0xff, 0xff, 0x04, 0x00, 0x00, 0x00, 0x0c, 0x00, 0x00, 0x00,
  0xff, 0xff, 0xff, 0xff, 0x0c, 0x00, 0x00, 0x00, 0x18, 0x00, 0x00, 0x00,
  0x7a, 0xff, 0xff, 0xff, 0x04, 0x00, 0x00, 0x00, 0x08, 0x00, 0x00, 0x00,
  0x00, 0x00, 0x00, 0x00, 0x00, 0x00, 0x00, 0x00, 0x8e, 0xff, 0xff, 0xff,
  0x04, 0x00, 0x00, 0x00, 0x04, 0x00, 0x00, 0x00, 0x02, 0x00, 0x00, 0x00,
  0x9e, 0xff, 0xff, 0xff, 0x04, 0x00, 0x00, 0x00, 0x18, 0x00, 0x00, 0x00,
  0x00, 0x00, 0x00, 0x00, 0x00, 0x00, 0x00, 0x00, 0x04, 0x00, 0x00, 0x00,
  0x00, 0x00, 0x00, 0x00, 0x00, 0x00, 0x00, 0x00, 0x00, 0x00, 0x00, 0x00,
  0xc2, 0xff, 0xff, 0xff, 0x04, 0x00, 0x00, 0x00, 0x18, 0x00, 0x00, 0x00,
  0x00, 0x00, 0x00, 0x00, 0x00, 0x00, 0x00, 0x00, 0x02, 0x00, 0x00, 0x00,
  0x00, 0x00, 0x00, 0x00, 0x00, 0x00, 0x00, 0x00, 0x00, 0x00, 0x00, 0x00,
  0xe6, 0xff, 0xff, 0xff, 0x04, 0x00, 0x00, 0x00, 0x0c, 0x00, 0x00, 0x00,
  0xff, 0xff, 0xff, 0xff, 0x18, 0x00, 0x00, 0x00, 0x18, 0x00, 0x00, 0x00,
  0x00, 0x00, 0x06, 0x00, 0x08, 0x00, 0x04, 0x00, 0x06, 0x00, 0x00, 0x00,
  0x04, 0x00, 0x00, 0x00, 0x04, 0x00, 0x00, 0x00, 0xfd, 0xff, 0xff, 0xff,
  0xd8, 0xbe, 0xff, 0xff, 0xdc, 0xbe, 0xff, 0xff, 0x0f, 0x00, 0x00, 0x00,
  0x4d, 0x4c, 0x49, 0x52, 0x20, 0x43, 0x6f, 0x6e, 0x76, 0x65, 0x72, 0x74,
  0x65, 0x64, 0x2e, 0x00, 0x01, 0x00, 0x00, 0x00, 0x14, 0x00, 0x00, 0x00,
  0x00, 0x00, 0x0e, 0x00, 0x18, 0x00, 0x14, 0x00, 0x10, 0x00, 0x0c, 0x00,
  0x08, 0x00, 0x04, 0x00, 0x0e, 0x00, 0x00, 0x00, 0x14, 0x00, 0x00, 0x00,
  0x1c, 0x00, 0x00, 0x00, 0x60, 0x09, 0x00, 0x00, 0x64, 0x09, 0x00, 0x00,
  0x68, 0x09, 0x00, 0x00, 0x04, 0x00, 0x00, 0x00, 0x6d, 0x61, 0x69, 0x6e,
  0x00, 0x00, 0x00, 0x00, 0x2c, 0x00, 0x00, 0x00, 0x18, 0x09, 0x00, 0x00,
  0xbc, 0x08, 0x00, 0x00, 0x84, 0x08, 0x00, 0x00, 0x44, 0x08, 0x00, 0x00,
  0x14, 0x08, 0x00, 0x00, 0xc0, 0x07, 0x00, 0x00, 0x98, 0x07, 0x00, 0x00,
  0x64, 0x07, 0x00, 0x00, 0x34, 0x07, 0x00, 0x00, 0xec, 0x06, 0x00, 0x00,
  0xb8, 0x06, 0x00, 0x00, 0x90, 0x06, 0x00, 0x00, 0x5c, 0x06, 0x00, 0x00,
  0x30, 0x06, 0x00, 0x00, 0x00, 0x06, 0x00, 0x00, 0xb0, 0x05, 0x00, 0x00,
  0x88, 0x05, 0x00, 0x00, 0x5c, 0x05, 0x00, 0x00, 0x1c, 0x05, 0x00, 0x00,
  0xe8, 0x04, 0x00, 0x00, 0xbc, 0x04, 0x00, 0x00, 0x8c, 0x04, 0x00, 0x00,
  0x48, 0x04, 0x00, 0x00, 0x20, 0x04, 0x00, 0x00, 0xf4, 0x03, 0x00, 0x00,
  0xbc, 0x03, 0x00, 0x00, 0x88, 0x03, 0x00, 0x00, 0x54, 0x03, 0x00, 0x00,
  0x28, 0x03, 0x00, 0x00, 0xf8, 0x02, 0x00, 0x00, 0xb4, 0x02, 0x00, 0x00,
  0x8c, 0x02, 0x00, 0x00, 0x60, 0x02, 0x00, 0x00, 0x28, 0x02, 0x00, 0x00,
  0xf4, 0x01, 0x00, 0x00, 0xc8, 0x01, 0x00, 0x00, 0x98, 0x01, 0x00, 0x00,
  0x54, 0x01, 0x00, 0x00, 0x2c, 0x01, 0x00, 0x00, 0x00, 0x01, 0x00, 0x00,
  0xc8, 0x00, 0x00, 0x00, 0x94, 0x00, 0x00, 0x00, 0x3c, 0x00, 0x00, 0x00,
  0x04, 0x00, 0x00, 0x00, 0xfe, 0xf7, 0xff, 0xff, 0x14, 0x00, 0x00, 0x00,
  0x00, 0x00, 0x00, 0x08, 0x10, 0x00, 0x00, 0x00, 0x14, 0x00, 0x00, 0x00,
  0x08, 0x00, 0x00, 0x00, 0xfc, 0xbf, 0xff, 0xff, 0x01, 0x00, 0x00, 0x00,
  0x4d, 0x00, 0x00, 0x00, 0x03, 0x00, 0x00, 0x00, 0x4c, 0x00, 0x00, 0x00,
  0x0f, 0x00, 0x00, 0x00, 0x0e, 0x00, 0x00, 0x00, 0x32, 0xf8, 0xff, 0xff,
  0x24, 0x00, 0x00, 0x00, 0x00, 0x00, 0x00, 0x20, 0x2c, 0x00, 0x00, 0x00,
  0x30, 0x00, 0x00, 0x00, 0x07, 0x00, 0x00, 0x00, 0x00, 0x00, 0x0e, 0x00,
  0x10, 0x00, 0x0c, 0x00, 0x08, 0x00, 0x00, 0x00, 0x00, 0x00, 0x04, 0x00,
  0x0e, 0x00, 0x00, 0x00, 0x02, 0x00, 0x00, 0x00, 0x05, 0x00, 0x00, 0x00,
  0x05, 0x00, 0x00, 0x00, 0x01, 0x00, 0x00, 0x00, 0x4c, 0x00, 0x00, 0x00,
  0x04, 0x00, 0x00, 0x00, 0x4b, 0x00, 0x00, 0x00, 0x0b, 0x00, 0x00, 0x00,
  0x0c, 0x00, 0x00, 0x00, 0x0d, 0x00, 0x00, 0x00, 0x86, 0xf8, 0xff, 0xff,
  0x14, 0x00, 0x00, 0x00, 0x00, 0x00, 0x00, 0x0b, 0x10, 0x00, 0x00, 0x00,
  0x14, 0x00, 0x00, 0x00, 0x04, 0x00, 0x00, 0x00, 0x84, 0xc0, 0xff, 0xff,
  0x01, 0x00, 0x00, 0x00, 0x4b, 0x00, 0x00, 0x00, 0x02, 0x00, 0x00, 0x00,
  0x3c, 0x00, 0x00, 0x00, 0x4a, 0x00, 0x00, 0x00, 0xb6, 0xf8, 0xff, 0xff,
  0x14, 0x00, 0x00, 0x00, 0x00, 0x00, 0x00, 0x0b, 0x14, 0x00, 0x00, 0x00,
  0x18, 0x00, 0x00, 0x00, 0x04, 0x00, 0x00, 0x00, 0x02, 0xfc, 0xff, 0xff,
  0x00, 0x00, 0x00, 0x01, 0x01, 0x00, 0x00, 0x00, 0x4a, 0x00, 0x00, 0x00,
  0x02, 0x00, 0x00, 0x00, 0x49, 0x00, 0x00, 0x00, 0x10, 0x00, 0x00, 0x00,
  0x1a, 0xf9, 0xff, 0xff, 0x0c, 0x00, 0x00, 0x00, 0x10, 0x00, 0x00, 0x00,
  0x06, 0x00, 0x00, 0x00, 0x01, 0x00, 0x00, 0x00, 0x49, 0x00, 0x00, 0x00,
  0x03, 0x00, 0x00, 0x00, 0x48, 0x00, 0x00, 0x00, 0x09, 0x00, 0x00, 0x00,
  0x06, 0x00, 0x00, 0x00, 0x42, 0xf9, 0xff, 0xff, 0x0c, 0x00, 0x00, 0x00,
  0x10, 0x00, 0x00, 0x00, 0x02, 0x00, 0x00, 0x00, 0x01, 0x00, 0x00, 0x00,
  0x48, 0x00, 0x00, 0x00, 0x02, 0x00, 0x00, 0x00, 0x47, 0x00, 0x00, 0x00,
  0x0a, 0x00, 0x00, 0x00, 0x36, 0xf9, 0xff, 0xff, 0x14, 0x00, 0x00, 0x00,
  0x00, 0x00, 0x00, 0x01, 0x1c, 0x00, 0x00, 0x00, 0x20, 0x00, 0x00, 0x00,
  0x01, 0x00, 0x00, 0x00, 0xfa, 0xfb, 0xff, 0xff, 0x01, 0x00, 0x00, 0x00,
  0x01, 0x00, 0x00, 0x00, 0x00, 0x00, 0x00, 0x01, 0x01, 0x00, 0x00, 0x00,
  0x47, 0x00, 0x00, 0x00, 0x03, 0x00, 0x00, 0x00, 0x46, 0x00, 0x00, 0x00,
  0x11, 0x00, 0x00, 0x00, 0x1a, 0x00, 0x00, 0x00, 0x1e, 0xf9, 0xff, 0xff,
  0x10, 0x00, 0x00, 0x00, 0x00, 0x00, 0x00, 0x34, 0x0c, 0x00, 0x00, 0x00,
  0x10, 0x00, 0x00, 0x00, 0x70, 0xc1, 0xff, 0xff, 0x01, 0x00, 0x00, 0x00,
  0x46, 0x00, 0x00, 0x00, 0x02, 0x00, 0x00, 0x00, 0x45, 0x00, 0x00, 0x00,
  0x01, 0x00, 0x00, 0x00, 0xd2, 0xf9, 0xff, 0xff, 0x0c, 0x00, 0x00, 0x00,
  0x10, 0x00, 0x00, 0x00, 0x05, 0x00, 0x00, 0x00, 0x01, 0x00, 0x00, 0x00,
  0x45, 0x00, 0x00, 0x00, 0x03, 0x00, 0x00, 0x00, 0x44, 0x00, 0x00, 0x00,
  0x09, 0x00, 0x00, 0x00, 0x06, 0x00, 0x00, 0x00, 0xca, 0xf9, 0xff, 0xff,
  0x14, 0x00, 0x00, 0x00, 0x00, 0x00, 0x00, 0x16, 0x10, 0x00, 0x00, 0x00,
  0x14, 0x00, 0x00, 0x00, 0x03, 0x00, 0x00, 0x00, 0xc8, 0xc1, 0xff, 0xff,
  0x01, 0x00, 0x00, 0x00, 0x44, 0x00, 0x00, 0x00, 0x02, 0x00, 0x00, 0x00,
  0x43, 0x00, 0x00, 0x00, 0x08, 0x00, 0x00, 0x00, 0xfa, 0xf9, 0xff, 0xff,
  0x14, 0x00, 0x00, 0x00, 0x00, 0x00, 0x00, 0x0b, 0x14, 0x00, 0x00, 0x00,
  0x18, 0x00, 0x00, 0x00, 0x04, 0x00, 0x00, 0x00, 0x46, 0xfd, 0xff, 0xff,
  0x00, 0x00, 0x00, 0x01, 0x01, 0x00, 0x00, 0x00, 0x43, 0x00, 0x00, 0x00,
  0x02, 0x00, 0x00, 0x00, 0x42, 0x00, 0x00, 0x00, 0x12, 0x00, 0x00, 0x00,
  0x5e, 0xfa, 0xff, 0xff, 0x0c, 0x00, 0x00, 0x00, 0x10, 0x00, 0x00, 0x00,
  0x06, 0x00, 0x00, 0x00, 0x01, 0x00, 0x00, 0x00, 0x42, 0x00, 0x00, 0x00,
  0x03, 0x00, 0x00, 0x00, 0x41, 0x00, 0x00, 0x00, 0x09, 0x00, 0x00, 0x00,
  0x06, 0x00, 0x00, 0x00, 0x86, 0xfa, 0xff, 0xff, 0x0c, 0x00, 0x00, 0x00,
  0x10, 0x00, 0x00, 0x00, 0x02, 0x00, 0x00, 0x00, 0x01, 0x00, 0x00, 0x00,
  0x41, 0x00, 0x00, 0x00, 0x02, 0x00, 0x00, 0x00, 0x40, 0x00, 0x00, 0x00,
  0x0a, 0x00, 0x00, 0x00, 0x7a, 0xfa, 0xff, 0xff, 0x14, 0x00, 0x00, 0x00,
  0x00, 0x00, 0x00, 0x01, 0x1c, 0x00, 0x00, 0x00, 0x20, 0x00, 0x00, 0x00,
  0x01, 0x00, 0x00, 0x00, 0x3e, 0xfd, 0xff, 0xff, 0x01, 0x00, 0x00, 0x00,
  0x01, 0x00, 0x00, 0x00, 0x00, 0x00, 0x00, 0x01, 0x01, 0x00, 0x00, 0x00,
  0x40, 0x00, 0x00, 0x00, 0x03, 0x00, 0x00, 0x00, 0x3f, 0x00, 0x00, 0x00,
  0x13, 0x00, 0x00, 0x00, 0x19, 0x00, 0x00, 0x00, 0x62, 0xfa, 0xff, 0xff,
  0x10, 0x00, 0x00, 0x00, 0x00, 0x00, 0x00, 0x34, 0x0c, 0x00, 0x00, 0x00,
  0x10, 0x00, 0x00, 0x00, 0xb4, 0xc2, 0xff, 0xff, 0x01, 0x00, 0x00, 0x00,
  0x3f, 0x00, 0x00, 0x00, 0x02, 0x00, 0x00, 0x00, 0x3e, 0x00, 0x00, 0x00,
  0x01, 0x00, 0x00, 0x00, 0x16, 0xfb, 0xff, 0xff, 0x0c, 0x00, 0x00, 0x00,
  0x10, 0x00, 0x00, 0x00, 0x05, 0x00, 0x00, 0x00, 0x01, 0x00, 0x00, 0x00,
  0x3e, 0x00, 0x00, 0x00, 0x03, 0x00, 0x00, 0x00, 0x3d, 0x00, 0x00, 0x00,
  0x09, 0x00, 0x00, 0x00, 0x06, 0x00, 0x00, 0x00, 0x0e, 0xfb, 0xff, 0xff,
  0x14, 0x00, 0x00, 0x00, 0x00, 0x00, 0x00, 0x16, 0x10, 0x00, 0x00, 0x00,
  0x14, 0x00, 0x00, 0x00, 0x03, 0x00, 0x00, 0x00, 0x0c, 0xc3, 0xff, 0xff,
  0x01, 0x00, 0x00, 0x00, 0x3d, 0x00, 0x00, 0x00, 0x02, 0x00, 0x00, 0x00,
  0x3c, 0x00, 0x00, 0x00, 0x08, 0x00, 0x00, 0x00, 0x3e, 0xfb, 0xff, 0xff,
  0x14, 0x00, 0x00, 0x00, 0x00, 0x00, 0x00, 0x0b, 0x10, 0x00, 0x00, 0x00,
  0x14, 0x00, 0x00, 0x00, 0x04, 0x00, 0x00, 0x00, 0x3c, 0xc3, 0xff, 0xff,
  0x01, 0x00, 0x00, 0x00, 0x3c, 0x00, 0x00, 0x00, 0x02, 0x00, 0x00, 0x00,
  0x2d, 0x00, 0x00, 0x00, 0x3b, 0x00, 0x00, 0x00, 0x6e, 0xfb, 0xff, 0xff,
  0x14, 0x00, 0x00, 0x00, 0x00, 0x00, 0x00, 0x0b, 0x14, 0x00, 0x00, 0x00,
  0x18, 0x00, 0x00, 0x00, 0x04, 0x00, 0x00, 0x00, 0xba, 0xfe, 0xff, 0xff,
  0x00, 0x00, 0x00, 0x01, 0x01, 0x00, 0x00, 0x00, 0x3b, 0x00, 0x00, 0x00,
  0x02, 0x00, 0x00, 0x00, 0x3a, 0x00, 0x00, 0x00, 0x14, 0x00, 0x00, 0x00,
  0xd2, 0xfb, 0xff, 0xff, 0x0c, 0x00, 0x00, 0x00, 0x10, 0x00, 0x00, 0x00,
  0x06, 0x00, 0x00, 0x00, 0x01, 0x00, 0x00, 0x00, 0x3a, 0x00, 0x00, 0x00,
  0x03, 0x00, 0x00, 0x00, 0x39, 0x00, 0x00, 0x00, 0x05, 0x00, 0x00, 0x00,
  0x06, 0x00, 0x00, 0x00, 0xfa, 0xfb, 0xff, 0xff, 0x0c, 0x00, 0x00, 0x00,
  0x10, 0x00, 0x00, 0x00, 0x02, 0x00, 0x00, 0x00, 0x01, 0x00, 0x00, 0x00,
  0x39, 0x00, 0x00, 0x00, 0x02, 0x00, 0x00, 0x00, 0x38, 0x00, 0x00, 0x00,
  0x07, 0x00, 0x00, 0x00, 0xee, 0xfb, 0xff, 0xff, 0x14, 0x00, 0x00, 0x00,
  0x00, 0x00, 0x00, 0x01, 0x1c, 0x00, 0x00, 0x00, 0x20, 0x00, 0x00, 0x00,
  0x01, 0x00, 0x00, 0x00, 0xb2, 0xfe, 0xff, 0xff, 0x01, 0x00, 0x00, 0x00,
  0x01, 0x00, 0x00, 0x00, 0x00, 0x00, 0x00, 0x01, 0x01, 0x00, 0x00, 0x00,
  0x38, 0x00, 0x00, 0x00, 0x03, 0x00, 0x00, 0x00, 0x37, 0x00, 0x00, 0x00,
  0x15, 0x00, 0x00, 0x00, 0x18, 0x00, 0x00, 0x00, 0xd6, 0xfb, 0xff, 0xff,
  0x10, 0x00, 0x00, 0x00, 0x00, 0x00, 0x00, 0x34, 0x0c, 0x00, 0x00, 0x00,
  0x10, 0x00, 0x00, 0x00, 0x28, 0xc4, 0xff, 0xff, 0x01, 0x00, 0x00, 0x00,
  0x37, 0x00, 0x00, 0x00, 0x02, 0x00, 0x00, 0x00, 0x36, 0x00, 0x00, 0x00,
  0x01, 0x00, 0x00, 0x00, 0x8a, 0xfc, 0xff, 0xff, 0x0c, 0x00, 0x00, 0x00,
  0x10, 0x00, 0x00, 0x00, 0x05, 0x00, 0x00, 0x00, 0x01, 0x00, 0x00, 0x00,
  0x36, 0x00, 0x00, 0x00, 0x03, 0x00, 0x00, 0x00, 0x35, 0x00, 0x00, 0x00,
  0x05, 0x00, 0x00, 0x00, 0x06, 0x00, 0x00, 0x00, 0x82, 0xfc, 0xff, 0xff,
  0x14, 0x00, 0x00, 0x00, 0x00, 0x00, 0x00, 0x16, 0x10, 0x00, 0x00, 0x00,
  0x14, 0x00, 0x00, 0x00, 0x03, 0x00, 0x00, 0x00, 0x80, 0xc4, 0xff, 0xff,
  0x01, 0x00, 0x00, 0x00, 0x35, 0x00, 0x00, 0x00, 0x02, 0x00, 0x00, 0x00,
  0x34, 0x00, 0x00, 0x00, 0x04, 0x00, 0x00, 0x00, 0xb2, 0xfc, 0xff, 0xff,
  0x1c, 0x00, 0x00, 0x00, 0x00, 0x00, 0x00, 0x0b, 0x1c, 0x00, 0x00, 0x00,
  0x20, 0x00, 0x00, 0x00, 0x04, 0x00, 0x00, 0x00, 0x00, 0x00, 0x06, 0x00,
  0x08, 0x00, 0x07, 0x00, 0x06, 0x00, 0x00, 0x00, 0x00, 0x00, 0x00, 0x01,
  0x01, 0x00, 0x00, 0x00, 0x34, 0x00, 0x00, 0x00, 0x02, 0x00, 0x00, 0x00,
  0x33, 0x00, 0x00, 0x00, 0x16, 0x00, 0x00, 0x00, 0x1e, 0xfd, 0xff, 0xff,
  0x0c, 0x00, 0x00, 0x00, 0x10, 0x00, 0x00, 0x00, 0x06, 0x00, 0x00, 0x00,
  0x01, 0x00, 0x00, 0x00, 0x33, 0x00, 0x00, 0x00, 0x03, 0x00, 0x00, 0x00,
  0x32, 0x00, 0x00, 0x00, 0x05, 0x00, 0x00, 0x00, 0x06, 0x00, 0x00, 0x00,
  0x46, 0xfd, 0xff, 0xff, 0x0c, 0x00, 0x00, 0x00, 0x10, 0x00, 0x00, 0x00,
  0x02, 0x00, 0x00, 0x00, 0x01, 0x00, 0x00, 0x00, 0x32, 0x00, 0x00, 0x00,
  0x02, 0x00, 0x00, 0x00, 0x31, 0x00, 0x00, 0x00, 0x07, 0x00, 0x00, 0x00,
  0x3a, 0xfd, 0xff, 0xff, 0x20, 0x00, 0x00, 0x00, 0x00, 0x00, 0x00, 0x01,
  0x28, 0x00, 0x00, 0x00, 0x2c, 0x00, 0x00, 0x00, 0x01, 0x00, 0x00, 0x00,
  0x00, 0x00, 0x0a, 0x00, 0x10, 0x00, 0x0f, 0x00, 0x08, 0x00, 0x04, 0x00,
  0x0a, 0x00, 0x00, 0x00, 0x01, 0x00, 0x00, 0x00, 0x01, 0x00, 0x00, 0x00,
  0x00, 0x00, 0x00, 0x01, 0x01, 0x00, 0x00, 0x00, 0x31, 0x00, 0x00, 0x00,
  0x03, 0x00, 0x00, 0x00, 0x30, 0x00, 0x00, 0x00, 0x1b, 0x00, 0x00, 0x00,
  0x17, 0x00, 0x00, 0x00, 0x2e, 0xfd, 0xff, 0xff, 0x10, 0x00, 0x00, 0x00,
  0x00, 0x00, 0x00, 0x34, 0x0c, 0x00, 0x00, 0x00, 0x10, 0x00, 0x00, 0x00,
  0x80, 0xc5, 0xff, 0xff, 0x01, 0x00, 0x00, 0x00, 0x30, 0x00, 0x00, 0x00,
  0x02, 0x00, 0x00, 0x00, 0x2f, 0x00, 0x00, 0x00, 0x01, 0x00, 0x00, 0x00,
  0xe2, 0xfd, 0xff, 0xff, 0x0c, 0x00, 0x00, 0x00, 0x10, 0x00, 0x00, 0x00,
  0x05, 0x00, 0x00, 0x00, 0x01, 0x00, 0x00, 0x00, 0x2f, 0x00, 0x00, 0x00,
  0x03, 0x00, 0x00, 0x00, 0x2e, 0x00, 0x00, 0x00, 0x05, 0x00, 0x00, 0x00,
  0x06, 0x00, 0x00, 0x00, 0xda, 0xfd, 0xff, 0xff, 0x14, 0x00, 0x00, 0x00,
  0x00, 0x00, 0x00, 0x16, 0x10, 0x00, 0x00, 0x00, 0x14, 0x00, 0x00, 0x00,
  0x03, 0x00, 0x00, 0x00, 0xd8, 0xc5, 0xff, 0xff, 0x01, 0x00, 0x00, 0x00,
  0x2e, 0x00, 0x00, 0x00, 0x02, 0x00, 0x00, 0x00, 0x2d, 0x00, 0x00, 0x00,
  0x04, 0x00, 0x00, 0x00, 0x3a, 0xfe, 0xff, 0xff, 0x0c, 0x00, 0x00, 0x00,
  0x10, 0x00, 0x00, 0x00, 0x02, 0x00, 0x00, 0x00, 0x01, 0x00, 0x00, 0x00,
  0x2d, 0x00, 0x00, 0x00, 0x02, 0x00, 0x00, 0x00, 0x2c, 0x00, 0x00, 0x00,
  0x02, 0x00, 0x00, 0x00, 0x2e, 0xfe, 0xff, 0xff, 0x14, 0x00, 0x00, 0x00,
  0x00, 0x00, 0x00, 0x0b, 0x10, 0x00, 0x00, 0x00, 0x14, 0x00, 0x00, 0x00,
  0x04, 0x00, 0x00, 0x00, 0x2c, 0xc6, 0xff, 0xff, 0x01, 0x00, 0x00, 0x00,
  0x2c, 0x00, 0x00, 0x00, 0x02, 0x00, 0x00, 0x00, 0x23, 0x00, 0x00, 0x00,
  0x2b, 0x00, 0x00, 0x00, 0x5e, 0xfe, 0xff, 0xff, 0x14, 0x00, 0x00, 0x00,
  0x00, 0x00, 0x00, 0x01, 0x20, 0x00, 0x00, 0x00, 0x24, 0x00, 0x00, 0x00,
  0x01, 0x00, 0x00, 0x00, 0x3c, 0xff, 0xff, 0xff, 0x00, 0x00, 0x00, 0x01,
  0x01, 0x00, 0x00, 0x00, 0x01, 0x00, 0x00, 0x00, 0x00, 0x00, 0x00, 0x01,
  0x01, 0x00, 0x00, 0x00, 0x2b, 0x00, 0x00, 0x00, 0x03, 0x00, 0x00, 0x00,
  0x2a, 0x00, 0x00, 0x00, 0x1d, 0x00, 0x00, 0x00, 0x1c, 0x00, 0x00, 0x00,
  0x4a, 0xfe, 0xff, 0xff, 0x10, 0x00, 0x00, 0x00, 0x00, 0x00, 0x00, 0x34,
  0x0c, 0x00, 0x00, 0x00, 0x10, 0x00, 0x00, 0x00, 0x9c, 0xc6, 0xff, 0xff,
  0x01, 0x00, 0x00, 0x00, 0x2a, 0x00, 0x00, 0x00, 0x02, 0x00, 0x00, 0x00,
  0x29, 0x00, 0x00, 0x00, 0x01, 0x00, 0x00, 0x00, 0xce, 0xfe, 0xff, 0xff,
  0x14, 0x00, 0x00, 0x00, 0x00, 0x00, 0x00, 0x16, 0x10, 0x00, 0x00, 0x00,
  0x14, 0x00, 0x00, 0x00, 0x03, 0x00, 0x00, 0x00, 0xcc, 0xc6, 0xff, 0xff,
  0x01, 0x00, 0x00, 0x00, 0x29, 0x00, 0x00, 0x00, 0x02, 0x00, 0x00, 0x00,
  0x28, 0x00, 0x00, 0x00, 0x03, 0x00, 0x00, 0x00, 0x2e, 0xff, 0xff, 0xff,
  0x0c, 0x00, 0x00, 0x00, 0x10, 0x00, 0x00, 0x00, 0x02, 0x00, 0x00, 0x00,
  0x01, 0x00, 0x00, 0x00, 0x28, 0x00, 0x00, 0x00, 0x02, 0x00, 0x00, 0x00,
  0x27, 0x00, 0x00, 0x00, 0x02, 0x00, 0x00, 0x00, 0x22, 0xff, 0xff, 0xff,
  0x20, 0x00, 0x00, 0x00, 0x00, 0x00, 0x00, 0x01, 0x2c, 0x00, 0x00, 0x00,
  0x30, 0x00, 0x00, 0x00, 0x01, 0x00, 0x00, 0x00, 0x0c, 0x00, 0x14, 0x00,
  0x13, 0x00, 0x0c, 0x00, 0x08, 0x00, 0x07, 0x00, 0x0c, 0x00, 0x00, 0x00,
  0x00, 0x00, 0x00, 0x01, 0x01, 0x00, 0x00, 0x00, 0x01, 0x00, 0x00, 0x00,
  0x00, 0x00, 0x00, 0x01, 0x01, 0x00, 0x00, 0x00, 0x27, 0x00, 0x00, 0x00,
  0x03, 0x00, 0x00, 0x00, 0x26, 0x00, 0x00, 0x00, 0x1f, 0x00, 0x00, 0x00,
  0x1e, 0x00, 0x00, 0x00, 0x1a, 0xff, 0xff, 0xff, 0x10, 0x00, 0x00, 0x00,
  0x00, 0x00, 0x00, 0x34, 0x0c, 0x00, 0x00, 0x00, 0x10, 0x00, 0x00, 0x00,
  0x6c, 0xc7, 0xff, 0xff, 0x01, 0x00, 0x00, 0x00, 0x26, 0x00, 0x00, 0x00,
  0x02, 0x00, 0x00, 0x00, 0x25, 0x00, 0x00, 0x00, 0x01, 0x00, 0x00, 0x00,
  0x9e, 0xff, 0xff, 0xff, 0x14, 0x00, 0x00, 0x00, 0x00, 0x00, 0x00, 0x16,
  0x10, 0x00, 0x00, 0x00, 0x14, 0x00, 0x00, 0x00, 0x03, 0x00, 0x00, 0x00,
  0x9c, 0xc7, 0xff, 0xff, 0x01, 0x00, 0x00, 0x00, 0x25, 0x00, 0x00, 0x00,
  0x02, 0x00, 0x00, 0x00, 0x24, 0x00, 0x00, 0x00, 0x03, 0x00, 0x00, 0x00,
  0x00, 0x00, 0x0a, 0x00, 0x10, 0x00, 0x0c, 0x00, 0x08, 0x00, 0x04, 0x00,
  0x0a, 0x00, 0x00, 0x00, 0x0c, 0x00, 0x00, 0x00, 0x10, 0x00, 0x00, 0x00,
  0x02, 0x00, 0x00, 0x00, 0x01, 0x00, 0x00, 0x00, 0x24, 0x00, 0x00, 0x00,
  0x02, 0x00, 0x00, 0x00, 0x23, 0x00, 0x00, 0x00, 0x02, 0x00, 0x00, 0x00,
  0x00, 0x00, 0x0e, 0x00, 0x1a, 0x00, 0x14, 0x00, 0x10, 0x00, 0x0c, 0x00,
  0x0b, 0x00, 0x04, 0x00, 0x0e, 0x00, 0x00, 0x00, 0x20, 0x00, 0x00, 0x00,
  0x00, 0x00, 0x00, 0x01, 0x24, 0x00, 0x00, 0x00, 0x28, 0x00, 0x00, 0x00,
  0x01, 0x00, 0x00, 0x00, 0x00, 0x00, 0x0a, 0x00, 0x0c, 0x00, 0x00, 0x00,
  0x08, 0x00, 0x04, 0x00, 0x0a, 0x00, 0x00, 0x00, 0x01, 0x00, 0x00, 0x00,
  0x01, 0x00, 0x00, 0x00, 0x01, 0x00, 0x00, 0x00, 0x23, 0x00, 0x00, 0x00,
  0x03, 0x00, 0x00, 0x00, 0x22, 0x00, 0x00, 0x00, 0x21, 0x00, 0x00, 0x00,
  0x20, 0x00, 0x00, 0x00, 0x00, 0x00, 0x0e, 0x00, 0x14, 0x00, 0x00, 0x00,
  0x10, 0x00, 0x0c, 0x00, 0x0b, 0x00, 0x04, 0x00, 0x0e, 0x00, 0x00, 0x00,
  0x10, 0x00, 0x00, 0x00, 0x00, 0x00, 0x00, 0x34, 0x0c, 0x00, 0x00, 0x00,
  0x10, 0x00, 0x00, 0x00, 0x60, 0xc8, 0xff, 0xff, 0x01, 0x00, 0x00, 0x00,
  0x22, 0x00, 0x00, 0x00, 0x02, 0x00, 0x00, 0x00, 0x00, 0x00, 0x00, 0x00,
  0x01, 0x00, 0x00, 0x00, 0x01, 0x00, 0x00, 0x00, 0x4d, 0x00, 0x00, 0x00,
  0x01, 0x00, 0x00, 0x00, 0x00, 0x00, 0x00, 0x00, 0x4e, 0x00, 0x00, 0x00,
  0xc0, 0x37, 0x00, 0x00, 0x54, 0x37, 0x00, 0x00, 0xec, 0x36, 0x00, 0x00,
  0x9c, 0x36, 0x00, 0x00, 0x4c, 0x36, 0x00, 0x00, 0xe8, 0x35, 0x00, 0x00,
  0x88, 0x35, 0x00, 0x00, 0x38, 0x35, 0x00, 0x00, 0xe8, 0x34, 0x00, 0x00,
  0x84, 0x34, 0x00, 0x00, 0x34, 0x34, 0x00, 0x00, 0xe0, 0x33, 0x00, 0x00,
  0x8c, 0x33, 0x00, 0x00, 0x38, 0x33, 0x00, 0x00, 0xc8, 0x32, 0x00, 0x00,
  0x64, 0x32, 0x00, 0x00, 0xf0, 0x31, 0x00, 0x00, 0x6c, 0x30, 0x00, 0x00,
  0xf8, 0x2f, 0x00, 0x00, 0x74, 0x2e, 0x00, 0x00, 0x00, 0x2e, 0x00, 0x00,
  0x7c, 0x2c, 0x00, 0x00, 0x08, 0x2c, 0x00, 0x00, 0x8c, 0x2a, 0x00, 0x00,
  0x10, 0x29, 0x00, 0x00, 0x94, 0x27, 0x00, 0x00, 0x18, 0x26, 0x00, 0x00,
  0x94, 0x24, 0x00, 0x00, 0x08, 0x23, 0x00, 0x00, 0x84, 0x21, 0x00, 0x00,
  0xf8, 0x1f, 0x00, 0x00, 0x74, 0x1e, 0x00, 0x00, 0xf0, 0x1c, 0x00, 0x00,
  0x6c, 0x1b, 0x00, 0x00, 0xd8, 0x1a, 0x00, 0x00, 0xe4, 0x19, 0x00, 0x00,
  0x24, 0x19, 0x00, 0x00, 0xa8, 0x18, 0x00, 0x00, 0x10, 0x18, 0x00, 0x00,
  0x04, 0x17, 0x00, 0x00, 0x2c, 0x16, 0x00, 0x00, 0xb0, 0x15, 0x00, 0x00,
  0x18, 0x15, 0x00, 0x00, 0x0c, 0x14, 0x00, 0x00, 0xc8, 0x12, 0x00, 0x00,
  0x88, 0x11, 0x00, 0x00, 0x0c, 0x11, 0x00, 0x00, 0x78, 0x10, 0x00, 0x00,
  0xe0, 0x0f, 0x00, 0x00, 0x54, 0x0f, 0x00, 0x00, 0xcc, 0x0e, 0x00, 0x00,
  0x38, 0x0e, 0x00, 0x00, 0xa4, 0x0d, 0x00, 0x00, 0x28, 0x0d, 0x00, 0x00,
  0x94, 0x0c, 0x00, 0x00, 0xfc, 0x0b, 0x00, 0x00, 0x70, 0x0b, 0x00, 0x00,
  0xe8, 0x0a, 0x00, 0x00, 0x54, 0x0a, 0x00, 0x00, 0xc0, 0x09, 0x00, 0x00,
  0x44, 0x09, 0x00, 0x00, 0xc8, 0x08, 0x00, 0x00, 0x34, 0x08, 0x00, 0x00,
  0x9c, 0x07, 0x00, 0x00, 0x10, 0x07, 0x00, 0x00, 0x88, 0x06, 0x00, 0x00,
  0xf4, 0x05, 0x00, 0x00, 0x60, 0x05, 0x00, 0x00, 0xe4, 0x04, 0x00, 0x00,
  0x50, 0x04, 0x00, 0x00, 0xb8, 0x03, 0x00, 0x00, 0x2c, 0x03, 0x00, 0x00,
  0xa4, 0x02, 0x00, 0x00, 0x10, 0x02, 0x00, 0x00, 0x7c, 0x01, 0x00, 0x00,
  0x00, 0x01, 0x00, 0x00, 0x80, 0x00, 0x00, 0x00, 0x04, 0x00, 0x00, 0x00,
  0x8e, 0xc9, 0xff, 0xff, 0x00, 0x00, 0x00, 0x01, 0x18, 0x00, 0x00, 0x00,
  0x20, 0x00, 0x00, 0x00, 0x3c, 0x00, 0x00, 0x00, 0x4e, 0x00, 0x00, 0x00,
  0x00, 0x00, 0x00, 0x09, 0x50, 0x00, 0x00, 0x00, 0x02, 0x00, 0x00, 0x00,
  0xff, 0xff, 0xff, 0xff, 0x01, 0x00, 0x00, 0x00, 0x74, 0xc9, 0xff, 0xff,
  0x08, 0x00, 0x00, 0x00, 0x10, 0x00, 0x00, 0x00, 0x01, 0x00, 0x00, 0x00,
  0x80, 0xff, 0xff, 0xff, 0xff, 0xff, 0xff, 0xff, 0x01, 0x00, 0x00, 0x00,
  0xbd, 0xa8, 0x5b, 0x3b, 0x19, 0x00, 0x00, 0x00, 0x53, 0x74, 0x61, 0x74,
  0x65, 0x66, 0x75, 0x6c, 0x50, 0x61, 0x72, 0x74, 0x69, 0x74, 0x69, 0x6f,
  0x6e, 0x65, 0x64, 0x43, 0x61, 0x6c, 0x6c, 0x3a, 0x30, 0x00, 0x00, 0x00,
  0x02, 0x00, 0x00, 0x00, 0x01, 0x00, 0x00, 0x00, 0x01, 0x00, 0x00, 0x00,
  0x06, 0xca, 0xff, 0xff, 0x00, 0x00, 0x00, 0x01, 0x18, 0x00, 0x00, 0x00,
  0x20, 0x00, 0x00, 0x00, 0x40, 0x00, 0x00, 0x00, 0x4d, 0x00, 0x00, 0x00,
  0x00, 0x00, 0x00, 0x09, 0x54, 0x00, 0x00, 0x00, 0x02, 0x00, 0x00, 0x00,
  0xff, 0xff, 0xff, 0xff, 0x18, 0x00, 0x00, 0x00, 0xec, 0xc9, 0xff, 0xff,
  0x08, 0x00, 0x00, 0x00, 0x14, 0x00, 0x00, 0x00, 0x01, 0x00, 0x00, 0x00,
  0x0b, 0x00, 0x00, 0x00, 0x00, 0x00, 0x00, 0x00, 0x00, 0x00, 0x00, 0x00,
  0x01, 0x00, 0x00, 0x00, 0xf7, 0x86, 0xf5, 0x3b, 0x1a, 0x00, 0x00, 0x00,
  0x6d, 0x6f, 0x64, 0x65, 0x6c, 0x2f, 0x6c, 0x61, 0x6d, 0x62, 0x64, 0x61,
  0x2f, 0x73, 0x74, 0x72, 0x69, 0x64, 0x65, 0x64, 0x5f, 0x73, 0x6c, 0x69,
  0x63, 0x65, 0x00, 0x00, 0x02, 0x00, 0x00, 0x00, 0x01, 0x00, 0x00, 0x00,
  0x18, 0x00, 0x00, 0x00, 0x82, 0xca, 0xff, 0xff, 0x00, 0x00, 0x00, 0x01,
  0x18, 0x00, 0x00, 0x00, 0x24, 0x00, 0x00, 0x00, 0x44, 0x00, 0x00, 0x00,
  0x4c, 0x00, 0x00, 0x00, 0x00, 0x00, 0x00, 0x09, 0x4c, 0x00, 0x00, 0x00,
  0x03, 0x00, 0x00, 0x00, 0xff, 0xff, 0xff, 0xff, 0x18, 0x00, 0x00, 0x00,
  0x18, 0x00, 0x00, 0x00, 0x6c, 0xca, 0xff, 0xff, 0x08, 0x00, 0x00, 0x00,
  0x14, 0x00, 0x00, 0x00, 0x01, 0x00, 0x00, 0x00, 0x0b, 0x00, 0x00, 0x00,
  0x00, 0x00, 0x00, 0x00, 0x00, 0x00, 0x00, 0x00, 0x01, 0x00, 0x00, 0x00,
  0xf7, 0x86, 0xf5, 0x3b, 0x0f, 0x00, 0x00, 0x00, 0x6d, 0x6f, 0x64, 0x65,
  0x6c, 0x2f, 0x61, 0x64, 0x64, 0x5f, 0x32, 0x2f, 0x61, 0x64, 0x64, 0x00,
  0x03, 0x00, 0x00, 0x00, 0x01, 0x00, 0x00, 0x00, 0x18, 0x00, 0x00, 0x00,
  0x18, 0x00, 0x00, 0x00, 0xfa, 0xca, 0xff, 0xff, 0x00, 0x00, 0x00, 0x01,
  0x18, 0x00, 0x00, 0x00, 0x24, 0x00, 0x00, 0x00, 0x40, 0x00, 0x00, 0x00,
  0x4b, 0x00, 0x00, 0x00, 0x00, 0x00, 0x00, 0x09, 0x64, 0x00, 0x00, 0x00,
  0x03, 0x00, 0x00, 0x00, 0xff, 0xff, 0xff, 0xff, 0x18, 0x00, 0x00, 0x00,
  0x18, 0x00, 0x00, 0x00, 0xe4, 0xca, 0xff, 0xff, 0x08, 0x00, 0x00, 0x00,
  0x10, 0x00, 0x00, 0x00, 0x01, 0x00, 0x00, 0x00, 0x0b, 0x00, 0x00, 0x00,
  0x00, 0x00, 0x00, 0x00, 0x01, 0x00, 0x00, 0x00, 0xf7, 0x86, 0xf5, 0x3b,
  0x2a, 0x00, 0x00, 0x00, 0x6d, 0x6f, 0x64, 0x65, 0x6c, 0x2f, 0x63, 0x6f,
  0x6e, 0x76, 0x31, 0x64, 0x5f, 0x36, 0x2f, 0x52, 0x65, 0x6c, 0x75, 0x3b,
  0x6d, 0x6f, 0x64, 0x65, 0x6c, 0x2f, 0x63, 0x6f, 0x6e, 0x76, 0x31, 0x64,
  0x5f, 0x36, 0x2f, 0x42, 0x69, 0x61, 0x73, 0x41, 0x64, 0x64, 0x00, 0x00,
  0x03, 0x00, 0x00, 0x00, 0x01, 0x00, 0x00, 0x00, 0x18, 0x00, 0x00, 0x00,
  0x18, 0x00, 0x00, 0x00, 0x8a, 0xcb, 0xff, 0xff, 0x00, 0x00, 0x00, 0x01,
  0x18, 0x00, 0x00, 0x00, 0x24, 0x00, 0x00, 0x00, 0x44, 0x00, 0x00, 0x00,
  0x4a, 0x00, 0x00, 0x00, 0x00, 0x00, 0x00, 0x09, 0x64, 0x00, 0x00, 0x00,
  0x03, 0x00, 0x00, 0x00, 0xff, 0xff, 0xff, 0xff, 0x18, 0x00, 0x00, 0x00,
  0x18, 0x00, 0x00, 0x00, 0x74, 0xcb, 0xff, 0xff, 0x08, 0x00, 0x00, 0x00,
  0x14, 0x00, 0x00, 0x00, 0x01, 0x00, 0x00, 0x00, 0x34, 0x00, 0x00, 0x00,
  0x00, 0x00, 0x00, 0x00, 0x00, 0x00, 0x00, 0x00, 0x01, 0x00, 0x00, 0x00,
  0xe3, 0x50, 0xc9, 0x3a, 0x24, 0x00, 0x00, 0x00, 0x6d, 0x6f, 0x64, 0x65,
  0x6c, 0x2f, 0x63, 0x6f, 0x6e, 0x76, 0x31, 0x64, 0x5f, 0x36, 0x2f, 0x43,
  0x6f, 0x6e, 0x76, 0x31, 0x44, 0x2f, 0x42, 0x61, 0x74, 0x63, 0x68, 0x54,
  0x6f, 0x53, 0x70, 0x61, 0x63, 0x65, 0x4e, 0x44, 0x00, 0x00, 0x00, 0x00,
  0x03, 0x00, 0x00, 0x00, 0x01, 0x00, 0x00, 0x00, 0x18, 0x00, 0x00, 0x00,
  0x18, 0x00, 0x00, 0x00, 0x1a, 0xcc, 0xff, 0xff, 0x00, 0x00, 0x00, 0x01,
  0x18, 0x00, 0x00, 0x00, 0x24, 0x00, 0x00, 0x00, 0x40, 0x00, 0x00, 0x00,
  0x49, 0x00, 0x00, 0x00, 0x00, 0x00, 0x00, 0x09, 0x58, 0x00, 0x00, 0x00,
  0x03, 0x00, 0x00, 0x00, 0xff, 0xff, 0xff, 0xff, 0x06, 0x00, 0x00, 0x00,
  0x18, 0x00, 0x00, 0x00, 0x04, 0xcc, 0xff, 0xff, 0x08, 0x00, 0x00, 0x00,
  0x10, 0x00, 0x00, 0x00, 0x01, 0x00, 0x00, 0x00, 0x34, 0x00, 0x00, 0x00,
  0x00, 0x00, 0x00, 0x00, 0x01, 0x00, 0x00, 0x00, 0xe3, 0x50, 0xc9, 0x3a,
  0x1e, 0x00, 0x00, 0x00, 0x6d, 0x6f, 0x64, 0x65, 0x6c, 0x2f, 0x63, 0x6f,
  0x6e, 0x76, 0x31, 0x64, 0x5f, 0x36, 0x2f, 0x43, 0x6f, 0x6e, 0x76, 0x31,
  0x44, 0x2f, 0x53, 0x71, 0x75, 0x65, 0x65, 0x7a, 0x65, 0x31, 0x00, 0x00,
  0x03, 0x00, 0x00, 0x00, 0x01, 0x00, 0x00, 0x00, 0x06, 0x00, 0x00, 0x00,
  0x18, 0x00, 0x00, 0x00, 0x9e, 0xcc, 0xff, 0xff, 0x00, 0x00, 0x00, 0x01,
  0x18, 0x00, 0x00, 0x00, 0x28, 0x00, 0x00, 0x00, 0x48, 0x00, 0x00, 0x00,
  0x48, 0x00, 0x00, 0x00, 0x00, 0x00, 0x00, 0x09, 0x58, 0x00, 0x00, 0x00,
  0x04, 0x00, 0x00, 0x00, 0xff, 0xff, 0xff, 0xff, 0x01, 0x00, 0x00, 0x00,
  0x06, 0x00, 0x00, 0x00, 0x18, 0x00, 0x00, 0x00, 0x8c, 0xcc, 0xff, 0xff,
  0x08, 0x00, 0x00, 0x00, 0x14, 0x00, 0x00, 0x00, 0x01, 0x00, 0x00, 0x00,
  0x34, 0x00, 0x00, 0x00, 0x00, 0x00, 0x00, 0x00, 0x00, 0x00, 0x00, 0x00,
  0x01, 0x00, 0x00, 0x00, 0xe3, 0x50, 0xc9, 0x3a, 0x17, 0x00, 0x00, 0x00,
