const unsigned char g_tcn_model_data[] __attribute__((aligned(16))) = {
  0x20, 0x00, 0x00, 0x00, 0x54, 0x46, 0x4c, 0x33, 0x00, 0x00, 0x00, 0x00,
  0x14, 0x00, 0x20, 0x00, 0x1c, 0x00, 0x18, 0x00, 0x14, 0x00, 0x10, 0x00,
  0x0c, 0x00, 0x00, 0x00, 0x08, 0x00, 0x04, 0x00, 0x14, 0x00, 0x00, 0x00,
  0x1c, 0x00, 0x00, 0x00, 0x80, 0x00, 0x00, 0x00, 0xd8, 0x00, 0x00, 0x00,
  0xc8, 0x30, 0x00, 0x00, 0xd8, 0x30, 0x00, 0x00, 0xcc, 0x72, 0x00, 0x00,
  0x03, 0x00, 0x00, 0x00, 0x01, 0x00, 0x00, 0x00, 0x04, 0x00, 0x00, 0x00,
  0x6a, 0xc6, 0xff, 0xff, 0x0c, 0x00, 0x00, 0x00, 0x1c, 0x00, 0x00, 0x00,
  0x38, 0x00, 0x00, 0x00, 0x0f, 0x00, 0x00, 0x00, 0x73, 0x65, 0x72, 0x76,
  0x69, 0x6e, 0x67, 0x5f, 0x64, 0x65, 0x66, 0x61, 0x75, 0x6c, 0x74, 0x00,
  0x01, 0x00, 0x00, 0x00, 0x04, 0x00, 0x00, 0x00, 0x9c, 0xff, 0xff, 0xff,
  0x4d, 0x00, 0x00, 0x00, 0x04, 0x00, 0x00, 0x00, 0x05, 0x00, 0x00, 0x00,
  0x64, 0x65, 0x6e, 0x73, 0x65, 0x00, 0x00, 0x00, 0x01, 0x00, 0x00, 0x00,
  0x04, 0x00, 0x00, 0x00, 0xba, 0xcf, 0xff, 0xff, 0x04, 0x00, 0x00, 0x00,
  0x07, 0x00, 0x00, 0x00, 0x69, 0x6e, 0x70, 0x75, 0x74, 0x5f, 0x31, 0x00,
  0x02, 0x00, 0x00, 0x00, 0x34, 0x00, 0x00, 0x00, 0x04, 0x00, 0x00, 0x00,
  0xdc, 0xff, 0xff, 0xff, 0x50, 0x00, 0x00, 0x00, 0x04, 0x00, 0x00, 0x00,
  0x13, 0x00, 0x00, 0x00, 0x43, 0x4f, 0x4e, 0x56, 0x45, 0x52, 0x53, 0x49,
  0x4f, 0x4e, 0x5f, 0x4d, 0x45, 0x54, 0x41, 0x44, 0x41, 0x54, 0x41, 0x00,
  0x08, 0x00, 0x0c, 0x00, 0x08, 0x00, 0x04, 0x00, 0x08, 0x00, 0x00, 0x00,
  0x4f, 0x00, 0x00, 0x00, 0x04, 0x00, 0x00, 0x00, 0x13, 0x00, 0x00, 0x00,
  0x6d, 0x69, 0x6e, 0x5f, 0x72, 0x75, 0x6e, 0x74, 0x69, 0x6d, 0x65, 0x5f,
  0x76, 0x65, 0x72, 0x73, 0x69, 0x6f, 0x6e, 0x00, 0x51, 0x00, 0x00, 0x00,
  0xec, 0x2f, 0x00, 0x00, 0xe4, 0x2f, 0x00, 0x00, 0xd0, 0x2f, 0x00, 0x00,
  0xac, 0x2f, 0x00, 0x00, 0x84, 0x2f, 0x00, 0x00, 0x5c, 0x2f, 0x00, 0x00,
  0x48, 0x2f, 0x00, 0x00, 0x30, 0x2f, 0x00, 0x00, 0x14, 0x2f, 0x00, 0x00,
  0xec, 0x2e, 0x00, 0x00, 0xd8, 0x2e, 0x00, 0x00, 0xbc, 0x2e, 0x00, 0x00,
  0xa0, 0x2e, 0x00, 0x00, 0x84, 0x2e, 0x00, 0x00, 0x68, 0x2e, 0x00, 0x00,
  0x54, 0x2e, 0x00, 0x00, 0x2c, 0x2e, 0x00, 0x00, 0x04, 0x2e, 0x00, 0x00,
  0x34, 0x27, 0x00, 0x00, 0x0c, 0x27, 0x00, 0x00, 0x3c, 0x20, 0x00, 0x00,
  0x14, 0x20, 0x00, 0x00, 0x44, 0x19, 0x00, 0x00, 0x1c, 0x19, 0x00, 0x00,
  0xac, 0x18, 0x00, 0x00, 0xa4, 0x18, 0x00, 0x00, 0x9c, 0x18, 0x00, 0x00,
  0x94, 0x18, 0x00, 0x00, 0xc4, 0x11, 0x00, 0x00, 0x54, 0x11, 0x00, 0x00,
  0x84, 0x0a, 0x00, 0x00, 0x14, 0x0a, 0x00, 0x00, 0x44, 0x03, 0x00, 0x00,
  0xd4, 0x02, 0x00, 0x00, 0xec, 0x01, 0x00, 0x00, 0xe4, 0x01, 0x00, 0x00,
  0xdc, 0x01, 0x00, 0x00, 0xd4, 0x01, 0x00, 0x00, 0xcc, 0x01, 0x00, 0x00,
  0xc4, 0x01, 0x00, 0x00, 0xbc, 0x01, 0x00, 0x00, 0xb4, 0x01, 0x00, 0x00,
  0xac, 0x01, 0x00, 0x00, 0xa4, 0x01, 0x00, 0x00, 0x9c, 0x01, 0x00, 0x00,
  0x94, 0x01, 0x00, 0x00, 0x8c, 0x01, 0x00, 0x00, 0x84, 0x01, 0x00, 0x00,
  0x7c, 0x01, 0x00, 0x00, 0x74, 0x01, 0x00, 0x00, 0x6c, 0x01, 0x00, 0x00,
  0x64, 0x01, 0x00, 0x00, 0x5c, 0x01, 0x00, 0x00, 0x54, 0x01, 0x00, 0x00,
  0x4c, 0x01, 0x00, 0x00, 0x44, 0x01, 0x00, 0x00, 0x3c, 0x01, 0x00, 0x00,
  0x34, 0x01, 0x00, 0x00, 0x2c, 0x01, 0x00, 0x00, 0x24, 0x01, 0x00, 0x00,
  0x1c, 0x01, 0x00, 0x00, 0x14, 0x01, 0x00, 0x00, 0x0c, 0x01, 0x00, 0x00,
  0x04, 0x01, 0x00, 0x00, 0xfc, 0x00, 0x00, 0x00, 0xf4, 0x00, 0x00, 0x00,
  0xec, 0x00, 0x00, 0x00, 0xe4, 0x00, 0x00, 0x00, 0xdc, 0x00, 0x00, 0x00,
  0xd4, 0x00, 0x00, 0x00, 0xcc, 0x00, 0x00, 0x00, 0xc4, 0x00, 0x00, 0x00,
  0xbc, 0x00, 0x00, 0x00, 0xb4, 0x00, 0x00, 0x00, 0xac, 0x00, 0x00, 0x00,
  0xa4, 0x00, 0x00, 0x00, 0x9c, 0x00, 0x00, 0x00, 0x94, 0x00, 0x00, 0x00,
  0x8c, 0x00, 0x00, 0x00, 0x6c, 0x00, 0x00, 0x00, 0x04, 0x00, 0x00, 0x00,
  0x72, 0xd1, 0xff, 0xff, 0x04, 0x00, 0x00, 0x00, 0x58, 0x00, 0x00, 0x00,
  0x0c, 0x00, 0x00, 0x00, 0x08, 0x00, 0x0e, 0x00, 0x08, 0x00, 0x04, 0x00,
  0x08, 0x00, 0x00, 0x00, 0x10, 0x00, 0x00, 0x00, 0x28, 0x00, 0x00, 0x00,
  0x00, 0x00, 0x06, 0x00, 0x08, 0x00, 0x04, 0x00, 0x06, 0x00, 0x00, 0x00,
  0x04, 0x00, 0x00, 0x00, 0x01, 0x00, 0x00, 0x00, 0xeb, 0x03, 0x00, 0x00,
  0x00, 0x00, 0x0a, 0x00, 0x10, 0x00, 0x0c, 0x00, 0x08, 0x00, 0x04, 0x00,
  0x0a, 0x00, 0x00, 0x00, 0x02, 0x00, 0x00, 0x00, 0x02, 0x00, 0x00, 0x00,
  0x04, 0x00, 0x00, 0x00, 0x06, 0x00, 0x00, 0x00, 0x32, 0x2e, 0x31, 0x35,
  0x2e, 0x30, 0x00, 0x00, 0xd6, 0xd1, 0xff, 0xff, 0x04, 0x00, 0x00, 0x00,
  0x10, 0x00, 0x00, 0x00, 0x32, 0x2e, 0x33, 0x2e, 0x30, 0x00, 0x00, 0x00,
  0x00, 0x00, 0x00, 0x00, 0x00, 0x00, 0x00, 0x00, 0xa4, 0x90, 0xff, 0xff,
  0xa8, 0x90, 0xff, 0xff, 0xac, 0x90, 0xff, 0xff, 0xb0, 0x90, 0xff, 0xff,
  0xb4, 0x90, 0xff, 0xff, 0xb8, 0x90, 0xff, 0xff, 0xbc, 0x90, 0xff, 0xff,
  0xc0, 0x90, 0xff, 0xff, 0xc4, 0x90, 0xff, 0xff, 0xc8, 0x90, 0xff, 0xff,
  0xcc, 0x90, 0xff, 0xff, 0xd0, 0x90, 0xff, 0xff, 0xd4, 0x90, 0xff, 0xff,
  0xd8, 0x90, 0xff, 0xff, 0xdc, 0x90, 0xff, 0xff, 0xe0, 0x90, 0xff, 0xff,
  0xe4, 0x90, 0xff, 0xff, 0xe8, 0x90, 0xff, 0xff, 0xec, 0x90, 0xff, 0xff,
  0xf0, 0x90, 0xff, 0xff, 0xf4, 0x90, 0xff, 0xff, 0xf8, 0x90, 0xff, 0xff,
  0xfc, 0x90, 0xff, 0xff, 0x00, 0x91, 0xff, 0xff, 0x04, 0x91, 0xff, 0xff,
  0x08, 0x91, 0xff, 0xff, 0x0c, 0x91, 0xff, 0xff, 0x10, 0x91, 0xff, 0xff,
  0x14, 0x91, 0xff, 0xff, 0x18, 0x91, 0xff, 0xff, 0x1c, 0x91, 0xff, 0xff,
  0x20, 0x91, 0xff, 0xff, 0x24, 0x91, 0xff, 0xff, 0x28, 0x91, 0xff, 0xff,
  0x2c, 0x91, 0xff, 0xff, 0x30, 0x91, 0xff, 0xff, 0x34, 0x91, 0xff, 0xff,
  0x38, 0x91, 0xff, 0xff, 0x3c, 0x91, 0xff, 0xff, 0x40, 0x91, 0xff, 0xff,
  0x44, 0x91, 0xff, 0xff, 0x48, 0x91, 0xff, 0xff, 0x4c, 0x91, 0xff, 0xff,
  0x50, 0x91, 0xff, 0xff, 0xa2, 0xd2, 0xff, 0xff, 0x04, 0x00, 0x00, 0x00,
  0xd8, 0x00, 0x00, 0x00, 0x2f, 0x7f, 0x95, 0xf4, 0xdf, 0xdf, 0xf8, 0x92,
  0xea, 0x7f, 0x3b, 0xba, 0xb3, 0xfa, 0xb9, 0xb1, 0x21, 0x20, 0x10, 0x81,
  0x25, 0xe5, 0xc5, 0x5e, 0x7c, 0x2b, 0xc5, 0x81, 0x59, 0x66, 0xa9, 0xf3,
  0xfb, 0x40, 0x5b, 0xfb, 0x4e, 0x13, 0x9a, 0x75, 0x0a, 0x7f, 0xd0, 0x25,
  0x7e, 0xfb, 0x34, 0x5a, 0x68, 0x81, 0x5e, 0xb7, 0x42, 0xdd, 0xfb, 0xb4,
  0x89, 0x81, 0xe3, 0xe9, 0x3d, 0xf7, 0x76, 0xcd, 0xe3, 0x13, 0xa6, 0x5c,
  0x7f, 0xe6, 0x28, 0xab, 0x7f, 0x46, 0xee, 0x28, 0xd4, 0x1f, 0xb7, 0xae,
  0x35, 0xe9, 0x7a, 0x8b, 0x25, 0x68, 0x81, 0x20, 0xd3, 0x67, 0x3e, 0x79,
  0x70, 0xa6, 0x3c, 0xf8, 0x25, 0x7f, 0x7b, 0x3e, 0x09, 0x81, 0x0c, 0xd3,
  0xc4, 0x05, 0x42, 0x67, 0x81, 0x91, 0xc0, 0xbd, 0xe1, 0xc6, 0x03, 0xe3,
  0xfe, 0x37, 0x16, 0xc5, 0x47, 0xa4, 0xdf, 0xcf, 0x81, 0xcb, 0x41, 0x1b,
  0xa8, 0x30, 0xf8, 0x81, 0xe4, 0x93, 0xa0, 0x7f, 0xab, 0xe6, 0xf4, 0xab,
  0x0d, 0x0a, 0x0e, 0x53, 0xa1, 0xde, 0x51, 0x22, 0x48, 0x06, 0x81, 0xfc,
  0xf7, 0x81, 0xe2, 0xf9, 0x0a, 0x33, 0xe8, 0xca, 0xc9, 0xd0, 0x7f, 0x50,
  0x11, 0x49, 0x3f, 0xaf, 0xcc, 0x23, 0x2c, 0xfa, 0x7f, 0xd3, 0x68, 0x81,
  0x9c, 0xdd, 0x5c, 0x29, 0x4e, 0x1f, 0x81, 0xf2, 0x5b, 0xdf, 0x9b, 0x3a,
  0x2c, 0x38, 0x94, 0xf1, 0x81, 0x55, 0x92, 0x50, 0x1e, 0x73, 0x81, 0xd9,
  0x12, 0x27, 0x08, 0xda, 0x1b, 0x9f, 0xc5, 0x7f, 0x3b, 0xa9, 0xae, 0xb2,
  0xa8, 0x68, 0x5c, 0x4f, 0x86, 0xd3, 0xff, 0xff, 0x04, 0x00, 0x00, 0x00,
  0x60, 0x00, 0x00, 0x00, 0xaf, 0x09, 0x00, 0x00, 0xcb, 0x04, 0x00, 0x00,
  0xcc, 0x0f, 0x00, 0x00, 0x28, 0xf3, 0xff, 0xff, 0x08, 0xf9, 0xff, 0xff,
  0xa4, 0xfa, 0xff, 0xff, 0xc3, 0x0a, 0x00, 0x00, 0x90, 0x09, 0x00, 0x00,
  0xa4, 0x0a, 0x00, 0x00, 0x7f, 0xe1, 0xff, 0xff, 0x1a, 0xf4, 0xff, 0xff,
  0xed, 0xfc, 0xff, 0xff, 0x34, 0xee, 0xff, 0xff, 0xf5, 0xfd, 0xff, 0xff,
  0xb5, 0xfa, 0xff, 0xff, 0xe2, 0x0b, 0x00, 0x00, 0x4b, 0xf7, 0xff, 0xff,
  0x67, 0x07, 0x00, 0x00, 0x5c, 0x05, 0x00, 0x00, 0xfb, 0x04, 0x00, 0x00,
  0x18, 0xfc, 0xff, 0xff, 0x4a, 0xe8, 0xff, 0xff, 0xd6, 0xf8, 0xff, 0xff,
  0xc7, 0x06, 0x00, 0x00, 0xf2, 0xd3, 0xff, 0xff, 0x04, 0x00, 0x00, 0x00,
  0xc0, 0x06, 0x00, 0x00, 0x35, 0x33, 0x41, 0xde, 0x3c, 0x3d, 0x87, 0x66,
  0x04, 0x72, 0xaa, 0xef, 0x3a, 0x5a, 0xda, 0xca, 0xa9, 0xca, 0x35, 0x36,
  0x13, 0x79, 0x7f, 0xb8, 0xde, 0xd3, 0x9d, 0x1b, 0xae, 0x28, 0x49, 0x34,
  0x8d, 0x2b, 0xcd, 0xee, 0x18, 0x26, 0x1b, 0x12, 0xa6, 0xaa, 0xf5, 0xc1,
  0x5b, 0xc6, 0xce, 0x55, 0xbb, 0xee, 0x09, 0x16, 0xea, 0x95, 0x6b, 0xff,
  0x2f, 0xcf, 0xf6, 0x4d, 0x5e, 0x09, 0x5d, 0x9a, 0xeb, 0xd8, 0x98, 0xcd,
  0x37, 0x17, 0xd4, 0xe6, 0x22, 0x16, 0x05, 0x12, 0xa1, 0xff, 0x47, 0xb5,
  0x6a, 0x9c, 0x0b, 0xf9, 0x27, 0x44, 0x40, 0x17, 0xde, 0x07, 0xc5, 0x21,
  0xa5, 0x09, 0xba, 0xc4, 0x9d, 0x65, 0xc9, 0xc6, 0x22, 0x65, 0xeb, 0x93,
  0x2d, 0x5e, 0xc9, 0xbd, 0x66, 0xf4, 0x7f, 0xa0, 0xf5, 0xdd, 0xf5, 0xb7,
  0x48, 0xf5, 0xb3, 0xfe, 0xf1, 0x65, 0xd9, 0xd7, 0x38, 0x09, 0x37, 0xdf,
  0x25, 0xa4, 0x26, 0xbf, 0xfa, 0x1c, 0x65, 0x9b, 0x3f, 0xeb, 0x9b, 0x67,
  0x9e, 0x88, 0x26, 0xa2, 0xf4, 0xbe, 0x63, 0x3a, 0x09, 0x65, 0x40, 0x8a,
  0x56, 0xa6, 0x94, 0x66, 0x1a, 0x38, 0xf7, 0x9f, 0x55, 0xe1, 0xef, 0xf1,
  0xc9, 0x84, 0xf3, 0x8f, 0x7f, 0x19, 0x90, 0x2a, 0x34, 0x4f, 0xc0, 0x37,
  0x98, 0x25, 0x9e, 0x2d, 0xd5, 0x6a, 0x6f, 0xab, 0x75, 0xd9, 0x41, 0xf0,
  0xff, 0x4f, 0x42, 0x0b, 0xd8, 0xa9, 0x8e, 0xc4, 0x1b, 0xab, 0xdd, 0x18,
  0xec, 0x84, 0x04, 0xf9, 0x35, 0x94, 0x2c, 0xc4, 0xba, 0x6d, 0xc9, 0xb4,
  0x4b, 0xae, 0xff, 0xda, 0x71, 0x59, 0xc8, 0xc9, 0xe1, 0xe0, 0xf7, 0xd1,
  0x0f, 0xeb, 0xc7, 0xe9, 0x53, 0xd4, 0xde, 0xd3, 0x3c, 0x5a, 0xd4, 0x44,
  0x2f, 0xb5, 0x81, 0x34, 0x32, 0x56, 0xd8, 0xce, 0xcf, 0x49, 0xdf, 0x02,
  0xfa, 0x42, 0xcd, 0xeb, 0xef, 0xba, 0xc0, 0xce, 0xc8, 0x4e, 0x36, 0x36,
  0x47, 0xbd, 0x00, 0xf1, 0x15, 0xf3, 0xe9, 0xe2, 0x74, 0xdd, 0x30, 0x95,
  0xeb, 0x4e, 0xe6, 0xcb, 0x32, 0x29, 0x2f, 0x7e, 0xd0, 0x78, 0xa0, 0x21,
  0xfe, 0x4a, 0xd3, 0xe5, 0xdf, 0xef, 0x3e, 0x10, 0xc6, 0xd5, 0x32, 0xbb,
  0x59, 0xbe, 0x81, 0x60, 0xc3, 0x0e, 0xbf, 0xb2, 0x23, 0x3d, 0x4c, 0xfe,
  0xa1, 0x11, 0xb5, 0x34, 0x4a, 0x37, 0xb8, 0xa9, 0x5a, 0xc3, 0x0c, 0x9e,
  0x4e, 0xd4, 0x8d, 0x0e, 0x41, 0xd0, 0x6f, 0x78, 0x11, 0xb9, 0x9b, 0xed,
  0xde, 0x1e, 0xc5, 0x51, 0x67, 0x72, 0x5a, 0x18, 0x06, 0x05, 0x51, 0xbf,
  0xa8, 0xe7, 0x84, 0xf0, 0xa8, 0xc0, 0x66, 0x2c, 0xb7, 0xd2, 0x50, 0xa0,
  0x0c, 0x57, 0x10, 0xe8, 0x1d, 0xa8, 0xda, 0x48, 0x02, 0xeb, 0xf6, 0x0c,
  0x4d, 0xda, 0xc1, 0xf1, 0x03, 0xac, 0xef, 0x65, 0x8d, 0xab, 0x33, 0x0b,
  0x2f, 0x1d, 0xfd, 0xb8, 0x46, 0xff, 0xa1, 0x05, 0xe3, 0x9f, 0xa5, 0x10,
  0xe2, 0x94, 0xaa, 0xb5, 0x43, 0x12, 0x5d, 0x0f, 0x61, 0x43, 0xa7, 0xf3,
  0x4d, 0x91, 0x9e, 0xe9, 0x9b, 0xde, 0x64, 0x50, 0xb7, 0xdc, 0x7c, 0x1e,
  0x65, 0xd2, 0x44, 0x53, 0x46, 0x62, 0x4a, 0xba, 0xc6, 0xd3, 0x0a, 0x3b,
  0x05, 0x81, 0xf0, 0x5b, 0x35, 0xd4, 0x26, 0xdc, 0x50, 0x00, 0x2f, 0x0d,
  0xa7, 0xf5, 0x77, 0x17, 0x4c, 0x7e, 0x11, 0xc8, 0xf8, 0x42, 0xab, 0xa2,
  0x13, 0x7f, 0x94, 0xcd, 0x9d, 0x3b, 0xae, 0xfc, 0x14, 0xa7, 0x9d, 0x22,
  0x26, 0xd0, 0x8a, 0x49, 0x32, 0x56, 0xbe, 0x73, 0x66, 0x98, 0xf8, 0x70,
  0xb1, 0x9e, 0x45, 0x5d, 0xb3, 0x5a, 0xe5, 0xfc, 0xdd, 0x13, 0xa4, 0x31,
  0xb7, 0x44, 0x2a, 0xab, 0x19, 0xc3, 0xfd, 0x03, 0x96, 0xc5, 0xde, 0xdd,
  0xb7, 0x7d, 0xab, 0x1d, 0x07, 0x68, 0x17, 0x47, 0xfa, 0x61, 0x0f, 0x60,
  0x1d, 0xba, 0x95, 0xe3, 0x63, 0x36, 0x69, 0x16, 0xb8, 0x0c, 0xc5, 0x58,
  0x38, 0x27, 0x87, 0xe8, 0xf7, 0xf7, 0xeb, 0x0b, 0xb4, 0x4e, 0xd6, 0x20,
  0xcd, 0xa3, 0xcf, 0xca, 0xcc, 0xd2, 0xf3, 0x7e, 0xcf, 0x4b, 0x0c, 0xca,
  0xb3, 0x98, 0xfa, 0xe2, 0x06, 0x6a, 0xc1, 0x5e, 0x4d, 0x1f, 0xf9, 0x0d,
  0xf0, 0x8c, 0xb7, 0x0d, 0xba, 0x9e, 0x9c, 0xa4, 0x2b, 0x05, 0x81, 0x08,
  0x05, 0x59, 0xe6, 0x49, 0x7c, 0x98, 0x14, 0x56, 0xa3, 0xb6, 0x25, 0xfb,
  0xed, 0x26, 0x21, 0x07, 0x19, 0x9f, 0xf4, 0x63, 0x95, 0x6f, 0xae, 0x30,
  0x69, 0x4f, 0x03, 0x06, 0x19, 0xfe, 0xad, 0x21, 0x09, 0x49, 0x2b, 0xe7,
  0x69, 0x70, 0xd8, 0xd3, 0xd7, 0x59, 0xc4, 0x4a, 0x59, 0x14, 0x3a, 0xb8,
  0x69, 0xcb, 0x94, 0x78, 0xfc, 0x0c, 0xf1, 0xb1, 0x0f, 0xe4, 0xea, 0x49,
  0xb3, 0x0e, 0x81, 0xbb, 0xde, 0xd8, 0x6b, 0x4f, 0x34, 0xe3, 0x0f, 0xf2,
  0xfe, 0x72, 0x6c, 0x62, 0x7f, 0x35, 0xd2, 0xc6, 0xc7, 0xe5, 0xbd, 0xb0,
  0xd7, 0x87, 0xa5, 0x5c, 0x4f, 0x30, 0x7d, 0xef, 0xc0, 0x28, 0xcc, 0x61,
  0x63, 0xdd, 0xe9, 0x50, 0xc1, 0xae, 0x22, 0xde, 0x45, 0xa4, 0xc4, 0xb2,
  0x26, 0x47, 0x5a, 0xc8, 0xdf, 0xc2, 0xb5, 0x8c, 0x03, 0x46, 0xe6, 0x62,
  0x2a, 0x2e, 0xe6, 0x10, 0xd2, 0xda, 0xc9, 0xa2, 0x2f, 0xa8, 0x58, 0x0f,
  0xdf, 0x04, 0x08, 0x65, 0x22, 0x97, 0xda, 0xf1, 0xca, 0xfb, 0xcd, 0xd7,
  0x17, 0xd1, 0x41, 0x2b, 0xdd, 0x2c, 0x17, 0xae, 0x17, 0x22, 0xf0, 0x19,
  0xf0, 0x31, 0xad, 0x26, 0x7f, 0xcf, 0x4a, 0xdb, 0xbc, 0xdd, 0x01, 0xd5,
  0x1a, 0x06, 0xb2, 0xc4, 0x08, 0x2b, 0x29, 0x24, 0x15, 0xc2, 0x1f, 0xbf,
  0x45, 0x23, 0x4c, 0xea, 0x52, 0xc9, 0xe2, 0x26, 0x24, 0xdf, 0x2c, 0x2f,
  0xce, 0xfb, 0x3c, 0xd2, 0xea, 0xdc, 0xf4, 0xaf, 0xea, 0xf1, 0xe6, 0xeb,
  0xd3, 0x4d, 0x44, 0x73, 0xff, 0xd9, 0x2c, 0xf4, 0x06, 0xf4, 0x06, 0xe0,
  0xf6, 0xfc, 0x17, 0x5e, 0xea, 0x44, 0xd5, 0xf3, 0x96, 0x9b, 0x34, 0x56,
  0xaa, 0xf3, 0x15, 0x48, 0x4f, 0xb1, 0x41, 0xa3, 0x54, 0x02, 0xee, 0x47,
  0xfd, 0x13, 0x53, 0xa2, 0xe1, 0xd3, 0xf9, 0xea, 0x64, 0xba, 0x01, 0x9c,
  0x2d, 0xfd, 0x2a, 0xcf, 0x17, 0x27, 0x69, 0x64, 0xbd, 0xf0, 0x49, 0x2f,
  0x39, 0x4b, 0x46, 0xcd, 0xcc, 0xbb, 0x95, 0xb8, 0x47, 0x08, 0x20, 0x81,
  0x67, 0xc5, 0x66, 0x22, 0x70, 0x2c, 0x28, 0x3e, 0x28, 0xcd, 0x50, 0x5b,
  0xc1, 0x0e, 0x6f, 0x5a, 0xd2, 0x02, 0x81, 0x3c, 0xf2, 0xaf, 0x3d, 0xb9,
  0x06, 0x64, 0xdd, 0x5c, 0x63, 0xdd, 0x0b, 0x1e, 0x94, 0x49, 0x41, 0xf8,
  0xb7, 0xfd, 0x02, 0xae, 0x5c, 0xbe, 0xae, 0x17, 0xd7, 0xb0, 0x14, 0x8d,
  0x18, 0xe7, 0xd0, 0x64, 0x6b, 0xf5, 0x9c, 0xb4, 0xaf, 0xb8, 0x44, 0x4d,
  0xbb, 0x27, 0xf3, 0xef, 0xd7, 0xb0, 0xf9, 0x9a, 0xb0, 0xc3, 0x64, 0xd8,
  0xac, 0x2b, 0xed, 0xc0, 0xb6, 0xf7, 0x1e, 0xde, 0x51, 0xd0, 0xba, 0x38,
  0x7c, 0xef, 0x59, 0x64, 0xd7, 0x6c, 0x25, 0x99, 0x13, 0x0e, 0xb5, 0xb6,
  0x41, 0xca, 0xfa, 0x43, 0x30, 0x03, 0x68, 0xee, 0xff, 0xf6, 0xa7, 0x1c,
  0xdc, 0x06, 0x16, 0xe1, 0xb7, 0x0d, 0xae, 0xf0, 0xbf, 0x15, 0xe8, 0xed,
  0xbc, 0x0a, 0xc3, 0x11, 0x54, 0xdc, 0x58, 0xed, 0xaf, 0xdd, 0x3c, 0x2f,
  0xcb, 0xba, 0x3e, 0x74, 0xd8, 0xe7, 0xb3, 0x3d, 0x31, 0xa7, 0x00, 0x4b,
  0xc6, 0x43, 0x11, 0xf3, 0xbc, 0xd8, 0x5d, 0xc1, 0x2f, 0xeb, 0xf1, 0x68,
  0x75, 0x08, 0xfe, 0x7f, 0x6c, 0x7b, 0x07, 0xe8, 0xe9, 0x0d, 0x51, 0x49,
  0xda, 0x27, 0xe4, 0x6a, 0x14, 0xba, 0xc0, 0x4a, 0x22, 0xdd, 0xa1, 0x1c,
  0xa0, 0xae, 0x62, 0x69, 0xc3, 0x7f, 0x65, 0xa0, 0xa2, 0xe8, 0xe2, 0xda,
  0x6d, 0xeb, 0xd0, 0xbf, 0x9c, 0xed, 0x08, 0x90, 0x22, 0x1f, 0x08, 0x9a,
  0xdf, 0x4d, 0x3d, 0xc7, 0x53, 0x4c, 0x43, 0xff, 0xd0, 0x6f, 0xd5, 0xfa,
  0xc1, 0xd9, 0x62, 0x09, 0x29, 0xe7, 0x79, 0x25, 0x62, 0x7e, 0x28, 0xff,
  0xeb, 0xd5, 0xaa, 0xc9, 0x23, 0xe5, 0xf1, 0x62, 0x05, 0x46, 0x61, 0x9b,
  0x27, 0xc5, 0xef, 0xee, 0x2c, 0x30, 0x0d, 0x61, 0xe0, 0xa5, 0xda, 0xdf,
  0x72, 0x77, 0xca, 0xda, 0x22, 0x53, 0x07, 0x14, 0x66, 0xb3, 0xfe, 0x90,
  0x11, 0x01, 0x27, 0xfd, 0x57, 0xc3, 0xd9, 0xad, 0x3e, 0x11, 0x84, 0xa3,
  0xed, 0x1b, 0x18, 0x5a, 0x1e, 0xbd, 0x47, 0xb8, 0x73, 0xaf, 0x46, 0x81,
  0xe5, 0x25, 0x10, 0xa3, 0x00, 0x32, 0x47, 0xae, 0x3a, 0xb7, 0x51, 0xba,
  0xf7, 0xeb, 0x04, 0x93, 0xb1, 0x01, 0xea, 0x6a, 0x27, 0x5f, 0xe5, 0x36,
  0x56, 0xb7, 0xb6, 0xf2, 0x79, 0xa0, 0xb8, 0x14, 0xd6, 0x14, 0x4b, 0x7f,
  0xc2, 0x53, 0xdc, 0x2c, 0xeb, 0x07, 0x39, 0x01, 0xf4, 0xf3, 0x01, 0x3e,
  0xdd, 0x5a, 0xbe, 0xf8, 0x51, 0x33, 0x4b, 0x58, 0xa5, 0xb3, 0x54, 0x2b,
  0x1c, 0x26, 0x6a, 0x6d, 0x0a, 0x71, 0x47, 0xb7, 0xd8, 0xf0, 0x15, 0x3a,
  0xb3, 0xfb, 0xde, 0xb1, 0x20, 0x0d, 0x41, 0xfe, 0x27, 0xc4, 0x31, 0x7d,
  0x06, 0xcd, 0x37, 0xae, 0x49, 0x16, 0x57, 0x01, 0x98, 0x55, 0xff, 0x1e,
  0x1c, 0x0e, 0x0f, 0xa8, 0xb7, 0x1f, 0xad, 0xcf, 0xca, 0xca, 0x0c, 0x13,
  0x04, 0x04, 0xe2, 0x68, 0x72, 0xeb, 0xa1, 0xfb, 0x46, 0x81, 0xdd, 0xb1,
  0x1f, 0x51, 0x2b, 0x34, 0x52, 0x65, 0x49, 0x0b, 0xc7, 0xc1, 0xc4, 0x59,
  0x7b, 0xd1, 0x20, 0xa9, 0xe0, 0x3a, 0x3f, 0xf1, 0xe2, 0x2c, 0x0f, 0x9d,
  0xfe, 0x56, 0x52, 0xc2, 0xce, 0xce, 0xf6, 0xc7, 0x60, 0xed, 0x8c, 0x35,
  0x47, 0x0d, 0xf4, 0xc5, 0x49, 0xe0, 0xb4, 0xed, 0x3c, 0xe1, 0x52, 0x2a,
  0xcc, 0x49, 0x15, 0xc0, 0x5a, 0xd3, 0xe7, 0x9f, 0xbc, 0xa7, 0x90, 0x91,
  0x7f, 0x2d, 0xb9, 0x23, 0x53, 0x65, 0x73, 0x90, 0x0f, 0xba, 0x3e, 0x21,
  0x04, 0x9e, 0x1f, 0xd7, 0x56, 0x67, 0x62, 0xaa, 0x46, 0xeb, 0xb9, 0x95,
  0x63, 0x33, 0x8f, 0x6a, 0xf7, 0xc1, 0x0f, 0x42, 0xf6, 0x4a, 0xac, 0xa8,
  0xd4, 0x4f, 0xfa, 0x0e, 0x3b, 0x60, 0xec, 0xaf, 0x14, 0x9c, 0x68, 0xe3,
  0xee, 0xb5, 0xad, 0xec, 0x55, 0x24, 0x54, 0xb9, 0x5c, 0xb5, 0x14, 0xe9,
  0x81, 0x3a, 0xa8, 0x0f, 0xfd, 0xbb, 0xc7, 0xff, 0xe1, 0x64, 0xd3, 0x25,
  0x5d, 0x41, 0x41, 0x46, 0xe8, 0x61, 0xba, 0x39, 0x37, 0x56, 0xde, 0xfb,
  0xa8, 0x67, 0xda, 0x69, 0x56, 0x09, 0x25, 0x36, 0xe2, 0xab, 0xe0, 0xd0,
  0x1a, 0xac, 0xf6, 0x9d, 0xed, 0x52, 0xef, 0x11, 0x88, 0xe1, 0xb2, 0x3f,
  0xfa, 0x2a, 0x12, 0x2d, 0x02, 0xc0, 0x6c, 0x03, 0xf0, 0xb7, 0x36, 0x07,
  0xec, 0x8b, 0x19, 0xee, 0xac, 0xe4, 0xce, 0xa2, 0x4a, 0x52, 0x0c, 0x11,
  0x2a, 0x65, 0x5a, 0xf0, 0x58, 0x34, 0x35, 0x55, 0x3a, 0x0a, 0x21, 0x0a,
  0xe8, 0xb5, 0xed, 0xfb, 0x02, 0x7f, 0xca, 0x60, 0x92, 0x91, 0xa7, 0x59,
  0x48, 0xe8, 0xea, 0xb6, 0x6b, 0xed, 0xf0, 0xb6, 0x37, 0xfa, 0x1e, 0x54,
  0x53, 0xd8, 0xfe, 0x7b, 0xa3, 0x17, 0x48, 0x9c, 0xce, 0x4b, 0x6c, 0x9f,
  0x18, 0x50, 0xa8, 0x43, 0x54, 0xd2, 0x6a, 0x4a, 0x0c, 0xa3, 0xec, 0x4b,
  0xbf, 0x3c, 0x30, 0x63, 0x09, 0xe1, 0xa0, 0xdb, 0x47, 0xcd, 0x4a, 0xc8,
  0xa8, 0xb0, 0x12, 0x4f, 0x7a, 0x55, 0xb3, 0x63, 0xd1, 0x1f, 0xe3, 0x20,
  0x07, 0x58, 0xfa, 0x00, 0x69, 0xbe, 0xd0, 0x31, 0xd3, 0xae, 0x0f, 0x08,
  0xb7, 0xbb, 0xe7, 0x02, 0x7f, 0x2a, 0x7b, 0x53, 0xfa, 0xb9, 0xef, 0x59,
  0x49, 0xc1, 0xee, 0x2e, 0x8f, 0xb7, 0xdc, 0x2f, 0x8e, 0x54, 0x1d, 0xff,
  0x32, 0x0a, 0x6d, 0xc2, 0xed, 0xd1, 0xec, 0x40, 0xd7, 0x49, 0xa9, 0x17,
  0x05, 0x9f, 0xce, 0x41, 0xc2, 0xf3, 0x14, 0xf1, 0x1c, 0xbc, 0x47, 0x13,
  0x3a, 0x86, 0xb4, 0x3a, 0x7f, 0x14, 0x55, 0x34, 0xfc, 0x74, 0x53, 0xf4,
  0xfa, 0x01, 0xbe, 0x41, 0x60, 0x7b, 0xad, 0x12, 0x3a, 0xa9, 0x26, 0x87,
  0xf0, 0xdd, 0x46, 0xdb, 0x1d, 0x52, 0x20, 0x59, 0xad, 0x4c, 0x20, 0x13,
  0x67, 0x4b, 0x36, 0xbb, 0xc1, 0x16, 0x43, 0x3a, 0xcf, 0x04, 0x48, 0x16,
  0x03, 0x0a, 0x2b, 0x1a, 0xea, 0x4a, 0x07, 0x6a, 0xbd, 0x2c, 0x90, 0xac,
  0x07, 0xf7, 0x57, 0x9f, 0xb9, 0xe1, 0xa4, 0xb4, 0xdb, 0x96, 0x08, 0x7d,
  0x06, 0xe1, 0xd7, 0x0a, 0x2f, 0x55, 0x17, 0xfc, 0x73, 0x7f, 0xa0, 0x2d,
  0x29, 0xaa, 0x30, 0xce, 0xed, 0xc3, 0x05, 0xdb, 0x0b, 0xbe, 0x5a, 0x8a,
  0x70, 0x2b, 0xb3, 0xc7, 0x19, 0xcf, 0xd5, 0x16, 0x84, 0x6b, 0x93, 0x50,
  0x47, 0x52, 0x49, 0x28, 0x3c, 0xcb, 0x23, 0x0b, 0xc7, 0x2c, 0x6b, 0xba,
  0xff, 0xa7, 0xef, 0x42, 0x6a, 0x33, 0x43, 0x30, 0xe1, 0xf6, 0xad, 0xfb,
  0x58, 0x42, 0x62, 0xf0, 0xbe, 0xda, 0xff, 0xff, 0x04, 0x00, 0x00, 0x00,
  0x60, 0x00, 0x00, 0x00, 0x36, 0xf7, 0xff, 0xff, 0x42, 0xf9, 0xff, 0xff,
  0x00, 0xfe, 0xff, 0xff, 0xa1, 0xf3, 0xff, 0xff, 0x0b, 0xf8, 0xff, 0xff,
  0xdc, 0xf3, 0xff, 0xff, 0x28, 0xfe, 0xff, 0xff, 0xbb, 0xf6, 0xff, 0xff,
  0x88, 0xf9, 0xff, 0xff, 0xa4, 0x04, 0x00, 0x00, 0x36, 0xf3, 0xff, 0xff,
  0x84, 0xfd, 0xff, 0xff, 0xa4, 0xfe, 0xff, 0xff, 0xbe, 0xf1, 0xff, 0xff,
  0x85, 0xfb, 0xff, 0xff, 0x4a, 0xfb, 0xff, 0xff, 0x90, 0xf8, 0xff, 0xff,
  0x4b, 0xfa, 0xff, 0xff, 0xae, 0xfd, 0xff, 0xff, 0x9a, 0xef, 0xff, 0xff,
  0x91, 0xf8, 0xff, 0xff, 0x99, 0x01, 0x00, 0x00, 0x15, 0xf7, 0xff, 0xff,
  0x47, 0xf6, 0xff, 0xff, 0x2a, 0xdb, 0xff, 0xff, 0x04, 0x00, 0x00, 0x00,
  0xc0, 0x06, 0x00, 0x00, 0xe9, 0xed, 0x0f, 0xcc, 0x2b, 0xea, 0xf9, 0x10,
  0xf6, 0x1d, 0x95, 0x3e, 0x10, 0xad, 0x5c, 0x64, 0x92, 0x8e, 0xda, 0xa0,
  0xa4, 0xc8, 0x5f, 0x04, 0xe2, 0x55, 0xf4, 0x4b, 0xec, 0x2a, 0xc3, 0x46,
  0x23, 0x21, 0x03, 0xac, 0x4d, 0xe8, 0x26, 0x97, 0xfb, 0x52, 0xbd, 0x46,
  0xa1, 0x65, 0x2b, 0xa6, 0x4a, 0x1c, 0x3b, 0x3e, 0x0d, 0xd7, 0xe8, 0x01,
  0xf1, 0x2b, 0x1f, 0x4e, 0x6c, 0xae, 0xf7, 0xda, 0x81, 0x64, 0x23, 0x22,
  0xf7, 0xcf, 0x13, 0x64, 0xb7, 0x4d, 0xde, 0xac, 0x01, 0xe8, 0x8a, 0x1a,
  0x72, 0xf3, 0x67, 0xff, 0x57, 0xa6, 0xc9, 0x42, 0xc8, 0xd1, 0xfd, 0x36,
  0x23, 0xec, 0x79, 0x6b, 0xca, 0x3c, 0x50, 0x7f, 0xb2, 0xcb, 0x44, 0x05,
  0xe0, 0x33, 0x2a, 0x4a, 0x54, 0x48, 0xb9, 0xb9, 0xd6, 0x37, 0xff, 0xd1,
  0x40, 0x0e, 0x1d, 0xdd, 0xfe, 0xd1, 0xa1, 0xb2, 0xd3, 0x7b, 0x42, 0x12,
  0xf7, 0x4b, 0x20, 0xa9, 0x44, 0x29, 0x55, 0xba, 0xbc, 0x67, 0x69, 0xb8,
  0x63, 0x30, 0x38, 0xb0, 0xf4, 0x32, 0x2a, 0xd8, 0x6c, 0x72, 0x19, 0xb0,
  0x0f, 0x10, 0xbb, 0x15, 0x5b, 0x4e, 0x63, 0x53, 0xd0, 0xfd, 0x0a, 0x3f,
  0xbd, 0x15, 0x76, 0xe6, 0x17, 0xf5, 0xa1, 0x17, 0x05, 0x09, 0x30, 0xe4,
  0x1f, 0x33, 0x5b, 0x06, 0xd8, 0x9c, 0x02, 0x0c, 0xc6, 0xb1, 0xcf, 0x69,
  0xdc, 0xed, 0x41, 0xe7, 0x9f, 0xdf, 0x81, 0xee, 0x57, 0x04, 0xfe, 0xaf,
  0x38, 0x10, 0x16, 0x74, 0x22, 0x8d, 0xc0, 0xeb, 0x28, 0x4c, 0xe0, 0xbe,
  0x47, 0x09, 0x09, 0x56, 0xfb, 0x67, 0xdf, 0x46, 0x0c, 0x63, 0x06, 0x35,
  0x69, 0x7f, 0xde, 0xe4, 0xc8, 0x64, 0x94, 0xb3, 0x01, 0x06, 0x96, 0xd2,
  0x4e, 0xc8, 0xa3, 0x28, 0xf8, 0x6f, 0x42, 0x28, 0x79, 0x8c, 0x30, 0xbf,
  0x31, 0xbe, 0xba, 0x04, 0xf7, 0x56, 0xae, 0xac, 0xac, 0x64, 0x37, 0x29,
  0xae, 0xa8, 0x44, 0xd8, 0x58, 0xdf, 0xd7, 0x51, 0x56, 0xab, 0xd5, 0x91,
  0x5a, 0x35, 0x37, 0x9b, 0x43, 0x0b, 0x27, 0xbd, 0xc1, 0x9d, 0x16, 0x3d,
  0x18, 0x54, 0xe9, 0x88, 0xb5, 0xe6, 0xa1, 0xe8, 0x9e, 0xbb, 0xa7, 0x92,
  0x92, 0xa2, 0x96, 0xa7, 0x62, 0xef, 0xe8, 0x13, 0x5c, 0x05, 0xdd, 0xa6,
  0x2e, 0x7f, 0xe3, 0x00, 0x0f, 0x1f, 0xa9, 0x2c, 0xef, 0xa3, 0xab, 0x83,
  0x3e, 0xb3, 0xcd, 0xa7, 0x3a, 0x95, 0xe4, 0x3b, 0xba, 0x59, 0xea, 0xff,
  0x66, 0x2c, 0x86, 0x57, 0x48, 0xad, 0x8b, 0xb3, 0xbb, 0xfb, 0x3f, 0xe9,
  0xa9, 0xcc, 0x40, 0x34, 0x37, 0xbe, 0x09, 0x03, 0x92, 0x22, 0xdc, 0x2d,
  0xa4, 0xb5, 0x2c, 0x03, 0x31, 0x65, 0x96, 0x02, 0xf8, 0xa8, 0xfd, 0x56,
  0xfd, 0x33, 0xa9, 0x54, 0x27, 0x26, 0x95, 0x8a, 0x12, 0x9c, 0xcd, 0x34,
  0xd6, 0xb5, 0x00, 0xa4, 0xcc, 0x0c, 0xf1, 0xa1, 0x25, 0x31, 0xbe, 0xd9,
  0xf3, 0xfa, 0x0d, 0xa4, 0x02, 0x40, 0x1c, 0xf6, 0x3b, 0x40, 0x20, 0x43,
  0xe4, 0x51, 0xf7, 0xae, 0xde, 0x47, 0x97, 0xd0, 0xc8, 0x5a, 0x18, 0xb7,
  0x30, 0x35, 0x93, 0xda, 0x47, 0x46, 0x81, 0x06, 0x36, 0xda, 0x93, 0x7b,
  0xef, 0xf8, 0x28, 0xfc, 0x18, 0xff, 0x34, 0xb5, 0xb2, 0x22, 0xeb, 0x13,
  0x32, 0x4c, 0x18, 0x9a, 0xb6, 0x38, 0x60, 0xdb, 0x2f, 0xd7, 0x0a, 0xa2,
  0x12, 0x39, 0x10, 0x7f, 0x63, 0x29, 0x2c, 0x4d, 0xeb, 0x39, 0xe0, 0x2d,
  0xf4, 0xa5, 0x2b, 0x9b, 0xc9, 0xb9, 0x50, 0x95, 0x04, 0xf9, 0xb9, 0xf0,
  0x18, 0x66, 0x1a, 0xaf, 0x48, 0x63, 0x53, 0x69, 0x0e, 0xe7, 0x26, 0xe3,
  0xbf, 0x7a, 0x2f, 0xe0, 0xb3, 0x65, 0x9b, 0x5b, 0x6d, 0xca, 0x3f, 0xf2,
  0x05, 0xc2, 0xe7, 0x0b, 0x1e, 0xcc, 0x07, 0xdf, 0x48, 0x5f, 0x48, 0xbf,
  0xec, 0xf9, 0x60, 0xf1, 0x52, 0x73, 0x9c, 0xbf, 0xc1, 0x19, 0xc5, 0x5c,
  0xcc, 0x90, 0x04, 0x43, 0x06, 0x84, 0x59, 0x02, 0x3a, 0x97, 0x32, 0x3e,
  0xc4, 0x1a, 0x34, 0x27, 0x4e, 0x3a, 0xef, 0x1c, 0x62, 0x43, 0x0a, 0xb6,
  0x75, 0x93, 0xce, 0x81, 0x68, 0x56, 0x9b, 0x4b, 0x1c, 0xda, 0x97, 0xc3,
  0x69, 0xe1, 0xed, 0x41, 0x56, 0x99, 0xc3, 0xa1, 0x19, 0xc3, 0xe2, 0x5b,
  0x2c, 0x75, 0x5b, 0x2b, 0x22, 0xe0, 0x85, 0x4f, 0xbb, 0xe6, 0xf5, 0xed,
  0x61, 0x0c, 0x2b, 0x66, 0xb1, 0xf9, 0xb0, 0x1b, 0xfd, 0xe7, 0x25, 0x34,
  0x30, 0x0a, 0x2f, 0x59, 0x82, 0x20, 0x25, 0xef, 0xbc, 0xd1, 0xfd, 0x61,
  0x01, 0xb1, 0xfa, 0xd4, 0x8e, 0x63, 0x9d, 0x16, 0x9b, 0x39, 0x96, 0x11,
  0xf6, 0x27, 0xb4, 0x40, 0x1b, 0xdd, 0x2c, 0x09, 0xc1, 0x26, 0x4a, 0xeb,
  0x51, 0xe5, 0x26, 0x17, 0x4d, 0x39, 0x08, 0x6e, 0xc1, 0xc8, 0xe4, 0x32,
  0x81, 0xf0, 0x7d, 0x57, 0xfe, 0x36, 0x28, 0x58, 0x69, 0xfc, 0x31, 0xf6,
  0x15, 0x12, 0xaa, 0xf3, 0x1b, 0x34, 0xef, 0xbb, 0x8b, 0x92, 0x98, 0x65,
  0xc7, 0xaa, 0xb3, 0xd4, 0x2a, 0x16, 0x19, 0xaa, 0x31, 0x25, 0x8a, 0x25,
  0x04, 0x6f, 0x10, 0x98, 0xee, 0xf2, 0x05, 0x50, 0x0c, 0x44, 0x18, 0xd1,
  0x2a, 0xc9, 0x59, 0x55, 0xb8, 0xaa, 0x3b, 0x85, 0x7d, 0xda, 0x81, 0xd6,
  0x8c, 0xf1, 0xac, 0x54, 0x33, 0x28, 0xd4, 0x30, 0xfc, 0xf3, 0x0f, 0x44,
  0xc7, 0x15, 0x58, 0xcc, 0x2f, 0xcc, 0x1c, 0xf3, 0xd5, 0xe2, 0xae, 0x11,
  0x8b, 0x3d, 0xb2, 0xa8, 0xe0, 0xc0, 0xbc, 0xe5, 0xf3, 0xa9, 0x2f, 0xcd,
  0xbc, 0x22, 0x24, 0x25, 0xbe, 0x29, 0xf4, 0xe1, 0xe6, 0xee, 0xaa, 0x08,
  0x0f, 0xb5, 0xb5, 0xc5, 0xbd, 0xe8, 0x17, 0xe9, 0x20, 0xa7, 0x41, 0x3b,
  0x29, 0xc2, 0x13, 0x1e, 0x1a, 0xde, 0xe2, 0x2c, 0xf6, 0xda, 0x81, 0xcb,
  0x33, 0x04, 0xc8, 0x2d, 0xc1, 0xd9, 0x16, 0x33, 0x38, 0xe9, 0x0d, 0xb7,
  0x35, 0x0f, 0xb8, 0xf6, 0xb3, 0x69, 0x03, 0x0c, 0xae, 0x17, 0xef, 0x74,
  0xed, 0x83, 0x9e, 0x05, 0x32, 0x81, 0x66, 0x57, 0x5b, 0x61, 0x9d, 0x4f,
  0xf4, 0xc9, 0x99, 0xdd, 0x27, 0xec, 0x2b, 0x0d, 0x39, 0x53, 0xb2, 0xff,
  0xfc, 0x6c, 0x30, 0x4b, 0xf3, 0x4e, 0x08, 0xa8, 0xcf, 0xde, 0x46, 0x03,
  0x46, 0x10, 0xbb, 0xbd, 0x65, 0xba, 0xa0, 0x38, 0x0b, 0x04, 0x3d, 0x04,
  0xf2, 0x10, 0xdd, 0x20, 0xcd, 0xa8, 0xe3, 0xbb, 0xa0, 0xaa, 0x0d, 0x8c,
  0x18, 0xb6, 0x81, 0x1f, 0x24, 0x64, 0x97, 0x9f, 0x4c, 0xa3, 0xde, 0x16,
  0xfa, 0xac, 0xbe, 0x22, 0x1e, 0x93, 0x4d, 0xc2, 0xdd, 0x57, 0xe2, 0xfa,
  0x01, 0xc9, 0x3c, 0x67, 0xc0, 0x5a, 0xd9, 0x6a, 0x5c, 0x13, 0x22, 0x46,
  0xea, 0xb1, 0x63, 0x04, 0x81, 0xe4, 0x8a, 0xf1, 0xcb, 0x8c, 0x1a, 0x28,
  0xc7, 0xc8, 0xf1, 0x02, 0x91, 0x9d, 0x2c, 0x37, 0x19, 0xd8, 0x33, 0xd0,
  0x97, 0x6e, 0x4d, 0xce, 0xc1, 0x5d, 0xa3, 0xe0, 0x16, 0x84, 0x1e, 0xf1,
  0xc6, 0x96, 0x24, 0x1d, 0x06, 0x15, 0xe8, 0x65, 0x01, 0xf5, 0x1f, 0x60,
  0x5a, 0x0e, 0xd7, 0xc8, 0xad, 0xea, 0x5d, 0xf9, 0xe9, 0x63, 0xe5, 0xb8,
  0xa5, 0xc5, 0x44, 0x59, 0x41, 0x33, 0x81, 0x68, 0x9d, 0xb1, 0x9a, 0xc1,
  0xc0, 0xa7, 0x15, 0x04, 0xf9, 0xc3, 0xf1, 0x58, 0x8a, 0x5d, 0x11, 0x60,
  0x9f, 0x70, 0x89, 0x04, 0x55, 0x98, 0x5e, 0xcf, 0x98, 0x20, 0xf8, 0x3d,
  0xb8, 0x03, 0xdc, 0xe8, 0x70, 0x06, 0x3f, 0xea, 0x89, 0xcf, 0x3c, 0xe5,
  0x36, 0x22, 0x11, 0xc3, 0xd7, 0x14, 0x9e, 0x44, 0x25, 0x5c, 0x89, 0x31,
  0xc0, 0x1f, 0xba, 0xcd, 0x4f, 0xc9, 0xe7, 0xc6, 0x81, 0x2d, 0x11, 0x4b,
  0x2a, 0x24, 0xc9, 0xa9, 0xed, 0xd0, 0x0b, 0x98, 0x8f, 0xa7, 0xfc, 0x95,
  0x07, 0xf6, 0x54, 0xcf, 0x1d, 0x3f, 0x51, 0xfe, 0xab, 0xee, 0xb5, 0x1c,
  0xba, 0xda, 0x11, 0xfa, 0xc8, 0x46, 0x29, 0xe8, 0xec, 0x35, 0xd3, 0x31,
  0xed, 0xa8, 0xe1, 0xfc, 0x90, 0x3b, 0x01, 0xa7, 0x1f, 0xa9, 0xfa, 0x46,
  0xde, 0xb9, 0x34, 0x50, 0x72, 0x23, 0x3e, 0x1e, 0xb6, 0x36, 0xd5, 0x15,
  0xf0, 0x8d, 0x81, 0x43, 0xac, 0x99, 0x82, 0x91, 0xe9, 0x87, 0x46, 0x51,
  0x25, 0xd2, 0xe1, 0xd9, 0xc9, 0x4f, 0x2c, 0xe2, 0xd3, 0x54, 0x39, 0x16,
  0x21, 0x1d, 0x1e, 0x05, 0x16, 0x5f, 0x9e, 0xb5, 0x26, 0xcf, 0xf4, 0xda,
  0xd5, 0xaf, 0xda, 0xa0, 0x00, 0x46, 0xad, 0xf0, 0xb0, 0x0f, 0xad, 0xe7,
  0x18, 0x93, 0x50, 0x97, 0x1c, 0x02, 0xed, 0xbf, 0x21, 0xda, 0x1b, 0x96,
  0xd8, 0xf5, 0xd5, 0xe3, 0xa0, 0x19, 0x45, 0x45, 0xd9, 0xd1, 0xc6, 0xef,
  0xe6, 0x26, 0x2d, 0x17, 0x22, 0x0c, 0xfb, 0x5a, 0x24, 0xa6, 0x3e, 0x05,
  0x51, 0x27, 0x2b, 0xe1, 0x52, 0xf5, 0xc0, 0xe5, 0xe0, 0x60, 0x9d, 0xd5,
  0x16, 0xf4, 0x56, 0xac, 0x0d, 0xc9, 0x1a, 0x82, 0x87, 0xf0, 0xd0, 0x56,
  0x98, 0xe3, 0x7f, 0x9a, 0xa7, 0x08, 0x03, 0xb8, 0xf3, 0x4a, 0x02, 0xaa,
  0xb4, 0xa5, 0x4f, 0xaf, 0xd7, 0xc5, 0xc1, 0x8f, 0xb3, 0x66, 0x62, 0xc6,
  0x06, 0x14, 0x9d, 0x00, 0x38, 0x71, 0x49, 0xfd, 0xbb, 0x09, 0x0c, 0x20,
  0x2e, 0x98, 0xc4, 0x21, 0xdc, 0xb8, 0xe7, 0x0b, 0x34, 0x04, 0x12, 0xac,
  0xc4, 0xaf, 0xd0, 0xec, 0xde, 0xa8, 0x20, 0xa2, 0x02, 0x89, 0x52, 0xd6,
  0x82, 0x7c, 0xca, 0x81, 0x57, 0xb0, 0x05, 0xa3, 0x27, 0x92, 0xae, 0x35,
  0xf9, 0x8e, 0x5d, 0x26, 0xde, 0x60, 0xaa, 0xd3, 0x67, 0x10, 0xa6, 0x56,
  0x06, 0xd7, 0x5a, 0xa5, 0xc7, 0x23, 0xf8, 0x0f, 0xba, 0x2a, 0xc3, 0x3b,
  0x9a, 0x18, 0x16, 0x57, 0x81, 0xb5, 0x1d, 0x03, 0xcd, 0xca, 0x59, 0xeb,
  0x2d, 0xd7, 0xd6, 0xc2, 0xd4, 0x39, 0xf4, 0x4e, 0xc5, 0xb8, 0xf0, 0x90,
  0xe0, 0x39, 0x2c, 0xf7, 0x3c, 0x46, 0x2c, 0x73, 0x27, 0x06, 0xbc, 0xfa,
  0x53, 0x11, 0xf8, 0x36, 0x8d, 0x6b, 0x40, 0xc7, 0xa5, 0x3e, 0x65, 0xc5,
  0xec, 0x98, 0xa5, 0x6c, 0x54, 0xc4, 0x45, 0xae, 0x29, 0x3f, 0x3f, 0x88,
  0xbc, 0x2a, 0x60, 0xc6, 0x41, 0xae, 0xbd, 0x4c, 0xb8, 0xe4, 0xd6, 0xb9,
  0x31, 0xe8, 0x6c, 0x61, 0xa3, 0xbb, 0x4a, 0x13, 0xe8, 0xad, 0x86, 0x35,
  0x3d, 0xb0, 0xdc, 0xce, 0xf3, 0xd8, 0xb3, 0x31, 0x29, 0x15, 0xf8, 0xc8,
  0xc7, 0x27, 0xd1, 0x40, 0x58, 0xf0, 0x22, 0xf2, 0x78, 0xf2, 0x31, 0xc7,
  0x0f, 0x0c, 0x81, 0x2a, 0xf2, 0x18, 0x6a, 0x94, 0x10, 0x22, 0xbd, 0x4b,
  0xe3, 0xd0, 0xe6, 0x36, 0x2c, 0xc3, 0xe0, 0xb9, 0xae, 0x4e, 0xf5, 0x52,
  0x86, 0x1b, 0x3b, 0x2c, 0x52, 0x31, 0x19, 0xb0, 0x19, 0x38, 0xe9, 0x38,
  0xf7, 0x61, 0xcf, 0xa7, 0xbf, 0x98, 0x28, 0x14, 0xed, 0xd4, 0x26, 0xf3,
  0xcb, 0x3c, 0x0c, 0xd8, 0x3c, 0xcb, 0xba, 0xf3, 0xfe, 0xbb, 0xfc, 0x51,
  0xdd, 0xd7, 0xed, 0x47, 0xb0, 0xc5, 0x47, 0xc7, 0x48, 0x28, 0xdd, 0x81,
  0xfd, 0x29, 0xcd, 0x49, 0xd2, 0xf7, 0x60, 0xef, 0x2e, 0xe6, 0xc8, 0xbc,
  0xf9, 0xd7, 0xef, 0x0e, 0x18, 0x2e, 0x88, 0x28, 0x79, 0xff, 0x97, 0x26,
  0x9a, 0x1a, 0xc0, 0x14, 0x96, 0xee, 0xd9, 0x4b, 0x59, 0xc6, 0xf2, 0x32,
  0x30, 0x5f, 0xc2, 0xe7, 0xbf, 0xda, 0xb7, 0x20, 0x58, 0xc9, 0xae, 0xfc,
  0xb7, 0x20, 0xb7, 0xd1, 0xca, 0x92, 0xe6, 0x66, 0x69, 0xac, 0x07, 0x77,
  0xf7, 0x52, 0xdc, 0x3b, 0x5a, 0xc1, 0x5f, 0xc1, 0x1c, 0xa9, 0x9a, 0x42,
  0xc2, 0x34, 0xec, 0x14, 0xb7, 0x43, 0xe0, 0xbf, 0xe1, 0x33, 0x81, 0xca,
  0x5c, 0x01, 0xc7, 0xa5, 0xee, 0x6d, 0x17, 0xcd, 0x3f, 0xa9, 0x05, 0x16,
  0xb3, 0xd3, 0xb7, 0xb6, 0x26, 0xf6, 0xa5, 0xd5, 0x54, 0x1f, 0x47, 0x5f,
  0xc0, 0xeb, 0x1d, 0x21, 0x69, 0xd6, 0x91, 0x99, 0xee, 0x69, 0xbd, 0xd9,
  0xad, 0xee, 0xae, 0xf9, 0x10, 0xcb, 0x54, 0xe9, 0x18, 0xad, 0x61, 0xd1,
  0xaf, 0x3c, 0x39, 0xe5, 0x28, 0x20, 0xc9, 0xf6, 0xd8, 0x10, 0x1f, 0x41,
  0xd2, 0x91, 0x25, 0x15, 0xa9, 0xf7, 0x81, 0xed, 0xb9, 0x0c, 0xc6, 0xfe,
  0xed, 0xf7, 0xb3, 0x1f, 0x97, 0xb8, 0x8b, 0x9f, 0x06, 0x1a, 0xd9, 0xb4,
  0xdc, 0x32, 0x0a, 0x3b, 0xad, 0x4b, 0x47, 0x4a, 0xd7, 0x96, 0xd4, 0x36,
  0xbf, 0x4c, 0x30, 0x25, 0x40, 0x3e, 0xbb, 0x5b, 0x16, 0x4a, 0x2b, 0x09,
  0x02, 0x3f, 0xa4, 0x62, 0x63, 0xa9, 0x26, 0x55, 0x61, 0x60, 0xe3, 0xee,
  0x10, 0x8f, 0xf9, 0xd2, 0x14, 0x8c, 0x14, 0x57, 0x8f, 0xf4, 0x1d, 0x5b,
  0xe3, 0xcf, 0x0a, 0x02, 0x8b, 0x2c, 0x2e, 0x74, 0x47, 0x52, 0x39, 0x46,
  0x25, 0x46, 0xce, 0x92, 0xce, 0x3d, 0xaf, 0x66, 0x81, 0x30, 0x0f, 0x46,
  0x3d, 0xe8, 0xa2, 0x77, 0x3d, 0x62, 0x41, 0xd2, 0x75, 0x2f, 0x4c, 0x0a,
  0x28, 0xf7, 0xaf, 0x4e, 0xf6, 0xe1, 0xff, 0xff, 0x04, 0x00, 0x00, 0x00,
  0x60, 0x00, 0x00, 0x00, 0x5e, 0xc5, 0xff, 0xff, 0xbf, 0xe7, 0xff, 0xff,
  0xec, 0xe9, 0xff, 0xff, 0x8c, 0xce, 0xff, 0xff, 0x4f, 0xc1, 0xff, 0xff,
  0x40, 0xcb, 0xff, 0xff, 0xfe, 0xdf, 0xff, 0xff, 0xec, 0x0a, 0x00, 0x00,
  0x14, 0xe7, 0xff, 0xff, 0x70, 0xe1, 0xff, 0xff, 0x24, 0xe8, 0xff, 0xff,
  0x14, 0xb8, 0xff, 0xff, 0x82, 0xcf, 0xff, 0xff, 0xd1, 0xc0, 0xff, 0xff,
  0x26, 0xbd, 0xff, 0xff, 0xfd, 0xb4, 0xff, 0xff, 0xa5, 0xbc, 0xff, 0xff,
  0x60, 0xc4, 0xff, 0xff, 0xe0, 0xd1, 0xff, 0xff, 0x18, 0xda, 0xff, 0xff,
  0x87, 0xe9, 0xff, 0xff, 0x11, 0xea, 0xff, 0xff, 0x76, 0xc1, 0xff, 0xff,
  0xbc, 0xea, 0xff, 0xff, 0x62, 0xe2, 0xff, 0xff, 0x04, 0x00, 0x00, 0x00,
  0xc0, 0x06, 0x00, 0x00, 0xc0, 0x0f, 0x59, 0xdc, 0x42, 0xd7, 0xed, 0x2c,
  0xd3, 0x4d, 0x51, 0x74, 0x4a, 0x7f, 0x1e, 0xe7, 0xcf, 0xe4, 0xcd, 0x18,
  0x31, 0xd7, 0xb7, 0x08, 0x09, 0xed, 0xd4, 0x36, 0xdf, 0x46, 0x5f, 0x05,
  0x26, 0x32, 0xd8, 0x69, 0x12, 0xca, 0xfa, 0xda, 0x29, 0xb8, 0x96, 0xc0,
  0x35, 0xe5, 0x0d, 0xd5, 0x18, 0x43, 0xf2, 0x90, 0x9f, 0x3f, 0xc9, 0xfd,
  0x0e, 0x28, 0xd0, 0x18, 0xd1, 0x47, 0x7d, 0xed, 0x22, 0x1e, 0x4a, 0xa7,
  0x61, 0xe2, 0x5b, 0xce, 0x08, 0xba, 0x9a, 0xcb, 0x40, 0x0f, 0x43, 0xba,
  0xff, 0xd9, 0x8e, 0xf7, 0xe9, 0x4d, 0xd1, 0x12, 0x19, 0xc6, 0x89, 0x7d,
  0x42, 0x3e, 0x5d, 0x11, 0xa0, 0xb7, 0xc1, 0xbd, 0x25, 0xbf, 0xec, 0x99,
  0xc6, 0x12, 0xb7, 0x31, 0x8f, 0x6c, 0x11, 0x21, 0x58, 0x79, 0x06, 0xba,
  0x45, 0x5c, 0x3d, 0x82, 0x1e, 0xd2, 0x1d, 0x0e, 0xc2, 0x13, 0x2b, 0x61,
  0xe2, 0x31, 0x01, 0x2a, 0xd7, 0x10, 0x1b, 0x7f, 0x39, 0xba, 0xc2, 0xa7,
  0xa8, 0xed, 0xfb, 0x41, 0x26, 0x9a, 0x2b, 0x12, 0xf2, 0xdf, 0x2e, 0x92,
  0x07, 0xd3, 0x0e, 0xb5, 0xbe, 0x7a, 0x44, 0xb8, 0x0e, 0x30, 0xcf, 0x5f,
  0x26, 0xe2, 0x16, 0xc5, 0xdb, 0xbe, 0xbb, 0xa7, 0xfb, 0x81, 0x11, 0xff,
  0x4e, 0x38, 0xec, 0xf9, 0x04, 0xb0, 0x66, 0x67, 0x28, 0xfa, 0x2a, 0x0f,
  0x12, 0x9a, 0x98, 0xbe, 0x17, 0xbc, 0x04, 0x14, 0xf2, 0x39, 0xe6, 0xed,
  0x9f, 0x9c, 0x2c, 0x0d, 0x55, 0xd4, 0xf9, 0xe1, 0x16, 0x60, 0xa1, 0xdc,
  0xa9, 0xeb, 0xc7, 0x24, 0xbf, 0x09, 0x35, 0xda, 0x10, 0x23, 0xd4, 0xf3,
  0xd1, 0x1d, 0x2f, 0xd9, 0x2f, 0x45, 0x31, 0x4f, 0xe2, 0x52, 0xb8, 0xfb,
  0xc4, 0xd7, 0xd8, 0x29, 0x3b, 0x1a, 0x81, 0xd5, 0xe1, 0x1a, 0xee, 0xc0,
  0x11, 0x37, 0x3b, 0xa6, 0x54, 0xd7, 0x1f, 0x06, 0xd1, 0x11, 0x12, 0xd6,
  0x7c, 0x51, 0x3e, 0x9d, 0xa6, 0x37, 0xe7, 0x47, 0x01, 0xf1, 0x14, 0xf0,
  0x53, 0x0d, 0xcc, 0x67, 0x26, 0x57, 0xfd, 0x30, 0xf8, 0x19, 0x9e, 0xec,
  0x2b, 0x34, 0xcb, 0x37, 0x4f, 0xc0, 0xac, 0xf3, 0x0c, 0x27, 0xe2, 0x2d,
  0x06, 0x38, 0xe0, 0xb2, 0x42, 0xb7, 0x61, 0x43, 0x2b, 0xb8, 0x53, 0xe2,
  0x5b, 0x27, 0x03, 0xe9, 0x03, 0x25, 0x11, 0x4e, 0x69, 0xe7, 0x04, 0x28,
  0x33, 0xeb, 0xe5, 0xd6, 0x41, 0x29, 0x36, 0xbe, 0xc4, 0x3a, 0x0e, 0xdd,
  0x48, 0xea, 0x4b, 0x33, 0x29, 0xc3, 0xd6, 0x02, 0x1f, 0xf3, 0x28, 0x54,
  0x24, 0xf0, 0x29, 0xfe, 0x7f, 0x53, 0xc5, 0xfe, 0x17, 0xb9, 0x47, 0xf9,
  0x17, 0x69, 0x10, 0xd2, 0x2d, 0x39, 0xed, 0x1a, 0x0d, 0x9e, 0x30, 0x21,
  0x57, 0x69, 0x24, 0x62, 0x02, 0xb6, 0x7f, 0x2d, 0x89, 0x2c, 0xcc, 0x11,
  0x4c, 0x9b, 0xc1, 0x09, 0x3b, 0x64, 0x68, 0xb2, 0xda, 0xca, 0xba, 0x24,
  0xa5, 0xb3, 0xa2, 0xb6, 0x67, 0x34, 0xce, 0xaa, 0xb0, 0xf8, 0xec, 0xcd,
  0xff, 0x89, 0x67, 0x02, 0x24, 0xa2, 0x19, 0x69, 0xf0, 0x6a, 0x90, 0x36,
  0x93, 0x12, 0x62, 0x5d, 0x43, 0x45, 0xb1, 0xcf, 0x14, 0xb0, 0x5e, 0x77,
  0x61, 0x49, 0xb2, 0xe1, 0x1c, 0xba, 0xb1, 0x6f, 0x01, 0xb8, 0x03, 0x40,
  0xd2, 0x16, 0x96, 0x22, 0xb5, 0x3b, 0xc2, 0x25, 0xd1, 0xa8, 0x18, 0x62,
  0xf9, 0x60, 0x5b, 0x27, 0x35, 0x3d, 0xed, 0x9b, 0xf6, 0x50, 0x51, 0x64,
  0x01, 0xd6, 0x2f, 0xec, 0x2a, 0xb9, 0xca, 0xce, 0xb0, 0xa7, 0xa1, 0x01,
  0x25, 0xa8, 0x38, 0x16, 0x19, 0x07, 0x81, 0x2e, 0xb1, 0x60, 0xc2, 0xd7,
  0x36, 0x29, 0x32, 0x7b, 0xdf, 0x13, 0x57, 0x1f, 0x31, 0xbd, 0x27, 0xa7,
  0xe8, 0x19, 0xf2, 0xcf, 0x33, 0x4b, 0x9f, 0x61, 0xa8, 0x3e, 0xd5, 0x0c,
  0xf4, 0xa5, 0x16, 0xb3, 0xe7, 0x06, 0x5f, 0xfc, 0x25, 0x11, 0xa3, 0x3b,
  0xa7, 0x0e, 0xc5, 0x1d, 0xcb, 0xce, 0xfb, 0x0b, 0x6d, 0xbc, 0x5a, 0xa4,
  0x1c, 0xac, 0xc0, 0x37, 0x43, 0x31, 0x0e, 0x52, 0x5e, 0x55, 0xcf, 0x40,
  0x15, 0x11, 0xd6, 0x81, 0x24, 0x5b, 0xcf, 0xca, 0x6f, 0x3c, 0xc0, 0xd4,
  0x9a, 0x56, 0xf8, 0xff, 0xf0, 0x54, 0x2a, 0x47, 0x5c, 0x00, 0x02, 0xd9,
  0x06, 0xf2, 0xe6, 0x0c, 0x02, 0xea, 0xe1, 0x91, 0x8a, 0x0d, 0x0b, 0xe6,
  0x32, 0x98, 0x0b, 0xfd, 0xe2, 0xaa, 0x2c, 0xe6, 0xb6, 0xf8, 0xfc, 0xef,
  0x9f, 0x36, 0xb4, 0xc1, 0x51, 0x15, 0x46, 0x3b, 0x1b, 0xc0, 0x2c, 0xd1,
  0x39, 0x25, 0x43, 0xdd, 0x19, 0x63, 0x08, 0xfa, 0xa2, 0x26, 0x1e, 0x57,
  0x86, 0xef, 0xdc, 0x81, 0xce, 0xc4, 0x20, 0x94, 0x8e, 0x40, 0xbd, 0x55,
  0x23, 0x54, 0xc3, 0x6b, 0xd8, 0x45, 0x57, 0x46, 0xb5, 0x27, 0xd9, 0xf1,
  0xb4, 0xc8, 0xe6, 0x3c, 0xa3, 0x5f, 0x51, 0xc8, 0x0f, 0xf3, 0xb8, 0x17,
  0x7f, 0xbf, 0xcf, 0xf5, 0x2d, 0xd6, 0x65, 0x38, 0x13, 0x11, 0x31, 0xdb,
  0x11, 0xb1, 0xee, 0xf7, 0x4a, 0xc7, 0xf4, 0x55, 0x20, 0xef, 0x21, 0xf9,
  0x0a, 0x04, 0x4b, 0x02, 0xe4, 0x12, 0x34, 0xc0, 0x25, 0x3f, 0xaf, 0x0a,
  0xb4, 0xbb, 0x14, 0x2a, 0x8d, 0x78, 0x08, 0xf2, 0xe0, 0x66, 0xac, 0xb1,
  0xd1, 0x44, 0x0c, 0xed, 0x3b, 0x35, 0xef, 0xef, 0xb5, 0x45, 0xc8, 0xae,
  0x4f, 0xc5, 0x36, 0xe8, 0x12, 0x22, 0x1c, 0x1e, 0x23, 0xdf, 0x03, 0x40,
  0xfd, 0xed, 0xe0, 0xc1, 0x14, 0x7f, 0xff, 0xb9, 0x3d, 0xd6, 0x0b, 0xbd,
  0xe7, 0xda, 0x22, 0x21, 0x3d, 0x06, 0x4d, 0x34, 0x47, 0x99, 0x69, 0xc9,
  0xd2, 0x49, 0x1e, 0x68, 0x3d, 0x03, 0xd0, 0xfb, 0x0f, 0xb1, 0x20, 0x19,
  0x35, 0xe4, 0xd3, 0xec, 0xb8, 0xbf, 0xdc, 0x42, 0x1a, 0x4a, 0x18, 0x09,
  0xd8, 0xda, 0x2f, 0x1b, 0x3f, 0x28, 0x65, 0x47, 0xac, 0x99, 0x00, 0x4b,
  0x73, 0x50, 0xe3, 0x2c, 0xdd, 0x3e, 0xc9, 0x13, 0x2d, 0xe4, 0x50, 0x16,
  0xd2, 0x1a, 0xfe, 0x56, 0x36, 0x5d, 0xc3, 0x2f, 0xc8, 0x71, 0xef, 0xfb,
  0x50, 0x3b, 0xeb, 0xe8, 0xdd, 0x0f, 0xa6, 0x9b, 0xe8, 0x69, 0x2c, 0xb6,
  0x09, 0x4b, 0xc4, 0x4e, 0x70, 0x16, 0x76, 0xb3, 0x65, 0xaf, 0x81, 0xb7,
  0xd3, 0xcd, 0x49, 0xf2, 0x6a, 0xc1, 0xb2, 0x14, 0x3a, 0xb0, 0xda, 0x2f,
  0x06, 0xf4, 0xef, 0x24, 0xf1, 0xbd, 0xfc, 0x4d, 0xbc, 0xe5, 0xbc, 0x1f,
  0xbb, 0xe2, 0x9b, 0xb9, 0x0a, 0x28, 0xff, 0xb7, 0xf2, 0xb0, 0x2f, 0x28,
  0xa8, 0x44, 0xdd, 0xe0, 0xee, 0x77, 0x05, 0x30, 0x3c, 0xab, 0x3d, 0x5e,
  0x10, 0xfc, 0xd0, 0xca, 0x3a, 0x41, 0xa9, 0xc8, 0xbf, 0x2c, 0xdd, 0x33,
  0x53, 0xa6, 0xc6, 0x37, 0x12, 0x7f, 0x08, 0x32, 0xbc, 0xb3, 0xa8, 0xf1,
  0xe3, 0x90, 0xf3, 0xcc, 0x15, 0x2c, 0xe5, 0x54, 0x0d, 0x26, 0x11, 0xed,
  0xa7, 0xf5, 0xc0, 0x3c, 0x74, 0x5b, 0xe3, 0xf1, 0xbb, 0xe1, 0x4f, 0xd0,
  0x42, 0x3f, 0x5b, 0xb2, 0x42, 0xd2, 0x87, 0xf8, 0x01, 0xa0, 0x05, 0xbd,
  0x1a, 0xb5, 0x97, 0xc5, 0x1e, 0xd4, 0x50, 0x59, 0xb2, 0x7f, 0x0d, 0x0e,
  0x3a, 0xa8, 0xec, 0x40, 0x9e, 0xe3, 0x93, 0x62, 0x33, 0x0d, 0xa0, 0x22,
  0xe8, 0xd2, 0xbe, 0x5b, 0x79, 0x10, 0x14, 0xba, 0xe5, 0x04, 0x84, 0x05,
  0xf2, 0xd0, 0x03, 0xfd, 0x23, 0x67, 0x05, 0xd1, 0x47, 0xa0, 0x38, 0xcf,
  0xf4, 0xb7, 0xbd, 0x8e, 0x49, 0x88, 0xb0, 0xf1, 0x63, 0xcb, 0xbb, 0x04,
  0xc5, 0xbf, 0x06, 0x88, 0xff, 0x29, 0x37, 0x2a, 0x30, 0xa4, 0xfe, 0xd2,
  0x14, 0xf0, 0xf4, 0x28, 0x1f, 0x56, 0x6b, 0xe4, 0x9e, 0xcc, 0x2d, 0xc4,
  0xfe, 0xd0, 0x28, 0xe7, 0x14, 0x42, 0x29, 0x27, 0x0c, 0xee, 0xde, 0xb7,
  0x9d, 0xa9, 0x36, 0xe9, 0xbb, 0x4d, 0x46, 0x50, 0xcc, 0x3c, 0xe8, 0xf3,
  0xef, 0x18, 0xc5, 0xf3, 0x47, 0x91, 0xf8, 0x16, 0xaf, 0xf5, 0x61, 0x3d,
  0xcf, 0xde, 0x2c, 0x52, 0xf1, 0x2c, 0xfe, 0x66, 0xfc, 0x2f, 0xfe, 0xd5,
  0xdb, 0x03, 0xd5, 0x81, 0x1a, 0xaf, 0xac, 0xa2, 0x33, 0xe4, 0x60, 0x4c,
  0xb2, 0xaf, 0xf7, 0xc8, 0x1c, 0x38, 0xae, 0x54, 0x4c, 0x66, 0xd8, 0x0e,
  0x5f, 0x51, 0x3d, 0xcc, 0x85, 0x3f, 0x3a, 0xfb, 0x53, 0xa2, 0x0d, 0x49,
  0xc9, 0x03, 0xf2, 0x02, 0x0c, 0x7f, 0x18, 0x36, 0xc2, 0x2c, 0x2e, 0xd8,
  0x97, 0x2e, 0x16, 0xe2, 0xeb, 0x69, 0x1f, 0xbf, 0x4e, 0x1e, 0xba, 0xa0,
  0xdf, 0x84, 0x92, 0xd0, 0xb0, 0x32, 0x21, 0x53, 0x9b, 0xff, 0x1e, 0xc6,
  0xb2, 0xc5, 0xcb, 0x4b, 0xab, 0x48, 0x66, 0x00, 0x17, 0x57, 0x08, 0x09,
  0xa0, 0x4d, 0x72, 0xb0, 0x32, 0x67, 0xca, 0x6f, 0xbd, 0x4d, 0xc0, 0xbc,
  0x47, 0xb4, 0xbd, 0xd8, 0x2c, 0x7e, 0xf8, 0x3f, 0xb2, 0x90, 0xc0, 0x3b,
  0x9a, 0x14, 0x81, 0xd1, 0x5f, 0x52, 0x39, 0x04, 0xb5, 0x2d, 0xf4, 0xa6,
  0x0f, 0xa4, 0x44, 0x1e, 0x4c, 0xad, 0x68, 0xaf, 0x51, 0xd9, 0xde, 0xb0,
  0xb2, 0xf0, 0xc7, 0x47, 0xec, 0x4d, 0xac, 0x8a, 0xc8, 0x17, 0xac, 0x90,
  0x8b, 0x72, 0x58, 0x8b, 0x0e, 0x69, 0x00, 0x1c, 0x0b, 0xb8, 0x00, 0xd5,
  0xf4, 0x65, 0x32, 0x0e, 0xa8, 0x68, 0x5c, 0x61, 0x22, 0xe0, 0xe0, 0xb2,
  0xc1, 0xe4, 0x69, 0xf1, 0x35, 0x0f, 0x0b, 0x53, 0x70, 0x4f, 0xd9, 0xdb,
  0x9a, 0x67, 0xaf, 0x06, 0x4c, 0xbf, 0xad, 0xe1, 0xc2, 0x81, 0x65, 0x5b,
  0x63, 0xfd, 0x6a, 0xe3, 0x6c, 0xff, 0xba, 0xfb, 0x54, 0x98, 0x3e, 0x5c,
  0xcb, 0x53, 0xc8, 0x1d, 0x16, 0x29, 0x32, 0x93, 0x6e, 0xba, 0x9c, 0x56,
  0xc5, 0xf0, 0x4b, 0xd7, 0x24, 0x6d, 0xd9, 0x4d, 0xe5, 0xc8, 0x6e, 0x8c,
  0x9e, 0xa7, 0xb2, 0x15, 0xc0, 0xa3, 0xf5, 0xe0, 0xd0, 0x01, 0x47, 0x08,
  0xe2, 0xfe, 0xb1, 0xf8, 0x78, 0x1e, 0xaf, 0x8d, 0x02, 0x16, 0xea, 0x3e,
  0x3b, 0xf3, 0x51, 0x43, 0x06, 0x11, 0xf0, 0x3d, 0xe2, 0x7f, 0x33, 0xf3,
  0xf7, 0x62, 0xec, 0x20, 0x7f, 0xde, 0xcd, 0xa0, 0x3f, 0x43, 0x65, 0xce,
  0xd2, 0x1d, 0x14, 0xd9, 0x1a, 0xb7, 0x16, 0x04, 0x15, 0x4c, 0x96, 0x49,
  0xcc, 0x05, 0x1b, 0xfe, 0xd9, 0xea, 0xa5, 0x42, 0xb8, 0x9d, 0xe7, 0x27,
  0x28, 0x1c, 0x4b, 0x30, 0xd5, 0x1e, 0xdc, 0xb3, 0xc1, 0xc3, 0xe9, 0x14,
  0x13, 0xf6, 0xdf, 0x52, 0x7f, 0xde, 0x81, 0x15, 0x1a, 0x4a, 0x20, 0xc1,
  0x98, 0xc4, 0x56, 0x02, 0x60, 0x38, 0xe7, 0x08, 0xef, 0xa5, 0x01, 0x61,
  0xf2, 0xe9, 0xde, 0x25, 0x0e, 0x9c, 0x1a, 0xc5, 0x14, 0x0c, 0xfc, 0xd0,
  0xe8, 0xaf, 0x2c, 0x67, 0x63, 0x72, 0x1a, 0x58, 0x95, 0x33, 0x48, 0xa3,
  0xeb, 0x02, 0x53, 0xa8, 0x13, 0x5b, 0x31, 0xfc, 0x0d, 0xbd, 0xd3, 0x4e,
  0xe6, 0x6a, 0x5c, 0x34, 0x59, 0xc4, 0xb5, 0xc3, 0x6b, 0x8c, 0x66, 0xfc,
  0x08, 0xc2, 0x5f, 0x18, 0x45, 0xab, 0x1f, 0x14, 0x22, 0xc6, 0x67, 0xd0,
  0x7c, 0xce, 0xb4, 0x10, 0x2f, 0x25, 0x55, 0x9c, 0xc7, 0x5e, 0x8c, 0xd7,
  0x15, 0x2f, 0xca, 0x35, 0x03, 0x4a, 0x81, 0xcf, 0x12, 0xfb, 0x13, 0xe7,
  0xd3, 0xbd, 0xda, 0xd3, 0x0c, 0x64, 0xca, 0x03, 0x79, 0xa6, 0x4f, 0x5e,
  0x0d, 0x49, 0x2a, 0xae, 0x22, 0x3d, 0x49, 0xd6, 0x22, 0xf3, 0x07, 0xde,
  0xf7, 0xc8, 0xea, 0xe1, 0x4c, 0x0b, 0x36, 0x11, 0xd2, 0x4b, 0xab, 0x6a,
  0x07, 0xdf, 0xef, 0xac, 0xc9, 0xfa, 0xf2, 0x27, 0x2a, 0xb7, 0x68, 0x27,
  0x92, 0xd1, 0xdf, 0x35, 0x3d, 0xd8, 0x34, 0x30, 0xff, 0x16, 0x42, 0x41,
  0xfa, 0xc3, 0xc0, 0x43, 0x50, 0xd6, 0xb1, 0xa3, 0x0d, 0xac, 0xc4, 0x91,
  0x0c, 0x46, 0x07, 0x19, 0x2c, 0x51, 0x7f, 0xfc, 0x2c, 0x3a, 0xd7, 0x65,
  0xc0, 0x00, 0x19, 0xcb, 0xae, 0x1d, 0xe5, 0x3e, 0x96, 0x12, 0xc7, 0x3e,
  0x15, 0x0a, 0xa8, 0x96, 0x1f, 0x42, 0x3b, 0xf4, 0x1f, 0xec, 0x48, 0x33,
  0xd2, 0xcc, 0xf1, 0xb7, 0x1a, 0xf0, 0xf3, 0xa8, 0xa9, 0x56, 0x38, 0x40,
  0xe6, 0x60, 0xae, 0x47, 0x0f, 0x70, 0xdf, 0x39, 0xde, 0xeb, 0xd5, 0xce,
  0xa7, 0x10, 0x5e, 0xd3, 0x5f, 0xde, 0x28, 0x81, 0x69, 0xf8, 0x02, 0x1a,
  0x35, 0x9a, 0xb8, 0xb7, 0xab, 0x1c, 0xa8, 0x3d, 0xf9, 0xe3, 0xf2, 0x41,
  0xc4, 0x22, 0x1a, 0x21, 0x66, 0xcc, 0x64, 0x12, 0x22, 0x28, 0x51, 0x1e,
  0x2d, 0x40, 0x28, 0x0a, 0xc5, 0xfa, 0x41, 0x29, 0xba, 0xed, 0x11, 0x2e,
  0x8e, 0xea, 0x0b, 0xba, 0xfd, 0x22, 0x15, 0x45, 0xc1, 0x3c, 0xc7, 0x09,
  0xc1, 0xa4, 0x3c, 0x91, 0x33, 0x55, 0xe7, 0xbd, 0x81, 0x18, 0xa5, 0x55,
  0xd5, 0x48, 0x02, 0xaa, 0xc6, 0xcf, 0x67, 0x85, 0xbd, 0xe4, 0x50, 0x1c,
  0x43, 0xb0, 0x06, 0x6e, 0xbf, 0x44, 0x6f, 0x00, 0xfc, 0x60, 0x92, 0x42,
  0x04, 0xdf, 0xac, 0x1a, 0xe0, 0xa7, 0xff, 0xff, 0xe4, 0xa7, 0xff, 0xff,
  0xe8, 0xa7, 0xff, 0xff, 0x3a, 0xe9, 0xff, 0xff, 0x04, 0x00, 0x00, 0x00,
  0x60, 0x00, 0x00, 0x00, 0x00, 0x00, 0x00, 0x00, 0x00, 0x00, 0x00, 0x00,
  0x00, 0x00, 0x00, 0x00, 0x00, 0x00, 0x00, 0x00, 0x00, 0x00, 0x00, 0x00,
  0x00, 0x00, 0x00, 0x00, 0x00, 0x00, 0x00, 0x00, 0x00, 0x00, 0x00, 0x00,
  0x00, 0x00, 0x00, 0x00, 0x00, 0x00, 0x00, 0x00, 0x00, 0x00, 0x00, 0x00,
  0x00, 0x00, 0x00, 0x00, 0x00, 0x00, 0x00, 0x00, 0x00, 0x00, 0x00, 0x00,
  0x00, 0x00, 0x00, 0x00, 0x00, 0x00, 0x00, 0x00, 0x00, 0x00, 0x00, 0x00,
  0x00, 0x00, 0x00, 0x00, 0x00, 0x00, 0x00, 0x00, 0x00, 0x00, 0x00, 0x00,
  0x00, 0x00, 0x00, 0x00, 0x00, 0x00, 0x00, 0x00, 0x00, 0x00, 0x00, 0x00,
  0x00, 0x00, 0x00, 0x00, 0xa6, 0xe9, 0xff, 0xff, 0x04, 0x00, 0x00, 0x00,
  0x18, 0x00, 0x00, 0x00, 0xd9, 0xe6, 0xbf, 0x47, 0x5e, 0x04, 0x44, 0x24,
  0xa6, 0x27, 0x1f, 0x80, 0xa2, 0xf9, 0xd1, 0xdf, 0x29, 0x7f, 0xf1, 0xea,
  0x56, 0xeb, 0xd9, 0xdb, 0xca, 0xe9, 0xff, 0xff, 0x04, 0x00, 0x00, 0x00,
  0xc0, 0x06, 0x00, 0x00, 0x5f, 0x73, 0x9e, 0x6e, 0xa9, 0x01, 0xa6, 0x5c,
  0xc7, 0xfd, 0x52, 0x26, 0xdf, 0xb4, 0xb8, 0xc2, 0xe8, 0xb6, 0x1e, 0xb6,
  0x04, 0x7b, 0x1a, 0x72, 0x5d, 0x48, 0xcb, 0xdb, 0x91, 0x7c, 0x3b, 0x05,
  0x9f, 0xa6, 0x0d, 0xc0, 0xa5, 0xb0, 0x79, 0xa0, 0x69, 0xbf, 0xdc, 0xe1,
  0x13, 0x68, 0x46, 0x39, 0x7f, 0x5c, 0x85, 0x10, 0xd4, 0xc0, 0x4b, 0x55,
  0xd3, 0x6c, 0xd9, 0x94, 0xfc, 0x25, 0x48, 0xa5, 0xef, 0x13, 0xaa, 0xa3,
  0xeb, 0x50, 0x9c, 0x36, 0xdc, 0xf5, 0x2f, 0x83, 0x81, 0xc8, 0xbe, 0xb8,
  0x03, 0xed, 0x9c, 0xa3, 0x02, 0x45, 0x01, 0x45, 0x53, 0x0e, 0xc2, 0x99,
  0x25, 0x37, 0x8c, 0x87, 0xc6, 0x0e, 0xf1, 0xf1, 0xb9, 0xb3, 0x89, 0x27,
  0xcb, 0x00, 0x04, 0xcd, 0x91, 0x1c, 0xd5, 0xe0, 0x4e, 0xa3, 0xff, 0xfe,
  0x1c, 0xda, 0xce, 0x9b, 0xe6, 0x33, 0xbd, 0x4d, 0x91, 0x1b, 0x05, 0x81,
  0x44, 0xca, 0xc4, 0x43, 0x04, 0x08, 0xaa, 0xc1, 0x06, 0xdc, 0xe3, 0xe8,
  0x19, 0x62, 0x02, 0xbe, 0xad, 0xf1, 0x05, 0xd7, 0x74, 0x2d, 0xfd, 0x5f,
  0xb1, 0x5a, 0x2f, 0x7f, 0xfb, 0xad, 0xc3, 0xf6, 0x64, 0xf2, 0xd6, 0xb2,
  0xf2, 0x03, 0x3b, 0xe8, 0x19, 0x76, 0xc0, 0xbe, 0xae, 0x76, 0x6b, 0x65,
  0x50, 0x1d, 0x09, 0x7d, 0x42, 0x60, 0xc4, 0x1d, 0xe4, 0xca, 0x79, 0x0e,
  0x1a, 0x20, 0x30, 0x18, 0x96, 0xbd, 0x76, 0x68, 0xfc, 0xe8, 0x12, 0x64,
  0xdd, 0xbf, 0xd3, 0x65, 0xb8, 0x1a, 0x4c, 0xbf, 0x78, 0xfb, 0x4e, 0x5d,
  0xc5, 0xa6, 0x9d, 0x7e, 0xe1, 0x03, 0xe9, 0xc1, 0x11, 0xfe, 0xc4, 0x52,
  0x54, 0x1d, 0xd5, 0x19, 0xaf, 0xee, 0xff, 0x57, 0x0d, 0x8e, 0xd8, 0xb0,
  0x86, 0x55, 0x23, 0xa4, 0xe1, 0x47, 0x1e, 0xd6, 0xa9, 0xeb, 0x42, 0xfb,
  0x4a, 0xf1, 0x44, 0x40, 0x3e, 0x1c, 0x4c, 0xae, 0x7f, 0x15, 0x4d, 0x17,
  0x9f, 0x99, 0x31, 0x25, 0xcf, 0xe8, 0xb6, 0x31, 0x95, 0x3d, 0xfe, 0x3a,
  0x22, 0x4c, 0xdf, 0xec, 0xde, 0xcb, 0x0e, 0x38, 0xbd, 0x8b, 0xf9, 0x53,
  0xc1, 0xb8, 0x43, 0xcc, 0xe0, 0x8b, 0x0b, 0x2c, 0xe9, 0x26, 0x53, 0x2d,
  0xc5, 0xf4, 0x19, 0xfd, 0x48, 0xd8, 0x31, 0x01, 0x7a, 0x4f, 0x9e, 0x9e,
  0xb9, 0xbd, 0xc7, 0xa8, 0x42, 0x42, 0x42, 0x27, 0xb4, 0xca, 0x30, 0x94,
  0xfc, 0x1f, 0xf8, 0x81, 0x2d, 0x98, 0xe6, 0x86, 0xd9, 0xaf, 0x04, 0xde,
  0x42, 0x24, 0xc1, 0xae, 0xbf, 0xa2, 0x0c, 0xf8, 0xc9, 0x0e, 0xf0, 0xd9,
  0x30, 0xe4, 0xd5, 0xb1, 0xec, 0x29, 0x9b, 0x0e, 0x76, 0x60, 0xbf, 0xe2,
  0x4e, 0x56, 0x4f, 0xbf, 0x98, 0x2b, 0xed, 0x28, 0xf4, 0x1f, 0x81, 0x1e,
  0x01, 0xe4, 0xf6, 0x33, 0xbf, 0x96, 0x91, 0x0c, 0xda, 0x8f, 0xe0, 0xb8,
  0x15, 0xc2, 0xa9, 0x10, 0xad, 0xa6, 0xa9, 0x0f, 0x1a, 0xa0, 0x95, 0xcd,
  0x03, 0x58, 0x0e, 0x2c, 0x15, 0xee, 0xa2, 0xe7, 0x04, 0x4e, 0x41, 0x31,
  0x19, 0x1c, 0xf3, 0x83, 0xea, 0xf4, 0x9d, 0xbd, 0xa7, 0xd5, 0x0c, 0xe9,
  0xe9, 0xa2, 0xe2, 0xc7, 0xd1, 0x0c, 0xde, 0x2b, 0xc6, 0xb7, 0xdd, 0x3a,
  0x29, 0xa8, 0x23, 0x9f, 0x3b, 0xd3, 0xe6, 0x66, 0x29, 0xeb, 0x4b, 0x3d,
  0x6f, 0x7f, 0xc3, 0xd4, 0xb5, 0x9b, 0x53, 0x74, 0x97, 0x2e, 0xa6, 0xf8,
  0xa6, 0x43, 0x93, 0x82, 0xf7, 0xfb, 0x75, 0xa6, 0x30, 0xa5, 0xcb, 0x4c,
  0x5d, 0xc2, 0x96, 0xc9, 0xb3, 0x52, 0x48, 0x34, 0xbf, 0x4c, 0xc6, 0xeb,
  0xd1, 0x0a, 0xc7, 0xf8, 0xac, 0x05, 0x77, 0xd8, 0x09, 0x5a, 0x94, 0xb0,
  0x16, 0xc8, 0x02, 0x30, 0xc0, 0x78, 0x4f, 0xcd, 0xd6, 0xfb, 0xfc, 0xfe,
  0x1b, 0xeb, 0xc9, 0x2d, 0x20, 0xf2, 0x68, 0x51, 0x54, 0x29, 0x6e, 0xb1,
  0xd0, 0xae, 0xb5, 0x1e, 0xbf, 0x0c, 0x47, 0x2b, 0xb6, 0xa2, 0xf1, 0xb1,
  0x2c, 0x37, 0x16, 0x4e, 0xc7, 0x13, 0x25, 0x35, 0x44, 0x42, 0xfa, 0xdd,
  0x1c, 0x33, 0xc1, 0xce, 0x39, 0xd1, 0xd2, 0x23, 0xc7, 0x41, 0x7f, 0x0f,
  0xd4, 0xbd, 0xd9, 0xe6, 0x5c, 0xcb, 0xde, 0x18, 0xfe, 0xbe, 0x40, 0x5d,
  0xc7, 0x15, 0x37, 0xe9, 0x02, 0x2d, 0xc5, 0x34, 0xc2, 0xd2, 0x7d, 0x16,
  0x5e, 0xc7, 0x67, 0x2d, 0xd1, 0xb2, 0x04, 0xcc, 0x09, 0xcf, 0x11, 0x8c,
  0x12, 0xb7, 0x98, 0x17, 0x59, 0xa0, 0xe2, 0x2f, 0x3b, 0x5b, 0xc6, 0x63,
  0x02, 0x48, 0x16, 0x0f, 0xf4, 0xe2, 0x4e, 0xf6, 0xe0, 0x9a, 0xe9, 0x37,
  0xfa, 0xf3, 0xb4, 0x01, 0x51, 0x81, 0xe4, 0xd4, 0x31, 0xe2, 0xf6, 0x8b,
  0x01, 0xc5, 0x9b, 0x24, 0x37, 0x92, 0x0b, 0xa3, 0xc8, 0xd3, 0x0e, 0x4e,
  0x06, 0x47, 0x3c, 0x5f, 0x2e, 0xf3, 0x42, 0xbe, 0x58, 0x04, 0x9a, 0x4d,
  0xcb, 0xb9, 0xa4, 0x37, 0x3c, 0xe4, 0xc8, 0xc9, 0xc3, 0x53, 0xde, 0xa3,
  0xfc, 0x06, 0xd8, 0x41, 0x7f, 0x1f, 0x9d, 0xad, 0x5f, 0x44, 0x2c, 0x19,
  0x88, 0x1e, 0x8e, 0xb0, 0x90, 0xec, 0x00, 0x3f, 0x44, 0xe2, 0xee, 0x8f,
  0x43, 0x77, 0x40, 0xe1, 0x24, 0x2b, 0x2f, 0xaa, 0xa7, 0x99, 0x49, 0xfd,
  0xfa, 0xf2, 0x33, 0x6d, 0x32, 0x21, 0xe3, 0x42, 0xd2, 0x8f, 0xc7, 0x31,
  0xef, 0x4d, 0xb3, 0x78, 0xb1, 0x9c, 0x49, 0x78, 0xae, 0xf4, 0xe2, 0x4e,
  0xa1, 0xab, 0x10, 0x69, 0xa2, 0xd7, 0x5b, 0x95, 0x63, 0x21, 0x42, 0x11,
  0x19, 0x85, 0xb5, 0x0f, 0xc8, 0x05, 0xc2, 0x4f, 0xe5, 0x2a, 0x48, 0xdb,
  0xb2, 0x47, 0x37, 0x3d, 0x07, 0xc7, 0x46, 0xb9, 0xe5, 0xf8, 0x39, 0x4e,
  0x9c, 0x20, 0x25, 0xf0, 0x27, 0xe4, 0x16, 0xfd, 0xf8, 0x36, 0x19, 0xce,
  0xa5, 0x27, 0xcf, 0xce, 0xbf, 0x95, 0xd0, 0xba, 0x86, 0x32, 0x8c, 0x06,
  0x07, 0xd2, 0x0d, 0x4a, 0xd2, 0x54, 0xe3, 0x7f, 0xcc, 0x05, 0x45, 0xad,
  0xb5, 0x33, 0x65, 0x0f, 0x8a, 0xd0, 0xf4, 0x45, 0x22, 0xcf, 0x01, 0x62,
  0x81, 0x6e, 0xdb, 0x3a, 0x66, 0xd5, 0xf2, 0xb2, 0xf9, 0xac, 0xb9, 0x0b,
  0x61, 0xe0, 0xa9, 0xc4, 0x95, 0xd8, 0x8a, 0x06, 0xb4, 0x4e, 0xdf, 0x1c,
  0xcd, 0xaa, 0xc6, 0xa8, 0xe9, 0xf8, 0x26, 0x8e, 0x25, 0x5d, 0xea, 0x4e,
  0x59, 0x55, 0xf5, 0x52, 0x01, 0xf6, 0x9d, 0xc3, 0x3e, 0xdc, 0xa7, 0xf9,
  0x5d, 0x69, 0xe7, 0x4b, 0x39, 0xcd, 0xee, 0x8d, 0xcf, 0xb4, 0xd6, 0x9e,
  0xe8, 0x53, 0x2d, 0xec, 0x00, 0x91, 0x81, 0xe3, 0x9c, 0xb0, 0x30, 0xf3,
  0x43, 0x38, 0xdb, 0xfc, 0x08, 0x40, 0x4f, 0xec, 0x03, 0xa2, 0x45, 0xe2,
  0x2a, 0xf2, 0xf0, 0x60, 0xb6, 0xfb, 0xae, 0x42, 0x37, 0x1e, 0xf5, 0xb0,
  0xcd, 0xbb, 0xd5, 0xc1, 0x22, 0xee, 0xef, 0x5a, 0xab, 0xed, 0x83, 0x2b,
  0x91, 0x3d, 0xc8, 0xa6, 0x8c, 0x85, 0x88, 0xda, 0xfc, 0x19, 0x3d, 0x3e,
  0xfd, 0x40, 0xb1, 0x6b, 0xd4, 0x1f, 0x4d, 0x4e, 0x4b, 0xf6, 0x84, 0x1e,
  0x81, 0x5f, 0x9f, 0xbe, 0xaf, 0x14, 0x27, 0xc4, 0xf3, 0xf6, 0xad, 0x2d,
  0x00, 0x40, 0xb4, 0x32, 0xe4, 0x1d, 0x35, 0x0e, 0x42, 0xd9, 0x01, 0xc5,
  0x9e, 0xc2, 0xec, 0x3c, 0x00, 0xf8, 0x01, 0x05, 0x11, 0xd5, 0x14, 0xf8,
  0x1b, 0xc5, 0xcc, 0xf7, 0xb2, 0x2d, 0x8f, 0xf6, 0x26, 0xf7, 0xc9, 0xc3,
  0xda, 0xc5, 0xea, 0x03, 0xe0, 0xfa, 0x0c, 0x3e, 0xf6, 0x1e, 0x81, 0x1e,
  0x11, 0xe6, 0xfa, 0xc6, 0xef, 0x55, 0xc3, 0x1e, 0x3f, 0x04, 0xfe, 0xe8,
  0xbe, 0x38, 0x0e, 0xd2, 0xe2, 0x45, 0x06, 0xb5, 0x07, 0x52, 0x12, 0x3c,
  0xd5, 0x19, 0xc8, 0x1d, 0xd1, 0xba, 0xbd, 0x28, 0x9c, 0x26, 0x57, 0x5c,
  0xe3, 0x0d, 0x21, 0xb1, 0x39, 0xad, 0x4a, 0xe9, 0x27, 0xef, 0x15, 0xce,
  0x9c, 0xa5, 0xbe, 0xf0, 0x13, 0x45, 0xe0, 0x93, 0x40, 0xfb, 0x81, 0x3c,
  0xf3, 0xf3, 0x97, 0x48, 0xa6, 0x4b, 0x41, 0xfe, 0xaf, 0x40, 0x0b, 0xa8,
  0x9e, 0x99, 0x45, 0x02, 0x8a, 0xa2, 0x54, 0x37, 0xc1, 0xa1, 0x4c, 0xdb,
  0x3d, 0xb2, 0x51, 0xde, 0x59, 0x32, 0x14, 0x06, 0xfe, 0xd1, 0x32, 0x29,
  0xfe, 0x0b, 0x54, 0x76, 0x2a, 0x50, 0x36, 0x20, 0xd3, 0xc5, 0xda, 0xf1,
  0xab, 0x81, 0x85, 0x5c, 0x57, 0x33, 0xf2, 0xbc, 0x7e, 0x2e, 0x27, 0xff,
  0xff, 0xc6, 0x10, 0xe5, 0x2b, 0xfd, 0x74, 0xc5, 0xe4, 0xca, 0x62, 0xe6,
  0xb4, 0x32, 0xe9, 0x96, 0x2b, 0x07, 0x4b, 0xba, 0xdc, 0x44, 0x3e, 0xba,
  0x82, 0xcd, 0xf1, 0xe5, 0x49, 0xe6, 0x40, 0xd9, 0x46, 0x0f, 0xd3, 0xc3,
  0x64, 0x62, 0xf0, 0x0c, 0x02, 0xf9, 0x4c, 0x04, 0x4d, 0x81, 0x9f, 0x5c,
  0xea, 0x06, 0x92, 0xaf, 0x13, 0x6e, 0x5e, 0x32, 0xb8, 0xe2, 0xd0, 0x27,
  0x22, 0x51, 0x55, 0x5e, 0x2a, 0x5e, 0x8f, 0xc4, 0xf2, 0x34, 0xa0, 0xed,
  0x1a, 0xde, 0xc2, 0x44, 0x4b, 0xa7, 0x29, 0x8d, 0x56, 0x37, 0x02, 0x17,
  0x8d, 0x47, 0xeb, 0xed, 0x4c, 0xc5, 0xcc, 0xeb, 0xaa, 0xcd, 0xb8, 0xd0,
  0x4a, 0x59, 0x8b, 0xdd, 0x50, 0x1f, 0x8b, 0x13, 0x37, 0xc3, 0x03, 0x14,
  0xaf, 0xb6, 0x30, 0xc7, 0x59, 0x92, 0x76, 0xfc, 0x23, 0xb5, 0xc1, 0xe8,
  0x7f, 0xbe, 0xb0, 0x27, 0xe6, 0x00, 0xdd, 0x22, 0x12, 0x9a, 0xad, 0xeb,
  0x2d, 0x04, 0x6f, 0xd8, 0x63, 0x6b, 0xc3, 0x26, 0xce, 0xae, 0x4f, 0x38,
  0x8b, 0x49, 0x6c, 0x5b, 0x75, 0x36, 0x22, 0xcb, 0x30, 0xec, 0xd1, 0x35,
  0xec, 0x8b, 0x6c, 0x93, 0xf9, 0xdb, 0xc6, 0xc7, 0x4b, 0x0c, 0xb5, 0x76,
  0x85, 0x07, 0xb1, 0x53, 0xd0, 0x97, 0x83, 0x1b, 0x62, 0x51, 0x17, 0x50,
  0xf6, 0x4d, 0xb0, 0xb4, 0xb5, 0xf6, 0xbc, 0xa9, 0x08, 0x58, 0xc3, 0xe1,
  0xdf, 0x24, 0xfc, 0x24, 0xf5, 0x1e, 0x3f, 0x81, 0x39, 0x59, 0xb7, 0x5b,
  0x4f, 0x38, 0x40, 0x3d, 0x38, 0xee, 0x44, 0x52, 0xc2, 0x17, 0x49, 0x61,
  0x32, 0xbe, 0xe3, 0xa5, 0x23, 0x2e, 0x32, 0xfa, 0xfb, 0x57, 0xac, 0x09,
  0x3a, 0x2c, 0xed, 0xf7, 0x19, 0xcc, 0x15, 0xc5, 0xbe, 0x4a, 0x2c, 0x22,
  0xf9, 0x09, 0x33, 0xf8, 0xcd, 0xcc, 0x1a, 0xe0, 0x03, 0x2d, 0x38, 0x1d,
  0x22, 0x14, 0xab, 0xa4, 0xad, 0x15, 0x88, 0x59, 0x95, 0xdb, 0xca, 0xf9,
  0xdf, 0x00, 0x5e, 0xbc, 0x8c, 0x04, 0x0e, 0xa3, 0x18, 0xba, 0x52, 0x14,
  0x16, 0x4b, 0xef, 0xa3, 0x45, 0xbe, 0xa5, 0xe2, 0x65, 0xef, 0xb4, 0x96,
  0x24, 0x6c, 0x81, 0xa7, 0x36, 0x58, 0xdf, 0x87, 0x93, 0x6a, 0xbf, 0x33,
  0xb7, 0x0d, 0x84, 0x97, 0xdd, 0xaf, 0x04, 0xa0, 0x0c, 0x41, 0xd0, 0x0e,
  0x4f, 0xe7, 0xc1, 0xc1, 0x2f, 0x51, 0xf5, 0x30, 0xb8, 0x52, 0xe4, 0x16,
  0xe6, 0xed, 0x45, 0x1b, 0x62, 0x46, 0x9b, 0xb7, 0x82, 0xdc, 0x95, 0x52,
  0xca, 0xb9, 0x44, 0x6a, 0xa1, 0x45, 0x0b, 0xc0, 0xcb, 0xef, 0x2f, 0xed,
  0x9f, 0x08, 0x96, 0x89, 0x4d, 0x37, 0x97, 0x3c, 0x4e, 0x44, 0x35, 0x5e,
  0x8d, 0xad, 0xdc, 0x38, 0xf0, 0x95, 0x88, 0x6b, 0x73, 0xfd, 0x93, 0x5d,
  0xc2, 0x08, 0xe7, 0xf4, 0x62, 0x24, 0x10, 0xf5, 0x9b, 0xc7, 0x02, 0xdc,
  0x8b, 0x97, 0x9b, 0x3d, 0x0d, 0xe6, 0x81, 0x5d, 0xed, 0xd8, 0x59, 0x21,
  0x24, 0x97, 0x3b, 0x46, 0x2c, 0xc1, 0xbe, 0xae, 0xa6, 0xe3, 0xf3, 0x3d,
  0xca, 0x08, 0xb6, 0xba, 0xe7, 0x54, 0xb4, 0xb4, 0x8c, 0xf1, 0xfd, 0x56,
  0x5e, 0x3d, 0xe3, 0xce, 0xfc, 0x2f, 0x49, 0xf5, 0x99, 0xa5, 0x91, 0xe9,
  0x3f, 0x16, 0xad, 0x02, 0x4c, 0x4d, 0xee, 0xac, 0x24, 0x81, 0x55, 0xfc,
  0x62, 0x2e, 0x29, 0x29, 0x23, 0x19, 0x07, 0x79, 0x3b, 0xb2, 0x09, 0x54,
  0x35, 0xfb, 0x95, 0xa2, 0x12, 0xcd, 0x2c, 0xde, 0xca, 0xfc, 0x23, 0x9e,
  0xc5, 0x36, 0xae, 0xaf, 0x5f, 0x9b, 0x5a, 0xfe, 0x9f, 0x50, 0x05, 0x20,
  0x37, 0x16, 0x41, 0x2e, 0x53, 0x22, 0x30, 0x57, 0xab, 0x9e, 0xab, 0xbf,
  0x43, 0x12, 0x89, 0xd1, 0x4d, 0xbe, 0x54, 0xbc, 0x5e, 0xe9, 0xdc, 0x22,
  0x07, 0x24, 0x82, 0x3e, 0xf1, 0xa7, 0x52, 0x4e, 0x85, 0x2c, 0xfa, 0xc7,
  0x45, 0xe2, 0xcd, 0x22, 0x46, 0x23, 0x46, 0xe9, 0x9a, 0xc5, 0x81, 0xdd,
  0x8b, 0x18, 0x0d, 0x54, 0x76, 0xf3, 0x46, 0x18, 0x96, 0xd7, 0xb6, 0x5d,
  0x0b, 0x0d, 0x4d, 0xe1, 0xdd, 0xfd, 0xe6, 0x64, 0xbb, 0xc2, 0x0d, 0x4d,
  0xfb, 0x31, 0xba, 0x27, 0x63, 0xe9, 0xa7, 0x3b, 0xfe, 0x46, 0xa5, 0x39,
  0xc4, 0xca, 0x9d, 0xe4, 0xf0, 0x46, 0x99, 0xa6, 0x46, 0xb0, 0xde, 0x00,
  0xa5, 0x89, 0x72, 0x3f, 0xd2, 0xeb, 0x2f, 0x21, 0xcc, 0xcb, 0x2e, 0x4f,
  0x1e, 0xcb, 0xe2, 0xfe, 0x7f, 0x9a, 0x4b, 0x5d, 0x61, 0x48, 0x5b, 0x5d,
  0xc8, 0xc7, 0xf9, 0x62, 0x5b, 0xce, 0x33, 0xa0, 0xda, 0x6e, 0xe3, 0xde,
  0xf4, 0x8a, 0xa6, 0xbd, 0x96, 0xf0, 0xff, 0xff, 0x04, 0x00, 0x00, 0x00,
  0x18, 0x00, 0x00, 0x00, 0x05, 0x80, 0x15, 0xd7, 0x16, 0xed, 0x32, 0x55,
  0x00, 0x0a, 0xc3, 0x30, 0xb1, 0x10, 0xf9, 0x2d, 0xe1, 0x7f, 0x21, 0x13,
  0x00, 0x16, 0xf6, 0x3b, 0xba, 0xf0, 0xff, 0xff, 0x04, 0x00, 0x00, 0x00,
  0xc0, 0x06, 0x00, 0x00, 0x69, 0x39, 0xb6, 0x68, 0xdd, 0x0a, 0x5a, 0x0b,
  0x4a, 0x4c, 0x90, 0xef, 0x51, 0xcc, 0x24, 0xad, 0x6f, 0xd5, 0xa9, 0xd3,
  0x7f, 0x9b, 0xca, 0x1b, 0x24, 0xbb, 0x4c, 0xb3, 0xd9, 0x25, 0x2e, 0x1a,
  0x5a, 0xa1, 0x16, 0xac, 0x30, 0x4c, 0xdb, 0x1d, 0x48, 0x86, 0x4f, 0xbf,
  0xa8, 0xd5, 0xb9, 0x62, 0x50, 0x8c, 0xc4, 0x13, 0xe9, 0xce, 0x55, 0x57,
  0xe5, 0x47, 0x13, 0xdd, 0xc3, 0xc6, 0xe4, 0xf8, 0xd8, 0xa3, 0x06, 0xdb,
  0x77, 0x02, 0x61, 0x08, 0x01, 0x37, 0xbb, 0x13, 0x75, 0x8e, 0x54, 0xd3,
  0x83, 0x0e, 0xdc, 0x25, 0x37, 0x67, 0xb7, 0x29, 0x15, 0xb8, 0x0c, 0xde,
  0x41, 0x1c, 0x7a, 0x07, 0xab, 0x16, 0x11, 0x00, 0x65, 0xac, 0x68, 0xe4,
  0x31, 0x5d, 0x7e, 0x9c, 0xd1, 0x7f, 0xe9, 0x30, 0x60, 0xa1, 0xea, 0xc4,
  0x27, 0x7c, 0x77, 0xbf, 0x15, 0xe8, 0x32, 0x76, 0xbb, 0x37, 0xae, 0xee,
  0xe9, 0x68, 0xf0, 0x52, 0x12, 0xc6, 0x50, 0x1c, 0xb3, 0xcf, 0xc7, 0x2e,
  0x2e, 0xda, 0xd8, 0xf8, 0x1e, 0x4e, 0x8d, 0xe3, 0xfd, 0xf4, 0x78, 0xe0,
  0x6b, 0x11, 0xb1, 0x05, 0xee, 0xcc, 0x14, 0xf4, 0xf3, 0xd7, 0xc1, 0xda,
  0x2b, 0xe5, 0xb0, 0x58, 0xde, 0x5c, 0xc8, 0x67, 0x06, 0x31, 0x2e, 0xbb,
  0x20, 0x4a, 0x03, 0x36, 0x10, 0xf6, 0xf2, 0xc7, 0x43, 0x21, 0x14, 0xb8,
  0xc8, 0x3a, 0x43, 0xfe, 0xff, 0xc5, 0xde, 0x6d, 0x38, 0x7f, 0x48, 0x60,
  0xd2, 0xef, 0xd3, 0xa5, 0x15, 0xd0, 0x6b, 0xe4, 0x44, 0xf6, 0x74, 0xfa,
  0xa4, 0x30, 0x3b, 0x46, 0x5e, 0xcc, 0xce, 0x08, 0x3d, 0xe9, 0x25, 0x0f,
  0xcb, 0x25, 0x0d, 0xe4, 0x2c, 0x53, 0xd0, 0x36, 0x42, 0xc1, 0x2f, 0xdd,
  0xd7, 0x10, 0x56, 0xf2, 0x56, 0xad, 0xe7, 0x9b, 0xbf, 0xdf, 0xae, 0x01,
  0xb3, 0x93, 0x27, 0x43, 0xd1, 0xbc, 0xc8, 0x34, 0x3f, 0x63, 0x0a, 0xbe,
  0x3b, 0x12, 0xd9, 0x03, 0x28, 0xdc, 0xf2, 0x3e, 0x4f, 0xa4, 0x5e, 0xf1,
  0xfd, 0xbf, 0x31, 0x59, 0x0a, 0x23, 0xdb, 0xdb, 0x10, 0xb9, 0x81, 0x4d,
  0xde, 0xaf, 0x12, 0x02, 0x3f, 0x4a, 0xbd, 0xfc, 0xde, 0xc0, 0x19, 0x03,
  0x3e, 0x48, 0x5d, 0xf4, 0xd1, 0x03, 0x12, 0xcf, 0xdc, 0xca, 0xed, 0x40,
  0xac, 0x22, 0x4b, 0x39, 0xde, 0xf7, 0x1e, 0xb6, 0xcf, 0xfc, 0x11, 0xc2,
  0x10, 0x66, 0x29, 0xe1, 0x27, 0x6c, 0x6a, 0xb0, 0x51, 0x20, 0xe5, 0xac,
  0xdf, 0x27, 0xf2, 0xf3, 0x20, 0xe6, 0xbf, 0x20, 0x19, 0x35, 0x7f, 0xb6,
  0x06, 0x7c, 0xda, 0x1e, 0x52, 0xd7, 0xf6, 0xba, 0xe1, 0xd7, 0xea, 0xac,
  0x6c, 0x2f, 0x16, 0xff, 0xe0, 0xec, 0xae, 0x42, 0x47, 0x9a, 0xaa, 0xbc,
  0xdc, 0xc8, 0xe9, 0x7d, 0x2c, 0xd3, 0x26, 0x07, 0x86, 0x00, 0x4b, 0x29,
  0x25, 0x18, 0x4a, 0x4a, 0xa7, 0xa4, 0xd1, 0x3f, 0xa3, 0xda, 0x86, 0xef,
  0x0a, 0x01, 0x81, 0xd4, 0x92, 0xf4, 0xec, 0xec, 0xe3, 0x23, 0xe7, 0xe5,
  0x20, 0x5a, 0x10, 0x34, 0xdd, 0x01, 0xa9, 0x98, 0x4f, 0xd6, 0xc3, 0xbf,
  0x0f, 0x8a, 0x59, 0x54, 0x4f, 0x7f, 0x3a, 0xf6, 0x41, 0x65, 0x90, 0x02,
  0x9f, 0x50, 0xf7, 0x45, 0x4f, 0x28, 0x11, 0xc8, 0xf3, 0xc8, 0x67, 0xbe,
  0x0f, 0xe2, 0x4c, 0x47, 0x7f, 0xd1, 0x1c, 0x17, 0x06, 0x32, 0x47, 0x2d,
  0xdc, 0xf6, 0xf4, 0x0e, 0xc1, 0xc4, 0xd4, 0x16, 0x57, 0xae, 0x3e, 0xf2,
  0x47, 0x4f, 0x17, 0x5c, 0x34, 0xca, 0x73, 0xf2, 0xc9, 0x16, 0xfd, 0x40,
  0xd5, 0x12, 0x43, 0xc0, 0xe4, 0x12, 0xca, 0x49, 0xe6, 0xd1, 0xf0, 0x11,
  0xd4, 0x0f, 0x23, 0x04, 0x4d, 0xe8, 0x47, 0x32, 0x1a, 0xe0, 0x48, 0x0e,
  0x08, 0x56, 0xb7, 0xd6, 0xdb, 0xea, 0x48, 0x01, 0x10, 0x76, 0x60, 0xc3,
  0xd0, 0x46, 0x00, 0x7c, 0xd8, 0x73, 0x18, 0xce, 0xd4, 0xd6, 0x26, 0x6d,
  0xdf, 0x2b, 0x7f, 0xd7, 0x23, 0x33, 0xfa, 0x39, 0x9f, 0x68, 0x3d, 0xbe,
  0x6e, 0xc8, 0xc9, 0x44, 0x6a, 0xe6, 0xe5, 0x56, 0xfa, 0x05, 0x1f, 0xe2,
  0x46, 0xae, 0x3a, 0xd6, 0x56, 0x0f, 0x2b, 0x94, 0x90, 0xe5, 0xca, 0x15,
  0x1f, 0x22, 0xa8, 0xb3, 0xbf, 0xa2, 0x2e, 0xac, 0x6a, 0x23, 0xe9, 0xce,
  0x0d, 0xa6, 0xc4, 0x03, 0x4c, 0x2d, 0xc3, 0xfc, 0x34, 0xe7, 0x42, 0xa0,
  0xe0, 0x81, 0xcc, 0x31, 0x43, 0x16, 0xe4, 0xf1, 0x08, 0x46, 0xe1, 0xdb,
  0x0f, 0xbd, 0x17, 0x27, 0xc1, 0xc6, 0x97, 0x1c, 0x1b, 0x40, 0x17, 0xfd,
  0x33, 0x8a, 0x81, 0x4c, 0x3d, 0x0b, 0x0c, 0x4a, 0xc8, 0x6a, 0xd3, 0xd3,
  0x9b, 0xfc, 0x24, 0x30, 0xa7, 0xb1, 0xcc, 0x37, 0x1f, 0x42, 0xcd, 0xbf,
  0xa7, 0xa4, 0x1f, 0x34, 0x3f, 0xf5, 0x24, 0xed, 0xf6, 0x65, 0x30, 0x45,
  0xe5, 0xab, 0x38, 0xa5, 0x35, 0x11, 0x6d, 0xc5, 0x01, 0x17, 0x0d, 0x2a,
  0xd5, 0xa0, 0xab, 0xbd, 0x44, 0x2e, 0xa9, 0x09, 0xe1, 0x15, 0x92, 0xaa,
  0xfa, 0xc2, 0xfe, 0x1c, 0x7f, 0x0c, 0x2c, 0x19, 0xc1, 0xb3, 0xad, 0xc6,
  0xac, 0xc5, 0xdb, 0x23, 0xa9, 0x28, 0x56, 0xb3, 0xc3, 0xc4, 0xfb, 0x49,
  0x19, 0x1a, 0xe0, 0xe4, 0x3e, 0x3a, 0x1d, 0x39, 0xd4, 0x59, 0x62, 0x6a,
  0x45, 0xad, 0x46, 0xe9, 0xd0, 0x29, 0x0b, 0xc7, 0xb9, 0xb2, 0xbe, 0xea,
  0xcf, 0x43, 0x58, 0x1e, 0x20, 0x28, 0xf7, 0x66, 0x42, 0x44, 0x04, 0xee,
  0x27, 0xf5, 0x15, 0xfc, 0xd6, 0xff, 0xd1, 0x64, 0x23, 0xdb, 0xaa, 0x45,
  0x2b, 0x1d, 0xf7, 0x5d, 0x60, 0x14, 0xd2, 0x57, 0xa5, 0xf8, 0xb8, 0x08,
  0x98, 0x47, 0xe9, 0x24, 0x61, 0x63, 0xf7, 0xa1, 0x66, 0x6e, 0x38, 0x23,
  0xb3, 0x05, 0xc6, 0xe9, 0x12, 0x0f, 0xf2, 0xad, 0x9e, 0x1a, 0xf3, 0xf5,
  0x0f, 0x81, 0xe4, 0xde, 0x34, 0x9c, 0xe3, 0xdc, 0xd6, 0x2e, 0xc2, 0x5a,
  0x42, 0x97, 0x98, 0x0d, 0x6c, 0x15, 0xa4, 0x64, 0x9b, 0x5e, 0xb8, 0x3c,
  0xf2, 0xff, 0xce, 0x7a, 0x5c, 0x57, 0x47, 0x9a, 0x81, 0xa3, 0x32, 0x0a,
  0x9d, 0x99, 0x94, 0x5c, 0x2b, 0x1b, 0xb7, 0xf3, 0x15, 0xe0, 0x71, 0xc2,
  0xf2, 0x85, 0x67, 0x4d, 0x35, 0x05, 0x26, 0x7d, 0x8b, 0xd0, 0x0e, 0x3d,
  0x2c, 0x70, 0x24, 0x60, 0x9a, 0xbd, 0x9b, 0xe5, 0x46, 0xe4, 0x10, 0xce,
  0x0f, 0xe1, 0x81, 0x69, 0x6a, 0x5f, 0x2e, 0x39, 0x3c, 0x97, 0x54, 0xba,
  0xc2, 0x93, 0x9b, 0x67, 0xd1, 0xc1, 0x33, 0x27, 0x21, 0x2a, 0xe4, 0xb6,
  0x8e, 0xd4, 0x42, 0x2f, 0xe0, 0x7f, 0x00, 0x7e, 0x5a, 0x67, 0x3f, 0xcc,
  0x22, 0xd8, 0x33, 0xa9, 0x4c, 0xdb, 0x6a, 0xcf, 0x0e, 0x5e, 0x88, 0xac,
  0x62, 0xd8, 0x02, 0xf4, 0x43, 0x4a, 0xee, 0x02, 0xb8, 0xf3, 0x29, 0xf5,
  0x10, 0xe6, 0x40, 0xfc, 0xfe, 0x4a, 0x43, 0xa6, 0xeb, 0x45, 0x5c, 0x1c,
  0x02, 0x96, 0xad, 0xbf, 0xbf, 0x6c, 0x14, 0xda, 0xae, 0x50, 0x14, 0x08,
  0xd0, 0x0f, 0x24, 0x4e, 0xb3, 0xf4, 0xe6, 0x44, 0x40, 0x19, 0xd0, 0xa7,
  0x10, 0xc8, 0xc0, 0x28, 0x14, 0xd1, 0x12, 0x06, 0xa4, 0xe1, 0x1c, 0x0b,
  0xa0, 0xd5, 0x31, 0x0c, 0xbc, 0xaf, 0x81, 0x42, 0x3e, 0xa3, 0xe4, 0xf5,
  0x9d, 0xf1, 0xc6, 0xcf, 0xee, 0x22, 0x49, 0x4c, 0xcc, 0x08, 0x22, 0xf4,
  0xb0, 0x19, 0xe3, 0x3d, 0x53, 0xfa, 0xb1, 0xe8, 0x14, 0x2a, 0x15, 0x08,
  0xd8, 0xd9, 0xa7, 0x01, 0x07, 0x09, 0x21, 0xe0, 0x4b, 0xe9, 0xbb, 0xfe,
  0x9c, 0x9c, 0x38, 0xb9, 0x57, 0x81, 0xf2, 0x9a, 0x96, 0xbf, 0x0d, 0x02,
  0xd2, 0x3a, 0x01, 0xfe, 0xec, 0x5d, 0x74, 0x4b, 0xa1, 0xd7, 0xef, 0x14,
  0xba, 0x32, 0x93, 0xc9, 0x5c, 0x3d, 0xaf, 0x3c, 0xa5, 0x37, 0x64, 0x56,
  0xed, 0xe1, 0xb5, 0x0e, 0x71, 0xe7, 0x68, 0x05, 0x24, 0x62, 0x02, 0xc3,
  0xbe, 0xd4, 0xd2, 0x2c, 0xb5, 0x67, 0x31, 0x20, 0x99, 0x42, 0x1f, 0x83,
  0xcd, 0xd1, 0x35, 0xbb, 0x18, 0xda, 0x49, 0xf0, 0xa8, 0xa6, 0x41, 0xaf,
  0x58, 0xfb, 0xeb, 0xf8, 0x0a, 0xf8, 0xc0, 0x13, 0xfc, 0x2b, 0xcb, 0x08,
  0xe3, 0x2c, 0x4e, 0xaa, 0x15, 0x70, 0x2d, 0xeb, 0x4e, 0xab, 0x03, 0xee,
  0x4c, 0xd4, 0xd0, 0x95, 0x4c, 0x5b, 0xf4, 0xa9, 0xe9, 0xb9, 0xbc, 0x81,
  0x48, 0x9c, 0xd8, 0xee, 0x61, 0x69, 0xd3, 0x06, 0xc8, 0xf1, 0x44, 0xdf,
  0xd9, 0xb6, 0xf9, 0xd5, 0xac, 0xe3, 0x58, 0xf7, 0x11, 0x18, 0x27, 0xdb,
  0xdd, 0xf2, 0x37, 0x14, 0xc2, 0xed, 0x48, 0xd5, 0x2c, 0xdd, 0x24, 0x58,
  0xa4, 0xec, 0xf7, 0x09, 0xed, 0xc8, 0xf4, 0xc7, 0xf4, 0x08, 0x62, 0xc1,
  0xff, 0x54, 0x63, 0xeb, 0x5f, 0x2f, 0xb7, 0xcd, 0xa4, 0x9d, 0x9a, 0x1f,
  0x6e, 0xf3, 0xbd, 0xeb, 0xa9, 0x42, 0x06, 0xd9, 0xa9, 0xd4, 0xfd, 0xc7,
  0x1f, 0x9d, 0x67, 0xd2, 0x0f, 0x38, 0x7f, 0x13, 0x35, 0x15, 0x15, 0x20,
  0x59, 0x1b, 0xbf, 0xc4, 0x5e, 0xdc, 0x2e, 0x45, 0x13, 0xdf, 0x22, 0xfe,
  0xe9, 0x04, 0xec, 0x34, 0x65, 0x0a, 0xf9, 0xed, 0xc3, 0x55, 0x23, 0xa8,
  0x5f, 0x5a, 0x58, 0x2c, 0x4b, 0x6f, 0x91, 0x4b, 0x17, 0xeb, 0x7f, 0x98,
  0x5e, 0x2a, 0xc4, 0xa2, 0xe3, 0x13, 0xa1, 0x11, 0xd0, 0xed, 0xa7, 0xfc,
  0x9e, 0xa1, 0x6d, 0x78, 0xbd, 0x2c, 0xbf, 0x10, 0x28, 0x1b, 0x55, 0x01,
  0xce, 0xf2, 0xf5, 0xd5, 0x1d, 0x66, 0x14, 0x92, 0xb9, 0x2c, 0xde, 0x54,
  0xd1, 0x42, 0x04, 0x03, 0x1b, 0x75, 0x8b, 0x43, 0x4f, 0x08, 0x5b, 0x03,
  0xc7, 0x27, 0xdc, 0xab, 0x1b, 0x4e, 0x3c, 0x2e, 0xba, 0xa0, 0xca, 0xb1,
  0x4c, 0x9d, 0x42, 0x95, 0xce, 0x0c, 0x23, 0x4b, 0xc5, 0xad, 0x64, 0xde,
  0x06, 0xce, 0xad, 0xdb, 0xe6, 0xec, 0x13, 0xfa, 0x7f, 0x36, 0xb4, 0x3a,
  0x52, 0x4c, 0x6b, 0x04, 0xb0, 0x2b, 0xd8, 0x3b, 0x29, 0xb3, 0x53, 0xf8,
  0x63, 0xc6, 0x6b, 0x4d, 0xc6, 0x97, 0x6f, 0xb1, 0x4c, 0xa8, 0xd8, 0x9a,
  0x32, 0x14, 0xdc, 0x53, 0x3d, 0x39, 0xff, 0x06, 0xf5, 0xca, 0x0b, 0x06,
  0xd9, 0x56, 0x0a, 0x05, 0x18, 0x2f, 0x66, 0xb2, 0xe7, 0xe6, 0x00, 0xbd,
  0x1b, 0x23, 0x70, 0x5b, 0xb7, 0x24, 0x35, 0x42, 0x0d, 0xb0, 0xed, 0xdf,
  0x69, 0x68, 0x0d, 0x6a, 0xde, 0x54, 0x20, 0xd5, 0x9e, 0x04, 0x0b, 0xf1,
  0xdf, 0xa1, 0x5b, 0xc3, 0xee, 0x88, 0x7a, 0x89, 0x01, 0x4d, 0x6a, 0x06,
  0x43, 0x27, 0x81, 0x50, 0x9c, 0xee, 0xb4, 0x66, 0xfa, 0x76, 0xe1, 0x00,
  0xcd, 0x3b, 0x8a, 0x01, 0x03, 0xf4, 0x70, 0x21, 0xea, 0x06, 0x57, 0x16,
  0x9f, 0x2b, 0x35, 0xec, 0xf6, 0x23, 0xe4, 0x65, 0xb0, 0x57, 0x25, 0xda,
  0x03, 0x4f, 0x40, 0xd7, 0xcb, 0x05, 0xf6, 0x8d, 0x53, 0xcc, 0xb5, 0x81,
  0xf8, 0x1e, 0xb8, 0x3d, 0xca, 0x11, 0x00, 0x34, 0x2b, 0xd6, 0xc1, 0xa8,
  0x19, 0x0b, 0xf6, 0x4e, 0x0b, 0x05, 0x55, 0xa8, 0xe8, 0x30, 0xb4, 0x34,
  0xe7, 0xd8, 0xe0, 0xc4, 0x10, 0x31, 0xcc, 0x29, 0xc7, 0x3f, 0x31, 0xd2,
  0xbc, 0xbb, 0x72, 0xe9, 0xd3, 0xe8, 0xc5, 0xff, 0xc8, 0x18, 0x45, 0xba,
  0x3c, 0xa5, 0x9c, 0x2e, 0x1e, 0xfd, 0x13, 0x26, 0x57, 0x2c, 0xd8, 0xcb,
  0x04, 0xc0, 0xdb, 0x4e, 0x25, 0xa4, 0xdf, 0x97, 0xd0, 0x81, 0x37, 0xe6,
  0x5d, 0xfa, 0x6a, 0x41, 0x1f, 0x55, 0xea, 0xf8, 0x0e, 0x98, 0xc4, 0x2c,
  0xe1, 0x1f, 0x4b, 0x15, 0xc6, 0x2c, 0x98, 0x9b, 0x62, 0xe9, 0x50, 0xb9,
  0x39, 0xde, 0x0c, 0x53, 0x24, 0x44, 0x63, 0xab, 0x4e, 0xf6, 0x23, 0xbb,
  0x46, 0x23, 0xe7, 0x17, 0xe0, 0xf4, 0x44, 0xac, 0x2d, 0xb5, 0x38, 0x09,
  0xf8, 0xf3, 0xc8, 0xde, 0x5d, 0xa6, 0xc1, 0x62, 0xd2, 0x87, 0xb6, 0x96,
  0xd2, 0x23, 0x25, 0x29, 0x66, 0x44, 0x05, 0xe0, 0x68, 0x1b, 0xd2, 0x51,
  0xd8, 0x15, 0xaa, 0xc3, 0x28, 0xe1, 0x7f, 0xec, 0xc6, 0xd0, 0xd0, 0x72,
  0x70, 0x6d, 0xb0, 0x1d, 0xa7, 0xe9, 0xab, 0x35, 0xa0, 0x56, 0x66, 0xdb,
  0x33, 0x2b, 0xc1, 0xca, 0xd3, 0xdb, 0xf3, 0xe5, 0x09, 0xc4, 0x4d, 0xe3,
  0xe9, 0x49, 0x07, 0x49, 0x2e, 0x49, 0x2c, 0xaa, 0xdb, 0x3a, 0xd5, 0x8a,
  0xd6, 0x62, 0x27, 0x15, 0x38, 0x5c, 0x6b, 0xa6, 0x1f, 0xfe, 0xe5, 0xaf,
  0xe5, 0x30, 0x16, 0xaa, 0xf8, 0xb0, 0xa4, 0x38, 0x02, 0x4f, 0xb1, 0x05,
  0x55, 0xb9, 0x5d, 0x69, 0xc1, 0x1f, 0xfc, 0xc8, 0x35, 0xc9, 0xac, 0xe7,
  0x4d, 0xf9, 0x38, 0x39, 0x1b, 0x9d, 0xfc, 0xe3, 0xec, 0xd0, 0xc9, 0xee,
  0x4a, 0x3f, 0x3c, 0xb2, 0x53, 0x2a, 0xf1, 0x11, 0x1f, 0x39, 0x3e, 0x03,
  0x24, 0x1e, 0xe6, 0x06, 0x2b, 0x28, 0x81, 0xaf, 0x32, 0x58, 0x1f, 0xe0,
  0x2a, 0x4f, 0xcb, 0x45, 0x76, 0xff, 0x79, 0xbf, 0x31, 0xdc, 0x29, 0xe7,
  0x2e, 0xeb, 0x12, 0xd9, 0x86, 0xf7, 0xff, 0xff, 0x04, 0x00, 0x00, 0x00,
  0x18, 0x00, 0x00, 0x00, 0x17, 0x3a, 0x33, 0x99, 0x5b, 0xd8, 0xf2, 0x21,
  0x80, 0xe8, 0xdf, 0xfb, 0xe2, 0xa2, 0xe3, 0xd6, 0x1d, 0x36, 0x7f, 0xe4,
  0xbd, 0x1a, 0x16, 0x2b, 0xaa, 0xf7, 0xff, 0xff, 0x04, 0x00, 0x00, 0x00,
  0xc0, 0x06, 0x00, 0x00, 0x93, 0x45, 0x10, 0xb5, 0x9f, 0x46, 0xa0, 0xef,
  0x5d, 0x07, 0x87, 0xe8, 0x0d, 0x22, 0x56, 0x3f, 0xdc, 0x1e, 0x9e, 0x17,
  0xc9, 0xee, 0xce, 0x18, 0x61, 0x38, 0x97, 0x92, 0x0d, 0xec, 0x2a, 0x15,
  0x30, 0x92, 0xb0, 0xaf, 0x31, 0xf2, 0x66, 0xd5, 0x2c, 0xa4, 0xde, 0xed,
  0x4c, 0x89, 0x02, 0xfd, 0xd1, 0x22, 0x8c, 0x63, 0x8b, 0x1b, 0x8c, 0x66,
  0xa9, 0xcf, 0x14, 0xf5, 0xe0, 0x1d, 0x11, 0xa3, 0x3e, 0x35, 0x09, 0x3e,
  0x7f, 0x89, 0x4e, 0x2d, 0x4f, 0x4e, 0xde, 0x4e, 0x71, 0x72, 0x71, 0xc7,
  0x13, 0x21, 0x9b, 0x29, 0xd2, 0xbd, 0x46, 0xd0, 0x78, 0x1f, 0xa7, 0xef,
  0x83, 0x6f, 0xf9, 0x5f, 0xb6, 0xc2, 0xce, 0xeb, 0x79, 0x0c, 0xa0, 0xf2,
  0x3b, 0x6d, 0xbd, 0x42, 0xd0, 0x61, 0xf8, 0x4d, 0x3e, 0x4f, 0x09, 0x22,
  0x93, 0x53, 0x4a, 0x2e, 0x05, 0x7f, 0x4e, 0x97, 0xcb, 0x99, 0xb3, 0xf4,
  0x95, 0xa6, 0xb6, 0x5c, 0xe9, 0x09, 0xee, 0xd5, 0xb7, 0x36, 0x9b, 0xe1,
  0xe9, 0xfb, 0x57, 0x08, 0x5f, 0x4c, 0x04, 0x16, 0x56, 0x47, 0xda, 0x92,
  0x2b, 0x21, 0xb1, 0xd2, 0xd2, 0x46, 0x3a, 0xe8, 0x7f, 0xdc, 0xcb, 0xf9,
  0x04, 0x1f, 0x16, 0x0a, 0xc5, 0x9e, 0x26, 0xb5, 0x4d, 0xfd, 0x58, 0xae,
  0xd5, 0xcc, 0x65, 0xc1, 0xcb, 0x79, 0x0a, 0xe7, 0x37, 0x4f, 0x22, 0xb4,
  0xf3, 0x69, 0x15, 0x3e, 0xf5, 0x13, 0x2a, 0xf1, 0xc5, 0x9f, 0x22, 0x90,
  0x25, 0x55, 0x1c, 0x48, 0xa9, 0x26, 0xfe, 0xfd, 0xcc, 0xbd, 0x23, 0xdc,
  0x81, 0x2d, 0x40, 0x2b, 0x94, 0xe6, 0xc0, 0xb5, 0x06, 0xae, 0x21, 0x27,
  0x81, 0x2a, 0xa8, 0x05, 0xf1, 0xd4, 0xa7, 0xbb, 0xbd, 0x52, 0xe9, 0xed,
  0x23, 0x26, 0xff, 0x30, 0xb3, 0x8d, 0x1b, 0xfe, 0x4a, 0xfe, 0x8c, 0x82,
  0xf6, 0x99, 0xa8, 0xa8, 0xa9, 0xc9, 0x32, 0xf9, 0x2b, 0xce, 0xe5, 0xab,
  0xf6, 0xc7, 0xf2, 0xb4, 0xcc, 0xd6, 0xff, 0xb8, 0x22, 0xcc, 0x20, 0x40,
  0x0e, 0x52, 0xf2, 0x1b, 0x14, 0x57, 0xe8, 0x06, 0x2d, 0xda, 0xff, 0xc9,
  0xaf, 0xfe, 0xb4, 0xe1, 0xb3, 0xfb, 0x33, 0x26, 0x99, 0x4f, 0xd0, 0x83,
  0x90, 0xe1, 0x39, 0x91, 0xf3, 0xe4, 0xf2, 0xe2, 0x97, 0xa2, 0xef, 0xe7,
  0xd1, 0x5f, 0x16, 0xe6, 0xf9, 0x4f, 0xec, 0x1f, 0xf7, 0xd4, 0x29, 0xab,
  0x8a, 0xa7, 0x04, 0xed, 0x61, 0x26, 0xe7, 0x23, 0x17, 0xb9, 0x5b, 0x59,
  0xe8, 0x3a, 0xe4, 0xd2, 0xbd, 0xe5, 0xee, 0xc6, 0x8c, 0xf1, 0xaf, 0xb5,
  0xf0, 0x3d, 0xda, 0x59, 0x81, 0x5a, 0x53, 0x95, 0xc7, 0xa4, 0x8a, 0x9e,
  0x36, 0xeb, 0x8f, 0xbc, 0xb9, 0x93, 0x87, 0xba, 0x18, 0x11, 0xb0, 0x95,
  0xc6, 0x8d, 0x08, 0xd1, 0x10, 0xca, 0xd9, 0x42, 0x8d, 0x4d, 0x95, 0xd6,
  0x08, 0x0b, 0xf5, 0x90, 0x39, 0x44, 0xed, 0x23, 0x11, 0x54, 0x8d, 0xbf,
  0x2c, 0x81, 0x1c, 0xe0, 0x11, 0x32, 0x32, 0x02, 0x27, 0xd8, 0x0a, 0x95,
  0x4f, 0x22, 0x2c, 0x4d, 0x3c, 0x50, 0xa5, 0xa1, 0xb8, 0x33, 0x20, 0xc8,
  0xb3, 0x8d, 0x41, 0x42, 0x9f, 0xf9, 0xaf, 0xfb, 0xd7, 0x2e, 0x14, 0x01,
  0x68, 0xb1, 0xcc, 0xb8, 0x1d, 0x2d, 0x11, 0x45, 0x3b, 0x02, 0x97, 0xf0,
  0xb4, 0x8e, 0xbd, 0x18, 0xce, 0x3d, 0x19, 0x81, 0xca, 0xdc, 0x92, 0x8d,
  0x00, 0xc3, 0x4f, 0x23, 0x32, 0xb1, 0x87, 0x18, 0xd1, 0x37, 0xd8, 0xa5,
  0x82, 0xe1, 0xc4, 0x46, 0xde, 0x13, 0x1a, 0xb0, 0x4e, 0xb6, 0x4a, 0xd5,
  0x81, 0xf4, 0x56, 0x04, 0xa0, 0xf6, 0x66, 0x86, 0xc0, 0x4f, 0x1a, 0x6e,
  0xa2, 0x33, 0xf4, 0xf8, 0xe6, 0x0b, 0x18, 0x89, 0x1d, 0x30, 0xe9, 0x06,
  0x29, 0xfc, 0xa0, 0xca, 0x50, 0x44, 0x35, 0xa3, 0x5a, 0x55, 0x0e, 0x03,
  0xc5, 0xf1, 0x59, 0x3a, 0xd1, 0x39, 0x0f, 0xd5, 0x53, 0x45, 0x2a, 0xdd,
  0xc7, 0xbb, 0x52, 0xa6, 0x3d, 0x43, 0x03, 0x31, 0xef, 0x30, 0x38, 0x49,
  0xf0, 0x69, 0xa6, 0x52, 0x06, 0x00, 0x6e, 0x4b, 0x53, 0x81, 0x67, 0xc5,
  0xd4, 0x47, 0x3d, 0x2f, 0xde, 0xcb, 0xf0, 0x19, 0x4d, 0x64, 0xbf, 0x93,
  0x0d, 0x9a, 0x1c, 0x2e, 0x40, 0x3c, 0xee, 0xf5, 0x45, 0x9e, 0x12, 0x7e,
  0xef, 0xc8, 0x4b, 0x17, 0xa2, 0x45, 0x21, 0x0c, 0xfd, 0xbe, 0xfa, 0x70,
  0x9c, 0x35, 0x10, 0xdb, 0x16, 0xe4, 0xb2, 0x4e, 0x45, 0xb8, 0x30, 0x09,
  0xc5, 0xe5, 0x28, 0xef, 0x49, 0x76, 0x1a, 0x40, 0xc4, 0xb8, 0x66, 0x4a,
  0x44, 0xfc, 0xd3, 0x42, 0x54, 0x0a, 0x30, 0x23, 0x7f, 0x31, 0xcd, 0xe0,
  0x40, 0xf2, 0xc4, 0xf5, 0x1a, 0x67, 0xae, 0x65, 0x11, 0xf7, 0xb0, 0xc6,
  0x6c, 0xfc, 0x31, 0x09, 0xb1, 0x34, 0x99, 0xfd, 0x19, 0x12, 0x0a, 0xf5,
  0x00, 0x07, 0xaa, 0x52, 0x56, 0x1c, 0x52, 0x9a, 0x88, 0x5c, 0x93, 0xe0,
  0xb1, 0x1a, 0x0e, 0x99, 0xb7, 0x05, 0xb4, 0xfb, 0x46, 0x66, 0xd4, 0x9d,
  0xd2, 0xbf, 0x21, 0xd3, 0xcc, 0x97, 0x31, 0x40, 0xc7, 0x9d, 0xfa, 0x01,
  0xfd, 0x90, 0x3e, 0x5d, 0x23, 0xc8, 0xf8, 0x1a, 0x3d, 0x06, 0xe0, 0xc7,
  0x81, 0xdb, 0xdb, 0xdc, 0xfe, 0xe1, 0x4f, 0xd2, 0xf5, 0xc8, 0xb5, 0xda,
  0x0e, 0x54, 0x95, 0xf7, 0xae, 0x04, 0xf3, 0xf6, 0x06, 0xd6, 0xcf, 0xcc,
  0x9e, 0xfe, 0x42, 0x00, 0xd2, 0xf5, 0x32, 0x0f, 0x31, 0x91, 0xca, 0x46,
  0x94, 0x90, 0x40, 0x98, 0x40, 0xdf, 0x02, 0x0e, 0x1a, 0x40, 0x81, 0x2c,
  0xa1, 0x3b, 0xb3, 0x2a, 0x20, 0xa6, 0xd1, 0xe0, 0x0b, 0xc5, 0xbf, 0xeb,
  0x4d, 0x99, 0x45, 0x3c, 0xeb, 0xbd, 0x3a, 0xc9, 0x46, 0xb2, 0x01, 0x0a,
  0x50, 0x19, 0xbc, 0xbf, 0x13, 0xb1, 0xfb, 0xc3, 0x13, 0xcc, 0xc5, 0xa3,
  0x2f, 0xf1, 0x94, 0x0c, 0xbc, 0x19, 0x05, 0xe2, 0x10, 0x5a, 0x92, 0xbc,
  0x33, 0xd5, 0xa4, 0x0e, 0x5e, 0x95, 0xc1, 0x10, 0x81, 0x02, 0x12, 0x0d,
  0x0d, 0xd5, 0x0d, 0x52, 0x46, 0xb7, 0xa4, 0x52, 0xa6, 0x55, 0xf1, 0xba,
  0x14, 0xd8, 0x3a, 0xe0, 0xfd, 0xee, 0xdd, 0x94, 0x20, 0xab, 0x99, 0x9c,
  0x14, 0x15, 0xc4, 0xc4, 0xc8, 0x0f, 0xcf, 0x10, 0x9a, 0xae, 0xe4, 0xf3,
  0xd8, 0x58, 0x5b, 0xd5, 0xcc, 0x2d, 0xff, 0xb4, 0xf4, 0x54, 0x21, 0x2c,
  0xfb, 0xf5, 0x3a, 0x04, 0x98, 0xc0, 0x47, 0x3c, 0xf1, 0xf9, 0xab, 0x08,
  0xa9, 0xac, 0x0b, 0x35, 0x0e, 0x07, 0x83, 0xb3, 0x1d, 0xe2, 0xbd, 0x08,
  0x19, 0x01, 0xf1, 0x4e, 0xca, 0xfd, 0xd8, 0x44, 0xcc, 0x0b, 0xdf, 0x04,
  0xee, 0x91, 0xb0, 0xd7, 0x5b, 0x20, 0x9e, 0x81, 0xa4, 0x23, 0xf7, 0x4c,
  0xe8, 0x14, 0xa6, 0x1a, 0x38, 0xab, 0xa1, 0x36, 0x12, 0xd9, 0xa5, 0x1f,
  0x17, 0x9a, 0x3b, 0xbb, 0x05, 0x37, 0xf4, 0x5e, 0xd0, 0xd9, 0x83, 0xed,
  0x49, 0x47, 0xf9, 0xb9, 0xae, 0x4b, 0x3e, 0x04, 0xb7, 0x31, 0x0a, 0xa8,
  0x67, 0x72, 0x12, 0x48, 0x89, 0xc2, 0xb6, 0x9a, 0x1f, 0xbc, 0xd8, 0x98,
  0x53, 0x23, 0x2a, 0x39, 0xf1, 0x59, 0x94, 0xc6, 0x14, 0xcc, 0x92, 0xfa,
  0xce, 0x34, 0xfb, 0x0b, 0x2b, 0x01, 0x1d, 0x00, 0x44, 0x4e, 0x99, 0xb3,
  0xbe, 0x40, 0x54, 0x94, 0xe5, 0xb5, 0xdc, 0x12, 0xa7, 0x67, 0x41, 0x96,
  0xdb, 0x9e, 0x99, 0x4a, 0xa1, 0xf3, 0x51, 0x3a, 0x27, 0x40, 0x0b, 0x54,
  0x2d, 0x81, 0xf2, 0x71, 0x43, 0x52, 0x5a, 0x8a, 0x99, 0xb2, 0x44, 0x8c,
  0xb6, 0x2d, 0xbb, 0xac, 0xbb, 0xbd, 0x32, 0x0d, 0xf5, 0xca, 0x50, 0xb7,
  0xfa, 0xaa, 0x4d, 0xcb, 0x25, 0xc5, 0xf7, 0xe2, 0xa7, 0xd5, 0x30, 0x47,
  0xd7, 0x3a, 0x57, 0xe4, 0x2b, 0x14, 0x14, 0xcc, 0x08, 0xf1, 0xc0, 0x99,
  0x55, 0x2c, 0xa2, 0xde, 0x32, 0x2b, 0x52, 0x1b, 0xe0, 0xd1, 0xde, 0xe3,
  0x2b, 0xd4, 0xa2, 0x0c, 0x2f, 0x47, 0xc2, 0x58, 0x4c, 0xc2, 0x46, 0x20,
  0x43, 0x40, 0xe4, 0x35, 0x81, 0xc2, 0x21, 0x0c, 0xeb, 0x02, 0x43, 0xde,
  0x23, 0x12, 0xc8, 0xc2, 0xed, 0x19, 0xc3, 0xbc, 0x2d, 0x01, 0x3a, 0xb8,
  0xca, 0xf8, 0xcb, 0x34, 0xdb, 0x00, 0x0f, 0xf6, 0x5b, 0xfa, 0x07, 0x55,
  0xd1, 0xfa, 0x3e, 0x17, 0x34, 0x6d, 0xe6, 0xce, 0xff, 0xf3, 0x37, 0x06,
  0x2a, 0xc0, 0x43, 0xf3, 0xe7, 0x22, 0xab, 0x1c, 0x08, 0x3c, 0x56, 0xc7,
  0xc3, 0x2b, 0x65, 0xcb, 0x6b, 0xf9, 0xc0, 0xb7, 0x31, 0xb4, 0x0f, 0x01,
  0x96, 0xf0, 0xb9, 0xd9, 0xf2, 0x52, 0x1d, 0x50, 0x2b, 0x56, 0xdc, 0x30,
  0xb6, 0x7f, 0xb5, 0xfe, 0xe2, 0xc6, 0xc6, 0x30, 0x07, 0x27, 0xe3, 0xe3,
  0xf6, 0x3a, 0xe4, 0xdc, 0xc0, 0xa6, 0x45, 0x4d, 0xcd, 0x5c, 0xd1, 0x36,
  0xea, 0x08, 0x40, 0xbc, 0x1e, 0xdc, 0xec, 0x1b, 0xb2, 0xda, 0xcb, 0xea,
  0x35, 0xcd, 0x9d, 0x9a, 0xf0, 0xef, 0x30, 0x34, 0xb8, 0x13, 0x0a, 0xf1,
  0xd3, 0x27, 0xab, 0xb2, 0x1a, 0xfa, 0x11, 0xc9, 0x18, 0xe0, 0x11, 0xaf,
  0x01, 0x40, 0x30, 0x27, 0xdc, 0xef, 0xfa, 0x48, 0x37, 0xeb, 0xb1, 0xd0,
  0x81, 0xe8, 0x34, 0x9e, 0x35, 0xd4, 0x34, 0x1d, 0xac, 0xb1, 0x12, 0xe8,
  0xe7, 0xec, 0xf9, 0x2a, 0xc9, 0xe9, 0x99, 0xf8, 0x50, 0x0d, 0xe7, 0xe9,
  0x17, 0xb7, 0xed, 0x39, 0xe5, 0x1b, 0x78, 0x1d, 0xbd, 0xcf, 0xbe, 0x47,
  0xeb, 0x0a, 0x41, 0x52, 0xea, 0x69, 0x3c, 0x5f, 0x22, 0x81, 0x6d, 0x5c,
  0xef, 0xb5, 0x7c, 0xc9, 0x55, 0x05, 0xea, 0x03, 0x25, 0xe2, 0xf4, 0xf8,
  0xea, 0x41, 0x31, 0x66, 0x50, 0x16, 0xa6, 0x23, 0xc1, 0xcc, 0x5f, 0x5c,
  0x1f, 0xdf, 0x20, 0x6f, 0x4b, 0xc8, 0xd0, 0x0f, 0x3d, 0x74, 0x0f, 0xa0,
  0xed, 0xbf, 0x2d, 0xe1, 0xa4, 0xe3, 0x24, 0xb9, 0x2a, 0x55, 0xbc, 0x84,
  0x94, 0xc8, 0x22, 0x9a, 0x64, 0x78, 0x97, 0xc0, 0xd7, 0x5d, 0x90, 0xa4,
  0xba, 0x2a, 0x8f, 0xe7, 0x41, 0xb7, 0x28, 0x08, 0xff, 0xc0, 0xcf, 0xce,
  0xa6, 0xd5, 0x6d, 0xa6, 0x48, 0x62, 0xe5, 0x10, 0x4c, 0x7f, 0xce, 0x24,
  0x00, 0x27, 0x76, 0x69, 0xb4, 0xac, 0xe7, 0xdc, 0xf0, 0x29, 0x0c, 0xc4,
  0x57, 0x04, 0x43, 0x0e, 0x7b, 0x27, 0x85, 0x41, 0x5c, 0x8e, 0xa0, 0x4b,
  0xe9, 0xa6, 0xc2, 0xa3, 0x27, 0xbc, 0xa9, 0xd4, 0x10, 0x23, 0x92, 0xb3,
  0xb2, 0x2a, 0x18, 0x59, 0xf6, 0xeb, 0x89, 0xd9, 0x5d, 0x13, 0x8f, 0x31,
  0x05, 0xdb, 0x7e, 0x4e, 0xee, 0xe2, 0xad, 0x1b, 0x00, 0x3c, 0xd6, 0x11,
  0xba, 0x7f, 0x02, 0x11, 0x28, 0xb1, 0x3f, 0xa4, 0x6c, 0xf8, 0x9b, 0xbf,
  0x66, 0xfb, 0x24, 0x45, 0x25, 0xc7, 0xf8, 0xcb, 0xe2, 0x98, 0x3a, 0xdf,
  0x21, 0x34, 0x39, 0xdd, 0x2f, 0xad, 0xe5, 0x42, 0x13, 0xe1, 0x3a, 0xdc,
  0xf0, 0x30, 0xe9, 0x24, 0x4b, 0x06, 0x32, 0x35, 0xff, 0xe9, 0xf8, 0x9c,
  0x78, 0xeb, 0x92, 0xba, 0xc2, 0xa9, 0x91, 0x27, 0x06, 0xf0, 0xec, 0x1b,
  0x58, 0xd6, 0xf4, 0x46, 0x1b, 0x51, 0x81, 0xc9, 0x24, 0xd1, 0x9c, 0x04,
  0x27, 0x08, 0xcd, 0xcc, 0xbd, 0xee, 0xec, 0x3a, 0x9e, 0x4c, 0x04, 0x43,
  0x1d, 0xfd, 0x8d, 0x39, 0x10, 0x24, 0x9d, 0xbd, 0xb5, 0x77, 0x8f, 0x8a,
  0xd8, 0x5a, 0xed, 0xe3, 0xd8, 0xae, 0x92, 0xd4, 0x07, 0x12, 0xf7, 0xff,
  0x04, 0xb2, 0x90, 0xad, 0xf7, 0xe8, 0x42, 0xec, 0x53, 0xbe, 0x8a, 0xed,
  0x4f, 0x46, 0xfa, 0x45, 0xa7, 0x3d, 0xf5, 0x17, 0x44, 0xc3, 0x25, 0x4d,
  0x42, 0xdf, 0x1b, 0xc5, 0x18, 0xe0, 0xb6, 0xdb, 0xc9, 0x7f, 0x44, 0xc5,
  0xf8, 0xe4, 0x4e, 0xc9, 0xba, 0xcb, 0x53, 0x29, 0xaa, 0xf1, 0xc5, 0x09,
  0x38, 0xcc, 0xce, 0xdf, 0x51, 0xff, 0x02, 0x18, 0x9e, 0x29, 0x08, 0x6b,
  0x63, 0x5b, 0xf7, 0xf0, 0x59, 0x1d, 0x0e, 0xc2, 0xaa, 0x93, 0x2d, 0xdf,
  0xe4, 0x4e, 0xbf, 0xd5, 0xba, 0x9f, 0xec, 0xd0, 0x0b, 0xe7, 0x4e, 0x32,
  0xdf, 0xa4, 0x9c, 0xbf, 0x49, 0x99, 0xe8, 0x48, 0xbd, 0xd7, 0xdc, 0xbc,
  0xc7, 0xcf, 0xa2, 0x4a, 0x43, 0xc0, 0x20, 0xa3, 0x26, 0xf8, 0x00, 0xa9,
  0xfe, 0xa8, 0x40, 0xd4, 0x74, 0x3f, 0xe8, 0xb2, 0xc2, 0xda, 0xaf, 0x1d,
  0x33, 0x61, 0x7f, 0x0a, 0x15, 0x3f, 0x36, 0xca, 0xc5, 0x00, 0xa4, 0x51,
  0x18, 0x0b, 0x74, 0xd6, 0xa9, 0x5b, 0xa9, 0x2c, 0x51, 0x35, 0xc1, 0xc7,
  0x37, 0xc0, 0x37, 0x17, 0x49, 0x10, 0x43, 0x04, 0x73, 0x5f, 0xf9, 0x98,
  0x0e, 0x0f, 0xcc, 0xda, 0xc1, 0xa8, 0xa3, 0x3c, 0xbd, 0xe5, 0x1c, 0x07,
  0x58, 0xb6, 0x5b, 0xc3, 0x1f, 0x12, 0x42, 0xee, 0xb2, 0xc8, 0xe6, 0xb9,
  0x1e, 0xcd, 0xf8, 0xfe, 0xb0, 0x2a, 0x20, 0x60, 0x2b, 0xfa, 0x29, 0xbf,
  0x14, 0x7f, 0x46, 0x06, 0x06, 0xc5, 0x02, 0xe7, 0xb6, 0x44, 0x26, 0x8d,
  0x89, 0xfe, 0xb4, 0x66, 0x76, 0xfe, 0xff, 0xff, 0x04, 0x00, 0x00, 0x00,
  0x18, 0x00, 0x00, 0x00, 0x19, 0x04, 0x4b, 0x80, 0x01, 0xe1, 0x13, 0x3d,
  0xf4, 0x4e, 0x91, 0xe1, 0x81, 0xa8, 0x27, 0x02, 0x7f, 0x72, 0x56, 0xc7,
  0xf9, 0xfd, 0xf1, 0xfb, 0x9a, 0xfe, 0xff, 0xff, 0x04, 0x00, 0x00, 0x00,
  0x18, 0x00, 0x00, 0x00, 0xe2, 0x76, 0x38, 0x9c, 0xed, 0xbb, 0xe5, 0x0e,
  0x33, 0xc5, 0x97, 0xb4, 0xb1, 0xd6, 0x11, 0x1a, 0xe2, 0xf7, 0x7b, 0xe2,
  0xce, 0xf5, 0xd4, 0x7f, 0xbe, 0xfe, 0xff, 0xff, 0x04, 0x00, 0x00, 0x00,
  0x04, 0x00, 0x00, 0x00, 0xfe, 0x03, 0x00, 0x00, 0xce, 0xfe, 0xff, 0xff,
  0x04, 0x00, 0x00, 0x00, 0x0c, 0x00, 0x00, 0x00, 0x01, 0x00, 0x00, 0x00,
  0x01, 0x00, 0x00, 0x00, 0x01, 0x00, 0x00, 0x00, 0xe6, 0xfe, 0xff, 0xff,
  0x04, 0x00, 0x00, 0x00, 0x0c, 0x00, 0x00, 0x00, 0x00, 0x00, 0x00, 0x00,
  0x00, 0x00, 0x00, 0x00, 0x00, 0x00, 0x00, 0x00, 0xfe, 0xfe, 0xff, 0xff,
  0x04, 0x00, 0x00, 0x00, 0x0c, 0x00, 0x00, 0x00, 0x00, 0x00, 0x00, 0x00,
  0xff, 0xff, 0xff, 0xff, 0x00, 0x00, 0x00, 0x00, 0x16, 0xff, 0xff, 0xff,
  0x04, 0x00, 0x00, 0x00, 0x0c, 0x00, 0x00, 0x00, 0xff, 0xff, 0xff, 0xff,
  0x06, 0x00, 0x00, 0x00, 0x18, 0x00, 0x00, 0x00, 0x2e, 0xff, 0xff, 0xff,
  0x04, 0x00, 0x00, 0x00, 0x04, 0x00, 0x00, 0x00, 0x04, 0x00, 0x00, 0x00,
  0x3e, 0xff, 0xff, 0xff, 0x04, 0x00, 0x00, 0x00, 0x18, 0x00, 0x00, 0x00,
  0x00, 0x00, 0x00, 0x00, 0x00, 0x00, 0x00, 0x00, 0x08, 0x00, 0x00, 0x00,
  0x00, 0x00, 0x00, 0x00, 0x00, 0x00, 0x00, 0x00, 0x00, 0x00, 0x00, 0x00,
  0x62, 0xff, 0xff, 0xff, 0x04, 0x00, 0x00, 0x00, 0x0c, 0x00, 0x00, 0x00,
  0xff, 0xff, 0xff, 0xff, 0x0c, 0x00, 0x00, 0x00, 0x18, 0x00, 0x00, 0x00,
  0x7a, 0xff, 0xff, 0xff, 0x04, 0x00, 0x00, 0x00, 0x08, 0x00, 0x00, 0x00,
  0x00, 0x00, 0x00, 0x00, 0x00, 0x00, 0x00, 0x00, 0x8e, 0xff, 0xff, 0xff,
  0x04, 0x00, 0x00, 0x00, 0x04, 0x00, 0x00, 0x00, 0x02, 0x00, 0x00, 0x00,
  0x9e, 0xff, 0xff, 0xff, 0x04, 0x00, 0x00, 0x00, 0x18, 0x00, 0x00, 0x00,
  0x00, 0x00, 0x00, 0x00, 0x00, 0x00, 0x00, 0x00, 0x04, 0x00, 0x00, 0x00,
  0x00, 0x00, 0x00, 0x00, 0x00, 0x00, 0x00, 0x00, 0x00, 0x00, 0x00, 0x00,
  0xc2, 0xff, 0xff, 0xff, 0x04, 0x00, 0x00, 0x00, 0x18, 0x00, 0x00, 0x00,
  0x00, 0x00, 0x00, 0x00, 0x00, 0x00, 0x00, 0x00, 0x02, 0x00, 0x00, 0x00,
  0x00, 0x00, 0x00, 0x00, 0x00, 0x00, 0x00, 0x00, 0x00, 0x00, 0x00, 0x00,
  0xe6, 0xff, 0xff, 0xff, 0x04, 0x00, 0x00, 0x00, 0x0c, 0x00, 0x00, 0x00,
  0xff, 0xff, 0xff, 0xff, 0x18, 0x00, 0x00, 0x00, 0x18, 0x00, 0x00, 0x00,
  0x00, 0x00, 0x06, 0x00, 0x08, 0x00, 0x04, 0x00, 0x06, 0x00, 0x00, 0x00,
  0x04, 0x00, 0x00, 0x00, 0x04, 0x00, 0x00, 0x00, 0xfd, 0xff, 0xff, 0xff,
  0xc8, 0xbe, 0xff, 0xff, 0xcc, 0xbe, 0xff, 0xff, 0x0f, 0x00, 0x00, 0x00,
  0x4d, 0x4c, 0x49, 0x52, 0x20, 0x43, 0x6f, 0x6e, 0x76, 0x65, 0x72, 0x74,
  0x65, 0x64, 0x2e, 0x00, 0x01, 0x00, 0x00, 0x00, 0x14, 0x00, 0x00, 0x00,
  0x00, 0x00, 0x0e, 0x00, 0x18, 0x00, 0x14, 0x00, 0x10, 0x00, 0x0c, 0x00,
  0x08, 0x00, 0x04, 0x00, 0x0e, 0x00, 0x00, 0x00, 0x14, 0x00, 0x00, 0x00,
  0x1c, 0x00, 0x00, 0x00, 0x70, 0x09, 0x00, 0x00, 0x74, 0x09, 0x00, 0x00,
  0x78, 0x09, 0x00, 0x00, 0x04, 0x00, 0x00, 0x00, 0x6d, 0x61, 0x69, 0x6e,
  0x00, 0x00, 0x00, 0x00, 0x2c, 0x00, 0x00, 0x00, 0x28, 0x09, 0x00, 0x00,
  0xcc, 0x08, 0x00, 0x00, 0x94, 0x08, 0x00, 0x00, 0x54, 0x08, 0x00, 0x00,
  0x14, 0x08, 0x00, 0x00, 0xc0, 0x07, 0x00, 0x00, 0x98, 0x07, 0x00, 0x00,
  0x64, 0x07, 0x00, 0x00, 0x34, 0x07, 0x00, 0x00, 0xec, 0x06, 0x00, 0x00,
  0xb8, 0x06, 0x00, 0x00, 0x90, 0x06, 0x00, 0x00, 0x5c, 0x06, 0x00, 0x00,
  0x30, 0x06, 0x00, 0x00, 0x00, 0x06, 0x00, 0x00, 0xb0, 0x05, 0x00, 0x00,
  0x88, 0x05, 0x00, 0x00, 0x5c, 0x05, 0x00, 0x00, 0x1c, 0x05, 0x00, 0x00,
  0xe8, 0x04, 0x00, 0x00, 0xbc, 0x04, 0x00, 0x00, 0x8c, 0x04, 0x00, 0x00,
  0x48, 0x04, 0x00, 0x00, 0x20, 0x04, 0x00, 0x00, 0xf4, 0x03, 0x00, 0x00,
  0xbc, 0x03, 0x00, 0x00, 0x88, 0x03, 0x00, 0x00, 0x54, 0x03, 0x00, 0x00,
  0x28, 0x03, 0x00, 0x00, 0xf8, 0x02, 0x00, 0x00, 0xb4, 0x02, 0x00, 0x00,
  0x8c, 0x02, 0x00, 0x00, 0x60, 0x02, 0x00, 0x00, 0x28, 0x02, 0x00, 0x00,
  0xf4, 0x01, 0x00, 0x00, 0xc8, 0x01, 0x00, 0x00, 0x98, 0x01, 0x00, 0x00,
  0x54, 0x01, 0x00, 0x00, 0x2c, 0x01, 0x00, 0x00, 0x00, 0x01, 0x00, 0x00,
  0xc8, 0x00, 0x00, 0x00, 0x94, 0x00, 0x00, 0x00, 0x3c, 0x00, 0x00, 0x00,
  0x04, 0x00, 0x00, 0x00, 0x5e, 0xf8, 0xff, 0xff, 0x14, 0x00, 0x00, 0x00,
  0x00, 0x00, 0x00, 0x08, 0x10, 0x00, 0x00, 0x00, 0x14, 0x00, 0x00, 0x00,
  0x08, 0x00, 0x00, 0x00, 0xec, 0xbf, 0xff, 0xff, 0x01, 0x00, 0x00, 0x00,
  0x4d, 0x00, 0x00, 0x00, 0x03, 0x00, 0x00, 0x00, 0x4c, 0x00, 0x00, 0x00,
  0x0f, 0x00, 0x00, 0x00, 0x0e, 0x00, 0x00, 0x00, 0x22, 0xf8, 0xff, 0xff,
  0x24, 0x00, 0x00, 0x00, 0x00, 0x00, 0x00, 0x20, 0x2c, 0x00, 0x00, 0x00,
  0x30, 0x00, 0x00, 0x00, 0x07, 0x00, 0x00, 0x00, 0x00, 0x00, 0x0e, 0x00,
  0x10, 0x00, 0x0c, 0x00, 0x08, 0x00, 0x00, 0x00, 0x00, 0x00, 0x04, 0x00,
  0x0e, 0x00, 0x00, 0x00, 0x02, 0x00, 0x00, 0x00, 0x05, 0x00, 0x00, 0x00,
  0x05, 0x00, 0x00, 0x00, 0x01, 0x00, 0x00, 0x00, 0x4c, 0x00, 0x00, 0x00,
  0x04, 0x00, 0x00, 0x00, 0x4b, 0x00, 0x00, 0x00, 0x0b, 0x00, 0x00, 0x00,
  0x0c, 0x00, 0x00, 0x00, 0x0d, 0x00, 0x00, 0x00, 0xe6, 0xf8, 0xff, 0xff,
  0x14, 0x00, 0x00, 0x00, 0x00, 0x00, 0x00, 0x0b, 0x10, 0x00, 0x00, 0x00,
  0x14, 0x00, 0x00, 0x00, 0x04, 0x00, 0x00, 0x00, 0x74, 0xc0, 0xff, 0xff,
  0x01, 0x00, 0x00, 0x00, 0x4b, 0x00, 0x00, 0x00, 0x02, 0x00, 0x00, 0x00,
  0x3c, 0x00, 0x00, 0x00, 0x4a, 0x00, 0x00, 0x00, 0x16, 0xf9, 0xff, 0xff,
  0x14, 0x00, 0x00, 0x00, 0x00, 0x00, 0x00, 0x0b, 0x14, 0x00, 0x00, 0x00,
  0x18, 0x00, 0x00, 0x00, 0x04, 0x00, 0x00, 0x00, 0x02, 0xfc, 0xff, 0xff,
  0x00, 0x00, 0x00, 0x01, 0x01, 0x00, 0x00, 0x00, 0x4a, 0x00, 0x00, 0x00,
  0x02, 0x00, 0x00, 0x00, 0x49, 0x00, 0x00, 0x00, 0x10, 0x00, 0x00, 0x00,
  0x0a, 0xf9, 0xff, 0xff, 0x0c, 0x00, 0x00, 0x00, 0x10, 0x00, 0x00, 0x00,
  0x06, 0x00, 0x00, 0x00, 0x01, 0x00, 0x00, 0x00, 0x49, 0x00, 0x00, 0x00,
  0x03, 0x00, 0x00, 0x00, 0x48, 0x00, 0x00, 0x00, 0x09, 0x00, 0x00, 0x00,
  0x06, 0x00, 0x00, 0x00, 0x32, 0xf9, 0xff, 0xff, 0x0c, 0x00, 0x00, 0x00,
  0x10, 0x00, 0x00, 0x00, 0x02, 0x00, 0x00, 0x00, 0x01, 0x00, 0x00, 0x00,
  0x48, 0x00, 0x00, 0x00, 0x02, 0x00, 0x00, 0x00, 0x47, 0x00, 0x00, 0x00,
  0x0a, 0x00, 0x00, 0x00, 0x96, 0xf9, 0xff, 0xff, 0x14, 0x00, 0x00, 0x00,
  0x00, 0x00, 0x00, 0x01, 0x1c, 0x00, 0x00, 0x00, 0x20, 0x00, 0x00, 0x00,
  0x01, 0x00, 0x00, 0x00, 0xfa, 0xfb, 0xff, 0xff, 0x01, 0x00, 0x00, 0x00,
  0x01, 0x00, 0x00, 0x00, 0x00, 0x00, 0x00, 0x01, 0x01, 0x00, 0x00, 0x00,
  0x47, 0x00, 0x00, 0x00, 0x03, 0x00, 0x00, 0x00, 0x46, 0x00, 0x00, 0x00,
  0x11, 0x00, 0x00, 0x00, 0x1a, 0x00, 0x00, 0x00, 0x0e, 0xf9, 0xff, 0xff,
  0x10, 0x00, 0x00, 0x00, 0x00, 0x00, 0x00, 0x34, 0x0c, 0x00, 0x00, 0x00,
  0x10, 0x00, 0x00, 0x00, 0x60, 0xc1, 0xff, 0xff, 0x01, 0x00, 0x00, 0x00,
  0x46, 0x00, 0x00, 0x00, 0x02, 0x00, 0x00, 0x00, 0x45, 0x00, 0x00, 0x00,
  0x01, 0x00, 0x00, 0x00, 0xc2, 0xf9, 0xff, 0xff, 0x0c, 0x00, 0x00, 0x00,
  0x10, 0x00, 0x00, 0x00, 0x05, 0x00, 0x00, 0x00, 0x01, 0x00, 0x00, 0x00,
  0x45, 0x00, 0x00, 0x00, 0x03, 0x00, 0x00, 0x00, 0x44, 0x00, 0x00, 0x00,
  0x09, 0x00, 0x00, 0x00, 0x06, 0x00, 0x00, 0x00, 0x2a, 0xfa, 0xff, 0xff,
  0x14, 0x00, 0x00, 0x00, 0x00, 0x00, 0x00, 0x16, 0x10, 0x00, 0x00, 0x00,
  0x14, 0x00, 0x00, 0x00, 0x03, 0x00, 0x00, 0x00, 0xb8, 0xc1, 0xff, 0xff,
  0x01, 0x00, 0x00, 0x00, 0x44, 0x00, 0x00, 0x00, 0x02, 0x00, 0x00, 0x00,
  0x43, 0x00, 0x00, 0x00, 0x08, 0x00, 0x00, 0x00, 0x5a, 0xfa, 0xff, 0xff,
  0x14, 0x00, 0x00, 0x00, 0x00, 0x00, 0x00, 0x0b, 0x14, 0x00, 0x00, 0x00,
  0x18, 0x00, 0x00, 0x00, 0x04, 0x00, 0x00, 0x00, 0x46, 0xfd, 0xff, 0xff,
  0x00, 0x00, 0x00, 0x01, 0x01, 0x00, 0x00, 0x00, 0x43, 0x00, 0x00, 0x00,
  0x02, 0x00, 0x00, 0x00, 0x42, 0x00, 0x00, 0x00, 0x12, 0x00, 0x00, 0x00,
  0x4e, 0xfa, 0xff, 0xff, 0x0c, 0x00, 0x00, 0x00, 0x10, 0x00, 0x00, 0x00,
  0x06, 0x00, 0x00, 0x00, 0x01, 0x00, 0x00, 0x00, 0x42, 0x00, 0x00, 0x00,
  0x03, 0x00, 0x00, 0x00, 0x41, 0x00, 0x00, 0x00, 0x09, 0x00, 0x00, 0x00,
  0x06, 0x00, 0x00, 0x00, 0x76, 0xfa, 0xff, 0xff, 0x0c, 0x00, 0x00, 0x00,
  0x10, 0x00, 0x00, 0x00, 0x02, 0x00, 0x00, 0x00, 0x01, 0x00, 0x00, 0x00,
  0x41, 0x00, 0x00, 0x00, 0x02, 0x00, 0x00, 0x00, 0x40, 0x00, 0x00, 0x00,
  0x0a, 0x00, 0x00, 0x00, 0xda, 0xfa, 0xff, 0xff, 0x14, 0x00, 0x00, 0x00,
  0x00, 0x00, 0x00, 0x01, 0x1c, 0x00, 0x00, 0x00, 0x20, 0x00, 0x00, 0x00,
  0x01, 0x00, 0x00, 0x00, 0x3e, 0xfd, 0xff, 0xff, 0x01, 0x00, 0x00, 0x00,
  0x01, 0x00, 0x00, 0x00, 0x00, 0x00, 0x00, 0x01, 0x01, 0x00, 0x00, 0x00,
  0x40, 0x00, 0x00, 0x00, 0x03, 0x00, 0x00, 0x00, 0x3f, 0x00, 0x00, 0x00,
  0x13, 0x00, 0x00, 0x00, 0x19, 0x00, 0x00, 0x00, 0x52, 0xfa, 0xff, 0xff,
  0x10, 0x00, 0x00, 0x00, 0x00, 0x00, 0x00, 0x34, 0x0c, 0x00, 0x00, 0x00,
  0x10, 0x00, 0x00, 0x00, 0xa4, 0xc2, 0xff, 0xff, 0x01, 0x00, 0x00, 0x00,
  0x3f, 0x00, 0x00, 0x00, 0x02, 0x00, 0x00, 0x00, 0x3e, 0x00, 0x00, 0x00,
  0x01, 0x00, 0x00, 0x00, 0x06, 0xfb, 0xff, 0xff, 0x0c, 0x00, 0x00, 0x00,
  0x10, 0x00, 0x00, 0x00, 0x05, 0x00, 0x00, 0x00, 0x01, 0x00, 0x00, 0x00,
  0x3e, 0x00, 0x00, 0x00, 0x03, 0x00, 0x00, 0x00, 0x3d, 0x00, 0x00, 0x00,
  0x09, 0x00, 0x00, 0x00, 0x06, 0x00, 0x00, 0x00, 0x6e, 0xfb, 0xff, 0xff,
  0x14, 0x00, 0x00, 0x00, 0x00, 0x00, 0x00, 0x16, 0x10, 0x00, 0x00, 0x00,
  0x14, 0x00, 0x00, 0x00, 0x03, 0x00, 0x00, 0x00, 0xfc, 0xc2, 0xff, 0xff,
  0x01, 0x00, 0x00, 0x00, 0x3d, 0x00, 0x00, 0x00, 0x02, 0x00, 0x00, 0x00,
  0x3c, 0x00, 0x00, 0x00, 0x08, 0x00, 0x00, 0x00, 0x9e, 0xfb, 0xff, 0xff,
  0x14, 0x00, 0x00, 0x00, 0x00, 0x00, 0x00, 0x0b, 0x10, 0x00, 0x00, 0x00,
  0x14, 0x00, 0x00, 0x00, 0x04, 0x00, 0x00, 0x00, 0x2c, 0xc3, 0xff, 0xff,
  0x01, 0x00, 0x00, 0x00, 0x3c, 0x00, 0x00, 0x00, 0x02, 0x00, 0x00, 0x00,
  0x2d, 0x00, 0x00, 0x00, 0x3b, 0x00, 0x00, 0x00, 0xce, 0xfb, 0xff, 0xff,
  0x14, 0x00, 0x00, 0x00, 0x00, 0x00, 0x00, 0x0b, 0x14, 0x00, 0x00, 0x00,
  0x18, 0x00, 0x00, 0x00, 0x04, 0x00, 0x00, 0x00, 0xba, 0xfe, 0xff, 0xff,
  0x00, 0x00, 0x00, 0x01, 0x01, 0x00, 0x00, 0x00, 0x3b, 0x00, 0x00, 0x00,
  0x02, 0x00, 0x00, 0x00, 0x3a, 0x00, 0x00, 0x00, 0x14, 0x00, 0x00, 0x00,
  0xc2, 0xfb, 0xff, 0xff, 0x0c, 0x00, 0x00, 0x00, 0x10, 0x00, 0x00, 0x00,
  0x06, 0x00, 0x00, 0x00, 0x01, 0x00, 0x00, 0x00, 0x3a, 0x00, 0x00, 0x00,
  0x03, 0x00, 0x00, 0x00, 0x39, 0x00, 0x00, 0x00, 0x05, 0x00, 0x00, 0x00,
  0x06, 0x00, 0x00, 0x00, 0xea, 0xfb, 0xff, 0xff, 0x0c, 0x00, 0x00, 0x00,
  0x10, 0x00, 0x00, 0x00, 0x02, 0x00, 0x00, 0x00, 0x01, 0x00, 0x00, 0x00,
  0x39, 0x00, 0x00, 0x00, 0x02, 0x00, 0x00, 0x00, 0x38, 0x00, 0x00, 0x00,
  0x07, 0x00, 0x00, 0x00, 0x4e, 0xfc, 0xff, 0xff, 0x14, 0x00, 0x00, 0x00,
  0x00, 0x00, 0x00, 0x01, 0x1c, 0x00, 0x00, 0x00, 0x20, 0x00, 0x00, 0x00,
  0x01, 0x00, 0x00, 0x00, 0xb2, 0xfe, 0xff, 0xff, 0x01, 0x00, 0x00, 0x00,
  0x01, 0x00, 0x00, 0x00, 0x00, 0x00, 0x00, 0x01, 0x01, 0x00, 0x00, 0x00,
  0x38, 0x00, 0x00, 0x00, 0x03, 0x00, 0x00, 0x00, 0x37, 0x00, 0x00, 0x00,
  0x15, 0x00, 0x00, 0x00, 0x18, 0x00, 0x00, 0x00, 0xc6, 0xfb, 0xff, 0xff,
  0x10, 0x00, 0x00, 0x00, 0x00, 0x00, 0x00, 0x34, 0x0c, 0x00, 0x00, 0x00,
  0x10, 0x00, 0x00, 0x00, 0x18, 0xc4, 0xff, 0xff, 0x01, 0x00, 0x00, 0x00,
  0x37, 0x00, 0x00, 0x00, 0x02, 0x00, 0x00, 0x00, 0x36, 0x00, 0x00, 0x00,
  0x01, 0x00, 0x00, 0x00, 0x7a, 0xfc, 0xff, 0xff, 0x0c, 0x00, 0x00, 0x00,
  0x10, 0x00, 0x00, 0x00, 0x05, 0x00, 0x00, 0x00, 0x01, 0x00, 0x00, 0x00,
  0x36, 0x00, 0x00, 0x00, 0x03, 0x00, 0x00, 0x00, 0x35, 0x00, 0x00, 0x00,
  0x05, 0x00, 0x00, 0x00, 0x06, 0x00, 0x00, 0x00, 0xe2, 0xfc, 0xff, 0xff,
  0x14, 0x00, 0x00, 0x00, 0x00, 0x00, 0x00, 0x16, 0x10, 0x00, 0x00, 0x00,
  0x14, 0x00, 0x00, 0x00, 0x03, 0x00, 0x00, 0x00, 0x70, 0xc4, 0xff, 0xff,
  0x01, 0x00, 0x00, 0x00, 0x35, 0x00, 0x00, 0x00, 0x02, 0x00, 0x00, 0x00,
  0x34, 0x00, 0x00, 0x00, 0x04, 0x00, 0x00, 0x00, 0xa2, 0xfc, 0xff, 0xff,
  0x1c, 0x00, 0x00, 0x00, 0x00, 0x00, 0x00, 0x0b, 0x1c, 0x00, 0x00, 0x00,
  0x20, 0x00, 0x00, 0x00, 0x04, 0x00, 0x00, 0x00, 0x00, 0x00, 0x06, 0x00,
  0x08, 0x00, 0x07, 0x00, 0x06, 0x00, 0x00, 0x00, 0x00, 0x00, 0x00, 0x01,
  0x01, 0x00, 0x00, 0x00, 0x34, 0x00, 0x00, 0x00, 0x02, 0x00, 0x00, 0x00,
  0x33, 0x00, 0x00, 0x00, 0x16, 0x00, 0x00, 0x00, 0x0e, 0xfd, 0xff, 0xff,
  0x0c, 0x00, 0x00, 0x00, 0x10, 0x00, 0x00, 0x00, 0x06, 0x00, 0x00, 0x00,
  0x01, 0x00, 0x00, 0x00, 0x33, 0x00, 0x00, 0x00, 0x03, 0x00, 0x00, 0x00,
  0x32, 0x00, 0x00, 0x00, 0x05, 0x00, 0x00, 0x00, 0x06, 0x00, 0x00, 0x00,
  0x36, 0xfd, 0xff, 0xff, 0x0c, 0x00, 0x00, 0x00, 0x10, 0x00, 0x00, 0x00,
  0x02, 0x00, 0x00, 0x00, 0x01, 0x00, 0x00, 0x00, 0x32, 0x00, 0x00, 0x00,
  0x02, 0x00, 0x00, 0x00, 0x31, 0x00, 0x00, 0x00, 0x07, 0x00, 0x00, 0x00,
  0x2a, 0xfd, 0xff, 0xff, 0x20, 0x00, 0x00, 0x00, 0x00, 0x00, 0x00, 0x01,
  0x28, 0x00, 0x00, 0x00, 0x2c, 0x00, 0x00, 0x00, 0x01, 0x00, 0x00, 0x00,
  0x00, 0x00, 0x0a, 0x00, 0x10, 0x00, 0x0f, 0x00, 0x08, 0x00, 0x04, 0x00,
  0x0a, 0x00, 0x00, 0x00, 0x01, 0x00, 0x00, 0x00, 0x01, 0x00, 0x00, 0x00,
  0x00, 0x00, 0x00, 0x01, 0x01, 0x00, 0x00, 0x00, 0x31, 0x00, 0x00, 0x00,
  0x03, 0x00, 0x00, 0x00, 0x30, 0x00, 0x00, 0x00, 0x1b, 0x00, 0x00, 0x00,
  0x17, 0x00, 0x00, 0x00, 0x1e, 0xfd, 0xff, 0xff, 0x10, 0x00, 0x00, 0x00,
  0x00, 0x00, 0x00, 0x34, 0x0c, 0x00, 0x00, 0x00, 0x10, 0x00, 0x00, 0x00,
  0x70, 0xc5, 0xff, 0xff, 0x01, 0x00, 0x00, 0x00, 0x30, 0x00, 0x00, 0x00,
  0x02, 0x00, 0x00, 0x00, 0x2f, 0x00, 0x00, 0x00, 0x01, 0x00, 0x00, 0x00,
  0xd2, 0xfd, 0xff, 0xff, 0x0c, 0x00, 0x00, 0x00, 0x10, 0x00, 0x00, 0x00,
  0x05, 0x00, 0x00, 0x00, 0x01, 0x00, 0x00, 0x00, 0x2f, 0x00, 0x00, 0x00,
  0x03, 0x00, 0x00, 0x00, 0x2e, 0x00, 0x00, 0x00, 0x05, 0x00, 0x00, 0x00,
  0x06, 0x00, 0x00, 0x00, 0x3a, 0xfe, 0xff, 0xff, 0x14, 0x00, 0x00, 0x00,
  0x00, 0x00, 0x00, 0x16, 0x10, 0x00, 0x00, 0x00, 0x14, 0x00, 0x00, 0x00,
  0x03, 0x00, 0x00, 0x00, 0xc8, 0xc5, 0xff, 0xff, 0x01, 0x00, 0x00, 0x00,
  0x2e, 0x00, 0x00, 0x00, 0x02, 0x00, 0x00, 0x00, 0x2d, 0x00, 0x00, 0x00,
  0x04, 0x00, 0x00, 0x00, 0x2a, 0xfe, 0xff, 0xff, 0x0c, 0x00, 0x00, 0x00,
  0x10, 0x00, 0x00, 0x00, 0x02, 0x00, 0x00, 0x00, 0x01, 0x00, 0x00, 0x00,
  0x2d, 0x00, 0x00, 0x00, 0x02, 0x00, 0x00, 0x00, 0x2c, 0x00, 0x00, 0x00,
  0x02, 0x00, 0x00, 0x00, 0x8e, 0xfe, 0xff, 0xff, 0x14, 0x00, 0x00, 0x00,
  0x00, 0x00, 0x00, 0x0b, 0x10, 0x00, 0x00, 0x00, 0x14, 0x00, 0x00, 0x00,
  0x04, 0x00, 0x00, 0x00, 0x1c, 0xc6, 0xff, 0xff, 0x01, 0x00, 0x00, 0x00,
  0x2c, 0x00, 0x00, 0x00, 0x02, 0x00, 0x00, 0x00, 0x23, 0x00, 0x00, 0x00,
  0x2b, 0x00, 0x00, 0x00, 0xbe, 0xfe, 0xff, 0xff, 0x14, 0x00, 0x00, 0x00,
  0x00, 0x00, 0x00, 0x01, 0x20, 0x00, 0x00, 0x00, 0x24, 0x00, 0x00, 0x00,
  0x01, 0x00, 0x00, 0x00, 0x3c, 0xff, 0xff, 0xff, 0x00, 0x00, 0x00, 0x01,
  0x01, 0x00, 0x00, 0x00, 0x01, 0x00, 0x00, 0x00, 0x00, 0x00, 0x00, 0x01,
  0x01, 0x00, 0x00, 0x00, 0x2b, 0x00, 0x00, 0x00, 0x03, 0x00, 0x00, 0x00,
  0x2a, 0x00, 0x00, 0x00, 0x1d, 0x00, 0x00, 0x00, 0x1c, 0x00, 0x00, 0x00,
  0x3a, 0xfe, 0xff, 0xff, 0x10, 0x00, 0x00, 0x00, 0x00, 0x00, 0x00, 0x34,
  0x0c, 0x00, 0x00, 0x00, 0x10, 0x00, 0x00, 0x00, 0x8c, 0xc6, 0xff, 0xff,
  0x01, 0x00, 0x00, 0x00, 0x2a, 0x00, 0x00, 0x00, 0x02, 0x00, 0x00, 0x00,
  0x29, 0x00, 0x00, 0x00, 0x01, 0x00, 0x00, 0x00, 0x2e, 0xff, 0xff, 0xff,
  0x14, 0x00, 0x00, 0x00, 0x00, 0x00, 0x00, 0x16, 0x10, 0x00, 0x00, 0x00,
  0x14, 0x00, 0x00, 0x00, 0x03, 0x00, 0x00, 0x00, 0xbc, 0xc6, 0xff, 0xff,
  0x01, 0x00, 0x00, 0x00, 0x29, 0x00, 0x00, 0x00, 0x02, 0x00, 0x00, 0x00,
  0x28, 0x00, 0x00, 0x00, 0x03, 0x00, 0x00, 0x00, 0x1e, 0xff, 0xff, 0xff,
  0x0c, 0x00, 0x00, 0x00, 0x10, 0x00, 0x00, 0x00, 0x02, 0x00, 0x00, 0x00,
  0x01, 0x00, 0x00, 0x00, 0x28, 0x00, 0x00, 0x00, 0x02, 0x00, 0x00, 0x00,
  0x27, 0x00, 0x00, 0x00, 0x02, 0x00, 0x00, 0x00, 0x82, 0xff, 0xff, 0xff,
  0x20, 0x00, 0x00, 0x00, 0x00, 0x00, 0x00, 0x01, 0x2c, 0x00, 0x00, 0x00,
  0x30, 0x00, 0x00, 0x00, 0x01, 0x00, 0x00, 0x00, 0x0c, 0x00, 0x14, 0x00,
  0x13, 0x00, 0x0c, 0x00, 0x08, 0x00, 0x07, 0x00, 0x0c, 0x00, 0x00, 0x00,
  0x00, 0x00, 0x00, 0x01, 0x01, 0x00, 0x00, 0x00, 0x01, 0x00, 0x00, 0x00,
  0x00, 0x00, 0x00, 0x01, 0x01, 0x00, 0x00, 0x00, 0x27, 0x00, 0x00, 0x00,
  0x03, 0x00, 0x00, 0x00, 0x26, 0x00, 0x00, 0x00, 0x1f, 0x00, 0x00, 0x00,
  0x1e, 0x00, 0x00, 0x00, 0x0a, 0xff, 0xff, 0xff, 0x10, 0x00, 0x00, 0x00,
  0x00, 0x00, 0x00, 0x34, 0x0c, 0x00, 0x00, 0x00, 0x10, 0x00, 0x00, 0x00,
  0x5c, 0xc7, 0xff, 0xff, 0x01, 0x00, 0x00, 0x00, 0x26, 0x00, 0x00, 0x00,
  0x02, 0x00, 0x00, 0x00, 0x25, 0x00, 0x00, 0x00, 0x01, 0x00, 0x00, 0x00,
  0x00, 0x00, 0x0e, 0x00, 0x18, 0x00, 0x14, 0x00, 0x10, 0x00, 0x0c, 0x00,
  0x0b, 0x00, 0x04, 0x00, 0x0e, 0x00, 0x00, 0x00, 0x14, 0x00, 0x00, 0x00,
  0x00, 0x00, 0x00, 0x16, 0x10, 0x00, 0x00, 0x00, 0x14, 0x00, 0x00, 0x00,
  0x03, 0x00, 0x00, 0x00, 0x9c, 0xc7, 0xff, 0xff, 0x01, 0x00, 0x00, 0x00,
  0x25, 0x00, 0x00, 0x00, 0x02, 0x00, 0x00, 0x00, 0x24, 0x00, 0x00, 0x00,
  0x03, 0x00, 0x00, 0x00, 0x00, 0x00, 0x0a, 0x00, 0x10, 0x00, 0x0c, 0x00,
  0x08, 0x00, 0x04, 0x00, 0x0a, 0x00, 0x00, 0x00, 0x0c, 0x00, 0x00, 0x00,
  0x10, 0x00, 0x00, 0x00, 0x02, 0x00, 0x00, 0x00, 0x01, 0x00, 0x00, 0x00,
  0x24, 0x00, 0x00, 0x00, 0x02, 0x00, 0x00, 0x00, 0x23, 0x00, 0x00, 0x00,
  0x02, 0x00, 0x00, 0x00, 0x00, 0x00, 0x0e, 0x00, 0x1a, 0x00, 0x14, 0x00,
  0x10, 0x00, 0x0c, 0x00, 0x0b, 0x00, 0x04, 0x00, 0x0e, 0x00, 0x00, 0x00,
  0x20, 0x00, 0x00, 0x00, 0x00, 0x00, 0x00, 0x01, 0x24, 0x00, 0x00, 0x00,
  0x28, 0x00, 0x00, 0x00, 0x01, 0x00, 0x00, 0x00, 0x00, 0x00, 0x0a, 0x00,
  0x0c, 0x00, 0x00, 0x00, 0x08, 0x00, 0x04, 0x00, 0x0a, 0x00, 0x00, 0x00,
  0x01, 0x00, 0x00, 0x00, 0x01, 0x00, 0x00, 0x00, 0x01, 0x00, 0x00, 0x00,
  0x23, 0x00, 0x00, 0x00, 0x03, 0x00, 0x00, 0x00, 0x22, 0x00, 0x00, 0x00,
  0x21, 0x00, 0x00, 0x00, 0x20, 0x00, 0x00, 0x00, 0x00, 0x00, 0x0e, 0x00,
  0x14, 0x00, 0x00, 0x00, 0x10, 0x00, 0x0c, 0x00, 0x0b, 0x00, 0x04, 0x00,
  0x0e, 0x00, 0x00, 0x00, 0x10, 0x00, 0x00, 0x00, 0x00, 0x00, 0x00, 0x34,
  0x0c, 0x00, 0x00, 0x00, 0x10, 0x00, 0x00, 0x00, 0x60, 0xc8, 0xff, 0xff,
  0x01, 0x00, 0x00, 0x00, 0x22, 0x00, 0x00, 0x00, 0x02, 0x00, 0x00, 0x00,
  0x00, 0x00, 0x00, 0x00, 0x01, 0x00, 0x00, 0x00, 0x01, 0x00, 0x00, 0x00,
  0x4d, 0x00, 0x00, 0x00, 0x01, 0x00, 0x00, 0x00, 0x00, 0x00, 0x00, 0x00,
  0x4e, 0x00, 0x00, 0x00, 0xc0, 0x37, 0x00, 0x00, 0x54, 0x37, 0x00, 0x00,
  0xec, 0x36, 0x00, 0x00, 0x9c, 0x36, 0x00, 0x00, 0x4c, 0x36, 0x00, 0x00,
  0xe8, 0x35, 0x00, 0x00, 0x88, 0x35, 0x00, 0x00, 0x38, 0x35, 0x00, 0x00,
  0xe8, 0x34, 0x00, 0x00, 0x84, 0x34, 0x00, 0x00, 0x34, 0x34, 0x00, 0x00,
  0xe0, 0x33, 0x00, 0x00, 0x8c, 0x33, 0x00, 0x00, 0x38, 0x33, 0x00, 0x00,
  0xc8, 0x32, 0x00, 0x00, 0x64, 0x32, 0x00, 0x00, 0xf0, 0x31, 0x00, 0x00,
  0x6c, 0x30, 0x00, 0x00, 0xf8, 0x2f, 0x00, 0x00, 0x74, 0x2e, 0x00, 0x00,
  0x00, 0x2e, 0x00, 0x00, 0x7c, 0x2c, 0x00, 0x00, 0x08, 0x2c, 0x00, 0x00,
  0x8c, 0x2a, 0x00, 0x00, 0x10, 0x29, 0x00, 0x00, 0x94, 0x27, 0x00, 0x00,
  0x18, 0x26, 0x00, 0x00, 0x94, 0x24, 0x00, 0x00, 0x08, 0x23, 0x00, 0x00,
  0x84, 0x21, 0x00, 0x00, 0xf8, 0x1f, 0x00, 0x00, 0x74, 0x1e, 0x00, 0x00,
  0xf0, 0x1c, 0x00, 0x00, 0x6c, 0x1b, 0x00, 0x00, 0xd8, 0x1a, 0x00, 0x00,
  0xe4, 0x19, 0x00, 0x00, 0x24, 0x19, 0x00, 0x00, 0xa8, 0x18, 0x00, 0x00,
  0x10, 0x18, 0x00, 0x00, 0x04, 0x17, 0x00, 0x00, 0x2c, 0x16, 0x00, 0x00,
  0xb0, 0x15, 0x00, 0x00, 0x18, 0x15, 0x00, 0x00, 0x0c, 0x14, 0x00, 0x00,
  0xc8, 0x12, 0x00, 0x00, 0x88, 0x11, 0x00, 0x00, 0x0c, 0x11, 0x00, 0x00,
  0x78, 0x10, 0x00, 0x00, 0xe0, 0x0f, 0x00, 0x00, 0x54, 0x0f, 0x00, 0x00,
  0xcc, 0x0e, 0x00, 0x00, 0x38, 0x0e, 0x00, 0x00, 0xa4, 0x0d, 0x00, 0x00,
  0x28, 0x0d, 0x00, 0x00, 0x94, 0x0c, 0x00, 0x00, 0xfc, 0x0b, 0x00, 0x00,
  0x70, 0x0b, 0x00, 0x00, 0xe8, 0x0a, 0x00, 0x00, 0x54, 0x0a, 0x00, 0x00,
  0xc0, 0x09, 0x00, 0x00, 0x44, 0x09, 0x00, 0x00, 0xc8, 0x08, 0x00, 0x00,
  0x34, 0x08, 0x00, 0x00, 0x9c, 0x07, 0x00, 0x00, 0x10, 0x07, 0x00, 0x00,
  0x88, 0x06, 0x00, 0x00, 0xf4, 0x05, 0x00, 0x00, 0x60, 0x05, 0x00, 0x00,
  0xe4, 0x04, 0x00, 0x00, 0x50, 0x04, 0x00, 0x00, 0xb8, 0x03, 0x00, 0x00,
  0x2c, 0x03, 0x00, 0x00, 0xa4, 0x02, 0x00, 0x00, 0x10, 0x02, 0x00, 0x00,
  0x7c, 0x01, 0x00, 0x00, 0x00, 0x01, 0x00, 0x00, 0x80, 0x00, 0x00, 0x00,
  0x04, 0x00, 0x00, 0x00, 0x8e, 0xc9, 0xff, 0xff, 0x00, 0x00, 0x00, 0x01,
  0x18, 0x00, 0x00, 0x00, 0x20, 0x00, 0x00, 0x00, 0x3c, 0x00, 0x00, 0x00,
  0x4e, 0x00, 0x00, 0x00, 0x00, 0x00, 0x00, 0x09, 0x50, 0x00, 0x00, 0x00,
  0x02, 0x00, 0x00, 0x00, 0xff, 0xff, 0xff, 0xff, 0x01, 0x00, 0x00, 0x00,
  0x74, 0xc9, 0xff, 0xff, 0x08, 0x00, 0x00, 0x00, 0x10, 0x00, 0x00, 0x00,
  0x01, 0x00, 0x00, 0x00, 0x80, 0xff, 0xff, 0xff, 0xff, 0xff, 0xff, 0xff,
  0x01, 0x00, 0x00, 0x00, 0xfc, 0x5d, 0x58, 0x3b, 0x19, 0x00, 0x00, 0x00,
  0x53, 0x74, 0x61, 0x74, 0x65, 0x66, 0x75, 0x6c, 0x50, 0x61, 0x72, 0x74,
  0x69, 0x74, 0x69, 0x6f, 0x6e, 0x65, 0x64, 0x43, 0x61, 0x6c, 0x6c, 0x3a,
  0x30, 0x00, 0x00, 0x00, 0x02, 0x00, 0x00, 0x00, 0x01, 0x00, 0x00, 0x00,
  0x01, 0x00, 0x00, 0x00, 0x06, 0xca, 0xff, 0xff, 0x00, 0x00, 0x00, 0x01,
  0x18, 0x00, 0x00, 0x00, 0x20, 0x00, 0x00, 0x00, 0x40, 0x00, 0x00, 0x00,
  0x4d, 0x00, 0x00, 0x00, 0x00, 0x00, 0x00, 0x09, 0x54, 0x00, 0x00, 0x00,
  0x02, 0x00, 0x00, 0x00, 0xff, 0xff, 0xff, 0xff, 0x18, 0x00, 0x00, 0x00,
  0xec, 0xc9, 0xff, 0xff, 0x08, 0x00, 0x00, 0x00, 0x14, 0x00, 0x00, 0x00,
  0x01, 0x00, 0x00, 0x00, 0xec, 0xff, 0xff, 0xff, 0xff, 0xff, 0xff, 0xff,
  0x00, 0x00, 0x00, 0x00, 0x01, 0x00, 0x00, 0x00, 0x61, 0x22, 0xf9, 0x3b,
  0x1a, 0x00, 0x00, 0x00, 0x6d, 0x6f, 0x64, 0x65, 0x6c, 0x2f, 0x6c, 0x61,
  0x6d, 0x62, 0x64, 0x61, 0x2f, 0x73, 0x74, 0x72, 0x69, 0x64, 0x65, 0x64,
  0x5f, 0x73, 0x6c, 0x69, 0x63, 0x65, 0x00, 0x00, 0x02, 0x00, 0x00, 0x00,
  0x01, 0x00, 0x00, 0x00, 0x18, 0x00, 0x00, 0x00, 0x82, 0xca, 0xff, 0xff,
  0x00, 0x00, 0x00, 0x01, 0x18, 0x00, 0x00, 0x00, 0x24, 0x00, 0x00, 0x00,
  0x44, 0x00, 0x00, 0x00, 0x4c, 0x00, 0x00, 0x00, 0x00, 0x00, 0x00, 0x09,
  0x4c, 0x00, 0x00, 0x00, 0x03, 0x00, 0x00, 0x00, 0xff, 0xff, 0xff, 0xff,
  0x18, 0x00, 0x00, 0x00, 0x18, 0x00, 0x00, 0x00, 0x6c, 0xca, 0xff, 0xff,
  0x08, 0x00, 0x00, 0x00, 0x14, 0x00, 0x00, 0x00, 0x01, 0x00, 0x00, 0x00,
  0xec, 0xff, 0xff, 0xff, 0xff, 0xff, 0xff, 0xff, 0x00, 0x00, 0x00, 0x00,
  0x01, 0x00, 0x00, 0x00, 0x61, 0x22, 0xf9, 0x3b, 0x0f, 0x00, 0x00, 0x00,
  0x6d, 0x6f, 0x64, 0x65, 0x6c, 0x2f, 0x61, 0x64, 0x64, 0x5f, 0x32, 0x2f,
  0x61, 0x64, 0x64, 0x00, 0x03, 0x00, 0x00, 0x00, 0x01, 0x00, 0x00, 0x00,
  0x18, 0x00, 0x00, 0x00, 0x18, 0x00, 0x00, 0x00, 0xfa, 0xca, 0xff, 0xff,
  0x00, 0x00, 0x00, 0x01, 0x18, 0x00, 0x00, 0x00, 0x24, 0x00, 0x00, 0x00,
  0x40, 0x00, 0x00, 0x00, 0x4b, 0x00, 0x00, 0x00, 0x00, 0x00, 0x00, 0x09,
  0x64, 0x00, 0x00, 0x00, 0x03, 0x00, 0x00, 0x00, 0xff, 0xff, 0xff, 0xff,
  0x18, 0x00, 0x00, 0x00, 0x18, 0x00, 0x00, 0x00, 0xe4, 0xca, 0xff, 0xff,
  0x08, 0x00, 0x00, 0x00, 0x10, 0x00, 0x00, 0x00, 0x01, 0x00, 0x00, 0x00,
  0xec, 0xff, 0xff, 0xff, 0xff, 0xff, 0xff, 0xff, 0x01, 0x00, 0x00, 0x00,
  0x61, 0x22, 0xf9, 0x3b, 0x2a, 0x00, 0x00, 0x00, 0x6d, 0x6f, 0x64, 0x65,
  0x6c, 0x2f, 0x63, 0x6f, 0x6e, 0x76, 0x31, 0x64, 0x5f, 0x36, 0x2f, 0x52,
  0x65, 0x6c, 0x75, 0x3b, 0x6d, 0x6f, 0x64, 0x65, 0x6c, 0x2f, 0x63, 0x6f,
  0x6e, 0x76, 0x31, 0x64, 0x5f, 0x36, 0x2f, 0x42, 0x69, 0x61, 0x73, 0x41,
  0x64, 0x64, 0x00, 0x00, 0x03, 0x00, 0x00, 0x00, 0x01, 0x00, 0x00, 0x00,
  0x18, 0x00, 0x00, 0x00, 0x18, 0x00, 0x00, 0x00, 0x8a, 0xcb, 0xff, 0xff,
  0x00, 0x00, 0x00, 0x01, 0x18, 0x00, 0x00, 0x00, 0x24, 0x00, 0x00, 0x00,
  0x44, 0x00, 0x00, 0x00, 0x4a, 0x00, 0x00, 0x00, 0x00, 0x00, 0x00, 0x09,
  0x64, 0x00, 0x00, 0x00, 0x03, 0x00, 0x00, 0x00, 0xff, 0xff, 0xff, 0xff,
  0x18, 0x00, 0x00, 0x00, 0x18, 0x00, 0x00, 0x00, 0x74, 0xcb, 0xff, 0xff,
  0x08, 0x00, 0x00, 0x00, 0x14, 0x00, 0x00, 0x00, 0x01, 0x00, 0x00, 0x00,
  0x23, 0x00, 0x00, 0x00, 0x00, 0x00, 0x00, 0x00, 0x00, 0x00, 0x00, 0x00,
  0x01, 0x00, 0x00, 0x00, 0xa9, 0x56, 0xc3, 0x3a, 0x24, 0x00, 0x00, 0x00,
  0x6d, 0x6f, 0x64, 0x65, 0x6c, 0x2f, 0x63, 0x6f, 0x6e, 0x76, 0x31, 0x64,
  0x5f, 0x36, 0x2f, 0x43, 0x6f, 0x6e, 0x76, 0x31, 0x44, 0x2f, 0x42, 0x61,
  0x74, 0x63, 0x68, 0x54, 0x6f, 0x53, 0x70, 0x61, 0x63, 0x65, 0x4e, 0x44,
  0x00, 0x00, 0x00, 0x00, 0x03, 0x00, 0x00, 0x00, 0x01, 0x00, 0x00, 0x00,
  0x18, 0x00, 0x00, 0x00, 0x18, 0x00, 0x00, 0x00, 0x1a, 0xcc, 0xff, 0xff,
  0x00, 0x00, 0x00, 0x01, 0x18, 0x00, 0x00, 0x00, 0x24, 0x00, 0x00, 0x00,
  0x40, 0x00, 0x00, 0x00, 0x49, 0x00, 0x00, 0x00, 0x00, 0x00, 0x00, 0x09,
  0x58, 0x00, 0x00, 0x00, 0x03, 0x00, 0x00, 0x00, 0xff, 0xff, 0xff, 0xff,
  0x06, 0x00, 0x00, 0x00, 0x18, 0x00, 0x00, 0x00, 0x04, 0xcc, 0xff, 0xff,
  0x08, 0x00, 0x00, 0x00, 0x10, 0x00, 0x00, 0x00, 0x01, 0x00, 0x00, 0x00,
  0x23, 0x00, 0x00, 0x00, 0x00, 0x00, 0x00, 0x00, 0x01, 0x00, 0x00, 0x00,
  0xa9, 0x56, 0xc3, 0x3a, 0x1e, 0x00, 0x00, 0x00, 0x6d, 0x6f, 0x64, 0x65,
  0x6c, 0x2f, 0x63, 0x6f, 0x6e, 0x76, 0x31, 0x64, 0x5f, 0x36, 0x2f, 0x43,
  0x6f, 0x6e, 0x76, 0x31, 0x44, 0x2f, 0x53, 0x71, 0x75, 0x65, 0x65, 0x7a,
  0x65, 0x31, 0x00, 0x00, 0x03, 0x00, 0x00, 0x00, 0x01, 0x00, 0x00, 0x00,
  0x06, 0x00, 0x00, 0x00, 0x18, 0x00, 0x00, 0x00, 0x9e, 0xcc, 0xff, 0xff,
  0x00, 0x00, 0x00, 0x01, 0x18, 0x00, 0x00, 0x00, 0x28, 0x00, 0x00, 0x00,
  0x48, 0x00, 0x00, 0x00, 0x48, 0x00, 0x00, 0x00, 0x00, 0x00, 0x00, 0x09,
  0x58, 0x00, 0x00, 0x00, 0x04, 0x00, 0x00, 0x00, 0xff, 0xff, 0xff, 0xff,
  0x01, 0x00, 0x00, 0x00, 0x06, 0x00, 0x00, 0x00, 0x18, 0x00, 0x00, 0x00,
  0x8c, 0xcc, 0xff, 0xff, 0x08, 0x00, 0x00, 0x00, 0x14, 0x00, 0x00, 0x00,
  0x01, 0x00, 0x00, 0x00, 0x23, 0x00, 0x00, 0x00, 0x00, 0x00, 0x00, 0x00,
