const unsigned char g_tcn_model_data[] __attribute__((aligned(16))) = {
  0x20, 0x00, 0x00, 0x00, 0x54, 0x46, 0x4c, 0x33, 0x00, 0x00, 0x00, 0x00,
  0x14, 0x00, 0x20, 0x00, 0x1c, 0x00, 0x18, 0x00, 0x14, 0x00, 0x10, 0x00,
  0x0c, 0x00, 0x00, 0x00, 0x08, 0x00, 0x04, 0x00, 0x14, 0x00, 0x00, 0x00,
  0x1c, 0x00, 0x00, 0x00, 0x80, 0x00, 0x00, 0x00, 0xd8, 0x00, 0x00, 0x00,
  0xc8, 0x30, 0x00, 0x00, 0xd8, 0x30, 0x00, 0x00, 0xbc, 0x72, 0x00, 0x00,
  0x03, 0x00, 0x00, 0x00, 0x01, 0x00, 0x00, 0x00, 0x04, 0x00, 0x00, 0x00,
  0x7a, 0xc6, 0xff, 0xff, 0x0c, 0x00, 0x00, 0x00, 0x1c, 0x00, 0x00, 0x00,
  0x38, 0x00, 0x00, 0x00, 0x0f, 0x00, 0x00, 0x00, 0x73, 0x65, 0x72, 0x76,
  0x69, 0x6e, 0x67, 0x5f, 0x64, 0x65, 0x66, 0x61, 0x75, 0x6c, 0x74, 0x00,
  0x01, 0x00, 0x00, 0x00, 0x04, 0x00, 0x00, 0x00, 0x9c, 0xff, 0xff, 0xff,
  0x4d, 0x00, 0x00, 0x00, 0x04, 0x00, 0x00, 0x00, 0x05, 0x00, 0x00, 0x00,
  0x64, 0x65, 0x6e, 0x73, 0x65, 0x00, 0x00, 0x00, 0x01, 0x00, 0x00, 0x00,
  0x04, 0x00, 0x00, 0x00, 0xba, 0xcf, 0xff, 0xff, 0x04, 0x00, 0x00, 0x00,
  0x07, 0x00, 0x00, 0x00, 0x69, 0x6e, 0x70, 0x75, 0x74, 0x5f, 0x31, 0x00,
  0x02, 0x00, 0x00, 0x00, 0x34, 0x00, 0x00, 0x00, 0x04, 0x00, 0x00, 0x00,
  0xdc, 0xff, 0xff, 0xff, 0x50, 0x00, 0x00, 0x00, 0x04, 0x00, 0x00, 0x00,
  0x13, 0x00, 0x00, 0x00, 0x43, 0x4f, 0x4e, 0x56, 0x45, 0x52, 0x53, 0x49,
  0x4f, 0x4e, 0x5f, 0x4d, 0x45, 0x54, 0x41, 0x44, 0x41, 0x54, 0x41, 0x00,
  0x08, 0x00, 0x0c, 0x00, 0x08, 0x00, 0x04, 0x00, 0x08, 0x00, 0x00, 0x00,
  0x4f, 0x00, 0x00, 0x00, 0x04, 0x00, 0x00, 0x00, 0x13, 0x00, 0x00, 0x00,
  0x6d, 0x69, 0x6e, 0x5f, 0x72, 0x75, 0x6e, 0x74, 0x69, 0x6d, 0x65, 0x5f,
  0x76, 0x65, 0x72, 0x73, 0x69, 0x6f, 0x6e, 0x00, 0x51, 0x00, 0x00, 0x00,
  0xec, 0x2f, 0x00, 0x00, 0xe4, 0x2f, 0x00, 0x00, 0xd0, 0x2f, 0x00, 0x00,
  0xac, 0x2f, 0x00, 0x00, 0x84, 0x2f, 0x00, 0x00, 0x5c, 0x2f, 0x00, 0x00,
  0x48, 0x2f, 0x00, 0x00, 0x30, 0x2f, 0x00, 0x00, 0x14, 0x2f, 0x00, 0x00,
  0xec, 0x2e, 0x00, 0x00, 0xd8, 0x2e, 0x00, 0x00, 0xbc, 0x2e, 0x00, 0x00,
  0xa0, 0x2e, 0x00, 0x00, 0x84, 0x2e, 0x00, 0x00, 0x68, 0x2e, 0x00, 0x00,
  0x54, 0x2e, 0x00, 0x00, 0x2c, 0x2e, 0x00, 0x00, 0x04, 0x2e, 0x00, 0x00,
  0x34, 0x27, 0x00, 0x00, 0x0c, 0x27, 0x00, 0x00, 0x3c, 0x20, 0x00, 0x00,
  0x14, 0x20, 0x00, 0x00, 0x44, 0x19, 0x00, 0x00, 0x1c, 0x19, 0x00, 0x00,
  0xac, 0x18, 0x00, 0x00, 0xa4, 0x18, 0x00, 0x00, 0x9c, 0x18, 0x00, 0x00,
  0x94, 0x18, 0x00, 0x00, 0xc4, 0x11, 0x00, 0x00, 0x54, 0x11, 0x00, 0x00,
  0x84, 0x0a, 0x00, 0x00, 0x14, 0x0a, 0x00, 0x00, 0x44, 0x03, 0x00, 0x00,
  0xd4, 0x02, 0x00, 0x00, 0xec, 0x01, 0x00, 0x00, 0xe4, 0x01, 0x00, 0x00,
  0xdc, 0x01, 0x00, 0x00, 0xd4, 0x01, 0x00, 0x00, 0xcc, 0x01, 0x00, 0x00,
  0xc4, 0x01, 0x00, 0x00, 0xbc, 0x01, 0x00, 0x00, 0xb4, 0x01, 0x00, 0x00,
  0xac, 0x01, 0x00, 0x00, 0xa4, 0x01, 0x00, 0x00, 0x9c, 0x01, 0x00, 0x00,
  0x94, 0x01, 0x00, 0x00, 0x8c, 0x01, 0x00, 0x00, 0x84, 0x01, 0x00, 0x00,
  0x7c, 0x01, 0x00, 0x00, 0x74, 0x01, 0x00, 0x00, 0x6c, 0x01, 0x00, 0x00,
  0x64, 0x01, 0x00, 0x00, 0x5c, 0x01, 0x00, 0x00, 0x54, 0x01, 0x00, 0x00,
  0x4c, 0x01, 0x00, 0x00, 0x44, 0x01, 0x00, 0x00, 0x3c, 0x01, 0x00, 0x00,
  0x34, 0x01, 0x00, 0x00, 0x2c, 0x01, 0x00, 0x00, 0x24, 0x01, 0x00, 0x00,
  0x1c, 0x01, 0x00, 0x00, 0x14, 0x01, 0x00, 0x00, 0x0c, 0x01, 0x00, 0x00,
  0x04, 0x01, 0x00, 0x00, 0xfc, 0x00, 0x00, 0x00, 0xf4, 0x00, 0x00, 0x00,
  0xec, 0x00, 0x00, 0x00, 0xe4, 0x00, 0x00, 0x00, 0xdc, 0x00, 0x00, 0x00,
  0xd4, 0x00, 0x00, 0x00, 0xcc, 0x00, 0x00, 0x00, 0xc4, 0x00, 0x00, 0x00,
  0xbc, 0x00, 0x00, 0x00, 0xb4, 0x00, 0x00, 0x00, 0xac, 0x00, 0x00, 0x00,
  0xa4, 0x00, 0x00, 0x00, 0x9c, 0x00, 0x00, 0x00, 0x94, 0x00, 0x00, 0x00,
  0x8c, 0x00, 0x00, 0x00, 0x6c, 0x00, 0x00, 0x00, 0x04, 0x00, 0x00, 0x00,
  0x72, 0xd1, 0xff, 0xff, 0x04, 0x00, 0x00, 0x00, 0x58, 0x00, 0x00, 0x00,
  0x0c, 0x00, 0x00, 0x00, 0x08, 0x00, 0x0e, 0x00, 0x08, 0x00, 0x04, 0x00,
  0x08, 0x00, 0x00, 0x00, 0x10, 0x00, 0x00, 0x00, 0x28, 0x00, 0x00, 0x00,
  0x00, 0x00, 0x06, 0x00, 0x08, 0x00, 0x04, 0x00, 0x06, 0x00, 0x00, 0x00,
  0x04, 0x00, 0x00, 0x00, 0x01, 0x00, 0x00, 0x00, 0xeb, 0x03, 0x00, 0x00,
  0x00, 0x00, 0x0a, 0x00, 0x10, 0x00, 0x0c, 0x00, 0x08, 0x00, 0x04, 0x00,
  0x0a, 0x00, 0x00, 0x00, 0x02, 0x00, 0x00, 0x00, 0x02, 0x00, 0x00, 0x00,
  0x04, 0x00, 0x00, 0x00, 0x06, 0x00, 0x00, 0x00, 0x32, 0x2e, 0x31, 0x35,
  0x2e, 0x30, 0x00, 0x00, 0xd6, 0xd1, 0xff, 0xff, 0x04, 0x00, 0x00, 0x00,
  0x10, 0x00, 0x00, 0x00, 0x32, 0x2e, 0x33, 0x2e, 0x30, 0x00, 0x00, 0x00,
  0x00, 0x00, 0x00, 0x00, 0x00, 0x00, 0x00, 0x00, 0xb4, 0x90, 0xff, 0xff,
  0xb8, 0x90, 0xff, 0xff, 0xbc, 0x90, 0xff, 0xff, 0xc0, 0x90, 0xff, 0xff,
  0xc4, 0x90, 0xff, 0xff, 0xc8, 0x90, 0xff, 0xff, 0xcc, 0x90, 0xff, 0xff,
  0xd0, 0x90, 0xff, 0xff, 0xd4, 0x90, 0xff, 0xff, 0xd8, 0x90, 0xff, 0xff,
  0xdc, 0x90, 0xff, 0xff, 0xe0, 0x90, 0xff, 0xff, 0xe4, 0x90, 0xff, 0xff,
  0xe8, 0x90, 0xff, 0xff, 0xec, 0x90, 0xff, 0xff, 0xf0, 0x90, 0xff, 0xff,
  0xf4, 0x90, 0xff, 0xff, 0xf8, 0x90, 0xff, 0xff, 0xfc, 0x90, 0xff, 0xff,
  0x00, 0x91, 0xff, 0xff, 0x04, 0x91, 0xff, 0xff, 0x08, 0x91, 0xff, 0xff,
  0x0c, 0x91, 0xff, 0xff, 0x10, 0x91, 0xff, 0xff, 0x14, 0x91, 0xff, 0xff,
  0x18, 0x91, 0xff, 0xff, 0x1c, 0x91, 0xff, 0xff, 0x20, 0x91, 0xff, 0xff,
  0x24, 0x91, 0xff, 0xff, 0x28, 0x91, 0xff, 0xff, 0x2c, 0x91, 0xff, 0xff,
  0x30, 0x91, 0xff, 0xff, 0x34, 0x91, 0xff, 0xff, 0x38, 0x91, 0xff, 0xff,
  0x3c, 0x91, 0xff, 0xff, 0x40, 0x91, 0xff, 0xff, 0x44, 0x91, 0xff, 0xff,
  0x48, 0x91, 0xff, 0xff, 0x4c, 0x91, 0xff, 0xff, 0x50, 0x91, 0xff, 0xff,
  0x54, 0x91, 0xff, 0xff, 0x58, 0x91, 0xff, 0xff, 0x5c, 0x91, 0xff, 0xff,
  0x60, 0x91, 0xff, 0xff, 0xa2, 0xd2, 0xff, 0xff, 0x04, 0x00, 0x00, 0x00,
  0xd8, 0x00, 0x00, 0x00, 0x64, 0xbd, 0x08, 0xb9, 0x49, 0xda, 0x75, 0x81,
  0x60, 0x72, 0x7f, 0x8e, 0xa3, 0x0a, 0xf8, 0x47, 0xb7, 0x69, 0xb2, 0xa0,
  0x81, 0x9e, 0x15, 0xcc, 0xdb, 0xc1, 0xf5, 0xb8, 0x65, 0xfa, 0xf1, 0x05,
  0x7f, 0x31, 0xd8, 0x86, 0xb4, 0x15, 0xf7, 0xc7, 0x0f, 0xe9, 0x7f, 0x3b,
  0xaf, 0x81, 0x6b, 0xa4, 0xc7, 0x20, 0x14, 0x70, 0x2a, 0x49, 0xec, 0x41,
  0x99, 0x91, 0x81, 0x9b, 0xa9, 0x04, 0xbd, 0x33, 0xe5, 0x92, 0xe2, 0x9f,
  0x7f, 0xad, 0x4a, 0xdb, 0x65, 0x81, 0xdb, 0x1e, 0x25, 0x1d, 0x9c, 0xa1,
  0xc1, 0xa1, 0x26, 0xff, 0x81, 0x05, 0x01, 0xe6, 0x69, 0xdb, 0xb0, 0x55,
  0x64, 0x0b, 0x55, 0x81, 0x2a, 0x90, 0xf8, 0xfa, 0xa9, 0xd8, 0x7f, 0x9b,
  0xd4, 0x34, 0x78, 0xdf, 0x7f, 0xe7, 0xe5, 0x20, 0x6a, 0xcb, 0x2b, 0x35,
  0x3f, 0xbe, 0xbc, 0x7d, 0x96, 0xc1, 0xf2, 0x2a, 0x81, 0x4f, 0xfa, 0x76,
  0x86, 0x81, 0xf7, 0x36, 0x4b, 0xdf, 0x1c, 0xbb, 0x81, 0xf2, 0x13, 0x50,
  0x13, 0x08, 0x28, 0x0f, 0xd6, 0x08, 0x3f, 0x84, 0xaa, 0x09, 0x81, 0x7e,
  0xc6, 0x2a, 0x1f, 0x7f, 0xb9, 0x37, 0x47, 0x96, 0x5b, 0x01, 0x2e, 0xd2,
  0x7f, 0xc4, 0x9b, 0xe3, 0x5c, 0xb7, 0x71, 0xb3, 0xdf, 0x52, 0xe1, 0x7f,
  0x6d, 0xb7, 0xd1, 0xb7, 0x58, 0x2c, 0x69, 0x2e, 0x81, 0xb8, 0xa0, 0x43,
  0xb0, 0x88, 0x8c, 0x31, 0x30, 0x6b, 0xd4, 0xf5, 0x13, 0x81, 0x7f, 0xbc,
  0x9d, 0x0a, 0xb6, 0x02, 0x5b, 0xfb, 0x45, 0x12, 0xb6, 0x92, 0x5e, 0x09,
  0x81, 0xd9, 0x15, 0x4d, 0x86, 0xd3, 0xff, 0xff, 0x04, 0x00, 0x00, 0x00,
  0x60, 0x00, 0x00, 0x00, 0x94, 0xf6, 0xff, 0xff, 0x8e, 0x13, 0x00, 0x00,
  0xf9, 0x10, 0x00, 0x00, 0x90, 0xf0, 0xff, 0xff, 0xae, 0x15, 0x00, 0x00,
  0x45, 0x0c, 0x00, 0x00, 0x6f, 0x05, 0x00, 0x00, 0xde, 0x10, 0x00, 0x00,
  0xf7, 0xea, 0xff, 0xff, 0xed, 0x0a, 0x00, 0x00, 0xe3, 0xed, 0xff, 0xff,
  0xf1, 0x04, 0x00, 0x00, 0x78, 0xf9, 0xff, 0xff, 0x16, 0x0e, 0x00, 0x00,
  0xb1, 0x01, 0x00, 0x00, 0x56, 0xf6, 0xff, 0xff, 0x2d, 0xf8, 0xff, 0xff,
  0x1e, 0xec, 0xff, 0xff, 0xf5, 0xfd, 0xff, 0xff, 0x49, 0x13, 0x00, 0x00,
  0x97, 0xe3, 0xff, 0xff, 0xa3, 0xf3, 0xff, 0xff, 0x36, 0xfb, 0xff, 0xff,
  0x6d, 0xdc, 0xff, 0xff, 0xf2, 0xd3, 0xff, 0xff, 0x04, 0x00, 0x00, 0x00,
  0xc0, 0x06, 0x00, 0x00, 0xff, 0x2a, 0x92, 0x69, 0x71, 0x13, 0x4c, 0x39,
  0x13, 0x88, 0xc3, 0xf3, 0xe5, 0x4b, 0xf5, 0x7b, 0xf7, 0xa5, 0xb6, 0x15,
  0xdc, 0x16, 0x79, 0x64, 0x99, 0x73, 0xbe, 0xa4, 0x72, 0x45, 0x38, 0x22,
  0x11, 0x77, 0x16, 0x9b, 0xd6, 0x68, 0x3c, 0xf7, 0xe7, 0x6f, 0xe6, 0x4e,
  0x4b, 0xd3, 0x71, 0xf2, 0xd6, 0x37, 0xea, 0x1b, 0xc7, 0xf0, 0x45, 0xc2,
  0x10, 0xfa, 0xed, 0x15, 0x81, 0x54, 0x0b, 0x1b, 0x47, 0x09, 0xa8, 0x45,
  0x36, 0xfa, 0x4b, 0x3e, 0x05, 0xea, 0xf1, 0xb1, 0x17, 0xca, 0xee, 0xe5,
  0x23, 0x04, 0xef, 0x02, 0x03, 0x07, 0x0c, 0xde, 0x2e, 0xee, 0xff, 0xb1,
  0x00, 0x4f, 0x45, 0xdf, 0x65, 0x44, 0xae, 0x8e, 0xda, 0x81, 0xcf, 0x19,
  0x4c, 0xf7, 0x21, 0x0f, 0xdf, 0xb3, 0x0e, 0x12, 0xbd, 0x08, 0xe4, 0xb3,
  0x0c, 0xfd, 0x19, 0x5c, 0x40, 0x20, 0x23, 0xf9, 0x42, 0xd9, 0xd9, 0x15,
  0x2d, 0x08, 0x9e, 0x1a, 0xe7, 0xf6, 0xd9, 0x5a, 0x07, 0xea, 0xbd, 0xe2,
  0xef, 0xe9, 0x36, 0xf6, 0x97, 0xe1, 0x63, 0x51, 0x75, 0xb3, 0x6b, 0x71,
  0x48, 0xc7, 0xcb, 0xfa, 0xd3, 0x8c, 0x9c, 0xa3, 0x16, 0x55, 0xda, 0x8d,
  0xb3, 0x9c, 0x67, 0xe4, 0x26, 0x91, 0x51, 0xc4, 0xc1, 0x52, 0xa5, 0x52,
  0xf7, 0xe8, 0xbd, 0xa3, 0xd4, 0x29, 0xce, 0x93, 0xd8, 0xe7, 0xd5, 0x96,
  0x81, 0xbf, 0x23, 0xb1, 0xd0, 0x56, 0x55, 0xf3, 0x2e, 0x90, 0x44, 0x09,
  0xea, 0x15, 0x06, 0x24, 0x9b, 0x2d, 0x00, 0xe5, 0xb2, 0x42, 0xc7, 0x32,
  0x6c, 0x37, 0x49, 0xde, 0x5a, 0x89, 0x38, 0xac, 0x81, 0xe0, 0x78, 0x25,
  0x96, 0xaf, 0xfa, 0x31, 0x0c, 0x43, 0x02, 0x3b, 0x95, 0xd4, 0x33, 0xd0,
  0xf1, 0x0b, 0xe8, 0x7e, 0x4a, 0x8b, 0x0c, 0xca, 0x5a, 0xcd, 0x4e, 0x12,
  0xa3, 0x7f, 0xef, 0xe6, 0x7b, 0xe4, 0x6a, 0x58, 0x96, 0xa8, 0x50, 0xb1,
  0x18, 0x6b, 0x69, 0x2f, 0x96, 0xce, 0x5d, 0xfa, 0xbf, 0x11, 0x66, 0x0e,
  0x75, 0xf5, 0xb0, 0xed, 0xe2, 0x8e, 0x13, 0x1f, 0x96, 0x06, 0x1e, 0x16,
  0xca, 0x1d, 0xd8, 0x5f, 0x27, 0xbf, 0x2b, 0xd8, 0xb5, 0x18, 0x39, 0xb3,
  0x7f, 0x5a, 0x8b, 0x5e, 0x4d, 0x18, 0x2a, 0x0b, 0x67, 0x1d, 0x6b, 0xae,
  0xd0, 0xee, 0xc1, 0x87, 0xe7, 0xf7, 0x4a, 0x08, 0x1f, 0x73, 0x54, 0x1b,
  0x7d, 0x00, 0x1d, 0x46, 0xb5, 0xd2, 0xae, 0xca, 0x10, 0xc5, 0x1b, 0xae,
  0x84, 0x04, 0x36, 0x02, 0x1e, 0xf4, 0xcc, 0x66, 0xf9, 0x67, 0xb2, 0x6e,
  0x51, 0xa8, 0x13, 0x21, 0xc3, 0xc0, 0x33, 0x2e, 0x11, 0x0b, 0xcf, 0xe5,
  0xc5, 0xbe, 0x5e, 0x23, 0xa2, 0x2e, 0x63, 0xcf, 0xf0, 0x44, 0xcb, 0xe4,
  0x32, 0x63, 0xa7, 0x23, 0x52, 0x03, 0xd7, 0xd2, 0xbf, 0x3e, 0xad, 0x62,
  0x5e, 0xac, 0x0e, 0x53, 0x4f, 0x62, 0x6e, 0xf9, 0x2c, 0xee, 0x4a, 0xfb,
  0x00, 0x37, 0x98, 0x93, 0x0d, 0x65, 0x6f, 0x1d, 0x7f, 0xff, 0x2d, 0x30,
  0x4d, 0xc0, 0xa6, 0x40, 0x9f, 0xc3, 0xe5, 0x4f, 0x66, 0x92, 0x10, 0xa2,
  0x5c, 0xf1, 0xdf, 0xeb, 0xaa, 0x76, 0x2e, 0x38, 0x62, 0x36, 0xd6, 0xfb,
  0x47, 0xfb, 0xe3, 0x30, 0xb5, 0x25, 0xab, 0x10, 0xa4, 0xd8, 0x28, 0x7f,
  0x56, 0x7b, 0xe9, 0x2a, 0x5b, 0xa6, 0x72, 0x4f, 0x4b, 0xff, 0x70, 0x65,
  0xc1, 0x86, 0x67, 0xae, 0xf0, 0xbf, 0x10, 0x0b, 0xee, 0xcb, 0x23, 0x42,
  0x63, 0xbe, 0x50, 0x04, 0xdc, 0x0d, 0xae, 0xd5, 0xcc, 0x8c, 0xd6, 0x0c,
  0xa0, 0xec, 0xd9, 0xd6, 0xc1, 0x64, 0x68, 0xa7, 0xda, 0x77, 0x3b, 0xa1,
  0x1e, 0x1e, 0xb9, 0x9f, 0xc7, 0xd4, 0x2c, 0x0e, 0xc0, 0xa6, 0x56, 0x26,
  0x1c, 0x0d, 0x25, 0x82, 0x06, 0x18, 0x23, 0xec, 0xaa, 0xdb, 0x00, 0x09,
  0x46, 0x43, 0x0b, 0x4e, 0x04, 0xd3, 0xb9, 0xbd, 0x7f, 0xc3, 0xf0, 0x50,
  0x8f, 0x25, 0x2a, 0x0c, 0xaa, 0x25, 0xdc, 0xb9, 0x49, 0x51, 0x3f, 0x28,
  0x52, 0xe1, 0x3e, 0x34, 0x2d, 0xde, 0xba, 0x13, 0x34, 0xbf, 0x4b, 0x36,
  0x1b, 0xc5, 0xbb, 0xb4, 0xf4, 0x1b, 0x50, 0x55, 0xe1, 0xe5, 0xcf, 0x71,
  0x2b, 0xbd, 0x92, 0xf0, 0xa1, 0x15, 0x1b, 0xbc, 0xbc, 0x43, 0x19, 0xcb,
  0x84, 0xcf, 0x1a, 0x46, 0xab, 0x24, 0x1a, 0x12, 0xc0, 0xe1, 0xf7, 0x15,
  0x2a, 0x07, 0xdf, 0x1e, 0xbc, 0xec, 0xc1, 0x41, 0xd3, 0xd1, 0x04, 0x4c,
  0xc7, 0xda, 0xba, 0xb1, 0xfa, 0xfd, 0xbe, 0x22, 0x34, 0xc5, 0x3c, 0x03,
  0x1c, 0x40, 0xc4, 0x81, 0xd7, 0x0f, 0xd1, 0xec, 0xfd, 0x37, 0x16, 0xca,
  0x29, 0xc5, 0xd9, 0x26, 0x31, 0x16, 0xe1, 0xb3, 0xe2, 0xf2, 0x2c, 0xf5,
  0x12, 0x19, 0xd2, 0x10, 0x1b, 0x31, 0x41, 0xab, 0xd1, 0xd2, 0x2c, 0xd0,
  0xe6, 0xf3, 0x63, 0x23, 0x12, 0x07, 0xf5, 0x48, 0xcb, 0xef, 0x0e, 0xb4,
  0x1d, 0x33, 0x23, 0xd1, 0xa7, 0x47, 0x11, 0x7f, 0x1d, 0xd3, 0xec, 0x4e,
  0x1a, 0xcc, 0x0b, 0x2c, 0xd8, 0x4e, 0xce, 0xdb, 0x46, 0x12, 0xf1, 0x68,
  0xc3, 0x43, 0xcd, 0xb2, 0xc4, 0x45, 0x11, 0x3f, 0x09, 0xe2, 0x08, 0x35,
  0xf9, 0x38, 0xc9, 0x1f, 0x2d, 0x2c, 0xf0, 0x43, 0x04, 0xbf, 0xd4, 0x21,
  0xbd, 0x16, 0xa6, 0x52, 0xd9, 0xb4, 0xcf, 0xca, 0xdd, 0x0b, 0xf2, 0xca,
  0xcf, 0x32, 0x98, 0x54, 0x47, 0x54, 0x7f, 0x17, 0x19, 0x4b, 0x7d, 0xc4,
  0xbc, 0x0d, 0x5f, 0x3a, 0xe0, 0x51, 0xa6, 0xa0, 0x74, 0x38, 0x23, 0xd4,
  0xbd, 0x98, 0x49, 0xb1, 0x05, 0xc2, 0x4e, 0x9c, 0xb2, 0x70, 0x54, 0xae,
  0x06, 0xe7, 0x9c, 0x32, 0x07, 0x47, 0x62, 0xc4, 0x79, 0xf0, 0x30, 0x3b,
  0xe6, 0x16, 0xa3, 0x10, 0xcc, 0x88, 0x1d, 0xee, 0x33, 0x73, 0x71, 0x90,
  0xb2, 0x31, 0x27, 0xa0, 0xb9, 0xd5, 0xe9, 0xe9, 0x01, 0xaf, 0x7f, 0x14,
  0xd8, 0xd5, 0x6e, 0xeb, 0xd7, 0xc5, 0xde, 0xc5, 0x4b, 0x18, 0x33, 0x33,
  0x14, 0xc8, 0x2a, 0xcf, 0xec, 0x20, 0x50, 0x0b, 0xf5, 0x26, 0xed, 0xff,
  0x10, 0xfd, 0x69, 0x2d, 0x42, 0x2b, 0xd7, 0x10, 0x5e, 0xf8, 0xf9, 0xcb,
  0x31, 0xeb, 0x02, 0x03, 0x33, 0x4f, 0x23, 0x56, 0x2f, 0x28, 0xf7, 0xfa,
  0xc5, 0xef, 0x00, 0x7f, 0xd2, 0x1b, 0xbd, 0x17, 0xd0, 0x33, 0xf4, 0x4f,
  0x6a, 0xde, 0x33, 0x31, 0xef, 0x51, 0xbf, 0x66, 0xcf, 0x01, 0xd0, 0xa3,
  0x38, 0xed, 0x18, 0x23, 0x04, 0x61, 0xf9, 0xe2, 0x22, 0xd0, 0x5f, 0x4a,
  0xc5, 0xbd, 0xea, 0x9e, 0x93, 0xa8, 0x56, 0x34, 0x17, 0xa8, 0xf4, 0x01,
  0x45, 0x61, 0x25, 0xae, 0xea, 0xa4, 0x5f, 0x72, 0x30, 0xa4, 0x6c, 0x30,
  0xbd, 0xcc, 0x2a, 0xcc, 0x56, 0x36, 0x6d, 0x0b, 0x03, 0x0c, 0x6f, 0x3e,
  0x5c, 0xdf, 0xab, 0x4c, 0x7f, 0xe9, 0xc7, 0x46, 0xdf, 0x64, 0x6b, 0x2c,
  0xbc, 0x74, 0xf5, 0xbd, 0xcf, 0xa6, 0x1a, 0xc7, 0x72, 0x60, 0xd2, 0x48,
  0x17, 0xb7, 0x75, 0xe2, 0x1f, 0x2c, 0x5d, 0x76, 0x0d, 0xe0, 0x14, 0xe1,
  0xf2, 0xf6, 0x25, 0xeb, 0xac, 0x55, 0x7f, 0x49, 0x64, 0x29, 0x4a, 0x08,
  0xcd, 0x62, 0x23, 0x28, 0x2f, 0xbf, 0x7b, 0xb4, 0xea, 0xb6, 0xce, 0x2e,
  0xe3, 0x53, 0x2f, 0x32, 0x48, 0xaa, 0x62, 0x28, 0x1c, 0xe0, 0x57, 0x93,
  0xd5, 0x63, 0xa7, 0xd7, 0x91, 0x25, 0x16, 0x2f, 0xb5, 0x52, 0x24, 0x5c,
  0xf0, 0x95, 0x46, 0x4e, 0x2b, 0x5f, 0xb9, 0x10, 0x44, 0xea, 0xc9, 0x54,
  0xdd, 0xa4, 0xfe, 0x26, 0xe7, 0x81, 0x1f, 0xe7, 0x72, 0xd1, 0xed, 0xea,
  0xfd, 0xbf, 0x47, 0xed, 0xe4, 0x2d, 0x4f, 0x74, 0x77, 0xf4, 0x2c, 0x6e,
  0xe9, 0xae, 0xb5, 0xb6, 0xa8, 0xdd, 0xb8, 0x01, 0xb7, 0x24, 0x77, 0x6c,
  0xe9, 0xa4, 0x3b, 0xb2, 0xa5, 0xac, 0xf8, 0xb5, 0xd7, 0x85, 0xd7, 0xb1,
  0xa3, 0xf6, 0xf5, 0x95, 0x4e, 0xa3, 0xc7, 0x0f, 0x2c, 0xdd, 0x35, 0x55,
  0x7c, 0x1c, 0xc2, 0x9e, 0x84, 0x7d, 0x20, 0x4b, 0x5b, 0xe4, 0x55, 0x23,
  0xec, 0x9b, 0xef, 0x54, 0xd7, 0x21, 0x7d, 0x4e, 0x26, 0x14, 0xe6, 0x01,
  0x4e, 0xd4, 0x17, 0x3b, 0x93, 0x20, 0xe2, 0x2a, 0xfd, 0xe0, 0x1c, 0xe9,
  0x91, 0x81, 0xd7, 0x9c, 0xd5, 0xdc, 0x15, 0xcc, 0xf3, 0xf0, 0xeb, 0x10,
  0xe4, 0x0a, 0xa5, 0x2e, 0x42, 0xb9, 0xfc, 0x05, 0x52, 0x2e, 0xd0, 0x19,
  0xa0, 0xd2, 0x55, 0xb4, 0xc8, 0x4a, 0x14, 0x61, 0x7a, 0xe1, 0x1e, 0x28,
  0xa8, 0xd9, 0x2b, 0xed, 0xfc, 0xc9, 0xd3, 0x66, 0x0f, 0xd1, 0x10, 0x8d,
  0xa8, 0x55, 0xbb, 0xa0, 0x94, 0xc0, 0x18, 0xe4, 0xdb, 0xe0, 0x79, 0x71,
  0xc4, 0x56, 0x8e, 0x10, 0x31, 0x53, 0xc0, 0x2a, 0xd8, 0x00, 0x04, 0x05,
  0xd1, 0xaa, 0x5d, 0xec, 0x37, 0x20, 0xc6, 0xbf, 0x3d, 0x9f, 0x10, 0x6b,
  0x5c, 0xde, 0xb8, 0xe3, 0xaf, 0x71, 0xfa, 0xd9, 0x79, 0x2c, 0xad, 0xdb,
  0xe5, 0x5f, 0xd2, 0x27, 0xe3, 0xba, 0xf1, 0x60, 0xfe, 0x67, 0xc0, 0xc4,
  0xde, 0xce, 0x52, 0x94, 0x1c, 0x0a, 0xe1, 0xfe, 0x7f, 0x14, 0x07, 0x91,
  0x43, 0xf3, 0xb7, 0xfa, 0xc2, 0xbb, 0xba, 0xc9, 0x26, 0x43, 0xe5, 0x0e,
  0x55, 0x3b, 0x58, 0xf1, 0xbb, 0x3d, 0xe6, 0xe3, 0x7f, 0x46, 0x69, 0x3a,
  0x57, 0x21, 0x53, 0x13, 0x5e, 0x04, 0x34, 0xbe, 0x7f, 0x5e, 0x4d, 0x48,
  0x72, 0x2f, 0x9c, 0x03, 0xd6, 0xff, 0x13, 0xee, 0x5a, 0xd4, 0x25, 0xfb,
  0x26, 0xa5, 0x7b, 0x1a, 0x55, 0x48, 0xae, 0xe0, 0x04, 0xa4, 0xd3, 0x42,
  0xd3, 0xce, 0x27, 0x4e, 0xb5, 0xfd, 0xf4, 0xda, 0xb0, 0xfb, 0x9c, 0x25,
  0xeb, 0xc6, 0x0f, 0xd6, 0xb0, 0x6a, 0x18, 0x41, 0x67, 0xe4, 0x72, 0x3c,
  0x46, 0xd2, 0x28, 0xbd, 0xd8, 0xd1, 0xfc, 0x84, 0xb3, 0x9b, 0xca, 0xeb,
  0xc1, 0xe3, 0x7c, 0xa5, 0xb7, 0xde, 0x7b, 0xca, 0xe3, 0xee, 0xb5, 0xff,
  0xda, 0x2f, 0xe3, 0x7f, 0xf5, 0x9a, 0x1f, 0x20, 0xe1, 0x49, 0x17, 0x60,
  0xec, 0x38, 0x77, 0x0c, 0xef, 0xc9, 0xe3, 0x31, 0xea, 0x5d, 0x4e, 0xcc,
  0xf6, 0xe9, 0x25, 0x7f, 0x89, 0x75, 0xad, 0x3a, 0x46, 0x30, 0x8f, 0x67,
  0x3a, 0x17, 0xc6, 0x41, 0x4b, 0xc9, 0xb4, 0x2c, 0x04, 0x44, 0x2b, 0xe1,
  0x01, 0xeb, 0xaa, 0xf7, 0x02, 0x4e, 0xb8, 0x14, 0x7b, 0x0c, 0x21, 0x53,
  0x8b, 0xc7, 0x68, 0x30, 0xb3, 0xb1, 0x1f, 0x11, 0xd6, 0xba, 0x7e, 0x17,
  0x35, 0x49, 0x63, 0x97, 0x11, 0x4e, 0x36, 0x92, 0x3d, 0x4b, 0x81, 0xb0,
  0xb3, 0xca, 0x57, 0x85, 0xbc, 0xd9, 0x23, 0x59, 0x48, 0x66, 0xd3, 0xcb,
  0xf1, 0x33, 0x0e, 0x76, 0x8e, 0x1e, 0xf0, 0x24, 0x0c, 0x57, 0xaa, 0xb4,
  0x4a, 0x9a, 0x13, 0x38, 0xfc, 0xfb, 0xe4, 0x32, 0x98, 0x35, 0x03, 0x6a,
  0xca, 0x33, 0x68, 0x43, 0x71, 0x6f, 0x14, 0x34, 0xf9, 0xef, 0x03, 0x40,
  0x27, 0x35, 0x91, 0x59, 0xfa, 0x73, 0x02, 0x11, 0x9b, 0x25, 0x5b, 0xe0,
  0x95, 0xee, 0xc2, 0xe2, 0x85, 0x48, 0xd4, 0x09, 0xfd, 0x97, 0x6f, 0x12,
  0x52, 0x51, 0x8f, 0xf1, 0x16, 0xab, 0x25, 0xf9, 0x10, 0xbf, 0x18, 0xd2,
  0xbc, 0x7f, 0x2f, 0x37, 0x9c, 0x2b, 0x51, 0xa6, 0x1c, 0x26, 0x97, 0x4f,
  0x88, 0x77, 0x65, 0xa2, 0x8f, 0x05, 0x2b, 0x83, 0x57, 0x30, 0x6f, 0xf6,
  0x11, 0x11, 0x99, 0x54, 0x89, 0xa8, 0xb1, 0x68, 0x3c, 0x28, 0x03, 0xa9,
  0xfd, 0x81, 0x31, 0x40, 0xf6, 0x00, 0x70, 0x00, 0x09, 0xb7, 0x13, 0x7b,
  0x47, 0x86, 0x33, 0x73, 0x1d, 0x62, 0x63, 0x56, 0x93, 0x16, 0xa8, 0x8a,
  0x6d, 0xc8, 0x06, 0xee, 0x13, 0x52, 0x50, 0x6b, 0xc5, 0xaa, 0x1b, 0x51,
  0xbe, 0x34, 0x9a, 0x2f, 0x43, 0xf7, 0xf9, 0x48, 0x5e, 0xe0, 0x79, 0x56,
  0x9a, 0x45, 0xaf, 0xb0, 0xfb, 0xb9, 0x2e, 0x30, 0x1c, 0x16, 0x21, 0xf1,
  0x16, 0x18, 0xe8, 0x00, 0xe7, 0x3d, 0x1d, 0x22, 0xe6, 0x04, 0xda, 0xfc,
  0xcb, 0x69, 0xf2, 0xfe, 0x26, 0x7d, 0x28, 0x2f, 0x1a, 0xf3, 0x0b, 0x0c,
  0x11, 0x20, 0x01, 0x8d, 0x07, 0xf9, 0x30, 0xc3, 0xf7, 0x0d, 0xec, 0xd6,
  0x26, 0xb8, 0x13, 0x09, 0xf3, 0xef, 0xf8, 0xbf, 0xa5, 0x81, 0xd2, 0xee,
  0x61, 0xc1, 0x1d, 0x27, 0xff, 0x06, 0xfa, 0xd1, 0x0a, 0x38, 0x3f, 0xdf,
  0x7a, 0xc7, 0x39, 0x2b, 0xfd, 0xa4, 0xc1, 0x4b, 0xa4, 0xf8, 0x07, 0xe0,
  0x4d, 0xfe, 0xc1, 0xed, 0xe6, 0xaa, 0x2e, 0x4f, 0x9b, 0x53, 0x9b, 0xea,
  0x54, 0x40, 0x0a, 0x1c, 0x02, 0xb6, 0x56, 0x0f, 0xfa, 0xd8, 0x1f, 0xe3,
  0xdb, 0xf9, 0xc2, 0x0c, 0x1a, 0x9d, 0x31, 0xbd, 0x28, 0x0b, 0xfc, 0xd1,
  0x40, 0xe7, 0x56, 0x3e, 0xe3, 0x0b, 0x5b, 0x7f, 0xf9, 0xde, 0x42, 0xb6,
  0x5b, 0x43, 0x32, 0x35, 0xf5, 0xed, 0x5f, 0xad, 0xcc, 0xd7, 0x27, 0xc9,
  0x57, 0x5d, 0xa5, 0x40, 0xbe, 0xda, 0xff, 0xff, 0x04, 0x00, 0x00, 0x00,
  0x60, 0x00, 0x00, 0x00, 0xa7, 0xec, 0xff, 0xff, 0xfb, 0xff, 0xff, 0xff,
  0x0c, 0xf2, 0xff, 0xff, 0x00, 0x00, 0x00, 0x00, 0x96, 0xee, 0xff, 0xff,
  0xfd, 0xfa, 0xff, 0xff, 0x4a, 0xed, 0xff, 0xff, 0x16, 0xdf, 0xff, 0xff,
  0x5a, 0xf4, 0xff, 0xff, 0x8f, 0xf0, 0xff, 0xff, 0x9e, 0xfa, 0xff, 0xff,
  0x52, 0xf0, 0xff, 0xff, 0x4b, 0xec, 0xff, 0xff, 0x81, 0xf5, 0xff, 0xff,
  0xac, 0xe4, 0xff, 0xff, 0xdc, 0xe9, 0xff, 0xff, 0x02, 0xed, 0xff, 0xff,
  0x0b, 0xee, 0xff, 0xff, 0x78, 0xfa, 0xff, 0xff, 0xe6, 0xeb, 0xff, 0xff,
  0xc6, 0xf4, 0xff, 0xff, 0xe5, 0xe7, 0xff, 0xff, 0xd3, 0xf7, 0xff, 0xff,
  0xfc, 0xfd, 0xff, 0xff, 0x2a, 0xdb, 0xff, 0xff, 0x04, 0x00, 0x00, 0x00,
  0xc0, 0x06, 0x00, 0x00, 0x51, 0x1e, 0x2c, 0x30, 0x03, 0x07, 0x01, 0xbb,
  0xb6, 0x09, 0x18, 0x90, 0x2b, 0xd5, 0x1f, 0x09, 0x51, 0xfa, 0x82, 0x6b,
  0x18, 0xd3, 0xc8, 0x5f, 0x8d, 0x32, 0xb2, 0xdf, 0x9a, 0x38, 0xa2, 0x4b,
  0x65, 0xba, 0x18, 0x39, 0xe6, 0x5b, 0x10, 0xc2, 0xb0, 0xab, 0x57, 0xfb,
  0x31, 0xd1, 0x05, 0x1a, 0x9f, 0xa9, 0xcf, 0x90, 0x10, 0x9e, 0x65, 0x1d,
  0xa9, 0x54, 0x1b, 0xc3, 0x02, 0x50, 0x71, 0x0a, 0x6a, 0x99, 0x29, 0x7f,
  0x5d, 0x3f, 0xb1, 0x30, 0x01, 0x33, 0xf8, 0x4e, 0xad, 0xf2, 0xe4, 0x59,
  0x5c, 0xeb, 0x63, 0x73, 0x4d, 0x01, 0x2b, 0x4b, 0x42, 0xd9, 0xeb, 0xd0,
  0x9a, 0xa8, 0x1b, 0x40, 0x81, 0x0d, 0x4d, 0x31, 0xa1, 0x41, 0x1d, 0x6a,
  0x62, 0x41, 0xb6, 0x1e, 0x40, 0x3e, 0x2b, 0xf5, 0x12, 0x0e, 0x4f, 0xda,
  0x25, 0xb7, 0xd4, 0x36, 0xfc, 0x1c, 0xcf, 0x71, 0x3d, 0x24, 0x62, 0xeb,
  0x59, 0x71, 0x29, 0x6a, 0xb7, 0x1e, 0x60, 0xe2, 0xc4, 0xcf, 0xc7, 0x26,
  0xda, 0x02, 0x8a, 0x3e, 0x06, 0xd6, 0xfb, 0x10, 0x26, 0xe1, 0xfa, 0x2a,
  0xee, 0x03, 0x1c, 0x22, 0xda, 0x02, 0xe0, 0xf8, 0xde, 0x26, 0x2e, 0xfc,
  0x24, 0xde, 0x96, 0xed, 0x1d, 0xe1, 0x23, 0x00, 0x24, 0x00, 0x19, 0xeb,
  0x0f, 0x06, 0xff, 0xf7, 0xfc, 0x0f, 0xe6, 0xf6, 0xf7, 0x12, 0x12, 0xea,
  0x23, 0x25, 0x82, 0xda, 0xf0, 0xf0, 0x01, 0x26, 0x26, 0xf2, 0xe4, 0xe7,
  0x10, 0x23, 0x0a, 0xe1, 0xed, 0x12, 0xff, 0x0d, 0xe6, 0xf7, 0x0c, 0xf6,
  0x21, 0x20, 0x7f, 0x08, 0x0d, 0x10, 0x85, 0x73, 0x34, 0x69, 0x58, 0x2b,
  0x81, 0x5d, 0xd3, 0x1a, 0x51, 0x71, 0x8b, 0xd0, 0x68, 0x39, 0xfb, 0x65,
  0xb4, 0xf2, 0x9e, 0xc4, 0x96, 0xf6, 0x84, 0x8a, 0x43, 0x12, 0xcf, 0x65,
  0x84, 0x09, 0x9d, 0x0d, 0x5c, 0x10, 0x1f, 0x9d, 0xa1, 0xc4, 0x13, 0x17,
  0x0e, 0xab, 0x2e, 0x76, 0xcb, 0x35, 0x38, 0x00, 0xee, 0x81, 0x17, 0x1b,
  0xfb, 0x68, 0x2e, 0x67, 0x3c, 0x5e, 0xd7, 0x44, 0x5c, 0x2d, 0xf5, 0xcc,
  0x3a, 0xe4, 0xa9, 0xec, 0xea, 0xb3, 0xca, 0xee, 0xd9, 0x13, 0xec, 0x1f,
  0x22, 0x3a, 0x0f, 0xf2, 0xf2, 0xcd, 0x28, 0x2f, 0x04, 0x2a, 0x05, 0x1c,
  0x1f, 0x20, 0x00, 0xe2, 0xd7, 0x81, 0x0d, 0x09, 0xd4, 0x0b, 0xdb, 0x2c,
  0xbd, 0x2d, 0x0c, 0xed, 0x0a, 0x07, 0x37, 0x1a, 0xdf, 0xf3, 0xda, 0xcd,
  0xfc, 0xd6, 0x0c, 0xde, 0x15, 0xdc, 0x07, 0x04, 0x18, 0x0b, 0x16, 0x37,
  0xef, 0x0d, 0xe3, 0xd5, 0xd4, 0xdf, 0xca, 0x0b, 0xdc, 0x1a, 0xfe, 0xd4,
  0xc9, 0xe4, 0x5d, 0xc3, 0x12, 0xea, 0x3b, 0x52, 0xe8, 0xd7, 0xba, 0xd9,
  0xd6, 0xed, 0x16, 0xc1, 0x27, 0xb1, 0x4c, 0x9e, 0xba, 0x42, 0xef, 0x41,
  0xe3, 0x45, 0x09, 0x02, 0xd2, 0x9a, 0x05, 0x01, 0x01, 0x57, 0xc7, 0x00,
  0xe4, 0xf1, 0x94, 0x5f, 0x64, 0xf1, 0x5e, 0xdb, 0x03, 0xc8, 0x9c, 0xc7,
  0x35, 0x9f, 0x7f, 0x41, 0xfb, 0xbb, 0xbc, 0xdc, 0xb5, 0xdb, 0x75, 0x2b,
  0xe2, 0x02, 0x19, 0xcf, 0x18, 0xf5, 0xbc, 0x5b, 0x5c, 0x2b, 0x52, 0x01,
  0xc8, 0x9d, 0xda, 0x57, 0xb6, 0x29, 0xd7, 0x01, 0x23, 0x3e, 0x4a, 0x2c,
  0x27, 0x3d, 0x7f, 0x86, 0x6c, 0xf1, 0xf4, 0xae, 0x32, 0xc8, 0x26, 0x20,
  0xcd, 0x11, 0x16, 0x16, 0xa9, 0xc2, 0xc1, 0xe3, 0xeb, 0xa3, 0x12, 0x33,
  0x38, 0xc1, 0xcc, 0xc5, 0xf4, 0xf0, 0xb3, 0x1e, 0xcd, 0xf2, 0x2f, 0x94,
  0xc4, 0xed, 0xe6, 0x4b, 0xc8, 0xcf, 0x3b, 0x0c, 0xe4, 0xc3, 0xb8, 0xd3,
  0x1a, 0x08, 0xc6, 0xdf, 0xaa, 0x10, 0xa4, 0x3e, 0xf3, 0xec, 0x02, 0xd1,
  0xec, 0xfc, 0xe2, 0x1a, 0x37, 0xba, 0xa8, 0xe2, 0xb4, 0xbb, 0xae, 0x37,
  0xd9, 0x58, 0x0a, 0x43, 0xfa, 0x2c, 0xf5, 0xdd, 0xf6, 0x51, 0x00, 0x15,
  0x0c, 0x2d, 0x9d, 0xf6, 0x35, 0xcc, 0x1f, 0xa6, 0x3e, 0xd5, 0xe0, 0x56,
  0x22, 0x55, 0x03, 0xb7, 0x60, 0xcc, 0x0c, 0x2e, 0xbe, 0xed, 0x07, 0x29,
  0xc9, 0x42, 0x44, 0x36, 0x25, 0xe7, 0xd5, 0x35, 0xb8, 0x38, 0xb8, 0x38,
  0x54, 0x13, 0x39, 0x44, 0xe6, 0x47, 0xd0, 0xb1, 0x3d, 0xfd, 0xa0, 0x0e,
  0x17, 0xa2, 0x7f, 0x0b, 0x20, 0xce, 0x27, 0x90, 0xf8, 0x1d, 0xa6, 0x0f,
  0x3f, 0x37, 0xb8, 0x40, 0x94, 0x94, 0xea, 0x85, 0x37, 0x08, 0x36, 0xea,
  0x9d, 0xf2, 0xbe, 0xdb, 0x38, 0xa4, 0x60, 0xb8, 0x29, 0xee, 0x68, 0x81,
  0x3b, 0x5a, 0x0e, 0x3c, 0xa7, 0xb5, 0x24, 0xa2, 0xe8, 0x31, 0x12, 0xf2,
  0xd2, 0xf8, 0x93, 0x88, 0x0d, 0xe6, 0xdc, 0x31, 0x02, 0xa4, 0x1a, 0x09,
  0xcc, 0x5c, 0x91, 0xc6, 0xc9, 0x12, 0xe5, 0x57, 0x91, 0x4e, 0xe5, 0x47,
  0x2b, 0xa0, 0xfd, 0xab, 0xc9, 0x0e, 0x02, 0x22, 0x31, 0xfd, 0x1a, 0xe3,
  0x06, 0xb5, 0x67, 0x1f, 0xed, 0x30, 0xac, 0xb8, 0x24, 0x2d, 0x22, 0xf1,
  0x01, 0xd0, 0x04, 0x2b, 0x50, 0xe2, 0x4e, 0xbf, 0xdf, 0xe0, 0x0a, 0x17,
  0x24, 0xa7, 0xc5, 0x0f, 0x0a, 0xf0, 0xd3, 0x36, 0x4a, 0x01, 0x0c, 0x2b,
  0x3d, 0x18, 0x3e, 0xfc, 0xd4, 0x1b, 0xe6, 0xd1, 0x09, 0x39, 0x15, 0xd9,
  0xb9, 0xe2, 0xc9, 0x2f, 0x15, 0xd5, 0x26, 0x23, 0xdd, 0x0b, 0xcc, 0xf2,
  0xd6, 0xdb, 0x7f, 0x31, 0xc3, 0xaa, 0xb7, 0xab, 0xba, 0xb6, 0xb6, 0xc2,
  0xa7, 0x81, 0x26, 0x26, 0x38, 0xb3, 0x8c, 0x1f, 0xb6, 0xfd, 0xa9, 0xa5,
  0x5c, 0x36, 0x15, 0xf0, 0x0a, 0xbc, 0x28, 0xd1, 0xa3, 0x13, 0x72, 0x91,
  0xed, 0x2d, 0xab, 0xc1, 0x0a, 0x0b, 0x1b, 0x8b, 0x46, 0xed, 0xb6, 0xc5,
  0xd0, 0x2f, 0xd6, 0x68, 0x3c, 0xf7, 0x5b, 0xd8, 0xb5, 0x52, 0xbd, 0xff,
  0x87, 0xef, 0xc6, 0xc7, 0xe9, 0x88, 0xba, 0x5a, 0xd0, 0xde, 0x01, 0x44,
  0xd8, 0xc9, 0x8f, 0xeb, 0x24, 0xa6, 0x17, 0xd3, 0x4e, 0x67, 0x0f, 0xed,
  0x2b, 0x02, 0xde, 0x0b, 0x62, 0x5d, 0xb1, 0x44, 0xd7, 0xbe, 0x1b, 0x68,
  0x2e, 0xab, 0xfa, 0x0c, 0x5d, 0xe2, 0x33, 0x5d, 0x27, 0x4b, 0xfd, 0xd0,
  0x29, 0x31, 0x9c, 0xc0, 0x3f, 0xf5, 0xbd, 0x39, 0x2b, 0x20, 0x5f, 0xcb,
  0xa1, 0x12, 0x81, 0x4f, 0x47, 0xe5, 0xbb, 0xd8, 0x4f, 0x4c, 0x48, 0x15,
  0xf1, 0x43, 0x40, 0xca, 0x01, 0x45, 0x12, 0x46, 0x34, 0x42, 0x2b, 0x63,
  0x2e, 0x53, 0x5d, 0xd7, 0x9e, 0xe0, 0x9b, 0x6d, 0xb3, 0x13, 0x03, 0xdf,
  0xc7, 0xe0, 0x46, 0xa2, 0x13, 0xa9, 0x41, 0x39, 0x3f, 0x64, 0xf6, 0xe4,
  0x44, 0x99, 0x90, 0x16, 0xe7, 0x16, 0x30, 0xa3, 0xa5, 0xa5, 0x3d, 0xd6,
  0xda, 0x08, 0xb0, 0x01, 0x59, 0x55, 0x8e, 0x22, 0xe0, 0x3a, 0x81, 0xf8,
  0xd2, 0xc6, 0x14, 0x13, 0xbf, 0xdd, 0x9f, 0xdf, 0xe2, 0xc1, 0xe8, 0x55,
  0x4d, 0x4b, 0xe8, 0xa9, 0xb9, 0xab, 0xb4, 0x53, 0x8a, 0xa7, 0x94, 0x3c,
  0x9b, 0xec, 0xaa, 0x52, 0xc3, 0xcb, 0x6e, 0x32, 0x2d, 0x1e, 0x5e, 0x7a,
  0xd6, 0xe1, 0xed, 0x15, 0xa8, 0xca, 0x35, 0x5a, 0x39, 0x3b, 0x06, 0x56,
  0x3f, 0x23, 0x8e, 0x9f, 0x2e, 0xd2, 0x22, 0x05, 0x7f, 0x28, 0xd6, 0x15,
  0xd0, 0x0c, 0x9e, 0x64, 0xfa, 0xc8, 0xaa, 0xa5, 0xcd, 0xed, 0xe1, 0xe1,
  0x1c, 0x07, 0x98, 0x1c, 0x99, 0xba, 0x13, 0x34, 0x0b, 0x01, 0xbe, 0xc3,
  0x3f, 0xcf, 0x37, 0x13, 0x3a, 0xcb, 0xf3, 0x7c, 0x6b, 0x1c, 0xf0, 0x26,
  0x05, 0xaa, 0x7c, 0x55, 0xf2, 0xed, 0x9b, 0x27, 0xcb, 0xc6, 0xb9, 0x3f,
  0x1d, 0xbc, 0x2e, 0xc1, 0xc1, 0x9d, 0x07, 0x64, 0xcc, 0x10, 0xdf, 0x20,
  0xb4, 0xa3, 0x11, 0xd0, 0x3f, 0xbb, 0x20, 0xaf, 0xfe, 0xa9, 0x13, 0xbd,
  0xb7, 0x2b, 0x46, 0xcb, 0x54, 0x2b, 0xbe, 0x7f, 0x52, 0xb0, 0x3d, 0xc9,
  0x68, 0xff, 0xaf, 0x7a, 0xcb, 0xd0, 0x64, 0xbb, 0x39, 0xd5, 0x0a, 0xd4,
  0x3b, 0xf7, 0xd1, 0xb6, 0x44, 0x26, 0x3e, 0xb4, 0x65, 0x43, 0xb7, 0xf5,
  0x4c, 0x3e, 0xc8, 0xff, 0xc3, 0x7f, 0xaf, 0x1c, 0x53, 0x0a, 0x0e, 0xf2,
  0x28, 0xef, 0x36, 0x46, 0x52, 0xf4, 0x90, 0xc7, 0xf6, 0x52, 0xb7, 0x3e,
  0x0f, 0x0e, 0x09, 0xb5, 0xe4, 0x06, 0x9d, 0x3f, 0x91, 0x1a, 0xb7, 0xdd,
  0xe7, 0xfc, 0xec, 0x10, 0xba, 0xbf, 0x4a, 0xa6, 0x57, 0xeb, 0xea, 0x3b,
  0xc4, 0xa8, 0x0d, 0x2a, 0xa4, 0xc5, 0xb3, 0xe3, 0xe7, 0xd0, 0x62, 0xc1,
  0x0d, 0x1b, 0xa5, 0x2a, 0xfc, 0x3b, 0xb5, 0xba, 0x0d, 0x18, 0x2b, 0xbf,
  0x9f, 0xbd, 0x0d, 0x15, 0x55, 0xba, 0xca, 0xd5, 0xd5, 0x0f, 0x49, 0xed,
  0x06, 0x02, 0xe8, 0x17, 0x05, 0x1e, 0x5a, 0xcb, 0x2c, 0x66, 0x51, 0x59,
  0x1c, 0xc4, 0xa0, 0xba, 0x6e, 0xe8, 0x00, 0xbf, 0x3f, 0xa2, 0xf5, 0xd8,
  0x41, 0x1e, 0x61, 0xac, 0x35, 0xc4, 0xc2, 0x5b, 0xbc, 0x8e, 0x09, 0x17,
  0x15, 0xd4, 0x2a, 0x9a, 0x15, 0xac, 0x4d, 0xcb, 0x26, 0x46, 0x18, 0x33,
  0x43, 0xf9, 0xc4, 0x95, 0xc3, 0x98, 0x66, 0xbf, 0x82, 0x04, 0x81, 0x37,
  0x0a, 0x11, 0xe2, 0x98, 0x46, 0xcf, 0x0b, 0xec, 0x42, 0xc8, 0xfb, 0x3c,
  0x17, 0x04, 0x37, 0xd3, 0xf2, 0x0c, 0x05, 0xe4, 0xca, 0x0e, 0xec, 0xe6,
  0xf4, 0x0d, 0x81, 0xec, 0x06, 0x09, 0x3f, 0x35, 0xfc, 0x4e, 0x39, 0x3c,
  0x1a, 0x0d, 0x33, 0x1d, 0xc9, 0x1f, 0x0b, 0xee, 0xb2, 0xbd, 0x47, 0xef,
  0x13, 0xe2, 0x31, 0xd9, 0xed, 0x50, 0xec, 0xf0, 0x11, 0xe8, 0xda, 0x04,
  0xf7, 0xc2, 0xd7, 0x11, 0xf8, 0x4f, 0x1c, 0x2a, 0x23, 0xc4, 0x2b, 0x01,
  0x08, 0x2c, 0xec, 0x47, 0xb6, 0x88, 0xf2, 0x02, 0xc6, 0xf2, 0x79, 0x59,
  0x3f, 0x3a, 0x85, 0xe4, 0xba, 0xf1, 0x06, 0xbc, 0x08, 0x9e, 0x7f, 0x4b,
  0x08, 0xe9, 0xe8, 0x41, 0xfe, 0x11, 0x2e, 0xc6, 0x0e, 0x50, 0x05, 0xf0,
  0x94, 0xfd, 0x74, 0x9c, 0x9e, 0xfd, 0x06, 0x1c, 0xca, 0x4b, 0x20, 0x00,
  0xc4, 0x2b, 0x24, 0x61, 0x92, 0xa0, 0xfd, 0x6a, 0x19, 0x66, 0xd8, 0x1b,
  0x30, 0x5d, 0x72, 0x20, 0xd1, 0x14, 0xc2, 0x90, 0xc0, 0x1b, 0x65, 0x95,
  0x51, 0x32, 0xcb, 0x13, 0x2c, 0x87, 0x9f, 0x17, 0xdb, 0xb0, 0x74, 0x19,
  0x5e, 0xdc, 0xb0, 0xa0, 0x02, 0xa9, 0x0f, 0x5b, 0x47, 0xd0, 0x1c, 0xaa,
  0xc9, 0xba, 0xff, 0xf8, 0x58, 0xcc, 0x22, 0x55, 0x86, 0xc9, 0x67, 0x6c,
  0xd9, 0x9f, 0x28, 0x8c, 0xe4, 0xde, 0x31, 0xf2, 0x8d, 0xf5, 0x81, 0x5e,
  0xf5, 0xf6, 0x06, 0x57, 0xb8, 0xa5, 0xba, 0x09, 0x9e, 0x1b, 0x5e, 0x55,
  0xc7, 0x8f, 0xb1, 0xe9, 0x26, 0x56, 0xe8, 0x53, 0xed, 0x90, 0x59, 0xc7,
  0xe5, 0xe1, 0xd8, 0x9a, 0xda, 0xa3, 0xe8, 0xcb, 0x04, 0x1c, 0x25, 0x01,
  0xd0, 0xee, 0x19, 0xca, 0x30, 0x1c, 0x27, 0xfb, 0xe2, 0xfa, 0x2c, 0x1c,
  0x13, 0x00, 0xd2, 0xd8, 0x01, 0x7f, 0x35, 0xef, 0xc3, 0xe6, 0x15, 0x10,
  0x08, 0x25, 0x0c, 0x03, 0x2e, 0xe8, 0x1e, 0xc5, 0x14, 0x01, 0xfd, 0x2d,
  0xf8, 0xf9, 0x18, 0xfa, 0xf8, 0xba, 0xdd, 0xdb, 0x0b, 0x08, 0xd5, 0x15,
  0xf7, 0xfc, 0x0e, 0x09, 0x00, 0xcf, 0x11, 0x11, 0xdf, 0xf4, 0x17, 0xd3,
  0xd9, 0xe9, 0xee, 0xde, 0xc6, 0xf1, 0x17, 0x08, 0xe1, 0x38, 0x59, 0xaa,
  0xa7, 0xb6, 0x22, 0xf8, 0xd2, 0x5b, 0x32, 0x11, 0x9b, 0x89, 0xf0, 0x19,
  0x93, 0x02, 0xd7, 0x10, 0xf4, 0xbc, 0x99, 0x1b, 0xde, 0x0e, 0x11, 0x3b,
  0xb6, 0x51, 0x61, 0x35, 0xb5, 0xdc, 0xc7, 0xfe, 0xfd, 0x81, 0x4f, 0x2b,
  0x3f, 0xf9, 0x1b, 0x9b, 0x4d, 0xec, 0xd3, 0xc6, 0xf1, 0xe1, 0xe4, 0xbf,
  0x43, 0xb8, 0x47, 0x3c, 0x17, 0xca, 0x16, 0xfe, 0x37, 0x17, 0x46, 0xdd,
  0x0d, 0x5c, 0x69, 0xb9, 0x25, 0x59, 0xeb, 0x1f, 0xed, 0xb2, 0x0b, 0xa3,
  0x89, 0x81, 0x23, 0xf7, 0x25, 0x33, 0x05, 0xf5, 0x42, 0x92, 0x44, 0xac,
  0xfb, 0x9f, 0x09, 0x70, 0xc2, 0xf8, 0x93, 0x4c, 0xd8, 0x31, 0xa8, 0x39,
  0x03, 0x3d, 0xb6, 0x29, 0x21, 0xf2, 0xd7, 0x2f, 0x9d, 0x34, 0x1a, 0x39,
  0xd7, 0x42, 0xf7, 0xc7, 0x60, 0xdf, 0x35, 0x1e, 0x2d, 0x23, 0x66, 0x40,
  0x2d, 0xb7, 0x2f, 0xc8, 0x2a, 0x92, 0x24, 0x53, 0x06, 0xc0, 0x09, 0xf2,
  0xf3, 0xbf, 0x06, 0x14, 0xf0, 0xf3, 0x01, 0xcf, 0x17, 0x14, 0xdb, 0xeb,
  0x34, 0xd4, 0x00, 0xdc, 0x11, 0x06, 0x19, 0xcf, 0xe9, 0x18, 0x30, 0xc7,
  0x0d, 0x26, 0x81, 0xc1, 0x12, 0xb0, 0x09, 0xdf, 0x05, 0xc8, 0x1d, 0xf5,
  0x20, 0xe6, 0x03, 0xfd, 0xbc, 0xfd, 0x39, 0xce, 0x08, 0xbe, 0xff, 0x23,
  0xdc, 0xca, 0x17, 0x17, 0x21, 0x31, 0xfc, 0x39, 0x04, 0xe5, 0xd6, 0xcf,
  0xc1, 0xf4, 0x1c, 0xcc, 0x0d, 0xc4, 0x34, 0xed, 0x1e, 0xe5, 0x2f, 0x2f,
  0xcb, 0xde, 0x5a, 0xd9, 0xf6, 0xe1, 0xff, 0xff, 0x04, 0x00, 0x00, 0x00,
  0x60, 0x00, 0x00, 0x00, 0xf2, 0xfa, 0xff, 0xff, 0xde, 0x02, 0x00, 0x00,
  0x80, 0xf9, 0xff, 0xff, 0x5d, 0xf3, 0xff, 0xff, 0xdd, 0x04, 0x00, 0x00,
  0xaa, 0xfa, 0xff, 0xff, 0x20, 0xd9, 0xff, 0xff, 0x73, 0x04, 0x00, 0x00,
  0xcf, 0xdc, 0xff, 0xff, 0x59, 0xec, 0xff, 0xff, 0xcf, 0xe0, 0xff, 0xff,
  0xd6, 0x16, 0x00, 0x00, 0x98, 0xdc, 0xff, 0xff, 0x31, 0x0d, 0x00, 0x00,
  0xd0, 0xec, 0xff, 0xff, 0x61, 0xf7, 0xff, 0xff, 0xea, 0xd9, 0xff, 0xff,
  0x7c, 0xfb, 0xff, 0xff, 0x69, 0xdd, 0xff, 0xff, 0xe0, 0xed, 0xff, 0xff,
  0xc3, 0xfe, 0xff, 0xff, 0xa2, 0xd6, 0xff, 0xff, 0xb6, 0xf7, 0xff, 0xff,
  0x7b, 0x1e, 0x00, 0x00, 0x62, 0xe2, 0xff, 0xff, 0x04, 0x00, 0x00, 0x00,
  0xc0, 0x06, 0x00, 0x00, 0xde, 0x39, 0xa7, 0x45, 0xd0, 0x3d, 0x75, 0x15,
  0x89, 0x10, 0x91, 0xce, 0x81, 0x30, 0xcc, 0xda, 0x6d, 0xdc, 0x00, 0x40,
  0x1d, 0x3f, 0x79, 0x21, 0x91, 0x10, 0x28, 0x22, 0xe5, 0xb2, 0xe4, 0x47,
  0x1a, 0xdc, 0xf0, 0x30, 0xb3, 0x01, 0xc7, 0xf5, 0x2b, 0xf6, 0x2e, 0xef,
  0xde, 0x83, 0xc8, 0xed, 0x2a, 0xd4, 0xf6, 0x1f, 0xdc, 0xa7, 0xfb, 0x41,
  0xa1, 0x1c, 0xc3, 0xed, 0x9f, 0xc2, 0xf6, 0x2f, 0xe2, 0xaf, 0x18, 0x28,
  0x9e, 0x4b, 0x6a, 0x28, 0x08, 0x05, 0xb9, 0x45, 0x96, 0x31, 0xff, 0xe5,
  0x78, 0x2f, 0x36, 0x4d, 0xaa, 0x8e, 0xfe, 0xd4, 0x5c, 0xbf, 0x48, 0xde,
  0xa5, 0x9c, 0x68, 0x26, 0x83, 0x01, 0x7f, 0xf4, 0xd4, 0xb9, 0xd4, 0x40,
  0x68, 0xd0, 0x3d, 0x81, 0x93, 0x67, 0x5f, 0xc1, 0x38, 0x5e, 0xff, 0xea,
  0x61, 0x0d, 0x1e, 0x3b, 0x20, 0xcb, 0xa3, 0xfd, 0x5c, 0x25, 0x4f, 0xd2,
  0x1d, 0x3d, 0x2a, 0x97, 0x1f, 0x0d, 0xb1, 0xb9, 0x61, 0xe6, 0xeb, 0xa2,
  0x90, 0xfe, 0x7d, 0x46, 0xd4, 0x27, 0x7d, 0x3a, 0x74, 0x3f, 0xc8, 0x9f,
  0x7f, 0xd1, 0xbe, 0xa5, 0xbb, 0xe3, 0xd4, 0xe1, 0x9d, 0xd5, 0xbd, 0xfd,
  0xb1, 0xa9, 0xb0, 0xfe, 0xeb, 0x4c, 0x3b, 0xfe, 0x70, 0x1b, 0xf1, 0x35,
  0x0a, 0x14, 0x8e, 0x91, 0xa1, 0x2a, 0x22, 0x1e, 0x0e, 0x0d, 0x96, 0x33,
  0xba, 0xda, 0x2d, 0x4c, 0xeb, 0xdb, 0x35, 0xc9, 0xd9, 0x0a, 0x2e, 0x0c,
  0xfe, 0xc1, 0x41, 0x52, 0x8b, 0x1c, 0xd2, 0x38, 0xf1, 0xeb, 0x0c, 0x4d,
  0x05, 0x03, 0x73, 0x1a, 0xfc, 0x88, 0xd4, 0xbc, 0xae, 0xd2, 0xb9, 0xbc,
  0xab, 0x42, 0x06, 0x24, 0xbf, 0x9a, 0xac, 0x59, 0xed, 0x33, 0x64, 0xbb,
  0x9d, 0x45, 0x30, 0xe8, 0xe6, 0x91, 0x46, 0xb7, 0x36, 0x45, 0x55, 0xed,
  0x04, 0xbc, 0xab, 0x20, 0x59, 0x41, 0x16, 0x49, 0x50, 0xc6, 0x7f, 0xf7,
  0x06, 0x44, 0x27, 0x31, 0x1b, 0xc3, 0x23, 0x2d, 0xbd, 0xcb, 0x2d, 0xce,
  0xd7, 0xd0, 0xd1, 0xd9, 0x00, 0x20, 0x0a, 0xfb, 0x5b, 0xb9, 0xf1, 0x94,
  0x4d, 0x03, 0x9b, 0x0b, 0x36, 0xb8, 0x75, 0x57, 0xfa, 0xd3, 0xcf, 0x2f,
  0x1e, 0xf3, 0xe7, 0xf6, 0xcf, 0x23, 0x0c, 0xe7, 0xf9, 0x81, 0x44, 0xae,
  0x0c, 0x3f, 0xc1, 0xa3, 0xd7, 0xbf, 0x2b, 0x44, 0x10, 0x5f, 0xc6, 0x3f,
  0x98, 0x6a, 0x4c, 0x3b, 0x1c, 0x45, 0xf4, 0xbb, 0x11, 0x8e, 0x3e, 0xda,
  0x1c, 0xea, 0x56, 0x44, 0xc3, 0xd2, 0xbf, 0xf5, 0x3d, 0xed, 0xb3, 0x50,
  0x54, 0x58, 0xe0, 0xb2, 0xc2, 0x22, 0x11, 0x41, 0xd2, 0xf4, 0x48, 0x3d,
  0xd4, 0xa4, 0xb5, 0xb0, 0xf7, 0xb1, 0x3d, 0xc3, 0x12, 0x7f, 0xe6, 0xd0,
  0x27, 0x5f, 0xf8, 0xdd, 0x4b, 0x53, 0x04, 0x0a, 0x43, 0x5d, 0xe9, 0x12,
  0x19, 0x59, 0xea, 0x69, 0xf1, 0xd4, 0x22, 0xfe, 0xbd, 0xca, 0xe7, 0x1f,
  0x08, 0x53, 0xdf, 0x64, 0x57, 0xef, 0x3d, 0xe9, 0xd7, 0xd9, 0xdd, 0x91,
  0xf8, 0xf0, 0x42, 0x63, 0x2c, 0xca, 0x14, 0x21, 0x64, 0x49, 0x2c, 0x9d,
  0xf1, 0x1c, 0xfc, 0x03, 0x05, 0x2d, 0xe7, 0xb2, 0x4c, 0xf3, 0x0d, 0x13,
  0x28, 0x23, 0xb3, 0xc9, 0xd5, 0xc7, 0xc3, 0x44, 0xd9, 0xf4, 0xfe, 0xe2,
  0xc6, 0xa0, 0xd4, 0xa5, 0x6a, 0x25, 0xa1, 0xda, 0x35, 0xfd, 0x24, 0x81,
  0x26, 0x24, 0x5a, 0xd5, 0x30, 0x31, 0xc5, 0xf4, 0x99, 0xc7, 0x50, 0xba,
  0x4e, 0x00, 0x52, 0x87, 0x01, 0xf8, 0xbe, 0x12, 0x97, 0x25, 0x40, 0xfd,
  0xfe, 0x3c, 0x2a, 0x6b, 0x40, 0xfb, 0x0a, 0x43, 0xba, 0xe1, 0x71, 0x46,
  0xf4, 0x16, 0x28, 0xe9, 0xda, 0xd8, 0xc4, 0x4b, 0x77, 0x0e, 0xf1, 0x8a,
  0x19, 0x1a, 0xbb, 0x3f, 0x5a, 0xcd, 0xb4, 0x2f, 0xc1, 0xfa, 0x46, 0xc4,
  0x9f, 0x36, 0x0d, 0x2c, 0xef, 0x65, 0xe0, 0x2c, 0x7b, 0xf0, 0xca, 0x17,
  0x9b, 0xc1, 0x12, 0xbb, 0x08, 0xb0, 0x19, 0x09, 0x00, 0x49, 0x0c, 0xfe,
  0x02, 0xc3, 0x2b, 0x10, 0x17, 0xe2, 0xae, 0xda, 0x43, 0x14, 0x7b, 0xf2,
  0xf1, 0xf8, 0xb3, 0x47, 0xb5, 0x77, 0xfb, 0x8e, 0xb0, 0x29, 0x33, 0xaf,
  0x63, 0xd8, 0x56, 0x4e, 0x81, 0xaf, 0xd5, 0xad, 0x50, 0x25, 0x7f, 0xb7,
  0xca, 0xf0, 0x0b, 0xb8, 0x18, 0x24, 0xfa, 0xc1, 0x49, 0x9f, 0xfb, 0x6b,
  0x34, 0xc0, 0x35, 0xbe, 0xcf, 0xd1, 0x9d, 0x88, 0xf9, 0x51, 0xa6, 0x57,
  0x69, 0x65, 0xe1, 0xf5, 0x34, 0xb6, 0x39, 0xb0, 0x25, 0xf8, 0x58, 0x34,
  0xbf, 0xb1, 0x28, 0xda, 0x87, 0x5d, 0x7f, 0xc7, 0xa4, 0xad, 0x51, 0xca,
  0x39, 0xc1, 0x70, 0x5c, 0x42, 0x90, 0x3f, 0xb0, 0xcf, 0x43, 0xc4, 0xa0,
  0x0d, 0x6c, 0xe6, 0x85, 0x1f, 0x6f, 0xf2, 0x2a, 0x35, 0x84, 0xdf, 0x35,
  0x95, 0x97, 0xfa, 0x24, 0xdf, 0x17, 0xb5, 0x49, 0xa3, 0xf4, 0xbc, 0x27,
  0x42, 0xc9, 0x1c, 0xb6, 0x18, 0x09, 0x7f, 0xf2, 0x5c, 0x00, 0xf4, 0xb8,
  0x00, 0xb0, 0xc6, 0xe0, 0x07, 0xeb, 0xfd, 0x86, 0xe7, 0x2e, 0xed, 0x65,
  0x9c, 0x1a, 0xf1, 0x40, 0x86, 0x13, 0xe0, 0xcf, 0x6f, 0xb1, 0xa0, 0xcb,
  0xde, 0x28, 0xa8, 0x40, 0xf0, 0xfa, 0xa8, 0xa6, 0x7b, 0x4b, 0x58, 0xc9,
  0x27, 0x22, 0x1c, 0x8b, 0xf4, 0x46, 0x01, 0x38, 0x61, 0xe6, 0x48, 0xd9,
  0x15, 0x30, 0x57, 0xa2, 0x39, 0x12, 0x7d, 0x81, 0xdd, 0xd4, 0x0b, 0xc9,
  0xb4, 0x32, 0xfa, 0x92, 0xbb, 0x06, 0x2a, 0xc5, 0x11, 0x8a, 0x05, 0x7b,
  0xf0, 0x4d, 0x4d, 0x39, 0x9c, 0x0d, 0xfd, 0xb4, 0x50, 0x72, 0xbe, 0x3a,
  0xeb, 0xd8, 0x9f, 0xd5, 0xb8, 0xd6, 0xe3, 0xa5, 0xc2, 0x87, 0x4b, 0x07,
  0x1e, 0xbf, 0x02, 0xdf, 0xdd, 0xbb, 0x59, 0x09, 0xf8, 0x07, 0xf4, 0x6d,
  0x1a, 0x3b, 0x3d, 0xf8, 0xc8, 0xd3, 0xfb, 0x48, 0xc2, 0x49, 0xe1, 0x61,
  0x2a, 0xce, 0x3a, 0xc4, 0xbe, 0xcb, 0xc3, 0xbd, 0xbd, 0x31, 0x58, 0xa6,
  0x07, 0xb1, 0xed, 0x9a, 0x3a, 0x13, 0xb4, 0xdf, 0x6e, 0xdd, 0xbf, 0xf4,
  0x2d, 0x35, 0x35, 0x59, 0xe3, 0x02, 0xc8, 0xa5, 0x51, 0x3f, 0x2c, 0xef,
  0xd2, 0x74, 0x83, 0x60, 0xd8, 0x20, 0xc8, 0x04, 0xb9, 0xe2, 0xf5, 0xa9,
  0xbe, 0xbc, 0x4a, 0xc4, 0x88, 0x9a, 0xcc, 0xbd, 0x66, 0xfc, 0xf2, 0x24,
  0x18, 0x0f, 0x81, 0xb3, 0xa1, 0x06, 0x49, 0x8b, 0xdb, 0x06, 0xb9, 0x5d,
  0x39, 0x21, 0x59, 0x36, 0x30, 0xdd, 0xd5, 0x54, 0x61, 0xf1, 0x4f, 0xdd,
  0x43, 0xd4, 0xdd, 0x16, 0x39, 0x47, 0x50, 0xf9, 0x5e, 0x20, 0x27, 0xaf,
  0x6d, 0xc5, 0xc4, 0xe0, 0xfb, 0xda, 0x25, 0xcc, 0x92, 0x65, 0xf9, 0xf4,
  0x7f, 0xdf, 0x46, 0x1c, 0xab, 0x91, 0xfc, 0x65, 0x40, 0xbd, 0xe5, 0xf1,
  0xa2, 0x53, 0xd1, 0x0b, 0x38, 0x41, 0xf6, 0xef, 0xa5, 0x29, 0xb4, 0xab,
  0x17, 0xf0, 0x5c, 0x59, 0xcf, 0xbc, 0xe2, 0xa2, 0x09, 0xdc, 0x53, 0xf7,
  0xd8, 0x1d, 0x24, 0x56, 0x0e, 0x5e, 0x10, 0x38, 0x42, 0xa7, 0x36, 0x60,
  0x44, 0xe5, 0xd6, 0x4f, 0x91, 0x60, 0xdf, 0xf6, 0xdb, 0xcd, 0xce, 0xe8,
  0xd2, 0xee, 0xeb, 0x11, 0xa5, 0x5e, 0x55, 0xd7, 0xc4, 0x4c, 0xc9, 0x01,
  0x16, 0xe9, 0x8d, 0xe9, 0x14, 0x44, 0x7f, 0x9a, 0x64, 0x1f, 0x22, 0x19,
  0x16, 0x43, 0x68, 0xd4, 0x89, 0x12, 0xce, 0x81, 0x7e, 0xb8, 0xb1, 0x4c,
  0xc3, 0x03, 0x05, 0x16, 0x52, 0xac, 0x34, 0x91, 0xb5, 0x91, 0x30, 0x06,
  0x07, 0x3a, 0x5d, 0xbe, 0x3b, 0x38, 0xcb, 0x32, 0xfe, 0x39, 0x5a, 0x4a,
  0xe6, 0x19, 0xc5, 0xd7, 0x2a, 0x9a, 0xba, 0x57, 0x35, 0x9f, 0x5a, 0x01,
  0x56, 0x2c, 0x41, 0xb7, 0xa3, 0xac, 0x52, 0xbf, 0x00, 0xaa, 0x72, 0x04,
  0x2a, 0x1f, 0xdf, 0x86, 0xc6, 0xfe, 0x49, 0xcb, 0xfc, 0xdd, 0x41, 0xea,
  0xcc, 0x0f, 0xd8, 0x7f, 0x48, 0x96, 0xc3, 0xf3, 0xab, 0x91, 0xe9, 0x74,
  0x5f, 0xf2, 0xe1, 0x92, 0xff, 0x41, 0x65, 0x09, 0xca, 0x99, 0x41, 0xd3,
  0xd6, 0x20, 0x51, 0x30, 0xe8, 0x82, 0xf2, 0x52, 0xd9, 0x4a, 0xe9, 0x33,
  0x01, 0xdc, 0xe9, 0x18, 0xc6, 0x11, 0x9a, 0x81, 0x10, 0x24, 0x24, 0x0f,
  0xbf, 0xd2, 0xe9, 0x15, 0x54, 0x49, 0x76, 0xbd, 0xd3, 0xc2, 0x61, 0x3c,
  0xca, 0x1a, 0xf1, 0x87, 0xb1, 0xa0, 0xea, 0xe7, 0xc4, 0x65, 0xae, 0xb0,
  0x3c, 0x95, 0x4f, 0x45, 0x4e, 0xba, 0x65, 0x16, 0xc9, 0xfa, 0x31, 0x73,
  0xde, 0x33, 0x64, 0xd1, 0x65, 0xea, 0x6a, 0x61, 0x40, 0x9a, 0xf9, 0x5a,
  0x8d, 0x68, 0x42, 0x0b, 0x30, 0x46, 0x68, 0x99, 0xb2, 0x81, 0xb3, 0xf6,
  0x00, 0x15, 0x99, 0x47, 0xff, 0xa9, 0xa2, 0x53, 0xc0, 0xfd, 0x5a, 0xfa,
  0x50, 0xbf, 0xd0, 0xdb, 0xe3, 0x10, 0xce, 0xd4, 0x36, 0x50, 0xff, 0xe3,
  0x22, 0x50, 0xe4, 0x5d, 0x55, 0x23, 0x40, 0x48, 0x25, 0x94, 0xb9, 0x20,
  0xc7, 0x06, 0x47, 0xc6, 0x1c, 0x0b, 0xfa, 0x22, 0x26, 0xb9, 0x4e, 0xa9,
  0x06, 0x04, 0xf0, 0x0a, 0x3a, 0x3a, 0x68, 0xb8, 0x30, 0x12, 0xa5, 0x19,
  0x15, 0xb9, 0x56, 0x67, 0x5f, 0x56, 0x18, 0x9c, 0x51, 0xc4, 0x2c, 0x4b,
  0xca, 0xe3, 0xbc, 0x0b, 0x28, 0xb4, 0x7e, 0x99, 0x51, 0xa1, 0x22, 0x05,
  0x59, 0x84, 0xa1, 0xf5, 0x1c, 0x59, 0xde, 0x1a, 0x28, 0x43, 0x52, 0x07,
  0x68, 0xd5, 0x00, 0xb3, 0xfc, 0xbd, 0x06, 0xf7, 0x04, 0xa1, 0xa3, 0xe7,
  0x5f, 0x1e, 0x3b, 0x3a, 0x9b, 0x1d, 0x2b, 0x4e, 0x71, 0x7f, 0x63, 0x6d,
  0xd1, 0xe0, 0x45, 0xa0, 0x49, 0xa7, 0xef, 0xf3, 0x14, 0x45, 0x5a, 0xe5,
  0xd8, 0x15, 0x91, 0xe7, 0xb2, 0x27, 0xef, 0x24, 0xcd, 0x5f, 0x6e, 0x65,
  0x28, 0xc9, 0x1f, 0xae, 0xdf, 0xb7, 0x2e, 0x30, 0xc2, 0xbe, 0xf2, 0x04,
  0xe5, 0xae, 0x27, 0x2b, 0xa9, 0xdd, 0x60, 0xb4, 0x3f, 0x02, 0x69, 0x5b,
  0xc4, 0x5e, 0x46, 0x27, 0x35, 0xf5, 0x39, 0x2d, 0xdb, 0x62, 0xce, 0x0a,
  0xec, 0xfb, 0xc9, 0x3e, 0x8a, 0x36, 0xf1, 0xf8, 0x21, 0x2c, 0xc7, 0xd2,
  0xea, 0xfb, 0x81, 0x47, 0x3e, 0xf6, 0x1b, 0xc7, 0x74, 0x5e, 0x34, 0xd8,
  0x18, 0xb0, 0xc9, 0xc4, 0x36, 0xa9, 0xe3, 0x57, 0xb2, 0xa1, 0x25, 0x1a,
  0xe1, 0x53, 0x0f, 0xb9, 0x12, 0xd8, 0xd9, 0x63, 0x66, 0x00, 0x1f, 0xf6,
  0xab, 0x22, 0x4c, 0xd5, 0x29, 0x9c, 0x49, 0x33, 0x2d, 0xe1, 0xc8, 0x2a,
  0x52, 0x04, 0x2f, 0x3f, 0xde, 0xed, 0xbd, 0x1c, 0x5b, 0x31, 0xd7, 0xe8,
  0xc2, 0x00, 0x37, 0x4f, 0x59, 0x9b, 0xef, 0x41, 0x18, 0xa8, 0x33, 0xfd,
  0x27, 0x7f, 0x41, 0xec, 0x57, 0x51, 0xbe, 0x99, 0x05, 0xbe, 0x51, 0x0d,
  0xa7, 0x2f, 0xf6, 0xe6, 0x0f, 0xa9, 0xf6, 0xb6, 0xcd, 0xe8, 0x68, 0x32,
  0x2f, 0xb7, 0x9c, 0x0b, 0xaa, 0xa9, 0x69, 0xab, 0x20, 0xac, 0xf8, 0xee,
  0xfd, 0xb4, 0xd5, 0x4f, 0x1f, 0x6c, 0xc6, 0x91, 0xe4, 0x38, 0x6f, 0x04,
  0x8f, 0xf1, 0x19, 0xfe, 0x42, 0xd4, 0x69, 0x3f, 0x2e, 0x11, 0x0b, 0xba,
  0x9c, 0x97, 0xaf, 0x04, 0xb5, 0xc1, 0xd6, 0x19, 0x47, 0xbc, 0x0a, 0x4c,
  0x1e, 0xf1, 0x81, 0xb2, 0x13, 0xf9, 0x2c, 0xf6, 0x57, 0x54, 0xb3, 0x5d,
  0x57, 0xae, 0xfe, 0x1a, 0xd9, 0x96, 0xa8, 0xff, 0x4f, 0xa8, 0x13, 0x38,
  0x40, 0x41, 0xc9, 0x81, 0xe7, 0xbd, 0x62, 0x09, 0x5b, 0x0a, 0x42, 0xc0,
  0x19, 0x2b, 0xf4, 0xd0, 0xf1, 0xad, 0x24, 0xfc, 0x4b, 0x04, 0xf9, 0xc0,
  0x8e, 0xda, 0x09, 0xf9, 0x1a, 0xb1, 0xa9, 0x02, 0x31, 0x18, 0x0d, 0x5f,
  0x33, 0x05, 0xf0, 0x0c, 0xf8, 0x0a, 0x02, 0x09, 0x3c, 0x61, 0x64, 0xcb,
  0xce, 0x68, 0x1a, 0x45, 0x9b, 0x60, 0x74, 0x51, 0x41, 0xe3, 0x66, 0x13,
  0x2c, 0x47, 0x3b, 0x05, 0x01, 0xaa, 0x30, 0xf4, 0x3b, 0xb6, 0x0c, 0x03,
  0x75, 0x47, 0xa4, 0xd0, 0xc8, 0x1b, 0xd1, 0x14, 0x11, 0xeb, 0xd0, 0x57,
  0xc7, 0xce, 0x1d, 0x76, 0xa6, 0x9b, 0xca, 0x0e, 0xed, 0xdc, 0x0d, 0xb5,
  0x5d, 0xf5, 0xc2, 0xcf, 0xb7, 0xba, 0xab, 0xf3, 0xe7, 0x4e, 0x0e, 0x27,
  0x3f, 0x21, 0x36, 0xe1, 0xd4, 0xa9, 0xa7, 0x25, 0x52, 0x2b, 0x1f, 0xc8,
  0xc6, 0xed, 0x38, 0x81, 0xf0, 0x0e, 0x30, 0xb5, 0xf3, 0xb9, 0x40, 0x8e,
  0x27, 0x3e, 0x45, 0x1e, 0xea, 0xb8, 0x9b, 0x7f, 0xa1, 0xf9, 0x3e, 0xee,
  0x46, 0x53, 0xeb, 0xdd, 0x78, 0x4f, 0xfc, 0xda, 0x9a, 0x2a, 0x61, 0xde,
  0x28, 0xca, 0x4d, 0x7c, 0xca, 0x39, 0xb7, 0x60, 0xbb, 0x3e, 0xb5, 0x5f,
  0x3d, 0x53, 0x18, 0x44, 0x42, 0x0b, 0x03, 0xc1, 0xfb, 0x30, 0xb3, 0xb0,
  0xc0, 0x22, 0x9d, 0xbf, 0xb6, 0x3a, 0x2a, 0xea, 0xe3, 0xbc, 0xee, 0x4b,
  0xf2, 0x4f, 0x19, 0x07, 0xfe, 0x5b, 0xf6, 0x51, 0xa6, 0xad, 0xbd, 0xab,
  0x67, 0xfc, 0x11, 0x2a, 0xf0, 0xa7, 0xff, 0xff, 0xf4, 0xa7, 0xff, 0xff,
  0xf8, 0xa7, 0xff, 0xff, 0x3a, 0xe9, 0xff, 0xff, 0x04, 0x00, 0x00, 0x00,
  0x60, 0x00, 0x00, 0x00, 0x00, 0x00, 0x00, 0x00, 0x00, 0x00, 0x00, 0x00,
  0x00, 0x00, 0x00, 0x00, 0x00, 0x00, 0x00, 0x00, 0x00, 0x00, 0x00, 0x00,
  0x00, 0x00, 0x00, 0x00, 0x00, 0x00, 0x00, 0x00, 0x00, 0x00, 0x00, 0x00,
  0x00, 0x00, 0x00, 0x00, 0x00, 0x00, 0x00, 0x00, 0x00, 0x00, 0x00, 0x00,
  0x00, 0x00, 0x00, 0x00, 0x00, 0x00, 0x00, 0x00, 0x00, 0x00, 0x00, 0x00,
  0x00, 0x00, 0x00, 0x00, 0x00, 0x00, 0x00, 0x00, 0x00, 0x00, 0x00, 0x00,
  0x00, 0x00, 0x00, 0x00, 0x00, 0x00, 0x00, 0x00, 0x00, 0x00, 0x00, 0x00,
  0x00, 0x00, 0x00, 0x00, 0x00, 0x00, 0x00, 0x00, 0x00, 0x00, 0x00, 0x00,
  0x00, 0x00, 0x00, 0x00, 0xa6, 0xe9, 0xff, 0xff, 0x04, 0x00, 0x00, 0x00,
  0x18, 0x00, 0x00, 0x00, 0xd3, 0x1a, 0xe5, 0x1d, 0x9e, 0x72, 0x5f, 0x80,
  0xf4, 0xd6, 0xc1, 0xc3, 0x24, 0xda, 0xf7, 0x00, 0x11, 0xe1, 0x03, 0xbe,
  0xc9, 0xd0, 0x2a, 0x7f, 0xca, 0xe9, 0xff, 0xff, 0x04, 0x00, 0x00, 0x00,
  0xc0, 0x06, 0x00, 0x00, 0xf8, 0xeb, 0xed, 0xa2, 0x72, 0xd7, 0x98, 0xe2,
  0x38, 0x61, 0x4d, 0x23, 0x2b, 0xd7, 0x4a, 0xc3, 0x4b, 0x34, 0x57, 0x48,
  0xdf, 0xc8, 0x35, 0xdc, 0x1b, 0x43, 0xa3, 0xcd, 0x7f, 0x5c, 0xea, 0x4b,
  0xa6, 0x35, 0x13, 0xa1, 0xea, 0xeb, 0xab, 0xa9, 0x1a, 0x1f, 0x59, 0x5a,
  0x13, 0x71, 0xf9, 0xc8, 0x73, 0xf2, 0xa3, 0x5c, 0xde, 0x11, 0x9c, 0x66,
  0xd9, 0xfd, 0x13, 0x6b, 0xd2, 0x51, 0x94, 0xe7, 0x3f, 0x53, 0xaf, 0xe6,
  0x56, 0x02, 0x19, 0x8e, 0x40, 0x41, 0x3e, 0x3f, 0xb9, 0x30, 0xb8, 0x4d,
  0x15, 0xde, 0xcf, 0xb1, 0x57, 0x01, 0xb8, 0xac, 0x34, 0xc4, 0x49, 0x23,
  0xe6, 0x2c, 0x4d, 0xf6, 0xd0, 0x68, 0x3a, 0x0f, 0xbb, 0x81, 0x30, 0xfd,
  0x3b, 0x9f, 0x5f, 0xb3, 0x0a, 0xe1, 0xed, 0x64, 0x1e, 0xe8, 0x97, 0x28,
  0x2d, 0x41, 0xd3, 0x40, 0x02, 0xb3, 0xfb, 0x2b, 0xc2, 0x0d, 0x3b, 0xf4,
  0x69, 0xc9, 0x7a, 0xd7, 0xfc, 0xd4, 0x0b, 0xf8, 0xdb, 0xcc, 0xcc, 0xe6,
  0x10, 0x0d, 0xd3, 0xc4, 0xfd, 0x47, 0xe1, 0x29, 0x42, 0x84, 0xe3, 0x4d,
  0xd7, 0x50, 0xee, 0xa4, 0xfe, 0xfd, 0xff, 0x62, 0xf4, 0x0b, 0x29, 0xe0,
  0xa3, 0xa7, 0x95, 0xab, 0x3b, 0x58, 0x5a, 0x12, 0xbd, 0xe1, 0xbb, 0x1a,
  0x1a, 0xd3, 0x54, 0x74, 0xff, 0x9d, 0x05, 0xf1, 0xf0, 0xde, 0x99, 0x8c,
  0x15, 0x15, 0x57, 0x17, 0xcd, 0xdc, 0xa9, 0x58, 0x3c, 0x34, 0x1d, 0x0b,
  0x5a, 0xdc, 0x31, 0x40, 0xf6, 0x7f, 0xcb, 0xce, 0x84, 0x10, 0xed, 0xe1,
  0x61, 0xe4, 0xe9, 0xb9, 0xdd, 0xff, 0x00, 0x3a, 0x55, 0xa4, 0xff, 0x2c,
  0x03, 0xc9, 0x5e, 0x63, 0x98, 0x11, 0xbd, 0xf2, 0xc6, 0x94, 0x2f, 0xa3,
  0x23, 0xf2, 0x04, 0xb5, 0xc0, 0xbf, 0x5e, 0x88, 0x9d, 0xd0, 0x4c, 0x56,
  0x25, 0xf2, 0xb4, 0x34, 0x81, 0x61, 0x92, 0xb3, 0x35, 0x2e, 0x3c, 0x87,
  0x5c, 0x92, 0xf1, 0xf9, 0x3a, 0x59, 0xfc, 0x4a, 0x3c, 0xd3, 0xb1, 0xcc,
  0xe3, 0x21, 0x90, 0x99, 0x91, 0xbd, 0xae, 0x09, 0x8c, 0x64, 0x4b, 0x9d,
  0xb9, 0x57, 0xfe, 0x81, 0x35, 0xa4, 0x01, 0xa7, 0xfe, 0xbb, 0x62, 0x99,
  0xc0, 0xfa, 0xa2, 0x21, 0xa1, 0xc8, 0xca, 0x58, 0xea, 0xb4, 0x1b, 0xbd,
  0x90, 0xcb, 0x59, 0x8f, 0x74, 0x1a, 0x2c, 0xdd, 0xb3, 0xb0, 0xa7, 0x2d,
  0x8a, 0xbc, 0xdf, 0x12, 0x04, 0x0f, 0x5e, 0xb8, 0x4f, 0xb9, 0x3e, 0x1e,
  0xcc, 0xc4, 0x86, 0x99, 0xa0, 0x52, 0x1d, 0xe0, 0xb6, 0x3a, 0xa6, 0xd0,
  0x3b, 0xd1, 0xdf, 0x57, 0x41, 0x96, 0x08, 0xd1, 0xfa, 0x50, 0x16, 0x3d,
  0x92, 0x7f, 0x2f, 0xef, 0xfb, 0xe7, 0xa6, 0x13, 0x74, 0xd5, 0xc6, 0x44,
  0x59, 0xe1, 0x2a, 0xee, 0x46, 0xde, 0x39, 0x03, 0x03, 0x38, 0x06, 0x2b,
  0xc3, 0x0f, 0x9c, 0xb3, 0xd5, 0x0d, 0x4a, 0x3d, 0x41, 0xa1, 0x47, 0x03,
  0x37, 0xc2, 0xa8, 0xf4, 0x65, 0xef, 0x58, 0xfb, 0xfc, 0xa2, 0xdd, 0x59,
  0x08, 0x3c, 0xec, 0x27, 0x22, 0xd4, 0x07, 0x4a, 0x3f, 0x14, 0xe2, 0x58,
  0xe4, 0xd1, 0xdc, 0x46, 0x15, 0x37, 0xc9, 0xfe, 0x17, 0xeb, 0x55, 0xa5,
  0x7f, 0x63, 0xc6, 0x0d, 0xf9, 0x28, 0x38, 0x83, 0xc4, 0x92, 0x39, 0x84,
  0x38, 0xf5, 0x31, 0x83, 0x24, 0x81, 0xec, 0x06, 0xa8, 0xbf, 0xcd, 0xc9,
  0xb9, 0xff, 0x32, 0xbe, 0x22, 0xc8, 0x9a, 0x16, 0x0d, 0x58, 0x9d, 0xee,
  0x06, 0x94, 0x1a, 0x50, 0x0d, 0xeb, 0xd0, 0xba, 0xa8, 0x07, 0x6c, 0xd5,
  0xf4, 0xa7, 0x8b, 0x8a, 0x9a, 0xad, 0x2c, 0x8d, 0x98, 0xaf, 0x36, 0xa9,
  0x2d, 0x2e, 0x01, 0x55, 0x90, 0xf0, 0x19, 0x2f, 0xd1, 0xa2, 0x55, 0x33,
  0x3d, 0xce, 0x11, 0x12, 0xa1, 0x11, 0xf6, 0x5f, 0xb1, 0xf7, 0x31, 0x51,
  0xee, 0xae, 0xde, 0x6a, 0x5d, 0x11, 0x13, 0x16, 0xd4, 0x7b, 0xa5, 0x28,
  0x00, 0xea, 0x6f, 0xe0, 0x7f, 0xf0, 0x5a, 0xd5, 0x24, 0x43, 0x34, 0x38,
  0xe1, 0x3d, 0x34, 0xc0, 0x9c, 0x0b, 0x37, 0xd0, 0xc7, 0xab, 0x20, 0x70,
  0xb0, 0x75, 0x40, 0x07, 0xc1, 0x6e, 0xf0, 0x9b, 0xd7, 0xcb, 0xd7, 0x49,
  0xef, 0xf9, 0xfd, 0xed, 0x5f, 0x1e, 0xab, 0x03, 0xd5, 0xbe, 0x4e, 0xb0,
  0xf2, 0xac, 0xef, 0xcc, 0xc7, 0xf4, 0x0a, 0xa3, 0x0e, 0x20, 0x99, 0x21,
  0x39, 0x35, 0xb6, 0x51, 0xe6, 0xf6, 0x38, 0x33, 0xb8, 0xf0, 0x71, 0x4b,
  0x41, 0x37, 0x08, 0x4b, 0xed, 0x8f, 0x49, 0xa9, 0x0a, 0xc5, 0x25, 0xed,
  0x32, 0x28, 0x39, 0x2f, 0xa8, 0x30, 0x81, 0x6c, 0x77, 0xf9, 0x47, 0x29,
  0x28, 0x31, 0x8d, 0x3e, 0xf9, 0x8f, 0x3e, 0xd3, 0x37, 0x04, 0x53, 0x41,
  0x9b, 0xdb, 0x2f, 0xe2, 0x32, 0x3d, 0x4a, 0x38, 0xfa, 0xc2, 0x2e, 0x0d,
  0xe9, 0xd8, 0xa6, 0xfb, 0x42, 0xff, 0x23, 0xd7, 0xbe, 0x87, 0x93, 0xeb,
  0xd0, 0x5f, 0xd4, 0xf7, 0x93, 0x37, 0x2d, 0xf4, 0xd5, 0x93, 0x02, 0xb4,
  0xd8, 0xa2, 0x7f, 0x0f, 0x49, 0xb0, 0xdf, 0x55, 0xc0, 0xc1, 0x94, 0xa9,
  0x45, 0x4a, 0xa3, 0xcf, 0xa8, 0x12, 0xfc, 0x5d, 0xb0, 0x3d, 0x51, 0x95,
  0xfe, 0x8f, 0x4a, 0xde, 0x30, 0xad, 0x5e, 0x26, 0x28, 0x2e, 0x45, 0xe4,
  0xca, 0xf6, 0xed, 0xde, 0x2b, 0x4f, 0x06, 0xd7, 0x3c, 0xe4, 0x24, 0x53,
  0xaf, 0xe0, 0xb7, 0x3d, 0xac, 0x2c, 0x07, 0x25, 0xd9, 0xd2, 0x8c, 0xd6,
  0xb0, 0x0f, 0xd9, 0x0e, 0x0d, 0x56, 0x9e, 0x0a, 0xf4, 0xcf, 0xb1, 0xd9,
  0x81, 0x18, 0x24, 0xf2, 0x3a, 0xbc, 0x10, 0x83, 0xaf, 0xf1, 0xf9, 0x01,
  0xc9, 0x8a, 0x3d, 0xe8, 0xca, 0x12, 0x8d, 0x92, 0x0a, 0xfd, 0xdc, 0xdc,
  0x53, 0xe4, 0xe7, 0xd0, 0x98, 0xd3, 0x30, 0x08, 0x2d, 0xab, 0x83, 0x44,
  0x11, 0x0c, 0x19, 0x25, 0x1e, 0xb9, 0xbb, 0xc6, 0xbb, 0x2f, 0x12, 0xe8,
  0xd7, 0x2d, 0x09, 0x1a, 0x87, 0xb0, 0x2f, 0xd4, 0x1f, 0x81, 0x1b, 0x71,
  0x9c, 0x3e, 0xbf, 0x2f, 0x27, 0xde, 0xc2, 0x10, 0xb0, 0xce, 0x10, 0x7c,
  0xcc, 0x57, 0xf7, 0xd1, 0xde, 0xef, 0xe3, 0xb2, 0x9b, 0x04, 0xab, 0xf0,
  0xc2, 0x7a, 0x44, 0x76, 0xca, 0x0e, 0xdc, 0xfb, 0x50, 0x54, 0x07, 0x78,
  0x08, 0x35, 0x73, 0x48, 0x98, 0xe8, 0xcf, 0xa0, 0xa8, 0xa7, 0x37, 0x38,
  0x42, 0x1a, 0xc2, 0x3f, 0x42, 0xdf, 0x4a, 0x08, 0x97, 0x04, 0x98, 0x08,
  0x11, 0xbf, 0x7c, 0x0e, 0x27, 0xc8, 0x07, 0x9e, 0xe9, 0xa0, 0xba, 0x46,
  0xc3, 0x9b, 0x51, 0xa3, 0xf0, 0x0d, 0x52, 0x3f, 0x1c, 0xb4, 0x4c, 0xf3,
  0xb0, 0xa0, 0xa1, 0x30, 0x18, 0x19, 0x42, 0x21, 0xeb, 0x81, 0x19, 0xad,
  0x0c, 0x3f, 0xa9, 0xb2, 0xe6, 0x99, 0x36, 0xdb, 0xe3, 0xda, 0xe9, 0x2e,
  0xac, 0xf6, 0x47, 0xa6, 0xaa, 0xf4, 0x3e, 0xc4, 0xb6, 0x2e, 0xb8, 0xe9,
  0xb7, 0x2e, 0x4a, 0x01, 0xda, 0x9a, 0x1a, 0xee, 0xfe, 0x35, 0x0a, 0x2a,
  0x96, 0x33, 0x1f, 0xa3, 0xc8, 0xd0, 0xf4, 0x19, 0x3d, 0xaf, 0x0c, 0x82,
  0x89, 0x83, 0xdc, 0x97, 0xe9, 0xd7, 0xe2, 0x10, 0xb7, 0xbf, 0xe7, 0x40,
  0x69, 0x1b, 0x81, 0xeb, 0xe5, 0x0b, 0xb2, 0xb0, 0x12, 0x3b, 0xec, 0xd8,
  0x33, 0x4d, 0x01, 0xee, 0xb5, 0xf0, 0x25, 0xf2, 0xa2, 0x55, 0x41, 0xe5,
  0x54, 0x09, 0xf5, 0x1e, 0x29, 0xad, 0x22, 0x8c, 0x2f, 0x40, 0x9e, 0xbf,
  0xe1, 0xda, 0x22, 0x1c, 0x3c, 0x2b, 0xb9, 0xb9, 0x38, 0x64, 0x3a, 0xc0,
  0x18, 0xc9, 0x2b, 0xca, 0x50, 0xb7, 0xd7, 0xcd, 0x44, 0x3d, 0x49, 0xa4,
  0x72, 0x0b, 0xfe, 0x07, 0x29, 0x99, 0x59, 0xda, 0x00, 0xe9, 0x91, 0x92,
  0x3b, 0xc9, 0xe0, 0xc1, 0xb9, 0x15, 0x6d, 0xaa, 0x90, 0x88, 0xb7, 0xfa,
  0x21, 0x14, 0xff, 0x59, 0x2e, 0xd7, 0xff, 0xac, 0xac, 0x3f, 0xc8, 0xae,
  0x9d, 0x19, 0xd4, 0xd3, 0x81, 0x18, 0x4e, 0x2c, 0xf4, 0xd6, 0x17, 0x3c,
  0x17, 0xea, 0x13, 0x54, 0x05, 0x25, 0xd5, 0x49, 0xac, 0xba, 0x2d, 0xfa,
  0xc2, 0x41, 0x92, 0x86, 0x9a, 0xcd, 0xc2, 0x17, 0x41, 0x87, 0x06, 0x26,
  0x1c, 0x05, 0xf8, 0x5c, 0x92, 0x84, 0xba, 0x71, 0x04, 0x26, 0xa3, 0xd8,
  0xb4, 0x25, 0xd1, 0xb8, 0x40, 0x2e, 0xf7, 0x4a, 0xed, 0xaa, 0xa5, 0x1f,
  0x11, 0x24, 0x2e, 0xa1, 0x81, 0x5a, 0xfe, 0x37, 0x07, 0xe8, 0xc0, 0xe9,
  0x47, 0x3b, 0x3f, 0x4d, 0xf8, 0x43, 0xf4, 0x43, 0x02, 0x54, 0x98, 0x1c,
  0xf9, 0x41, 0xd8, 0x35, 0xb4, 0x9e, 0xba, 0x44, 0x32, 0x37, 0x36, 0x57,
  0xe1, 0x51, 0xe5, 0x88, 0xc0, 0x23, 0x29, 0x42, 0x9f, 0x20, 0x10, 0x46,
  0x22, 0x02, 0x96, 0xa5, 0xf9, 0xd0, 0x45, 0xf6, 0xb6, 0xa4, 0xfb, 0x3b,
  0xa5, 0x0c, 0xd5, 0xd4, 0xd7, 0x36, 0xc8, 0x07, 0xb1, 0x16, 0x92, 0x21,
  0x50, 0x09, 0x36, 0x98, 0xb8, 0xcc, 0xae, 0xf9, 0xf4, 0x45, 0xd1, 0x9f,
  0xa4, 0xe4, 0x66, 0x55, 0x21, 0xb0, 0xe3, 0xbd, 0x00, 0x41, 0x44, 0xcb,
  0xb6, 0xa1, 0xf8, 0xb6, 0x81, 0x59, 0xad, 0x69, 0xfe, 0x08, 0xc5, 0x39,
  0x3c, 0xd2, 0xe0, 0xc4, 0x2e, 0xa6, 0x6a, 0x60, 0x9f, 0xb5, 0xdb, 0xa2,
  0x02, 0xad, 0x23, 0xed, 0xa6, 0xb3, 0x56, 0xa4, 0xe0, 0xda, 0xef, 0x16,
  0xe7, 0x9b, 0xf7, 0xa4, 0x96, 0x3e, 0x09, 0xa9, 0x33, 0x81, 0x9f, 0xa7,
  0x68, 0x5e, 0xc1, 0x32, 0x2d, 0xbc, 0x16, 0x9b, 0x0f, 0x49, 0x5e, 0xe2,
  0x60, 0xdb, 0x0d, 0xd5, 0x91, 0xda, 0x98, 0x28, 0xb7, 0x9c, 0xed, 0x0d,
  0xa9, 0xd4, 0xee, 0x51, 0x8a, 0x03, 0x30, 0x6d, 0x3f, 0x04, 0x4c, 0x82,
  0x22, 0x86, 0x5a, 0xda, 0x20, 0xf8, 0x30, 0xae, 0x55, 0x31, 0x03, 0xf0,
  0xab, 0xc0, 0xfa, 0xad, 0xba, 0x01, 0xa1, 0x00, 0xd3, 0x90, 0xd1, 0x46,
  0x48, 0xe7, 0x3f, 0xc1, 0xbe, 0xd7, 0xc2, 0xd6, 0xb4, 0x0b, 0x4e, 0x14,
  0xe4, 0x25, 0xdc, 0xfa, 0xdb, 0x44, 0x5e, 0xd9, 0x03, 0x28, 0x32, 0x8b,
  0x3a, 0x2f, 0x24, 0x06, 0x45, 0xb0, 0x1f, 0x40, 0x2b, 0xa9, 0xdb, 0x4b,
  0xdd, 0x81, 0xd4, 0x89, 0x4a, 0x56, 0x05, 0x1f, 0x04, 0xe7, 0xcb, 0x35,
  0x97, 0xef, 0xde, 0x3b, 0xa6, 0xe9, 0xdb, 0xce, 0xcb, 0x14, 0x37, 0x3f,
  0xd5, 0x9c, 0x71, 0x4b, 0x52, 0x05, 0xc2, 0xb7, 0xdf, 0x49, 0x22, 0x91,
  0x9f, 0x98, 0x76, 0xed, 0xbd, 0xf7, 0x63, 0x5d, 0xee, 0x7f, 0xab, 0x27,
  0xee, 0xa6, 0x68, 0x36, 0x54, 0xc6, 0xee, 0xab, 0xc5, 0x2a, 0xab, 0xdf,
  0x2e, 0xf7, 0x4a, 0xb2, 0x49, 0x0e, 0xa4, 0xf6, 0x91, 0xd5, 0xf8, 0xdf,
  0x22, 0x30, 0x02, 0xd3, 0x38, 0x4d, 0x30, 0xec, 0xf3, 0xf6, 0x35, 0xba,
  0x19, 0x2c, 0xb6, 0xd2, 0x0a, 0xb6, 0x16, 0x95, 0xa0, 0xd5, 0xf4, 0xf1,
  0x3a, 0x5f, 0x46, 0x8e, 0x30, 0x49, 0xd7, 0xf4, 0xfe, 0x23, 0xed, 0x1c,
  0x8e, 0xe7, 0xcf, 0xfe, 0xf8, 0xff, 0x8f, 0x43, 0x22, 0x50, 0xa5, 0x8e,
  0xa7, 0x17, 0x1f, 0xec, 0x41, 0xe1, 0x10, 0x43, 0xa7, 0xc5, 0x9b, 0x45,
  0x45, 0x81, 0xef, 0xee, 0x26, 0xed, 0x82, 0x84, 0xad, 0xa4, 0x4c, 0xe6,
  0xfe, 0x0b, 0xf5, 0xa0, 0xab, 0xce, 0x30, 0x10, 0x45, 0xbb, 0xf0, 0x48,
  0xbe, 0x39, 0xf7, 0xf0, 0x3e, 0x66, 0x72, 0xbc, 0xe1, 0x94, 0x33, 0xc2,
  0x81, 0x19, 0x56, 0x32, 0x88, 0x44, 0x4c, 0x3d, 0xc9, 0x7a, 0x08, 0xb8,
  0xab, 0xf7, 0x5a, 0x16, 0x2f, 0xb2, 0x38, 0x3d, 0xd5, 0x16, 0xec, 0x66,
  0x00, 0xff, 0x2f, 0x3e, 0x10, 0x5a, 0x41, 0xe2, 0xdd, 0xe0, 0xe0, 0x95,
  0xef, 0x06, 0xf4, 0x2a, 0x40, 0x50, 0xa7, 0x18, 0x50, 0xcc, 0x15, 0xbd,
  0xc1, 0x3a, 0x99, 0xf4, 0xb9, 0x28, 0xcc, 0x41, 0xd2, 0xf8, 0xba, 0x37,
  0xd0, 0x38, 0x46, 0xf7, 0xf1, 0x3c, 0x30, 0x3a, 0x92, 0x1f, 0xac, 0xba,
  0x90, 0xf9, 0xdb, 0x28, 0x13, 0xe6, 0x57, 0x66, 0x8a, 0xaa, 0x65, 0xed,
  0x2b, 0xa4, 0x81, 0x8c, 0x5d, 0x11, 0xcc, 0xb8, 0x47, 0x4b, 0x9b, 0x86,
  0xbc, 0x4e, 0xe7, 0x5d, 0xd9, 0xf7, 0xdd, 0x5c, 0x3b, 0xb0, 0xb6, 0x30,
  0x5b, 0x4c, 0xbf, 0xe1, 0xd1, 0xcf, 0xaf, 0x89, 0x29, 0xd8, 0xbd, 0x4c,
  0xb8, 0x5c, 0x5b, 0x54, 0xff, 0x8a, 0x58, 0x95, 0xbe, 0x83, 0x21, 0x2d,
  0x2b, 0x2c, 0x0d, 0xbf, 0x13, 0xa4, 0xef, 0xa8, 0xb0, 0x34, 0xb7, 0xbb,
  0xb1, 0x5c, 0xc6, 0x41, 0x55, 0x7f, 0x83, 0xa5, 0x00, 0xa5, 0xdb, 0xee,
  0x18, 0xfd, 0x5e, 0xfa, 0x1f, 0xaf, 0xbe, 0xbe, 0xe5, 0xce, 0x4b, 0x15,
  0xcb, 0x1b, 0xf0, 0xdb, 0x44, 0xcc, 0x92, 0x38, 0xa1, 0xf9, 0xd0, 0x2b,
  0x08, 0x9f, 0x9b, 0x11, 0xdc, 0x58, 0xc1, 0xea, 0x1e, 0xa7, 0x86, 0x97,
  0x0e, 0x4b, 0x28, 0xb0, 0x5a, 0xde, 0x49, 0x4d, 0xb8, 0x11, 0x24, 0x0e,
  0x48, 0x4c, 0x15, 0x89, 0x96, 0xf0, 0xff, 0xff, 0x04, 0x00, 0x00, 0x00,
  0x18, 0x00, 0x00, 0x00, 0x74, 0xb6, 0x6e, 0x07, 0xb2, 0x43, 0xbe, 0x50,
  0x29, 0x80, 0xf0, 0x17, 0xef, 0xa3, 0xf6, 0xea, 0xfb, 0xbd, 0xae, 0x28,
  0xe8, 0xf5, 0xf0, 0xda, 0xba, 0xf0, 0xff, 0xff, 0x04, 0x00, 0x00, 0x00,
  0xc0, 0x06, 0x00, 0x00, 0x0f, 0x31, 0xad, 0xc4, 0xc7, 0xae, 0xcc, 0x37,
  0xcf, 0xd2, 0xe9, 0x41, 0xc2, 0x36, 0xe5, 0x2b, 0xef, 0x19, 0x1d, 0xee,
  0xde, 0xbf, 0x3e, 0x55, 0x97, 0x00, 0xe6, 0x62, 0x35, 0x10, 0xde, 0xf2,
  0xc5, 0x75, 0xea, 0x0b, 0x3d, 0xf0, 0x27, 0xe5, 0x25, 0x16, 0xa4, 0xc9,
  0x44, 0x03, 0x77, 0xf5, 0x44, 0xea, 0xee, 0xef, 0xfa, 0x98, 0x96, 0xbc,
  0x08, 0x1e, 0xd6, 0x1e, 0x38, 0x03, 0x03, 0x7f, 0xf5, 0x91, 0xd9, 0xc5,
  0xff, 0x29, 0x50, 0x4c, 0x3d, 0xd9, 0x0c, 0x22, 0x44, 0x5e, 0xf2, 0x47,
  0x58, 0x10, 0x06, 0x1c, 0xe8, 0x34, 0xd2, 0xa0, 0x3f, 0xd3, 0x65, 0xff,
  0xb3, 0x63, 0x05, 0x2f, 0x42, 0x2b, 0x05, 0x0d, 0x0c, 0xcb, 0x97, 0xbc,
  0x32, 0x4e, 0xb4, 0xf4, 0xfb, 0x49, 0xb4, 0x6a, 0x40, 0xc5, 0x15, 0x21,
  0xd9, 0xeb, 0xdc, 0x13, 0x7e, 0x33, 0xf4, 0xf1, 0x42, 0xad, 0xc6, 0x1d,
  0x7f, 0x29, 0xc4, 0x46, 0xb1, 0xde, 0x55, 0x32, 0xb3, 0x22, 0xe4, 0xdf,
  0x69, 0xec, 0xf4, 0xd5, 0x0c, 0xbe, 0xe0, 0xf9, 0xe2, 0xdc, 0xd6, 0xd5,
  0x26, 0xbf, 0x09, 0xdd, 0xed, 0x0a, 0x0e, 0x2b, 0xde, 0x26, 0x0e, 0xd9,
  0x02, 0x0b, 0x20, 0x47, 0x3c, 0x35, 0x05, 0xd6, 0x3c, 0x10, 0x33, 0x09,
  0xe5, 0x25, 0xd1, 0x34, 0x08, 0xf9, 0xf8, 0xbd, 0x1b, 0x22, 0x9f, 0x9d,
  0xe7, 0xf2, 0x42, 0x23, 0x1d, 0x15, 0xda, 0x29, 0x06, 0xf1, 0xea, 0x50,
  0x32, 0xe3, 0xb2, 0x3e, 0xe5, 0x16, 0x30, 0xf8, 0xb4, 0x23, 0x81, 0x08,
  0x21, 0x1c, 0xfc, 0x0f, 0x99, 0xd8, 0xa8, 0x4c, 0xab, 0x1b, 0x5f, 0xb8,
  0x00, 0x50, 0xe4, 0x08, 0xef, 0xb9, 0x52, 0xf8, 0x48, 0x29, 0xb3, 0x10,
  0x39, 0x51, 0x5f, 0xeb, 0xd6, 0x59, 0xaf, 0x88, 0xf9, 0xd4, 0x3e, 0x75,
  0x35, 0x42, 0xc4, 0x91, 0xbe, 0xbc, 0x3d, 0x35, 0x46, 0x55, 0xef, 0x18,
  0x3a, 0x8c, 0xf5, 0xbe, 0xa1, 0x88, 0xfc, 0xff, 0xc5, 0x4a, 0xc7, 0xc0,
  0x38, 0x57, 0x4f, 0x53, 0x06, 0x3b, 0xff, 0x44, 0x1c, 0x1f, 0x81, 0x17,
  0xb5, 0x0f, 0xa5, 0x1a, 0x3f, 0x9f, 0x16, 0x4c, 0xcb, 0xc8, 0x40, 0xbb,
  0xbb, 0xb0, 0x17, 0x85, 0x55, 0xae, 0xca, 0xe0, 0x5c, 0x49, 0xb1, 0x0c,
  0x26, 0xf8, 0x9f, 0x44, 0x4b, 0x3e, 0xb9, 0x57, 0xcd, 0xa3, 0xe3, 0x6c,
  0x37, 0x63, 0xaf, 0xa9, 0xd4, 0x53, 0x7f, 0xea, 0x0b, 0xe2, 0xb8, 0x13,
  0xcc, 0x57, 0x8a, 0xaa, 0x32, 0xe6, 0x7d, 0xb8, 0x1f, 0x13, 0xab, 0x75,
  0x98, 0xe9, 0x3b, 0xa9, 0x93, 0xe3, 0xf4, 0xfe, 0x02, 0xd7, 0x04, 0xda,
  0x9c, 0xe5, 0x61, 0x8f, 0xff, 0xf8, 0x01, 0x0f, 0x57, 0xdf, 0x49, 0x98,
  0xdc, 0xad, 0x31, 0xba, 0xcf, 0x74, 0x37, 0x89, 0x68, 0x8d, 0xb4, 0x41,
  0x38, 0xd9, 0x9f, 0x07, 0xef, 0xbb, 0x73, 0x4f, 0xda, 0x42, 0x44, 0x01,
  0xc7, 0xa4, 0xcd, 0x91, 0x09, 0xaf, 0xd8, 0xba, 0x5f, 0x9e, 0x18, 0x41,
  0x43, 0x13, 0x0e, 0x81, 0xeb, 0x01, 0x04, 0x9c, 0xe2, 0x14, 0xaa, 0x50,
  0x2f, 0x7a, 0x32, 0x33, 0xed, 0x7a, 0xaf, 0xca, 0x6c, 0x00, 0x2d, 0x48,
  0xeb, 0xd3, 0x03, 0xe3, 0x3a, 0x25, 0x6f, 0xe5, 0xce, 0xc7, 0x3f, 0xc1,
  0xe2, 0x21, 0x19, 0xeb, 0x1f, 0xf3, 0xc8, 0xd1, 0xc9, 0x1d, 0xfe, 0x96,
  0x17, 0x5b, 0x45, 0xf6, 0x53, 0x0b, 0x3b, 0x4f, 0xb5, 0x08, 0x01, 0x26,
  0xf8, 0xe4, 0xc5, 0xe1, 0xdc, 0x77, 0x0b, 0xc4, 0xa9, 0x07, 0x3f, 0x40,
  0x4c, 0xc9, 0xb6, 0x59, 0xf5, 0xee, 0x51, 0xe3, 0xf1, 0xaf, 0xf2, 0x87,
  0x51, 0xcb, 0xae, 0xa7, 0xee, 0xcb, 0xdf, 0x60, 0x38, 0x22, 0x7f, 0xb1,
  0x25, 0xd7, 0xeb, 0xe4, 0x03, 0x59, 0x51, 0x00, 0xd8, 0xf9, 0xf1, 0xd0,
  0x3d, 0xb1, 0x46, 0x0f, 0xf9, 0x3f, 0xe8, 0x61, 0x1e, 0x35, 0xe6, 0xf2,
  0x51, 0xfd, 0x47, 0x6a, 0xd9, 0x59, 0x59, 0xe9, 0xbd, 0x2c, 0xc4, 0xdd,
  0x03, 0x3f, 0xd3, 0xc1, 0x1f, 0xd6, 0xd5, 0xe7, 0x47, 0x46, 0x4c, 0x36,
  0x0d, 0xcc, 0x1a, 0x54, 0xea, 0x4c, 0x15, 0x56, 0x48, 0xc7, 0x46, 0x2f,
  0xcb, 0x47, 0xa1, 0x2d, 0xa6, 0xc0, 0xa0, 0xfa, 0xc5, 0x49, 0xb4, 0x81,
  0xc0, 0x39, 0xe2, 0x4e, 0x39, 0xf1, 0x36, 0xee, 0x96, 0xde, 0xf5, 0xa2,
  0x8d, 0x01, 0x94, 0xe9, 0x5e, 0x75, 0x7f, 0x40, 0x4f, 0x09, 0x3d, 0x7a,
  0x5a, 0xd4, 0xa0, 0xaf, 0x9e, 0x9f, 0x0d, 0x32, 0x3a, 0x23, 0x2f, 0xfa,
  0x08, 0x6f, 0xd7, 0x4b, 0xce, 0xeb, 0xa6, 0xdf, 0x6a, 0x82, 0x59, 0x72,
  0xc6, 0x8d, 0x89, 0xfa, 0x09, 0x1e, 0xe2, 0xa4, 0x43, 0x16, 0xe5, 0xe6,
  0xfb, 0xfa, 0x23, 0x8c, 0x9c, 0x2d, 0x3a, 0x45, 0xc9, 0x91, 0x26, 0x30,
  0x45, 0xd0, 0x4d, 0x0d, 0x87, 0x9a, 0xfb, 0x26, 0x62, 0x02, 0xa7, 0x41,
  0x87, 0x37, 0x81, 0x39, 0x8f, 0x26, 0x7b, 0xb8, 0xa3, 0x41, 0x57, 0x99,
  0xd8, 0x9b, 0xaf, 0x0b, 0xb4, 0x2d, 0x0c, 0xb2, 0x0c, 0x15, 0x00, 0xb0,
  0x87, 0x91, 0x31, 0xac, 0x96, 0x56, 0x14, 0x58, 0x5c, 0x21, 0xc6, 0x8a,
  0xf4, 0xe7, 0x9e, 0x90, 0x22, 0x15, 0xd2, 0xa7, 0x42, 0xc2, 0xed, 0x3a,
  0xa8, 0x35, 0x95, 0x5e, 0xee, 0xf9, 0x5e, 0x15, 0xfd, 0x33, 0x16, 0xfa,
  0xb9, 0x40, 0x8e, 0xcc, 0x0e, 0x0a, 0xfc, 0x21, 0x49, 0xe3, 0xdf, 0x55,
  0x9f, 0x6f, 0x1d, 0x52, 0x37, 0x34, 0xc9, 0xfa, 0x1b, 0x27, 0xeb, 0xe2,
  0x44, 0xb2, 0x17, 0xde, 0x91, 0x29, 0xb9, 0x4c, 0x0c, 0xfa, 0xcc, 0x46,
  0x54, 0x55, 0xee, 0x09, 0x28, 0xb7, 0x56, 0x50, 0x29, 0xfd, 0xcb, 0x95,
  0x2f, 0x13, 0xa3, 0x35, 0xe8, 0xec, 0xb7, 0x47, 0x67, 0xad, 0x55, 0x28,
  0x8e, 0x19, 0x49, 0x0f, 0x0f, 0xe3, 0x6d, 0xbe, 0x24, 0x81, 0x3d, 0x65,
  0x38, 0x0c, 0x27, 0xca, 0x04, 0xa2, 0x32, 0xad, 0x27, 0x76, 0x5f, 0x0a,
  0x0d, 0xcf, 0x81, 0x3f, 0x9e, 0xac, 0xfb, 0x4a, 0x4c, 0xa0, 0xfb, 0xf2,
  0x43, 0x1e, 0xef, 0xdf, 0xaa, 0xcb, 0x01, 0x3a, 0xe8, 0xeb, 0xd2, 0xb0,
  0xb5, 0xfc, 0x54, 0x42, 0x87, 0xf0, 0x6f, 0x1b, 0x21, 0xca, 0x5a, 0x37,
  0xc7, 0x05, 0x91, 0xc1, 0xdf, 0xc7, 0x15, 0x44, 0xe3, 0xa4, 0x66, 0xe1,
  0x8b, 0x24, 0xae, 0xc6, 0xef, 0x62, 0x32, 0xfc, 0x57, 0x44, 0xc3, 0xaf,
  0x04, 0xf3, 0x51, 0xbb, 0xab, 0xf5, 0x74, 0x29, 0x18, 0xf0, 0x07, 0xfb,
  0x03, 0x51, 0x2a, 0xbe, 0x07, 0xab, 0x17, 0x1e, 0x64, 0x1c, 0x4d, 0x34,
  0xea, 0x97, 0x2f, 0x55, 0xf7, 0x19, 0x4b, 0x54, 0xd8, 0x25, 0x7f, 0x16,
  0x52, 0x65, 0xc9, 0x8e, 0x9a, 0x4c, 0x45, 0x44, 0x12, 0x8e, 0x42, 0x05,
  0xad, 0x96, 0xa3, 0xc5, 0x99, 0xff, 0x45, 0x38, 0x56, 0x55, 0x6f, 0xd5,
  0x05, 0x23, 0x59, 0x0f, 0xe5, 0xee, 0x6b, 0x86, 0xd1, 0xdc, 0xd4, 0xa2,
  0xe0, 0x2b, 0xc1, 0x30, 0x58, 0xcc, 0xaf, 0xfa, 0xa2, 0x59, 0x5b, 0x18,
  0x9d, 0xec, 0x1c, 0x59, 0x0c, 0x3d, 0x58, 0x9e, 0x01, 0x24, 0xc2, 0x2e,
  0x60, 0xd5, 0xb8, 0x81, 0xfd, 0xf7, 0xff, 0x45, 0x23, 0x9d, 0x0d, 0x0b,
  0xe8, 0xd6, 0xea, 0xde, 0xaf, 0xc7, 0x5b, 0x3f, 0x64, 0x5a, 0x49, 0x20,
  0xba, 0x55, 0x3f, 0xb6, 0xe6, 0x53, 0x18, 0x5b, 0x29, 0x95, 0x0a, 0x94,
  0x5a, 0xe1, 0x8e, 0x21, 0xfe, 0x2a, 0x11, 0x99, 0x38, 0xf9, 0xe7, 0x12,
  0x5f, 0x87, 0xfe, 0x9d, 0x9b, 0xc4, 0x76, 0x11, 0x39, 0x67, 0xfe, 0x46,
  0x55, 0xe1, 0xd6, 0x81, 0x53, 0xd9, 0x0c, 0x90, 0xcc, 0x16, 0xdd, 0x6e,
  0xa1, 0xd4, 0x50, 0x34, 0xa8, 0x5c, 0x56, 0x47, 0x67, 0x9d, 0xdc, 0x66,
  0x89, 0x46, 0xce, 0x1a, 0xd6, 0xdc, 0x24, 0x59, 0x50, 0xf2, 0xe1, 0x10,
  0xf8, 0xe4, 0x5f, 0xbd, 0x49, 0xcd, 0x2f, 0xb1, 0x11, 0xe7, 0x7b, 0xf7,
  0xb3, 0x7d, 0x22, 0x1f, 0x40, 0x3b, 0xa3, 0x55, 0xf2, 0xfc, 0x3d, 0x5a,
  0xf2, 0xaf, 0xc5, 0x2b, 0x31, 0xb9, 0x0f, 0x3e, 0x0e, 0xe8, 0x3c, 0x9f,
  0x79, 0xde, 0x27, 0x67, 0xcb, 0xa4, 0x02, 0x45, 0x2f, 0x3f, 0x5c, 0x20,
  0x76, 0x65, 0xd4, 0xd1, 0xde, 0xfb, 0xe3, 0x4d, 0x28, 0x39, 0xe5, 0xbf,
  0x21, 0x32, 0xca, 0x06, 0xc6, 0xb8, 0x95, 0xe8, 0x52, 0xc3, 0x55, 0x50,
  0x77, 0xba, 0x6a, 0x2a, 0x6d, 0x7a, 0x17, 0x26, 0x21, 0x0c, 0xd0, 0xf9,
  0x25, 0x0c, 0xe0, 0x0e, 0x12, 0xbb, 0x45, 0x44, 0x32, 0x1a, 0x48, 0xfc,
  0x2d, 0xc1, 0x7f, 0xa6, 0xcf, 0x81, 0x7b, 0x84, 0x43, 0xa4, 0xf4, 0xb2,
  0xcc, 0xc8, 0xff, 0xad, 0xa5, 0xf0, 0xd2, 0xe1, 0x51, 0x36, 0x2d, 0x8d,
  0x87, 0x3e, 0x54, 0xe0, 0x1e, 0xa0, 0x50, 0xec, 0x4f, 0x50, 0xda, 0xd7,
  0x22, 0xfb, 0x90, 0xb7, 0x29, 0x1e, 0x4c, 0xba, 0xad, 0x23, 0x59, 0x10,
  0x82, 0xce, 0x12, 0xac, 0x38, 0xcd, 0x01, 0x10, 0x43, 0x93, 0x40, 0xfb,
  0x44, 0xd6, 0x33, 0x31, 0xf6, 0x7a, 0x03, 0xf5, 0x14, 0x8e, 0x0f, 0x47,
  0x9e, 0x55, 0xf2, 0xf9, 0xe6, 0x9a, 0xf8, 0xa5, 0x54, 0x0f, 0x47, 0x2e,
  0x27, 0x2f, 0x30, 0xc7, 0xfe, 0xe7, 0x06, 0xba, 0x48, 0x3c, 0x10, 0x2e,
  0x8a, 0x2f, 0x81, 0x3b, 0x06, 0x8d, 0xff, 0xe4, 0x57, 0xca, 0x25, 0x23,
  0x1b, 0xbf, 0x1a, 0x08, 0xb7, 0x57, 0x64, 0xce, 0x25, 0x24, 0x15, 0xac,
  0x99, 0x09, 0x11, 0xb3, 0x27, 0x9d, 0xc0, 0x9a, 0xce, 0xde, 0xec, 0x26,
  0xc3, 0x55, 0x44, 0x03, 0xe6, 0xf6, 0x2f, 0x8f, 0x04, 0x0e, 0xbf, 0xae,
  0xd8, 0xa4, 0xc0, 0xec, 0x4d, 0xd9, 0x73, 0x06, 0x67, 0xee, 0x46, 0xe0,
  0x3d, 0xe8, 0x45, 0x1f, 0xc1, 0x26, 0x2b, 0x23, 0x01, 0xed, 0x49, 0xf9,
  0x09, 0x4a, 0x8d, 0x01, 0xf0, 0x22, 0xe5, 0xc2, 0x43, 0x0e, 0xac, 0xfb,
  0x1e, 0x7f, 0x42, 0xf1, 0xd5, 0xee, 0x12, 0xda, 0xf0, 0x1d, 0x88, 0xe3,
  0xf3, 0x4c, 0x2f, 0xeb, 0x0c, 0x8e, 0x3e, 0xfd, 0x74, 0x5a, 0xbf, 0x02,
  0x0e, 0x1e, 0x9c, 0xb9, 0x99, 0xad, 0x50, 0x2b, 0x40, 0xdf, 0xb0, 0xf9,
  0xbf, 0xde, 0xc5, 0x46, 0x2a, 0xac, 0xec, 0x97, 0xbd, 0x48, 0x5d, 0x1a,
  0xa0, 0xab, 0x2f, 0x37, 0xb6, 0x62, 0x19, 0xb8, 0xe7, 0xe9, 0x18, 0xef,
  0x4f, 0x33, 0xc5, 0x52, 0xde, 0xc2, 0xcc, 0xe7, 0xf0, 0xb3, 0x4c, 0xc3,
  0xe8, 0xde, 0xd9, 0x31, 0xa5, 0x28, 0x75, 0xe2, 0x6e, 0x81, 0xef, 0x2b,
  0xdb, 0x2c, 0x38, 0x03, 0x2a, 0xd4, 0xcd, 0xf5, 0x65, 0xc7, 0x5c, 0xe0,
  0xc1, 0xf8, 0x90, 0xe4, 0xd1, 0xa8, 0xed, 0x5d, 0x40, 0xcb, 0x8a, 0xce,
  0x50, 0xe2, 0xfe, 0x43, 0xda, 0x21, 0x11, 0x0d, 0x67, 0x20, 0x35, 0x05,
  0x3e, 0x1f, 0x39, 0xe4, 0x25, 0xd8, 0x69, 0xb7, 0x73, 0x31, 0xc1, 0xc2,
  0x22, 0xe0, 0xbf, 0x4b, 0x82, 0xc8, 0x1c, 0x9b, 0xbd, 0x02, 0x76, 0xfc,
  0xc3, 0x2d, 0x11, 0x0a, 0xbc, 0x6d, 0xef, 0xae, 0x26, 0x81, 0x21, 0x04,
  0xcf, 0xef, 0x47, 0x18, 0xaf, 0x0a, 0x25, 0xd9, 0x74, 0xd8, 0xc0, 0xf7,
  0xc5, 0xad, 0x9a, 0xf0, 0x4c, 0x50, 0x62, 0xa1, 0x2d, 0xac, 0x00, 0xe4,
  0xc7, 0x29, 0xf2, 0x7d, 0xea, 0x0b, 0x15, 0x23, 0xe1, 0x05, 0x1b, 0xf2,
  0xfb, 0x2b, 0xdc, 0xe5, 0x0d, 0x06, 0x2f, 0x3b, 0x02, 0x2a, 0x12, 0x1e,
  0x2b, 0xc9, 0xd2, 0xfa, 0xd6, 0x1c, 0x07, 0xd4, 0xf5, 0x24, 0xfa, 0xeb,
  0xf2, 0xdb, 0x28, 0x16, 0x10, 0xe3, 0x29, 0x22, 0x21, 0x0c, 0x16, 0x34,
  0x07, 0xeb, 0xf4, 0xd8, 0xd0, 0x17, 0x17, 0x7f, 0xd4, 0x4f, 0x0d, 0xc8,
  0xbc, 0x1d, 0x31, 0xe3, 0x02, 0xd7, 0x36, 0x16, 0x1b, 0xbe, 0x22, 0x10,
  0xab, 0xd3, 0xe7, 0x06, 0x83, 0xcd, 0xe6, 0x00, 0x16, 0xa6, 0x5f, 0x33,
  0x10, 0x1a, 0xeb, 0xa2, 0x26, 0x00, 0xed, 0x2e, 0xe6, 0xb8, 0x05, 0x03,
  0x9e, 0xdc, 0xa0, 0x42, 0x33, 0xa3, 0x15, 0x99, 0xf1, 0x9b, 0x79, 0x16,
  0x1c, 0xd4, 0x81, 0x1d, 0x56, 0xd4, 0x4c, 0xf9, 0xc0, 0xa4, 0x48, 0xfa,
  0x05, 0x3e, 0x42, 0x43, 0x45, 0x83, 0xf6, 0x51, 0x22, 0x86, 0x7f, 0x44,
  0x54, 0x17, 0x02, 0xbd, 0xf2, 0x72, 0x76, 0x8d, 0xc4, 0xd1, 0x11, 0xf7,
  0x27, 0x88, 0xdb, 0x03, 0xb0, 0x37, 0xd3, 0xea, 0x32, 0x4f, 0xd5, 0xab,
  0xd8, 0xd9, 0xc9, 0x89, 0x49, 0x6a, 0x0d, 0x15, 0xbc, 0x95, 0xed, 0xc6,
  0x81, 0xc9, 0x2c, 0xec, 0x20, 0xb0, 0x76, 0xd4, 0xeb, 0xd5, 0xcf, 0x31,
  0x1b, 0x24, 0x33, 0xd5, 0x4d, 0x00, 0xfb, 0x20, 0x0e, 0xfb, 0x59, 0x88,
  0xe7, 0x99, 0x23, 0xe0, 0xbb, 0xd9, 0x40, 0x95, 0xcc, 0x32, 0x65, 0xaf,
  0xee, 0x5a, 0x9b, 0x42, 0xec, 0x79, 0x21, 0x9c, 0x4b, 0xd4, 0x01, 0xeb,
  0x3c, 0xc5, 0xd9, 0xb9, 0x86, 0xf7, 0xff, 0xff, 0x04, 0x00, 0x00, 0x00,
  0x18, 0x00, 0x00, 0x00, 0xbd, 0x13, 0x5e, 0xd7, 0xaf, 0xc6, 0xdb, 0x0a,
  0xbe, 0xa6, 0xcd, 0xc6, 0xc6, 0xb2, 0xcb, 0x7f, 0xc2, 0x9b, 0xc2, 0xc6,
  0x80, 0x69, 0xc6, 0xc7, 0xaa, 0xf7, 0xff, 0xff, 0x04, 0x00, 0x00, 0x00,
  0xc0, 0x06, 0x00, 0x00, 0x81, 0x9c, 0x11, 0x1a, 0xca, 0xe6, 0x12, 0xe3,
  0x19, 0xe7, 0x02, 0x54, 0x0e, 0xf8, 0x56, 0xfe, 0xdc, 0x1b, 0xd4, 0xb6,
  0x0c, 0xbe, 0xe0, 0xd1, 0x36, 0x36, 0x8e, 0x6a, 0xbc, 0xba, 0xbd, 0xab,
  0xe0, 0xba, 0x6a, 0x1c, 0x17, 0x03, 0x6d, 0xcb, 0x10, 0x19, 0x55, 0xd3,
  0x44, 0xbe, 0x1e, 0x3e, 0x22, 0xe0, 0xc6, 0xc6, 0xd9, 0xb0, 0x4d, 0x00,
  0xf9, 0x4b, 0xc5, 0xc3, 0xcc, 0x54, 0x33, 0x21, 0x6a, 0xe9, 0xc4, 0x52,
  0xe1, 0xf0, 0x48, 0x0c, 0x46, 0x46, 0x32, 0x22, 0x0e, 0x00, 0xfd, 0x10,
  0xae, 0x07, 0x44, 0xb7, 0x2d, 0x20, 0xb5, 0xd7, 0x33, 0x15, 0xd7, 0xfa,
  0xcf, 0x81, 0xdb, 0x21, 0xdf, 0xbc, 0xe0, 0xe6, 0xae, 0xba, 0xd7, 0xdd,
  0x11, 0xe7, 0xbd, 0x33, 0xd9, 0xb4, 0xd0, 0xd6, 0x3f, 0x23, 0xde, 0x38,
  0x17, 0xb3, 0xa6, 0x11, 0xfb, 0xf3, 0x1a, 0x2d, 0x42, 0x3c, 0x11, 0xea,
  0x31, 0x23, 0xb7, 0xc2, 0x02, 0xd6, 0xdd, 0xd9, 0x3c, 0xf4, 0xfe, 0xfa,
  0xee, 0xc8, 0x12, 0xd9, 0xe0, 0x10, 0xe1, 0xdc, 0xf3, 0xf0, 0x97, 0x0e,
  0x2b, 0x3d, 0x93, 0xee, 0xd2, 0x22, 0x74, 0xb5, 0x32, 0x56, 0x18, 0xd4,
  0xaf, 0xc2, 0xce, 0x0e, 0xc4, 0xd9, 0xed, 0xac, 0x3c, 0x33, 0x25, 0xae,
  0xf8, 0x4b, 0x60, 0x29, 0xb5, 0xfb, 0xdc, 0x8e, 0x7f, 0x55, 0x1d, 0x9f,
  0x13, 0xb1, 0x72, 0xf1, 0xb5, 0x44, 0xf7, 0xae, 0x4c, 0xd9, 0xb2, 0x66,
  0xc6, 0xa1, 0x24, 0x6e, 0x99, 0x49, 0x50, 0x26, 0x6d, 0x98, 0xe2, 0x3c,
  0xec, 0x99, 0x02, 0x50, 0xec, 0xc5, 0xc4, 0xf9, 0x16, 0x2f, 0x32, 0xb7,
  0xf3, 0x13, 0xe4, 0x16, 0xcc, 0xcc, 0x09, 0xd7, 0xf3, 0x0a, 0x00, 0xce,
  0xf2, 0xea, 0x28, 0xec, 0x12, 0xf6, 0x1a, 0x11, 0xc9, 0xe1, 0xfd, 0x34,
  0xc1, 0xd0, 0x18, 0x05, 0xd4, 0xe9, 0x18, 0x36, 0x01, 0x12, 0x21, 0xfd,
  0x1f, 0xb6, 0x0a, 0x16, 0x1f, 0xee, 0x14, 0xf1, 0xc7, 0xc9, 0xe3, 0xd6,
  0xe0, 0xcc, 0x1c, 0xe6, 0x37, 0xe9, 0x06, 0xd6, 0xd9, 0xe7, 0xcc, 0x27,
  0xe1, 0x81, 0xfa, 0xd2, 0x33, 0x43, 0xea, 0x18, 0x47, 0xef, 0x35, 0x00,
  0xcc, 0xd8, 0x04, 0xd1, 0x06, 0xf4, 0xf3, 0x08, 0xbc, 0x04, 0x57, 0xbd,
  0xaf, 0x81, 0xd3, 0x41, 0xbb, 0x59, 0xb6, 0x37, 0x58, 0xde, 0x29, 0xed,
  0xf3, 0xeb, 0xc2, 0xbc, 0xee, 0x09, 0xef, 0x14, 0x05, 0x37, 0x64, 0x12,
  0xe9, 0xc8, 0xc2, 0xd6, 0xb6, 0x2e, 0xa5, 0x28, 0xbd, 0x18, 0x39, 0xff,
  0x52, 0x01, 0xbc, 0xee, 0x13, 0x3c, 0xea, 0x3b, 0xf0, 0x18, 0x05, 0xfb,
  0x39, 0xf4, 0xb6, 0xd0, 0xfe, 0x2a, 0xe3, 0x2b, 0x1e, 0x3a, 0xd7, 0x07,
  0x2a, 0x27, 0x02, 0x1a, 0x0e, 0xf1, 0x38, 0xfe, 0xf5, 0xd0, 0x41, 0xe0,
  0xd4, 0xd0, 0x1c, 0x3c, 0xd4, 0xea, 0xf8, 0x28, 0x42, 0x1a, 0x0f, 0x0d,
  0xe4, 0xee, 0xd5, 0xdc, 0x2a, 0x07, 0xf0, 0x39, 0x2a, 0x1a, 0xd1, 0xde,
  0xfc, 0x01, 0x1f, 0xce, 0xd7, 0x2a, 0xcf, 0xf3, 0xd7, 0x23, 0xde, 0xc9,
  0xf3, 0x20, 0x19, 0x08, 0xee, 0xed, 0x2d, 0x08, 0x21, 0x35, 0xfa, 0xd3,
  0x2b, 0x81, 0xdc, 0x2a, 0x00, 0x35, 0xf7, 0x0c, 0xbc, 0xb4, 0xfd, 0x11,
  0xf3, 0x32, 0xdd, 0x0c, 0x39, 0xe5, 0xa7, 0xb8, 0x0a, 0xab, 0x15, 0xe0,
  0x27, 0x20, 0x16, 0xac, 0xd9, 0x3d, 0x1c, 0x3e, 0x43, 0xd0, 0xd8, 0xcd,
  0xee, 0xb3, 0x03, 0xcd, 0xbe, 0xc0, 0xdd, 0xe1, 0xe3, 0xb9, 0x05, 0xfc,
  0x10, 0xca, 0xf2, 0xcf, 0x37, 0x19, 0x05, 0xe2, 0x06, 0x27, 0x00, 0x0c,
  0x0f, 0xdb, 0xc9, 0x0d, 0xfc, 0xfc, 0xf1, 0x0c, 0xba, 0x03, 0x2a, 0x46,
  0xff, 0x81, 0xaf, 0xf2, 0xf9, 0xd6, 0x0e, 0x00, 0xe8, 0x0a, 0xd3, 0xf5,
  0x10, 0xec, 0xe9, 0xfc, 0x1d, 0xe2, 0xf0, 0xfd, 0xe3, 0xda, 0xd9, 0xe5,
  0x12, 0xf6, 0x0f, 0x09, 0x0f, 0xef, 0x0a, 0x16, 0xe2, 0xdd, 0x0a, 0xec,
  0xf9, 0x0b, 0x17, 0xf6, 0xe4, 0xf4, 0xed, 0xf7, 0x06, 0x06, 0xe9, 0xfe,
  0xe7, 0xf3, 0x18, 0xca, 0x00, 0xee, 0xf9, 0x9c, 0x2c, 0x06, 0xd6, 0xe0,
  0xe2, 0xde, 0x23, 0x09, 0x1d, 0x28, 0xde, 0x12, 0x15, 0x81, 0x05, 0x1e,
  0x18, 0x00, 0x01, 0xcf, 0x3f, 0xc0, 0x52, 0xfb, 0xac, 0x01, 0x3f, 0x4e,
  0xec, 0xe8, 0x4b, 0x59, 0x8b, 0xdb, 0x2c, 0xb7, 0xa7, 0x05, 0x25, 0xf9,
  0x4f, 0x81, 0x4c, 0x3a, 0x51, 0x21, 0x17, 0xcf, 0x98, 0xf6, 0xdb, 0x44,
  0xc1, 0xcc, 0xae, 0x97, 0x5b, 0xd3, 0x85, 0xdb, 0x1e, 0x23, 0x27, 0xdf,
  0xc2, 0xc4, 0xa7, 0x13, 0x3f, 0xe9, 0x15, 0x2f, 0x9e, 0xbb, 0xfb, 0xca,
  0xda, 0xb2, 0x99, 0xc4, 0x37, 0x34, 0xf9, 0xee, 0x01, 0x51, 0xfd, 0x51,
  0x45, 0x5f, 0x3a, 0x18, 0xe8, 0x38, 0x81, 0x24, 0xd0, 0x17, 0xe8, 0xeb,
  0xcd, 0xf0, 0x20, 0xd6, 0x06, 0x2d, 0x3b, 0xe9, 0x00, 0x3e, 0xea, 0x13,
  0xdc, 0x2b, 0x31, 0xdc, 0x04, 0xd3, 0xca, 0x18, 0xfa, 0xd3, 0x1e, 0xcb,
  0x22, 0xbd, 0xff, 0xd7, 0xc5, 0x04, 0x22, 0xf2, 0xd2, 0xcc, 0xd8, 0xe5,
  0xd2, 0x43, 0xf1, 0xf3, 0xe1, 0x25, 0xd4, 0x2e, 0xfa, 0x27, 0x1f, 0xed,
  0xd3, 0xeb, 0x38, 0x0d, 0xee, 0x1c, 0x19, 0xbc, 0xf1, 0x4d, 0xd4, 0x01,
  0x1f, 0xf8, 0xf0, 0xea, 0xd3, 0xfe, 0xc3, 0x08, 0x4f, 0x13, 0xe8, 0x46,
  0xc2, 0x95, 0xda, 0x10, 0xd6, 0x84, 0x2e, 0xe5, 0x07, 0x56, 0xa8, 0x66,
  0xb7, 0x20, 0x70, 0x55, 0xee, 0xe3, 0x9c, 0x05, 0xe3, 0x44, 0x03, 0x2e,
  0x3b, 0xea, 0xbb, 0x8f, 0xa7, 0x81, 0xd7, 0xc7, 0xb0, 0x38, 0x9f, 0xc4,
  0x27, 0xce, 0xc7, 0xa8, 0xd0, 0xcc, 0x08, 0xd1, 0xc8, 0xca, 0x64, 0x8a,
  0x92, 0xcb, 0x03, 0x98, 0x0a, 0x23, 0x06, 0xee, 0xad, 0x93, 0xfc, 0x94,
  0xc1, 0x10, 0xe4, 0x09, 0x13, 0xe3, 0xbf, 0x35, 0x14, 0xbd, 0xd2, 0x28,
  0x32, 0xd6, 0x52, 0x4a, 0xfc, 0x04, 0x28, 0x5d, 0x15, 0xb4, 0x40, 0xd9,
  0xdc, 0xe1, 0x10, 0x3c, 0x18, 0x05, 0xb8, 0x2c, 0x2d, 0xb8, 0xa0, 0xe5,
  0x17, 0xbf, 0x05, 0xbe, 0x1a, 0xe4, 0x25, 0xaf, 0x01, 0xd6, 0x39, 0x09,
  0xed, 0xcc, 0x4d, 0x20, 0x35, 0xb9, 0x81, 0xd9, 0x09, 0xc1, 0x0c, 0x1e,
  0x04, 0x05, 0x0a, 0xe2, 0x2a, 0x47, 0x1d, 0xec, 0x05, 0xf6, 0xcf, 0x20,
  0xf3, 0x68, 0x1c, 0x41, 0xbf, 0xc8, 0x09, 0xdb, 0xcf, 0x13, 0x23, 0xf6,
  0xf8, 0x21, 0x2b, 0x20, 0xe9, 0xc8, 0x21, 0xd7, 0xf9, 0xfb, 0xf4, 0xfe,
  0xf0, 0x07, 0x08, 0xc8, 0xe7, 0x0a, 0xf7, 0x19, 0xf5, 0x38, 0x11, 0xc7,
  0x14, 0xee, 0x23, 0x2e, 0x2e, 0x2e, 0x22, 0x28, 0xde, 0x00, 0xdb, 0x29,
  0xd0, 0xe5, 0xe3, 0x00, 0x12, 0xbf, 0xe9, 0xf9, 0x2e, 0x38, 0x06, 0xd3,
  0xf4, 0xfa, 0xd7, 0x08, 0x2d, 0xfe, 0x1b, 0xbf, 0x13, 0x2d, 0x2f, 0xd0,
  0xfd, 0x81, 0x03, 0x27, 0xea, 0x17, 0xbd, 0xb7, 0xed, 0x4d, 0xd2, 0xa4,
  0xe9, 0xc6, 0xbc, 0xb5, 0xba, 0xaa, 0x42, 0xaf, 0x05, 0xa8, 0x23, 0xe4,
  0x64, 0xf7, 0xa0, 0xa1, 0xf8, 0xb1, 0x02, 0xa6, 0xf6, 0x9f, 0xd4, 0x4f,
  0x43, 0x4a, 0x8b, 0x5e, 0xd6, 0xab, 0x51, 0xb9, 0x6d, 0x40, 0xdc, 0x56,
  0xdc, 0xb0, 0x99, 0x42, 0xfd, 0x12, 0xfd, 0x81, 0xff, 0x19, 0x40, 0x22,
  0xc2, 0x21, 0x39, 0x63, 0x3c, 0xe8, 0xfd, 0x9d, 0x66, 0x5c, 0xa5, 0x60,
  0xf6, 0xd9, 0xbf, 0xcc, 0x24, 0xe1, 0xe9, 0xe2, 0x0f, 0x51, 0x40, 0x5e,
  0xe4, 0xf5, 0xfa, 0x98, 0x46, 0x39, 0xcd, 0xb0, 0x11, 0xd2, 0xc4, 0xb6,
  0x52, 0xa7, 0x15, 0x57, 0xf0, 0x54, 0x8e, 0x5d, 0x48, 0x5a, 0x04, 0xd9,
  0xe0, 0xc1, 0x08, 0x8f, 0x22, 0x02, 0x48, 0xad, 0x2a, 0x0f, 0x5e, 0x40,
  0x35, 0x18, 0xe4, 0x33, 0xb6, 0x10, 0x00, 0xb0, 0x1c, 0xad, 0x89, 0xd0,
  0x81, 0x9c, 0x9a, 0xc5, 0xeb, 0x0b, 0x15, 0x32, 0x27, 0x22, 0xb7, 0xdf,
  0x14, 0xfa, 0xf5, 0x33, 0xf0, 0x37, 0x11, 0xfe, 0xf9, 0xd5, 0x0c, 0x2a,
  0x13, 0xcd, 0xe4, 0xdf, 0xea, 0xdd, 0xca, 0x15, 0xf4, 0x20, 0xe1, 0x13,
  0xf5, 0xff, 0x17, 0xda, 0x26, 0x36, 0x09, 0xfa, 0x41, 0x27, 0xf0, 0x31,
  0x04, 0x06, 0x06, 0x07, 0x35, 0x1d, 0x1b, 0xd0, 0x23, 0xb6, 0x21, 0xf7,
  0x03, 0xb5, 0x36, 0x13, 0xf1, 0x07, 0x0b, 0xf4, 0xcd, 0x26, 0xeb, 0x2a,
  0x3f, 0xf6, 0x12, 0xf7, 0x0c, 0x01, 0xcf, 0xb8, 0xcd, 0x2c, 0xd8, 0xf6,
  0x21, 0x81, 0x0b, 0x11, 0xa2, 0x0e, 0xc6, 0x42, 0x3f, 0xa4, 0x22, 0xb3,
  0x2e, 0x95, 0xde, 0x20, 0x23, 0xaf, 0x05, 0xa3, 0x56, 0x86, 0x36, 0x9d,
  0x31, 0xa5, 0x93, 0xf2, 0xa5, 0x1b, 0x3d, 0xea, 0x89, 0xab, 0x9a, 0x09,
  0x48, 0xd1, 0xa5, 0xdd, 0xbd, 0xa4, 0xf6, 0xb5, 0xc7, 0xb6, 0x11, 0x4b,
  0xdf, 0xad, 0x38, 0xf9, 0x9e, 0x12, 0x05, 0xc4, 0x81, 0xf9, 0x1d, 0x10,
  0x41, 0x4f, 0xfa, 0x06, 0x5d, 0x5c, 0x5e, 0x40, 0xcd, 0xe7, 0xfc, 0x68,
  0xd8, 0xc2, 0x29, 0xfb, 0xfd, 0xea, 0x21, 0xc8, 0x06, 0x27, 0xe7, 0x38,
  0x0a, 0xcc, 0xe6, 0xfa, 0xb6, 0xbb, 0xed, 0x17, 0x1e, 0xd9, 0xd0, 0xdc,
  0xed, 0xf3, 0xb5, 0x1f, 0x2e, 0xb7, 0xc9, 0x96, 0x29, 0x3c, 0x11, 0xc8,
  0x1c, 0xd6, 0xbf, 0x0c, 0xc9, 0xb1, 0xac, 0x0b, 0x3b, 0xa2, 0xaf, 0x3e,
  0xda, 0x81, 0xbe, 0xe4, 0x1f, 0xfd, 0xdc, 0x12, 0x3d, 0x46, 0xda, 0xfc,
  0xf0, 0xbc, 0xcc, 0x45, 0xe2, 0x9d, 0xe7, 0xf9, 0x09, 0x25, 0x14, 0x15,
  0xb6, 0x8f, 0x41, 0xc4, 0x9b, 0x04, 0x33, 0xb7, 0x4b, 0x02, 0x8b, 0xdd,
  0x10, 0xa4, 0x20, 0xea, 0x2d, 0x1e, 0x10, 0xf2, 0x1a, 0x58, 0xac, 0x3a,
  0xdf, 0x84, 0xc3, 0x25, 0xb2, 0xa2, 0xd2, 0x1b, 0xf5, 0xed, 0x52, 0x0b,
  0xa3, 0xa3, 0xfa, 0x18, 0x0a, 0x56, 0x2f, 0xfd, 0xdb, 0x0e, 0xb1, 0x65,
  0x4f, 0x8e, 0x3f, 0xde, 0x33, 0xd0, 0xbf, 0xa1, 0xba, 0x25, 0x93, 0xfd,
  0xab, 0x17, 0xf2, 0x02, 0x13, 0x13, 0x0b, 0xea, 0xe4, 0x0b, 0x20, 0x3c,
  0x68, 0x81, 0x0f, 0xa8, 0x33, 0x1b, 0x2b, 0x10, 0x12, 0x19, 0xe9, 0xe4,
  0xdb, 0xf2, 0xeb, 0x01, 0xe3, 0xed, 0xc7, 0x00, 0x11, 0xfe, 0xde, 0x20,
  0x04, 0xf1, 0x19, 0xd7, 0x1a, 0x15, 0xf6, 0xd6, 0xeb, 0xf4, 0x02, 0xf6,
  0xeb, 0x0c, 0xfe, 0x20, 0xfc, 0xdd, 0x15, 0xf0, 0xd2, 0xfa, 0xe0, 0xfd,
  0x0c, 0xc3, 0x1e, 0x0a, 0xd7, 0xed, 0x0a, 0x19, 0x16, 0x0d, 0xd6, 0x0a,
  0x1a, 0xd7, 0x16, 0x20, 0xee, 0x0d, 0x24, 0x02, 0xd1, 0x16, 0x05, 0xdf,
  0xf1, 0x81, 0x0a, 0x29, 0xb0, 0xae, 0x2c, 0x55, 0xfb, 0x51, 0xa9, 0xe7,
  0x96, 0x00, 0xbb, 0x10, 0x92, 0x25, 0xbe, 0xee, 0x47, 0xf6, 0xf2, 0xb5,
  0x2b, 0xfe, 0xa9, 0xe0, 0x21, 0x37, 0x3d, 0xd2, 0xee, 0x2b, 0x17, 0xe2,
  0x99, 0xc9, 0x19, 0x9d, 0xc8, 0xc7, 0xb3, 0x87, 0x43, 0xe2, 0x59, 0xad,
  0xf3, 0xa9, 0xcd, 0x5e, 0xb4, 0x19, 0x0b, 0x5f, 0xf0, 0x2e, 0xcb, 0xfe,
  0x12, 0x88, 0x81, 0x9b, 0xda, 0x59, 0xde, 0x47, 0xa6, 0xd8, 0xcb, 0x9c,
  0xe3, 0xc5, 0xbd, 0xb2, 0x1b, 0x5e, 0xab, 0xac, 0x3c, 0xbe, 0xf3, 0xa6,
  0x1b, 0xa4, 0xfe, 0x38, 0xc5, 0x31, 0xeb, 0xad, 0x1a, 0x08, 0x1b, 0xbf,
  0x02, 0xb8, 0xb0, 0x48, 0xdc, 0xba, 0x81, 0x2c, 0xe4, 0xca, 0xe0, 0x1d,
  0x18, 0xb3, 0xb6, 0xde, 0xdc, 0x1a, 0x46, 0x14, 0x63, 0x57, 0xc1, 0x63,
  0xc7, 0x96, 0x6c, 0x25, 0x1a, 0x50, 0xfd, 0x08, 0x6d, 0xca, 0x4d, 0x45,
  0xf9, 0x25, 0x59, 0xf8, 0x09, 0x3b, 0x67, 0x64, 0x6b, 0xe1, 0xc2, 0xb9,
  0x08, 0xee, 0x74, 0xc4, 0x8e, 0xd8, 0xc0, 0x00, 0x8a, 0x28, 0xca, 0xdc,
  0x4a, 0x4d, 0x50, 0x5c, 0x55, 0x06, 0x3d, 0x4f, 0xdc, 0x12, 0x34, 0x16,
  0x09, 0xb7, 0x02, 0x1e, 0xbd, 0x65, 0x9d, 0x5f, 0x1a, 0x09, 0xc4, 0x32,
  0x92, 0xbe, 0xd4, 0xdf, 0xc3, 0xcb, 0x82, 0x8b, 0xcb, 0x60, 0x97, 0x14,
  0xda, 0xbc, 0x38, 0x12, 0xfd, 0xf9, 0xf7, 0x61, 0x3d, 0xc8, 0x2e, 0x11,
  0x02, 0x40, 0xf4, 0xc7, 0x09, 0xa7, 0x41, 0xca, 0xd0, 0x86, 0x4b, 0x35,
  0xe9, 0x91, 0xe5, 0x81, 0xbf, 0xfe, 0xc0, 0x2c, 0xfe, 0xbc, 0x3d, 0xf0,
  0xf1, 0xe3, 0x3b, 0xf4, 0xc2, 0xfd, 0x01, 0xe4, 0x47, 0x7f, 0xe7, 0xf3,
  0xe9, 0x3f, 0xec, 0x24, 0xdb, 0x1d, 0x04, 0x3d, 0x2e, 0xda, 0xb8, 0x12,
  0x07, 0xca, 0x24, 0xe6, 0x30, 0x16, 0x14, 0x29, 0x3e, 0x0c, 0xe7, 0x05,
  0xd3, 0x4a, 0xfa, 0x26, 0x2a, 0x3a, 0xa5, 0x1c, 0xe1, 0xf6, 0xdd, 0x2f,
  0xf5, 0x07, 0x2c, 0x37, 0x4f, 0x20, 0x1b, 0x21, 0xec, 0x45, 0x1b, 0x2c,
  0x14, 0x38, 0x32, 0xce, 0x76, 0xfe, 0xff, 0xff, 0x04, 0x00, 0x00, 0x00,
  0x18, 0x00, 0x00, 0x00, 0x1b, 0xd3, 0x07, 0xb2, 0x3c, 0x22, 0xf3, 0x80,
  0x37, 0x7f, 0xb4, 0xe2, 0xe9, 0xe1, 0x05, 0x39, 0xf9, 0xc5, 0xe1, 0x44,
  0xf8, 0xe7, 0xf5, 0x49, 0x9a, 0xfe, 0xff, 0xff, 0x04, 0x00, 0x00, 0x00,
  0x18, 0x00, 0x00, 0x00, 0x03, 0x30, 0x8a, 0x34, 0xcd, 0x8b, 0x4a, 0xa7,
  0x04, 0xf7, 0x4f, 0xf5, 0x7f, 0xb1, 0x5b, 0x3e, 0x41, 0x41, 0x5c, 0x0d,
  0x53, 0xd6, 0x71, 0xfc, 0xbe, 0xfe, 0xff, 0xff, 0x04, 0x00, 0x00, 0x00,
  0x04, 0x00, 0x00, 0x00, 0xbf, 0xfa, 0xff, 0xff, 0xce, 0xfe, 0xff, 0xff,
  0x04, 0x00, 0x00, 0x00, 0x0c, 0x00, 0x00, 0x00, 0x01, 0x00, 0x00, 0x00,
  0x01, 0x00, 0x00, 0x00, 0x01, 0x00, 0x00, 0x00, 0xe6, 0xfe, 0xff, 0xff,
  0x04, 0x00, 0x00, 0x00, 0x0c, 0x00, 0x00, 0x00, 0x00, 0x00, 0x00, 0x00,
  0x00, 0x00, 0x00, 0x00, 0x00, 0x00, 0x00, 0x00, 0xfe, 0xfe, 0xff, 0xff,
  0x04, 0x00, 0x00, 0x00, 0x0c, 0x00, 0x00, 0x00, 0x00, 0x00, 0x00, 0x00,
  0xff, 0xff, 0xff, 0xff, 0x00, 0x00, 0x00, 0x00, 0x16, 0xff, 0xff, 0xff,
  0x04, 0x00, 0x00, 0x00, 0x0c, 0x00, 0x00, 0x00, 0xff, 0xff, 0xff, 0xff,
  0x06, 0x00, 0x00, 0x00, 0x18, 0x00, 0x00, 0x00, 0x2e, 0xff, 0xff, 0xff,
  0x04, 0x00, 0x00, 0x00, 0x04, 0x00, 0x00, 0x00, 0x04, 0x00, 0x00, 0x00,
  0x3e, 0xff, 0xff, 0xff, 0x04, 0x00, 0x00, 0x00, 0x18, 0x00, 0x00, 0x00,
  0x00, 0x00, 0x00, 0x00, 0x00, 0x00, 0x00, 0x00, 0x08, 0x00, 0x00, 0x00,
  0x00, 0x00, 0x00, 0x00, 0x00, 0x00, 0x00, 0x00, 0x00, 0x00, 0x00, 0x00,
  0x62, 0xff, 0xff, 0xff, 0x04, 0x00, 0x00, 0x00, 0x0c, 0x00, 0x00, 0x00,
  0xff, 0xff, 0xff, 0xff, 0x0c, 0x00, 0x00, 0x00, 0x18, 0x00, 0x00, 0x00,
  0x7a, 0xff, 0xff, 0xff, 0x04, 0x00, 0x00, 0x00, 0x08, 0x00, 0x00, 0x00,
  0x00, 0x00, 0x00, 0x00, 0x00, 0x00, 0x00, 0x00, 0x8e, 0xff, 0xff, 0xff,
  0x04, 0x00, 0x00, 0x00, 0x04, 0x00, 0x00, 0x00, 0x02, 0x00, 0x00, 0x00,
  0x9e, 0xff, 0xff, 0xff, 0x04, 0x00, 0x00, 0x00, 0x18, 0x00, 0x00, 0x00,
  0x00, 0x00, 0x00, 0x00, 0x00, 0x00, 0x00, 0x00, 0x04, 0x00, 0x00, 0x00,
  0x00, 0x00, 0x00, 0x00, 0x00, 0x00, 0x00, 0x00, 0x00, 0x00, 0x00, 0x00,
  0xc2, 0xff, 0xff, 0xff, 0x04, 0x00, 0x00, 0x00, 0x18, 0x00, 0x00, 0x00,
  0x00, 0x00, 0x00, 0x00, 0x00, 0x00, 0x00, 0x00, 0x02, 0x00, 0x00, 0x00,
  0x00, 0x00, 0x00, 0x00, 0x00, 0x00, 0x00, 0x00, 0x00, 0x00, 0x00, 0x00,
  0xe6, 0xff, 0xff, 0xff, 0x04, 0x00, 0x00, 0x00, 0x0c, 0x00, 0x00, 0x00,
  0xff, 0xff, 0xff, 0xff, 0x18, 0x00, 0x00, 0x00, 0x18, 0x00, 0x00, 0x00,
  0x00, 0x00, 0x06, 0x00, 0x08, 0x00, 0x04, 0x00, 0x06, 0x00, 0x00, 0x00,
  0x04, 0x00, 0x00, 0x00, 0x04, 0x00, 0x00, 0x00, 0xfd, 0xff, 0xff, 0xff,
  0xd8, 0xbe, 0xff, 0xff, 0xdc, 0xbe, 0xff, 0xff, 0x0f, 0x00, 0x00, 0x00,
  0x4d, 0x4c, 0x49, 0x52, 0x20, 0x43, 0x6f, 0x6e, 0x76, 0x65, 0x72, 0x74,
  0x65, 0x64, 0x2e, 0x00, 0x01, 0x00, 0x00, 0x00, 0x14, 0x00, 0x00, 0x00,
  0x00, 0x00, 0x0e, 0x00, 0x18, 0x00, 0x14, 0x00, 0x10, 0x00, 0x0c, 0x00,
  0x08, 0x00, 0x04, 0x00, 0x0e, 0x00, 0x00, 0x00, 0x14, 0x00, 0x00, 0x00,
  0x1c, 0x00, 0x00, 0x00, 0x60, 0x09, 0x00, 0x00, 0x64, 0x09, 0x00, 0x00,
  0x68, 0x09, 0x00, 0x00, 0x04, 0x00, 0x00, 0x00, 0x6d, 0x61, 0x69, 0x6e,
  0x00, 0x00, 0x00, 0x00, 0x2c, 0x00, 0x00, 0x00, 0x18, 0x09, 0x00, 0x00,
  0xbc, 0x08, 0x00, 0x00, 0x84, 0x08, 0x00, 0x00, 0x44, 0x08, 0x00, 0x00,
  0x14, 0x08, 0x00, 0x00, 0xc0, 0x07, 0x00, 0x00, 0x98, 0x07, 0x00, 0x00,
  0x64, 0x07, 0x00, 0x00, 0x34, 0x07, 0x00, 0x00, 0xec, 0x06, 0x00, 0x00,
  0xb8, 0x06, 0x00, 0x00, 0x90, 0x06, 0x00, 0x00, 0x5c, 0x06, 0x00, 0x00,
  0x30, 0x06, 0x00, 0x00, 0x00, 0x06, 0x00, 0x00, 0xb0, 0x05, 0x00, 0x00,
  0x88, 0x05, 0x00, 0x00, 0x5c, 0x05, 0x00, 0x00, 0x1c, 0x05, 0x00, 0x00,
  0xe8, 0x04, 0x00, 0x00, 0xbc, 0x04, 0x00, 0x00, 0x8c, 0x04, 0x00, 0x00,
  0x48, 0x04, 0x00, 0x00, 0x20, 0x04, 0x00, 0x00, 0xf4, 0x03, 0x00, 0x00,
  0xbc, 0x03, 0x00, 0x00, 0x88, 0x03, 0x00, 0x00, 0x54, 0x03, 0x00, 0x00,
  0x28, 0x03, 0x00, 0x00, 0xf8, 0x02, 0x00, 0x00, 0xb4, 0x02, 0x00, 0x00,
  0x8c, 0x02, 0x00, 0x00, 0x60, 0x02, 0x00, 0x00, 0x28, 0x02, 0x00, 0x00,
  0xf4, 0x01, 0x00, 0x00, 0xc8, 0x01, 0x00, 0x00, 0x98, 0x01, 0x00, 0x00,
  0x54, 0x01, 0x00, 0x00, 0x2c, 0x01, 0x00, 0x00, 0x00, 0x01, 0x00, 0x00,
  0xc8, 0x00, 0x00, 0x00, 0x94, 0x00, 0x00, 0x00, 0x3c, 0x00, 0x00, 0x00,
  0x04, 0x00, 0x00, 0x00, 0xfe, 0xf7, 0xff, 0xff, 0x14, 0x00, 0x00, 0x00,
  0x00, 0x00, 0x00, 0x08, 0x10, 0x00, 0x00, 0x00, 0x14, 0x00, 0x00, 0x00,
  0x08, 0x00, 0x00, 0x00, 0xfc, 0xbf, 0xff, 0xff, 0x01, 0x00, 0x00, 0x00,
  0x4d, 0x00, 0x00, 0x00, 0x03, 0x00, 0x00, 0x00, 0x4c, 0x00, 0x00, 0x00,
  0x0f, 0x00, 0x00, 0x00, 0x0e, 0x00, 0x00, 0x00, 0x32, 0xf8, 0xff, 0xff,
  0x24, 0x00, 0x00, 0x00, 0x00, 0x00, 0x00, 0x20, 0x2c, 0x00, 0x00, 0x00,
  0x30, 0x00, 0x00, 0x00, 0x07, 0x00, 0x00, 0x00, 0x00, 0x00, 0x0e, 0x00,
  0x10, 0x00, 0x0c, 0x00, 0x08, 0x00, 0x00, 0x00, 0x00, 0x00, 0x04, 0x00,
  0x0e, 0x00, 0x00, 0x00, 0x02, 0x00, 0x00, 0x00, 0x05, 0x00, 0x00, 0x00,
  0x05, 0x00, 0x00, 0x00, 0x01, 0x00, 0x00, 0x00, 0x4c, 0x00, 0x00, 0x00,
  0x04, 0x00, 0x00, 0x00, 0x4b, 0x00, 0x00, 0x00, 0x0b, 0x00, 0x00, 0x00,
  0x0c, 0x00, 0x00, 0x00, 0x0d, 0x00, 0x00, 0x00, 0x86, 0xf8, 0xff, 0xff,
  0x14, 0x00, 0x00, 0x00, 0x00, 0x00, 0x00, 0x0b, 0x10, 0x00, 0x00, 0x00,
  0x14, 0x00, 0x00, 0x00, 0x04, 0x00, 0x00, 0x00, 0x84, 0xc0, 0xff, 0xff,
  0x01, 0x00, 0x00, 0x00, 0x4b, 0x00, 0x00, 0x00, 0x02, 0x00, 0x00, 0x00,
  0x3c, 0x00, 0x00, 0x00, 0x4a, 0x00, 0x00, 0x00, 0xb6, 0xf8, 0xff, 0xff,
  0x14, 0x00, 0x00, 0x00, 0x00, 0x00, 0x00, 0x0b, 0x14, 0x00, 0x00, 0x00,
  0x18, 0x00, 0x00, 0x00, 0x04, 0x00, 0x00, 0x00, 0x02, 0xfc, 0xff, 0xff,
  0x00, 0x00, 0x00, 0x01, 0x01, 0x00, 0x00, 0x00, 0x4a, 0x00, 0x00, 0x00,
  0x02, 0x00, 0x00, 0x00, 0x49, 0x00, 0x00, 0x00, 0x10, 0x00, 0x00, 0x00,
  0x1a, 0xf9, 0xff, 0xff, 0x0c, 0x00, 0x00, 0x00, 0x10, 0x00, 0x00, 0x00,
  0x06, 0x00, 0x00, 0x00, 0x01, 0x00, 0x00, 0x00, 0x49, 0x00, 0x00, 0x00,
  0x03, 0x00, 0x00, 0x00, 0x48, 0x00, 0x00, 0x00, 0x09, 0x00, 0x00, 0x00,
  0x06, 0x00, 0x00, 0x00, 0x42, 0xf9, 0xff, 0xff, 0x0c, 0x00, 0x00, 0x00,
  0x10, 0x00, 0x00, 0x00, 0x02, 0x00, 0x00, 0x00, 0x01, 0x00, 0x00, 0x00,
  0x48, 0x00, 0x00, 0x00, 0x02, 0x00, 0x00, 0x00, 0x47, 0x00, 0x00, 0x00,
  0x0a, 0x00, 0x00, 0x00, 0x36, 0xf9, 0xff, 0xff, 0x14, 0x00, 0x00, 0x00,
  0x00, 0x00, 0x00, 0x01, 0x1c, 0x00, 0x00, 0x00, 0x20, 0x00, 0x00, 0x00,
  0x01, 0x00, 0x00, 0x00, 0xfa, 0xfb, 0xff, 0xff, 0x01, 0x00, 0x00, 0x00,
  0x01, 0x00, 0x00, 0x00, 0x00, 0x00, 0x00, 0x01, 0x01, 0x00, 0x00, 0x00,
  0x47, 0x00, 0x00, 0x00, 0x03, 0x00, 0x00, 0x00, 0x46, 0x00, 0x00, 0x00,
  0x11, 0x00, 0x00, 0x00, 0x1a, 0x00, 0x00, 0x00, 0x1e, 0xf9, 0xff, 0xff,
  0x10, 0x00, 0x00, 0x00, 0x00, 0x00, 0x00, 0x34, 0x0c, 0x00, 0x00, 0x00,
  0x10, 0x00, 0x00, 0x00, 0x70, 0xc1, 0xff, 0xff, 0x01, 0x00, 0x00, 0x00,
  0x46, 0x00, 0x00, 0x00, 0x02, 0x00, 0x00, 0x00, 0x45, 0x00, 0x00, 0x00,
  0x01, 0x00, 0x00, 0x00, 0xd2, 0xf9, 0xff, 0xff, 0x0c, 0x00, 0x00, 0x00,
  0x10, 0x00, 0x00, 0x00, 0x05, 0x00, 0x00, 0x00, 0x01, 0x00, 0x00, 0x00,
  0x45, 0x00, 0x00, 0x00, 0x03, 0x00, 0x00, 0x00, 0x44, 0x00, 0x00, 0x00,
  0x09, 0x00, 0x00, 0x00, 0x06, 0x00, 0x00, 0x00, 0xca, 0xf9, 0xff, 0xff,
  0x14, 0x00, 0x00, 0x00, 0x00, 0x00, 0x00, 0x16, 0x10, 0x00, 0x00, 0x00,
  0x14, 0x00, 0x00, 0x00, 0x03, 0x00, 0x00, 0x00, 0xc8, 0xc1, 0xff, 0xff,
  0x01, 0x00, 0x00, 0x00, 0x44, 0x00, 0x00, 0x00, 0x02, 0x00, 0x00, 0x00,
  0x43, 0x00, 0x00, 0x00, 0x08, 0x00, 0x00, 0x00, 0xfa, 0xf9, 0xff, 0xff,
  0x14, 0x00, 0x00, 0x00, 0x00, 0x00, 0x00, 0x0b, 0x14, 0x00, 0x00, 0x00,
  0x18, 0x00, 0x00, 0x00, 0x04, 0x00, 0x00, 0x00, 0x46, 0xfd, 0xff, 0xff,
  0x00, 0x00, 0x00, 0x01, 0x01, 0x00, 0x00, 0x00, 0x43, 0x00, 0x00, 0x00,
  0x02, 0x00, 0x00, 0x00, 0x42, 0x00, 0x00, 0x00, 0x12, 0x00, 0x00, 0x00,
  0x5e, 0xfa, 0xff, 0xff, 0x0c, 0x00, 0x00, 0x00, 0x10, 0x00, 0x00, 0x00,
  0x06, 0x00, 0x00, 0x00, 0x01, 0x00, 0x00, 0x00, 0x42, 0x00, 0x00, 0x00,
  0x03, 0x00, 0x00, 0x00, 0x41, 0x00, 0x00, 0x00, 0x09, 0x00, 0x00, 0x00,
  0x06, 0x00, 0x00, 0x00, 0x86, 0xfa, 0xff, 0xff, 0x0c, 0x00, 0x00, 0x00,
  0x10, 0x00, 0x00, 0x00, 0x02, 0x00, 0x00, 0x00, 0x01, 0x00, 0x00, 0x00,
  0x41, 0x00, 0x00, 0x00, 0x02, 0x00, 0x00, 0x00, 0x40, 0x00, 0x00, 0x00,
  0x0a, 0x00, 0x00, 0x00, 0x7a, 0xfa, 0xff, 0xff, 0x14, 0x00, 0x00, 0x00,
  0x00, 0x00, 0x00, 0x01, 0x1c, 0x00, 0x00, 0x00, 0x20, 0x00, 0x00, 0x00,
  0x01, 0x00, 0x00, 0x00, 0x3e, 0xfd, 0xff, 0xff, 0x01, 0x00, 0x00, 0x00,
  0x01, 0x00, 0x00, 0x00, 0x00, 0x00, 0x00, 0x01, 0x01, 0x00, 0x00, 0x00,
  0x40, 0x00, 0x00, 0x00, 0x03, 0x00, 0x00, 0x00, 0x3f, 0x00, 0x00, 0x00,
  0x13, 0x00, 0x00, 0x00, 0x19, 0x00, 0x00, 0x00, 0x62, 0xfa, 0xff, 0xff,
  0x10, 0x00, 0x00, 0x00, 0x00, 0x00, 0x00, 0x34, 0x0c, 0x00, 0x00, 0x00,
  0x10, 0x00, 0x00, 0x00, 0xb4, 0xc2, 0xff, 0xff, 0x01, 0x00, 0x00, 0x00,
  0x3f, 0x00, 0x00, 0x00, 0x02, 0x00, 0x00, 0x00, 0x3e, 0x00, 0x00, 0x00,
  0x01, 0x00, 0x00, 0x00, 0x16, 0xfb, 0xff, 0xff, 0x0c, 0x00, 0x00, 0x00,
  0x10, 0x00, 0x00, 0x00, 0x05, 0x00, 0x00, 0x00, 0x01, 0x00, 0x00, 0x00,
  0x3e, 0x00, 0x00, 0x00, 0x03, 0x00, 0x00, 0x00, 0x3d, 0x00, 0x00, 0x00,
  0x09, 0x00, 0x00, 0x00, 0x06, 0x00, 0x00, 0x00, 0x0e, 0xfb, 0xff, 0xff,
  0x14, 0x00, 0x00, 0x00, 0x00, 0x00, 0x00, 0x16, 0x10, 0x00, 0x00, 0x00,
  0x14, 0x00, 0x00, 0x00, 0x03, 0x00, 0x00, 0x00, 0x0c, 0xc3, 0xff, 0xff,
  0x01, 0x00, 0x00, 0x00, 0x3d, 0x00, 0x00, 0x00, 0x02, 0x00, 0x00, 0x00,
  0x3c, 0x00, 0x00, 0x00, 0x08, 0x00, 0x00, 0x00, 0x3e, 0xfb, 0xff, 0xff,
  0x14, 0x00, 0x00, 0x00, 0x00, 0x00, 0x00, 0x0b, 0x10, 0x00, 0x00, 0x00,
  0x14, 0x00, 0x00, 0x00, 0x04, 0x00, 0x00, 0x00, 0x3c, 0xc3, 0xff, 0xff,
  0x01, 0x00, 0x00, 0x00, 0x3c, 0x00, 0x00, 0x00, 0x02, 0x00, 0x00, 0x00,
  0x2d, 0x00, 0x00, 0x00, 0x3b, 0x00, 0x00, 0x00, 0x6e, 0xfb, 0xff, 0xff,
  0x14, 0x00, 0x00, 0x00, 0x00, 0x00, 0x00, 0x0b, 0x14, 0x00, 0x00, 0x00,
  0x18, 0x00, 0x00, 0x00, 0x04, 0x00, 0x00, 0x00, 0xba, 0xfe, 0xff, 0xff,
  0x00, 0x00, 0x00, 0x01, 0x01, 0x00, 0x00, 0x00, 0x3b, 0x00, 0x00, 0x00,
  0x02, 0x00, 0x00, 0x00, 0x3a, 0x00, 0x00, 0x00, 0x14, 0x00, 0x00, 0x00,
  0xd2, 0xfb, 0xff, 0xff, 0x0c, 0x00, 0x00, 0x00, 0x10, 0x00, 0x00, 0x00,
  0x06, 0x00, 0x00, 0x00, 0x01, 0x00, 0x00, 0x00, 0x3a, 0x00, 0x00, 0x00,
  0x03, 0x00, 0x00, 0x00, 0x39, 0x00, 0x00, 0x00, 0x05, 0x00, 0x00, 0x00,
  0x06, 0x00, 0x00, 0x00, 0xfa, 0xfb, 0xff, 0xff, 0x0c, 0x00, 0x00, 0x00,
  0x10, 0x00, 0x00, 0x00, 0x02, 0x00, 0x00, 0x00, 0x01, 0x00, 0x00, 0x00,
  0x39, 0x00, 0x00, 0x00, 0x02, 0x00, 0x00, 0x00, 0x38, 0x00, 0x00, 0x00,
  0x07, 0x00, 0x00, 0x00, 0xee, 0xfb, 0xff, 0xff, 0x14, 0x00, 0x00, 0x00,
  0x00, 0x00, 0x00, 0x01, 0x1c, 0x00, 0x00, 0x00, 0x20, 0x00, 0x00, 0x00,
  0x01, 0x00, 0x00, 0x00, 0xb2, 0xfe, 0xff, 0xff, 0x01, 0x00, 0x00, 0x00,
  0x01, 0x00, 0x00, 0x00, 0x00, 0x00, 0x00, 0x01, 0x01, 0x00, 0x00, 0x00,
  0x38, 0x00, 0x00, 0x00, 0x03, 0x00, 0x00, 0x00, 0x37, 0x00, 0x00, 0x00,
  0x15, 0x00, 0x00, 0x00, 0x18, 0x00, 0x00, 0x00, 0xd6, 0xfb, 0xff, 0xff,
  0x10, 0x00, 0x00, 0x00, 0x00, 0x00, 0x00, 0x34, 0x0c, 0x00, 0x00, 0x00,
  0x10, 0x00, 0x00, 0x00, 0x28, 0xc4, 0xff, 0xff, 0x01, 0x00, 0x00, 0x00,
  0x37, 0x00, 0x00, 0x00, 0x02, 0x00, 0x00, 0x00, 0x36, 0x00, 0x00, 0x00,
  0x01, 0x00, 0x00, 0x00, 0x8a, 0xfc, 0xff, 0xff, 0x0c, 0x00, 0x00, 0x00,
  0x10, 0x00, 0x00, 0x00, 0x05, 0x00, 0x00, 0x00, 0x01, 0x00, 0x00, 0x00,
  0x36, 0x00, 0x00, 0x00, 0x03, 0x00, 0x00, 0x00, 0x35, 0x00, 0x00, 0x00,
  0x05, 0x00, 0x00, 0x00, 0x06, 0x00, 0x00, 0x00, 0x82, 0xfc, 0xff, 0xff,
  0x14, 0x00, 0x00, 0x00, 0x00, 0x00, 0x00, 0x16, 0x10, 0x00, 0x00, 0x00,
  0x14, 0x00, 0x00, 0x00, 0x03, 0x00, 0x00, 0x00, 0x80, 0xc4, 0xff, 0xff,
  0x01, 0x00, 0x00, 0x00, 0x35, 0x00, 0x00, 0x00, 0x02, 0x00, 0x00, 0x00,
  0x34, 0x00, 0x00, 0x00, 0x04, 0x00, 0x00, 0x00, 0xb2, 0xfc, 0xff, 0xff,
  0x1c, 0x00, 0x00, 0x00, 0x00, 0x00, 0x00, 0x0b, 0x1c, 0x00, 0x00, 0x00,
  0x20, 0x00, 0x00, 0x00, 0x04, 0x00, 0x00, 0x00, 0x00, 0x00, 0x06, 0x00,
  0x08, 0x00, 0x07, 0x00, 0x06, 0x00, 0x00, 0x00, 0x00, 0x00, 0x00, 0x01,
  0x01, 0x00, 0x00, 0x00, 0x34, 0x00, 0x00, 0x00, 0x02, 0x00, 0x00, 0x00,
  0x33, 0x00, 0x00, 0x00, 0x16, 0x00, 0x00, 0x00, 0x1e, 0xfd, 0xff, 0xff,
  0x0c, 0x00, 0x00, 0x00, 0x10, 0x00, 0x00, 0x00, 0x06, 0x00, 0x00, 0x00,
  0x01, 0x00, 0x00, 0x00, 0x33, 0x00, 0x00, 0x00, 0x03, 0x00, 0x00, 0x00,
  0x32, 0x00, 0x00, 0x00, 0x05, 0x00, 0x00, 0x00, 0x06, 0x00, 0x00, 0x00,
  0x46, 0xfd, 0xff, 0xff, 0x0c, 0x00, 0x00, 0x00, 0x10, 0x00, 0x00, 0x00,
  0x02, 0x00, 0x00, 0x00, 0x01, 0x00, 0x00, 0x00, 0x32, 0x00, 0x00, 0x00,
  0x02, 0x00, 0x00, 0x00, 0x31, 0x00, 0x00, 0x00, 0x07, 0x00, 0x00, 0x00,
  0x3a, 0xfd, 0xff, 0xff, 0x20, 0x00, 0x00, 0x00, 0x00, 0x00, 0x00, 0x01,
  0x28, 0x00, 0x00, 0x00, 0x2c, 0x00, 0x00, 0x00, 0x01, 0x00, 0x00, 0x00,
  0x00, 0x00, 0x0a, 0x00, 0x10, 0x00, 0x0f, 0x00, 0x08, 0x00, 0x04, 0x00,
  0x0a, 0x00, 0x00, 0x00, 0x01, 0x00, 0x00, 0x00, 0x01, 0x00, 0x00, 0x00,
  0x00, 0x00, 0x00, 0x01, 0x01, 0x00, 0x00, 0x00, 0x31, 0x00, 0x00, 0x00,
  0x03, 0x00, 0x00, 0x00, 0x30, 0x00, 0x00, 0x00, 0x1b, 0x00, 0x00, 0x00,
  0x17, 0x00, 0x00, 0x00, 0x2e, 0xfd, 0xff, 0xff, 0x10, 0x00, 0x00, 0x00,
  0x00, 0x00, 0x00, 0x34, 0x0c, 0x00, 0x00, 0x00, 0x10, 0x00, 0x00, 0x00,
  0x80, 0xc5, 0xff, 0xff, 0x01, 0x00, 0x00, 0x00, 0x30, 0x00, 0x00, 0x00,
  0x02, 0x00, 0x00, 0x00, 0x2f, 0x00, 0x00, 0x00, 0x01, 0x00, 0x00, 0x00,
  0xe2, 0xfd, 0xff, 0xff, 0x0c, 0x00, 0x00, 0x00, 0x10, 0x00, 0x00, 0x00,
  0x05, 0x00, 0x00, 0x00, 0x01, 0x00, 0x00, 0x00, 0x2f, 0x00, 0x00, 0x00,
  0x03, 0x00, 0x00, 0x00, 0x2e, 0x00, 0x00, 0x00, 0x05, 0x00, 0x00, 0x00,
  0x06, 0x00, 0x00, 0x00, 0xda, 0xfd, 0xff, 0xff, 0x14, 0x00, 0x00, 0x00,
  0x00, 0x00, 0x00, 0x16, 0x10, 0x00, 0x00, 0x00, 0x14, 0x00, 0x00, 0x00,
  0x03, 0x00, 0x00, 0x00, 0xd8, 0xc5, 0xff, 0xff, 0x01, 0x00, 0x00, 0x00,
  0x2e, 0x00, 0x00, 0x00, 0x02, 0x00, 0x00, 0x00, 0x2d, 0x00, 0x00, 0x00,
  0x04, 0x00, 0x00, 0x00, 0x3a, 0xfe, 0xff, 0xff, 0x0c, 0x00, 0x00, 0x00,
  0x10, 0x00, 0x00, 0x00, 0x02, 0x00, 0x00, 0x00, 0x01, 0x00, 0x00, 0x00,
  0x2d, 0x00, 0x00, 0x00, 0x02, 0x00, 0x00, 0x00, 0x2c, 0x00, 0x00, 0x00,
  0x02, 0x00, 0x00, 0x00, 0x2e, 0xfe, 0xff, 0xff, 0x14, 0x00, 0x00, 0x00,
  0x00, 0x00, 0x00, 0x0b, 0x10, 0x00, 0x00, 0x00, 0x14, 0x00, 0x00, 0x00,
  0x04, 0x00, 0x00, 0x00, 0x2c, 0xc6, 0xff, 0xff, 0x01, 0x00, 0x00, 0x00,
  0x2c, 0x00, 0x00, 0x00, 0x02, 0x00, 0x00, 0x00, 0x23, 0x00, 0x00, 0x00,
  0x2b, 0x00, 0x00, 0x00, 0x5e, 0xfe, 0xff, 0xff, 0x14, 0x00, 0x00, 0x00,
  0x00, 0x00, 0x00, 0x01, 0x20, 0x00, 0x00, 0x00, 0x24, 0x00, 0x00, 0x00,
  0x01, 0x00, 0x00, 0x00, 0x3c, 0xff, 0xff, 0xff, 0x00, 0x00, 0x00, 0x01,
  0x01, 0x00, 0x00, 0x00, 0x01, 0x00, 0x00, 0x00, 0x00, 0x00, 0x00, 0x01,
  0x01, 0x00, 0x00, 0x00, 0x2b, 0x00, 0x00, 0x00, 0x03, 0x00, 0x00, 0x00,
  0x2a, 0x00, 0x00, 0x00, 0x1d, 0x00, 0x00, 0x00, 0x1c, 0x00, 0x00, 0x00,
  0x4a, 0xfe, 0xff, 0xff, 0x10, 0x00, 0x00, 0x00, 0x00, 0x00, 0x00, 0x34,
  0x0c, 0x00, 0x00, 0x00, 0x10, 0x00, 0x00, 0x00, 0x9c, 0xc6, 0xff, 0xff,
  0x01, 0x00, 0x00, 0x00, 0x2a, 0x00, 0x00, 0x00, 0x02, 0x00, 0x00, 0x00,
  0x29, 0x00, 0x00, 0x00, 0x01, 0x00, 0x00, 0x00, 0xce, 0xfe, 0xff, 0xff,
  0x14, 0x00, 0x00, 0x00, 0x00, 0x00, 0x00, 0x16, 0x10, 0x00, 0x00, 0x00,
  0x14, 0x00, 0x00, 0x00, 0x03, 0x00, 0x00, 0x00, 0xcc, 0xc6, 0xff, 0xff,
  0x01, 0x00, 0x00, 0x00, 0x29, 0x00, 0x00, 0x00, 0x02, 0x00, 0x00, 0x00,
  0x28, 0x00, 0x00, 0x00, 0x03, 0x00, 0x00, 0x00, 0x2e, 0xff, 0xff, 0xff,
  0x0c, 0x00, 0x00, 0x00, 0x10, 0x00, 0x00, 0x00, 0x02, 0x00, 0x00, 0x00,
  0x01, 0x00, 0x00, 0x00, 0x28, 0x00, 0x00, 0x00, 0x02, 0x00, 0x00, 0x00,
  0x27, 0x00, 0x00, 0x00, 0x02, 0x00, 0x00, 0x00, 0x22, 0xff, 0xff, 0xff,
  0x20, 0x00, 0x00, 0x00, 0x00, 0x00, 0x00, 0x01, 0x2c, 0x00, 0x00, 0x00,
  0x30, 0x00, 0x00, 0x00, 0x01, 0x00, 0x00, 0x00, 0x0c, 0x00, 0x14, 0x00,
  0x13, 0x00, 0x0c, 0x00, 0x08, 0x00, 0x07, 0x00, 0x0c, 0x00, 0x00, 0x00,
  0x00, 0x00, 0x00, 0x01, 0x01, 0x00, 0x00, 0x00, 0x01, 0x00, 0x00, 0x00,
  0x00, 0x00, 0x00, 0x01, 0x01, 0x00, 0x00, 0x00, 0x27, 0x00, 0x00, 0x00,
  0x03, 0x00, 0x00, 0x00, 0x26, 0x00, 0x00, 0x00, 0x1f, 0x00, 0x00, 0x00,
  0x1e, 0x00, 0x00, 0x00, 0x1a, 0xff, 0xff, 0xff, 0x10, 0x00, 0x00, 0x00,
  0x00, 0x00, 0x00, 0x34, 0x0c, 0x00, 0x00, 0x00, 0x10, 0x00, 0x00, 0x00,
  0x6c, 0xc7, 0xff, 0xff, 0x01, 0x00, 0x00, 0x00, 0x26, 0x00, 0x00, 0x00,
  0x02, 0x00, 0x00, 0x00, 0x25, 0x00, 0x00, 0x00, 0x01, 0x00, 0x00, 0x00,
  0x9e, 0xff, 0xff, 0xff, 0x14, 0x00, 0x00, 0x00, 0x00, 0x00, 0x00, 0x16,
  0x10, 0x00, 0x00, 0x00, 0x14, 0x00, 0x00, 0x00, 0x03, 0x00, 0x00, 0x00,
  0x9c, 0xc7, 0xff, 0xff, 0x01, 0x00, 0x00, 0x00, 0x25, 0x00, 0x00, 0x00,
  0x02, 0x00, 0x00, 0x00, 0x24, 0x00, 0x00, 0x00, 0x03, 0x00, 0x00, 0x00,
  0x00, 0x00, 0x0a, 0x00, 0x10, 0x00, 0x0c, 0x00, 0x08, 0x00, 0x04, 0x00,
  0x0a, 0x00, 0x00, 0x00, 0x0c, 0x00, 0x00, 0x00, 0x10, 0x00, 0x00, 0x00,
  0x02, 0x00, 0x00, 0x00, 0x01, 0x00, 0x00, 0x00, 0x24, 0x00, 0x00, 0x00,
  0x02, 0x00, 0x00, 0x00, 0x23, 0x00, 0x00, 0x00, 0x02, 0x00, 0x00, 0x00,
  0x00, 0x00, 0x0e, 0x00, 0x1a, 0x00, 0x14, 0x00, 0x10, 0x00, 0x0c, 0x00,
  0x0b, 0x00, 0x04, 0x00, 0x0e, 0x00, 0x00, 0x00, 0x20, 0x00, 0x00, 0x00,
  0x00, 0x00, 0x00, 0x01, 0x24, 0x00, 0x00, 0x00, 0x28, 0x00, 0x00, 0x00,
  0x01, 0x00, 0x00, 0x00, 0x00, 0x00, 0x0a, 0x00, 0x0c, 0x00, 0x00, 0x00,
  0x08, 0x00, 0x04, 0x00, 0x0a, 0x00, 0x00, 0x00, 0x01, 0x00, 0x00, 0x00,
  0x01, 0x00, 0x00, 0x00, 0x01, 0x00, 0x00, 0x00, 0x23, 0x00, 0x00, 0x00,
  0x03, 0x00, 0x00, 0x00, 0x22, 0x00, 0x00, 0x00, 0x21, 0x00, 0x00, 0x00,
  0x20, 0x00, 0x00, 0x00, 0x00, 0x00, 0x0e, 0x00, 0x14, 0x00, 0x00, 0x00,
  0x10, 0x00, 0x0c, 0x00, 0x0b, 0x00, 0x04, 0x00, 0x0e, 0x00, 0x00, 0x00,
  0x10, 0x00, 0x00, 0x00, 0x00, 0x00, 0x00, 0x34, 0x0c, 0x00, 0x00, 0x00,
  0x10, 0x00, 0x00, 0x00, 0x60, 0xc8, 0xff, 0xff, 0x01, 0x00, 0x00, 0x00,
  0x22, 0x00, 0x00, 0x00, 0x02, 0x00, 0x00, 0x00, 0x00, 0x00, 0x00, 0x00,
  0x01, 0x00, 0x00, 0x00, 0x01, 0x00, 0x00, 0x00, 0x4d, 0x00, 0x00, 0x00,
  0x01, 0x00, 0x00, 0x00, 0x00, 0x00, 0x00, 0x00, 0x4e, 0x00, 0x00, 0x00,
  0xc0, 0x37, 0x00, 0x00, 0x54, 0x37, 0x00, 0x00, 0xec, 0x36, 0x00, 0x00,
  0x9c, 0x36, 0x00, 0x00, 0x4c, 0x36, 0x00, 0x00, 0xe8, 0x35, 0x00, 0x00,
  0x88, 0x35, 0x00, 0x00, 0x38, 0x35, 0x00, 0x00, 0xe8, 0x34, 0x00, 0x00,
  0x84, 0x34, 0x00, 0x00, 0x34, 0x34, 0x00, 0x00, 0xe0, 0x33, 0x00, 0x00,
  0x8c, 0x33, 0x00, 0x00, 0x38, 0x33, 0x00, 0x00, 0xc8, 0x32, 0x00, 0x00,
  0x64, 0x32, 0x00, 0x00, 0xf0, 0x31, 0x00, 0x00, 0x6c, 0x30, 0x00, 0x00,
  0xf8, 0x2f, 0x00, 0x00, 0x74, 0x2e, 0x00, 0x00, 0x00, 0x2e, 0x00, 0x00,
  0x7c, 0x2c, 0x00, 0x00, 0x08, 0x2c, 0x00, 0x00, 0x8c, 0x2a, 0x00, 0x00,
  0x10, 0x29, 0x00, 0x00, 0x94, 0x27, 0x00, 0x00, 0x18, 0x26, 0x00, 0x00,
  0x94, 0x24, 0x00, 0x00, 0x08, 0x23, 0x00, 0x00, 0x84, 0x21, 0x00, 0x00,
  0xf8, 0x1f, 0x00, 0x00, 0x74, 0x1e, 0x00, 0x00, 0xf0, 0x1c, 0x00, 0x00,
  0x6c, 0x1b, 0x00, 0x00, 0xd8, 0x1a, 0x00, 0x00, 0xe4, 0x19, 0x00, 0x00,
  0x24, 0x19, 0x00, 0x00, 0xa8, 0x18, 0x00, 0x00, 0x10, 0x18, 0x00, 0x00,
  0x04, 0x17, 0x00, 0x00, 0x2c, 0x16, 0x00, 0x00, 0xb0, 0x15, 0x00, 0x00,
  0x18, 0x15, 0x00, 0x00, 0x0c, 0x14, 0x00, 0x00, 0xc8, 0x12, 0x00, 0x00,
  0x88, 0x11, 0x00, 0x00, 0x0c, 0x11, 0x00, 0x00, 0x78, 0x10, 0x00, 0x00,
  0xe0, 0x0f, 0x00, 0x00, 0x54, 0x0f, 0x00, 0x00, 0xcc, 0x0e, 0x00, 0x00,
  0x38, 0x0e, 0x00, 0x00, 0xa4, 0x0d, 0x00, 0x00, 0x28, 0x0d, 0x00, 0x00,
  0x94, 0x0c, 0x00, 0x00, 0xfc, 0x0b, 0x00, 0x00, 0x70, 0x0b, 0x00, 0x00,
  0xe8, 0x0a, 0x00, 0x00, 0x54, 0x0a, 0x00, 0x00, 0xc0, 0x09, 0x00, 0x00,
  0x44, 0x09, 0x00, 0x00, 0xc8, 0x08, 0x00, 0x00, 0x34, 0x08, 0x00, 0x00,
  0x9c, 0x07, 0x00, 0x00, 0x10, 0x07, 0x00, 0x00, 0x88, 0x06, 0x00, 0x00,
  0xf4, 0x05, 0x00, 0x00, 0x60, 0x05, 0x00, 0x00, 0xe4, 0x04, 0x00, 0x00,
  0x50, 0x04, 0x00, 0x00, 0xb8, 0x03, 0x00, 0x00, 0x2c, 0x03, 0x00, 0x00,
  0xa4, 0x02, 0x00, 0x00, 0x10, 0x02, 0x00, 0x00, 0x7c, 0x01, 0x00, 0x00,
  0x00, 0x01, 0x00, 0x00, 0x80, 0x00, 0x00, 0x00, 0x04, 0x00, 0x00, 0x00,
  0x8e, 0xc9, 0xff, 0xff, 0x00, 0x00, 0x00, 0x01, 0x18, 0x00, 0x00, 0x00,
  0x20, 0x00, 0x00, 0x00, 0x3c, 0x00, 0x00, 0x00, 0x4e, 0x00, 0x00, 0x00,
  0x00, 0x00, 0x00, 0x09, 0x50, 0x00, 0x00, 0x00, 0x02, 0x00, 0x00, 0x00,
  0xff, 0xff, 0xff, 0xff, 0x01, 0x00, 0x00, 0x00, 0x74, 0xc9, 0xff, 0xff,
  0x08, 0x00, 0x00, 0x00, 0x10, 0x00, 0x00, 0x00, 0x01, 0x00, 0x00, 0x00,
  0x80, 0xff, 0xff, 0xff, 0xff, 0xff, 0xff, 0xff, 0x01, 0x00, 0x00, 0x00,
  0x5b, 0x5b, 0xc1, 0x3a, 0x19, 0x00, 0x00, 0x00, 0x53, 0x74, 0x61, 0x74,
  0x65, 0x66, 0x75, 0x6c, 0x50, 0x61, 0x72, 0x74, 0x69, 0x74, 0x69, 0x6f,
  0x6e, 0x65, 0x64, 0x43, 0x61, 0x6c, 0x6c, 0x3a, 0x30, 0x00, 0x00, 0x00,
  0x02, 0x00, 0x00, 0x00, 0x01, 0x00, 0x00, 0x00, 0x01, 0x00, 0x00, 0x00,
  0x06, 0xca, 0xff, 0xff, 0x00, 0x00, 0x00, 0x01, 0x18, 0x00, 0x00, 0x00,
  0x20, 0x00, 0x00, 0x00, 0x40, 0x00, 0x00, 0x00, 0x4d, 0x00, 0x00, 0x00,
  0x00, 0x00, 0x00, 0x09, 0x54, 0x00, 0x00, 0x00, 0x02, 0x00, 0x00, 0x00,
  0xff, 0xff, 0xff, 0xff, 0x18, 0x00, 0x00, 0x00, 0xec, 0xc9, 0xff, 0xff,
  0x08, 0x00, 0x00, 0x00, 0x14, 0x00, 0x00, 0x00, 0x01, 0x00, 0x00, 0x00,
  0x32, 0x00, 0x00, 0x00, 0x00, 0x00, 0x00, 0x00, 0x00, 0x00, 0x00, 0x00,
  0x01, 0x00, 0x00, 0x00, 0x48, 0xf7, 0x77, 0x3b, 0x1a, 0x00, 0x00, 0x00,
  0x6d, 0x6f, 0x64, 0x65, 0x6c, 0x2f, 0x6c, 0x61, 0x6d, 0x62, 0x64, 0x61,
  0x2f, 0x73, 0x74, 0x72, 0x69, 0x64, 0x65, 0x64, 0x5f, 0x73, 0x6c, 0x69,
  0x63, 0x65, 0x00, 0x00, 0x02, 0x00, 0x00, 0x00, 0x01, 0x00, 0x00, 0x00,
  0x18, 0x00, 0x00, 0x00, 0x82, 0xca, 0xff, 0xff, 0x00, 0x00, 0x00, 0x01,
  0x18, 0x00, 0x00, 0x00, 0x24, 0x00, 0x00, 0x00, 0x44, 0x00, 0x00, 0x00,
  0x4c, 0x00, 0x00, 0x00, 0x00, 0x00, 0x00, 0x09, 0x4c, 0x00, 0x00, 0x00,
  0x03, 0x00, 0x00, 0x00, 0xff, 0xff, 0xff, 0xff, 0x18, 0x00, 0x00, 0x00,
  0x18, 0x00, 0x00, 0x00, 0x6c, 0xca, 0xff, 0xff, 0x08, 0x00, 0x00, 0x00,
  0x14, 0x00, 0x00, 0x00, 0x01, 0x00, 0x00, 0x00, 0x32, 0x00, 0x00, 0x00,
  0x00, 0x00, 0x00, 0x00, 0x00, 0x00, 0x00, 0x00, 0x01, 0x00, 0x00, 0x00,
  0x48, 0xf7, 0x77, 0x3b, 0x0f, 0x00, 0x00, 0x00, 0x6d, 0x6f, 0x64, 0x65,
  0x6c, 0x2f, 0x61, 0x64, 0x64, 0x5f, 0x32, 0x2f, 0x61, 0x64, 0x64, 0x00,
  0x03, 0x00, 0x00, 0x00, 0x01, 0x00, 0x00, 0x00, 0x18, 0x00, 0x00, 0x00,
  0x18, 0x00, 0x00, 0x00, 0xfa, 0xca, 0xff, 0xff, 0x00, 0x00, 0x00, 0x01,
  0x18, 0x00, 0x00, 0x00, 0x24, 0x00, 0x00, 0x00, 0x40, 0x00, 0x00, 0x00,
  0x4b, 0x00, 0x00, 0x00, 0x00, 0x00, 0x00, 0x09, 0x64, 0x00, 0x00, 0x00,
  0x03, 0x00, 0x00, 0x00, 0xff, 0xff, 0xff, 0xff, 0x18, 0x00, 0x00, 0x00,
  0x18, 0x00, 0x00, 0x00, 0xe4, 0xca, 0xff, 0xff, 0x08, 0x00, 0x00, 0x00,
  0x10, 0x00, 0x00, 0x00, 0x01, 0x00, 0x00, 0x00, 0x32, 0x00, 0x00, 0x00,
  0x00, 0x00, 0x00, 0x00, 0x01, 0x00, 0x00, 0x00, 0x48, 0xf7, 0x77, 0x3b,
  0x2a, 0x00, 0x00, 0x00, 0x6d, 0x6f, 0x64, 0x65, 0x6c, 0x2f, 0x63, 0x6f,
  0x6e, 0x76, 0x31, 0x64, 0x5f, 0x36, 0x2f, 0x52, 0x65, 0x6c, 0x75, 0x3b,
  0x6d, 0x6f, 0x64, 0x65, 0x6c, 0x2f, 0x63, 0x6f, 0x6e, 0x76, 0x31, 0x64,
  0x5f, 0x36, 0x2f, 0x42, 0x69, 0x61, 0x73, 0x41, 0x64, 0x64, 0x00, 0x00,
  0x03, 0x00, 0x00, 0x00, 0x01, 0x00, 0x00, 0x00, 0x18, 0x00, 0x00, 0x00,
  0x18, 0x00, 0x00, 0x00, 0x8a, 0xcb, 0xff, 0xff, 0x00, 0x00, 0x00, 0x01,
  0x18, 0x00, 0x00, 0x00, 0x24, 0x00, 0x00, 0x00, 0x44, 0x00, 0x00, 0x00,
  0x4a, 0x00, 0x00, 0x00, 0x00, 0x00, 0x00, 0x09, 0x64, 0x00, 0x00, 0x00,
  0x03, 0x00, 0x00, 0x00, 0xff, 0xff, 0xff, 0xff, 0x18, 0x00, 0x00, 0x00,
  0x18, 0x00, 0x00, 0x00, 0x74, 0xcb, 0xff, 0xff, 0x08, 0x00, 0x00, 0x00,
  0x14, 0x00, 0x00, 0x00, 0x01, 0x00, 0x00, 0x00, 0x27, 0x00, 0x00, 0x00,
  0x00, 0x00, 0x00, 0x00, 0x00, 0x00, 0x00, 0x00, 0x01, 0x00, 0x00, 0x00,
  0xef, 0x89, 0x7d, 0x3a, 0x24, 0x00, 0x00, 0x00, 0x6d, 0x6f, 0x64, 0x65,
  0x6c, 0x2f, 0x63, 0x6f, 0x6e, 0x76, 0x31, 0x64, 0x5f, 0x36, 0x2f, 0x43,
  0x6f, 0x6e, 0x76, 0x31, 0x44, 0x2f, 0x42, 0x61, 0x74, 0x63, 0x68, 0x54,
  0x6f, 0x53, 0x70, 0x61, 0x63, 0x65, 0x4e, 0x44, 0x00, 0x00, 0x00, 0x00,
  0x03, 0x00, 0x00, 0x00, 0x01, 0x00, 0x00, 0x00, 0x18, 0x00, 0x00, 0x00,
  0x18, 0x00, 0x00, 0x00, 0x1a, 0xcc, 0xff, 0xff, 0x00, 0x00, 0x00, 0x01,
  0x18, 0x00, 0x00, 0x00, 0x24, 0x00, 0x00, 0x00, 0x40, 0x00, 0x00, 0x00,
  0x49, 0x00, 0x00, 0x00, 0x00, 0x00, 0x00, 0x09, 0x58, 0x00, 0x00, 0x00,
  0x03, 0x00, 0x00, 0x00, 0xff, 0xff, 0xff, 0xff, 0x06, 0x00, 0x00, 0x00,
  0x18, 0x00, 0x00, 0x00, 0x04, 0xcc, 0xff, 0xff, 0x08, 0x00, 0x00, 0x00,
  0x10, 0x00, 0x00, 0x00, 0x01, 0x00, 0x00, 0x00, 0x27, 0x00, 0x00, 0x00,
  0x00, 0x00, 0x00, 0x00, 0x01, 0x00, 0x00, 0x00, 0xef, 0x89, 0x7d, 0x3a,
  0x1e, 0x00, 0x00, 0x00, 0x6d, 0x6f, 0x64, 0x65, 0x6c, 0x2f, 0x63, 0x6f,
  0x6e, 0x76, 0x31, 0x64, 0x5f, 0x36, 0x2f, 0x43, 0x6f, 0x6e, 0x76, 0x31,
  0x44, 0x2f, 0x53, 0x71, 0x75, 0x65, 0x65, 0x7a, 0x65, 0x31, 0x00, 0x00,
  0x03, 0x00, 0x00, 0x00, 0x01, 0x00, 0x00, 0x00, 0x06, 0x00, 0x00, 0x00,
  0x18, 0x00, 0x00, 0x00, 0x9e, 0xcc, 0xff, 0xff, 0x00, 0x00, 0x00, 0x01,
  0x18, 0x00, 0x00, 0x00, 0x28, 0x00, 0x00, 0x00, 0x48, 0x00, 0x00, 0x00,
  0x48, 0x00, 0x00, 0x00, 0x00, 0x00, 0x00, 0x09, 0x58, 0x00, 0x00, 0x00,
  0x04, 0x00, 0x00, 0x00, 0xff, 0xff, 0xff, 0xff, 0x01, 0x00, 0x00, 0x00,
  0x06, 0x00, 0x00, 0x00, 0x18, 0x00, 0x00, 0x00, 0x8c, 0xcc, 0xff, 0xff,
  0x08, 0x00, 0x00, 0x00, 0x14, 0x00, 0x00, 0x00, 0x01, 0x00, 0x00, 0x00,
  0x27, 0x00, 0x00, 0x00, 0x00, 0x00, 0x00, 0x00, 0x00, 0x00, 0x00, 0x00,
  0x01, 0x00, 0x00, 0x00, 0xef, 0x89, 0x7d, 0x3a, 0x17, 0x00, 0x00, 0x00,
