const unsigned char g_tcn_model_data[] __attribute__((aligned(16))) = {
  0x20, 0x00, 0x00, 0x00, 0x54, 0x46, 0x4c, 0x33, 0x00, 0x00, 0x00, 0x00,
  0x14, 0x00, 0x20, 0x00, 0x1c, 0x00, 0x18, 0x00, 0x14, 0x00, 0x10, 0x00,
  0x0c, 0x00, 0x00, 0x00, 0x08, 0x00, 0x04, 0x00, 0x14, 0x00, 0x00, 0x00,
  0x1c, 0x00, 0x00, 0x00, 0x80, 0x00, 0x00, 0x00, 0xd8, 0x00, 0x00, 0x00,
  0xc8, 0x30, 0x00, 0x00, 0xd8, 0x30, 0x00, 0x00, 0xbc, 0x72, 0x00, 0x00,
  0x03, 0x00, 0x00, 0x00, 0x01, 0x00, 0x00, 0x00, 0x04, 0x00, 0x00, 0x00,
  0x7a, 0xc6, 0xff, 0xff, 0x0c, 0x00, 0x00, 0x00, 0x1c, 0x00, 0x00, 0x00,
  0x38, 0x00, 0x00, 0x00, 0x0f, 0x00, 0x00, 0x00, 0x73, 0x65, 0x72, 0x76,
  0x69, 0x6e, 0x67, 0x5f, 0x64, 0x65, 0x66, 0x61, 0x75, 0x6c, 0x74, 0x00,
  0x01, 0x00, 0x00, 0x00, 0x04, 0x00, 0x00, 0x00, 0x9c, 0xff, 0xff, 0xff,
  0x4d, 0x00, 0x00, 0x00, 0x04, 0x00, 0x00, 0x00, 0x05, 0x00, 0x00, 0x00,
  0x64, 0x65, 0x6e, 0x73, 0x65, 0x00, 0x00, 0x00, 0x01, 0x00, 0x00, 0x00,
  0x04, 0x00, 0x00, 0x00, 0xba, 0xcf, 0xff, 0xff, 0x04, 0x00, 0x00, 0x00,
  0x07, 0x00, 0x00, 0x00, 0x69, 0x6e, 0x70, 0x75, 0x74, 0x5f, 0x31, 0x00,
  0x02, 0x00, 0x00, 0x00, 0x34, 0x00, 0x00, 0x00, 0x04, 0x00, 0x00, 0x00,
  0xdc, 0xff, 0xff, 0xff, 0x50, 0x00, 0x00, 0x00, 0x04, 0x00, 0x00, 0x00,
  0x13, 0x00, 0x00, 0x00, 0x43, 0x4f, 0x4e, 0x56, 0x45, 0x52, 0x53, 0x49,
  0x4f, 0x4e, 0x5f, 0x4d, 0x45, 0x54, 0x41, 0x44, 0x41, 0x54, 0x41, 0x00,
  0x08, 0x00, 0x0c, 0x00, 0x08, 0x00, 0x04, 0x00, 0x08, 0x00, 0x00, 0x00,
  0x4f, 0x00, 0x00, 0x00, 0x04, 0x00, 0x00, 0x00, 0x13, 0x00, 0x00, 0x00,
  0x6d, 0x69, 0x6e, 0x5f, 0x72, 0x75, 0x6e, 0x74, 0x69, 0x6d, 0x65, 0x5f,
  0x76, 0x65, 0x72, 0x73, 0x69, 0x6f, 0x6e, 0x00, 0x51, 0x00, 0x00, 0x00,
  0xec, 0x2f, 0x00, 0x00, 0xe4, 0x2f, 0x00, 0x00, 0xd0, 0x2f, 0x00, 0x00,
  0xac, 0x2f, 0x00, 0x00, 0x84, 0x2f, 0x00, 0x00, 0x5c, 0x2f, 0x00, 0x00,
  0x48, 0x2f, 0x00, 0x00, 0x30, 0x2f, 0x00, 0x00, 0x14, 0x2f, 0x00, 0x00,
  0xec, 0x2e, 0x00, 0x00, 0xd8, 0x2e, 0x00, 0x00, 0xbc, 0x2e, 0x00, 0x00,
  0xa0, 0x2e, 0x00, 0x00, 0x84, 0x2e, 0x00, 0x00, 0x68, 0x2e, 0x00, 0x00,
  0x54, 0x2e, 0x00, 0x00, 0x2c, 0x2e, 0x00, 0x00, 0x04, 0x2e, 0x00, 0x00,
  0x34, 0x27, 0x00, 0x00, 0x0c, 0x27, 0x00, 0x00, 0x3c, 0x20, 0x00, 0x00,
  0x14, 0x20, 0x00, 0x00, 0x44, 0x19, 0x00, 0x00, 0x1c, 0x19, 0x00, 0x00,
  0xac, 0x18, 0x00, 0x00, 0xa4, 0x18, 0x00, 0x00, 0x9c, 0x18, 0x00, 0x00,
  0x94, 0x18, 0x00, 0x00, 0xc4, 0x11, 0x00, 0x00, 0x54, 0x11, 0x00, 0x00,
  0x84, 0x0a, 0x00, 0x00, 0x14, 0x0a, 0x00, 0x00, 0x44, 0x03, 0x00, 0x00,
  0xd4, 0x02, 0x00, 0x00, 0xec, 0x01, 0x00, 0x00, 0xe4, 0x01, 0x00, 0x00,
  0xdc, 0x01, 0x00, 0x00, 0xd4, 0x01, 0x00, 0x00, 0xcc, 0x01, 0x00, 0x00,
  0xc4, 0x01, 0x00, 0x00, 0xbc, 0x01, 0x00, 0x00, 0xb4, 0x01, 0x00, 0x00,
  0xac, 0x01, 0x00, 0x00, 0xa4, 0x01, 0x00, 0x00, 0x9c, 0x01, 0x00, 0x00,
  0x94, 0x01, 0x00, 0x00, 0x8c, 0x01, 0x00, 0x00, 0x84, 0x01, 0x00, 0x00,
  0x7c, 0x01, 0x00, 0x00, 0x74, 0x01, 0x00, 0x00, 0x6c, 0x01, 0x00, 0x00,
  0x64, 0x01, 0x00, 0x00, 0x5c, 0x01, 0x00, 0x00, 0x54, 0x01, 0x00, 0x00,
  0x4c, 0x01, 0x00, 0x00, 0x44, 0x01, 0x00, 0x00, 0x3c, 0x01, 0x00, 0x00,
  0x34, 0x01, 0x00, 0x00, 0x2c, 0x01, 0x00, 0x00, 0x24, 0x01, 0x00, 0x00,
  0x1c, 0x01, 0x00, 0x00, 0x14, 0x01, 0x00, 0x00, 0x0c, 0x01, 0x00, 0x00,
  0x04, 0x01, 0x00, 0x00, 0xfc, 0x00, 0x00, 0x00, 0xf4, 0x00, 0x00, 0x00,
  0xec, 0x00, 0x00, 0x00, 0xe4, 0x00, 0x00, 0x00, 0xdc, 0x00, 0x00, 0x00,
  0xd4, 0x00, 0x00, 0x00, 0xcc, 0x00, 0x00, 0x00, 0xc4, 0x00, 0x00, 0x00,
  0xbc, 0x00, 0x00, 0x00, 0xb4, 0x00, 0x00, 0x00, 0xac, 0x00, 0x00, 0x00,
  0xa4, 0x00, 0x00, 0x00, 0x9c, 0x00, 0x00, 0x00, 0x94, 0x00, 0x00, 0x00,
  0x8c, 0x00, 0x00, 0x00, 0x6c, 0x00, 0x00, 0x00, 0x04, 0x00, 0x00, 0x00,
  0x72, 0xd1, 0xff, 0xff, 0x04, 0x00, 0x00, 0x00, 0x58, 0x00, 0x00, 0x00,
  0x0c, 0x00, 0x00, 0x00, 0x08, 0x00, 0x0e, 0x00, 0x08, 0x00, 0x04, 0x00,
  0x08, 0x00, 0x00, 0x00, 0x10, 0x00, 0x00, 0x00, 0x28, 0x00, 0x00, 0x00,
  0x00, 0x00, 0x06, 0x00, 0x08, 0x00, 0x04, 0x00, 0x06, 0x00, 0x00, 0x00,
  0x04, 0x00, 0x00, 0x00, 0x01, 0x00, 0x00, 0x00, 0xeb, 0x03, 0x00, 0x00,
  0x00, 0x00, 0x0a, 0x00, 0x10, 0x00, 0x0c, 0x00, 0x08, 0x00, 0x04, 0x00,
  0x0a, 0x00, 0x00, 0x00, 0x02, 0x00, 0x00, 0x00, 0x02, 0x00, 0x00, 0x00,
  0x04, 0x00, 0x00, 0x00, 0x06, 0x00, 0x00, 0x00, 0x32, 0x2e, 0x31, 0x35,
  0x2e, 0x30, 0x00, 0x00, 0xd6, 0xd1, 0xff, 0xff, 0x04, 0x00, 0x00, 0x00,
  0x10, 0x00, 0x00, 0x00, 0x32, 0x2e, 0x33, 0x2e, 0x30, 0x00, 0x00, 0x00,
  0x00, 0x00, 0x00, 0x00, 0x00, 0x00, 0x00, 0x00, 0xb4, 0x90, 0xff, 0xff,
  0xb8, 0x90, 0xff, 0xff, 0xbc, 0x90, 0xff, 0xff, 0xc0, 0x90, 0xff, 0xff,
  0xc4, 0x90, 0xff, 0xff, 0xc8, 0x90, 0xff, 0xff, 0xcc, 0x90, 0xff, 0xff,
  0xd0, 0x90, 0xff, 0xff, 0xd4, 0x90, 0xff, 0xff, 0xd8, 0x90, 0xff, 0xff,
  0xdc, 0x90, 0xff, 0xff, 0xe0, 0x90, 0xff, 0xff, 0xe4, 0x90, 0xff, 0xff,
  0xe8, 0x90, 0xff, 0xff, 0xec, 0x90, 0xff, 0xff, 0xf0, 0x90, 0xff, 0xff,
  0xf4, 0x90, 0xff, 0xff, 0xf8, 0x90, 0xff, 0xff, 0xfc, 0x90, 0xff, 0xff,
  0x00, 0x91, 0xff, 0xff, 0x04, 0x91, 0xff, 0xff, 0x08, 0x91, 0xff, 0xff,
  0x0c, 0x91, 0xff, 0xff, 0x10, 0x91, 0xff, 0xff, 0x14, 0x91, 0xff, 0xff,
  0x18, 0x91, 0xff, 0xff, 0x1c, 0x91, 0xff, 0xff, 0x20, 0x91, 0xff, 0xff,
  0x24, 0x91, 0xff, 0xff, 0x28, 0x91, 0xff, 0xff, 0x2c, 0x91, 0xff, 0xff,
  0x30, 0x91, 0xff, 0xff, 0x34, 0x91, 0xff, 0xff, 0x38, 0x91, 0xff, 0xff,
  0x3c, 0x91, 0xff, 0xff, 0x40, 0x91, 0xff, 0xff, 0x44, 0x91, 0xff, 0xff,
  0x48, 0x91, 0xff, 0xff, 0x4c, 0x91, 0xff, 0xff, 0x50, 0x91, 0xff, 0xff,
  0x54, 0x91, 0xff, 0xff, 0x58, 0x91, 0xff, 0xff, 0x5c, 0x91, 0xff, 0xff,
  0x60, 0x91, 0xff, 0xff, 0xa2, 0xd2, 0xff, 0xff, 0x04, 0x00, 0x00, 0x00,
  0xd8, 0x00, 0x00, 0x00, 0x34, 0xfa, 0x81, 0x2b, 0x67, 0x4f, 0xb8, 0x70,
  0xe5, 0xea, 0x9d, 0x69, 0x28, 0x76, 0x7f, 0xdd, 0xfe, 0x76, 0xe5, 0x5b,
  0x70, 0xa5, 0x81, 0x58, 0x27, 0x36, 0x47, 0xde, 0xf4, 0x7f, 0x7c, 0x81,
  0x54, 0x31, 0x9f, 0xaf, 0xc8, 0xcc, 0xe6, 0xd7, 0xf0, 0x7f, 0xc6, 0x6f,
  0xa2, 0xce, 0x85, 0x65, 0xb3, 0x81, 0x5f, 0x6f, 0xdc, 0x1f, 0x09, 0xe3,
  0x7f, 0x17, 0x4b, 0x40, 0x02, 0xd1, 0x7b, 0x3d, 0x6c, 0x9e, 0x81, 0xba,
  0x47, 0xa9, 0xe8, 0x2a, 0x17, 0x23, 0x7f, 0xc4, 0x8f, 0xb6, 0xfa, 0x71,
  0xf1, 0x81, 0xe1, 0xd3, 0x3a, 0x05, 0x46, 0xbf, 0xd7, 0x04, 0x45, 0x7f,
  0x46, 0x75, 0xfb, 0xad, 0xb4, 0xe1, 0x40, 0xf6, 0x5c, 0x42, 0x08, 0x8e,
  0x81, 0x3f, 0x4b, 0x43, 0x32, 0x79, 0xdd, 0x7f, 0xde, 0x19, 0x05, 0x60,
  0xa1, 0xc0, 0x7f, 0x95, 0xa4, 0x99, 0xee, 0xe5, 0x52, 0x00, 0x37, 0x2c,
  0xdd, 0x84, 0x85, 0xcc, 0xbb, 0x7f, 0x1d, 0xcc, 0x7f, 0xe2, 0x95, 0x4b,
  0x2e, 0x3d, 0x15, 0xde, 0x81, 0xb9, 0x3d, 0x09, 0x12, 0x41, 0x3c, 0x40,
  0xcd, 0x81, 0xd4, 0x9a, 0xd7, 0x57, 0xe0, 0x5b, 0xc4, 0xa2, 0x4a, 0x81,
  0x0e, 0x33, 0x1a, 0x1f, 0x56, 0x68, 0xac, 0x27, 0x7f, 0xb8, 0x0e, 0xb2,
  0x6b, 0xb4, 0x8d, 0xbc, 0x2c, 0xc2, 0x81, 0x2d, 0x06, 0x98, 0x08, 0x8e,
  0xd1, 0x13, 0x5c, 0xef, 0x76, 0x7f, 0x47, 0x7c, 0xff, 0x8c, 0x5d, 0x81,
  0x1f, 0xe7, 0xe3, 0x2b, 0x21, 0xf9, 0xee, 0x02, 0xbe, 0x1d, 0xbc, 0xda,
  0x69, 0x9d, 0xb0, 0x81, 0x86, 0xd3, 0xff, 0xff, 0x04, 0x00, 0x00, 0x00,
  0x60, 0x00, 0x00, 0x00, 0xb1, 0x01, 0x00, 0x00, 0x96, 0xe8, 0xff, 0xff,
  0x25, 0xf8, 0xff, 0xff, 0x09, 0xfc, 0xff, 0xff, 0x97, 0x05, 0x00, 0x00,
  0xd3, 0x07, 0x00, 0x00, 0x53, 0xeb, 0xff, 0xff, 0xb4, 0x07, 0x00, 0x00,
  0xa8, 0xfa, 0xff, 0xff, 0xb8, 0x08, 0x00, 0x00, 0x1e, 0xf8, 0xff, 0xff,
  0xbf, 0x0f, 0x00, 0x00, 0xa7, 0xf7, 0xff, 0xff, 0xe0, 0x0d, 0x00, 0x00,
  0x56, 0x05, 0x00, 0x00, 0x0d, 0xff, 0xff, 0xff, 0x35, 0xfd, 0xff, 0xff,
  0x57, 0x07, 0x00, 0x00, 0xe5, 0x08, 0x00, 0x00, 0x21, 0x05, 0x00, 0x00,
  0x71, 0x04, 0x00, 0x00, 0xa2, 0xf1, 0xff, 0xff, 0xd9, 0xf5, 0xff, 0xff,
  0x6a, 0x07, 0x00, 0x00, 0xf2, 0xd3, 0xff, 0xff, 0x04, 0x00, 0x00, 0x00,
  0xc0, 0x06, 0x00, 0x00, 0xe3, 0x40, 0x10, 0x9e, 0x17, 0x3f, 0xcc, 0x7a,
  0x04, 0x5e, 0x38, 0x6d, 0x71, 0xc8, 0x7f, 0xdc, 0x56, 0xfc, 0xad, 0xbb,
  0x09, 0xd0, 0x26, 0x06, 0x00, 0xd2, 0xdb, 0x27, 0x27, 0xaa, 0xa3, 0x4d,
  0x98, 0xc1, 0x45, 0x5d, 0x6c, 0x04, 0x40, 0x07, 0xe1, 0x1d, 0xc7, 0xe3,
  0x25, 0x2d, 0x12, 0x5c, 0x0f, 0x06, 0x24, 0x28, 0xc9, 0x11, 0x50, 0xd8,
  0x40, 0x6e, 0x2b, 0xc9, 0x1c, 0x33, 0x79, 0xaf, 0x50, 0x4b, 0xa9, 0xca,
  0x5e, 0x3b, 0x12, 0xe3, 0xde, 0xd0, 0x49, 0x7f, 0xf6, 0xd0, 0xdc, 0xbe,
  0xc7, 0x0e, 0xa3, 0xd3, 0xd9, 0xde, 0xc8, 0x56, 0x50, 0xcc, 0x63, 0x52,
  0x07, 0xf8, 0xa8, 0xf8, 0xbd, 0xa6, 0xf5, 0x3a, 0x41, 0x10, 0xfc, 0x14,
  0x12, 0x9e, 0x59, 0xff, 0x3f, 0xbf, 0xc5, 0x03, 0xce, 0xb3, 0x55, 0xd9,
  0xdb, 0x06, 0xc5, 0x4b, 0xf7, 0x19, 0x1b, 0xc2, 0xfc, 0x41, 0xdc, 0x2e,
  0xfd, 0x34, 0xea, 0x58, 0xc9, 0x54, 0xf7, 0xc0, 0xb9, 0xa3, 0x72, 0x46,
  0xf2, 0xad, 0x5a, 0xd9, 0xdb, 0xd4, 0x32, 0x3e, 0x3e, 0x69, 0x58, 0xc2,
  0x8b, 0xc2, 0xde, 0x09, 0x4e, 0xff, 0x19, 0x52, 0x32, 0x69, 0x2e, 0x2f,
  0xcc, 0xd2, 0x83, 0xa5, 0xb8, 0x73, 0xc5, 0x82, 0x7b, 0xbf, 0x4e, 0x02,
  0x1f, 0xe9, 0x00, 0x90, 0x6e, 0xf3, 0x9a, 0xeb, 0xee, 0x48, 0xd0, 0xa9,
  0xad, 0x65, 0x22, 0x36, 0xb6, 0x3f, 0x9d, 0x5a, 0x7f, 0xef, 0xdd, 0x5c,
  0x8a, 0x45, 0x65, 0xe3, 0xe9, 0x45, 0x51, 0x1c, 0x69, 0xe8, 0xf1, 0x79,
  0xc1, 0x96, 0xa4, 0xe2, 0xd0, 0x22, 0xb3, 0x55, 0x45, 0xa2, 0xf9, 0x5f,
  0x89, 0x0c, 0x13, 0x9f, 0x12, 0x34, 0x3c, 0x30, 0x47, 0x58, 0xb9, 0xd7,
  0xdf, 0x30, 0x41, 0xcf, 0xf0, 0x43, 0x02, 0x05, 0x34, 0x1f, 0x49, 0x66,
  0x4c, 0x34, 0x28, 0x25, 0x81, 0xa9, 0xae, 0x2f, 0xac, 0xab, 0x1c, 0x5b,
  0xbf, 0x48, 0xc7, 0x1d, 0x55, 0xa9, 0xc1, 0x5b, 0x26, 0x71, 0x49, 0xc8,
  0x3e, 0xb1, 0xcd, 0x9c, 0x12, 0x59, 0xeb, 0x89, 0xb2, 0xad, 0x70, 0xad,
  0xbe, 0xb0, 0xd5, 0x22, 0x41, 0x86, 0x32, 0x15, 0x45, 0xc5, 0xc3, 0x6f,
  0xd8, 0xcb, 0x15, 0x9e, 0x2e, 0x08, 0x37, 0xf6, 0x90, 0x36, 0x81, 0xd5,
  0xed, 0x59, 0xfe, 0x8c, 0xc7, 0xfc, 0x7a, 0xdd, 0x8c, 0x18, 0xd7, 0x36,
  0xac, 0xb3, 0xba, 0xbc, 0xc8, 0x95, 0x29, 0xc2, 0x90, 0x20, 0xb1, 0x0e,
  0x73, 0xc2, 0xcc, 0x12, 0x85, 0xd9, 0x9a, 0x22, 0x35, 0xa0, 0x84, 0x2d,
  0x45, 0xde, 0xdf, 0xf4, 0x4e, 0x69, 0x41, 0xbd, 0x75, 0x79, 0x16, 0x77,
  0xdb, 0x78, 0x16, 0x40, 0x1f, 0x1c, 0x81, 0xf4, 0xe8, 0xa4, 0x96, 0x55,
  0x0d, 0xa0, 0x0a, 0x18, 0x2c, 0xfa, 0x98, 0x8d, 0x38, 0x56, 0x6c, 0xf7,
  0x08, 0x28, 0x2b, 0x4b, 0x50, 0x12, 0xd3, 0x04, 0x18, 0x58, 0x7e, 0x96,
  0xf3, 0xc5, 0x7f, 0xf1, 0xf7, 0x78, 0x1f, 0xa1, 0x69, 0x17, 0xda, 0x54,
  0xb3, 0xaa, 0xa4, 0xca, 0x73, 0x25, 0xf3, 0x04, 0xf9, 0x36, 0x8c, 0x08,
  0xc0, 0x91, 0x03, 0x24, 0xd8, 0x27, 0x58, 0xe2, 0x5a, 0x6e, 0x90, 0x1e,
  0x74, 0x99, 0x83, 0x21, 0x36, 0xa0, 0xda, 0xdf, 0x58, 0x3d, 0xc4, 0x55,
  0x23, 0xaa, 0xcc, 0xb2, 0xf5, 0x58, 0x09, 0xfd, 0x14, 0xe5, 0x23, 0xab,
  0xa5, 0xe4, 0x3c, 0xb0, 0x96, 0xab, 0xd1, 0x2c, 0x41, 0x31, 0x16, 0xce,
  0x12, 0xe5, 0xa7, 0xfa, 0x1b, 0xe1, 0xe8, 0x1a, 0xc6, 0x43, 0x67, 0x1f,
  0x17, 0x3d, 0xb2, 0x49, 0xd0, 0x24, 0xcf, 0xe4, 0x3b, 0x9e, 0x63, 0xbd,
  0xcf, 0xaa, 0x21, 0x97, 0x81, 0x2e, 0xc6, 0x01, 0xc0, 0xd4, 0xbf, 0xdd,
  0x18, 0xed, 0x07, 0x1b, 0x3b, 0x00, 0x2d, 0x31, 0x13, 0xa3, 0xb3, 0xa7,
  0x4a, 0xab, 0x4f, 0x0b, 0xfd, 0x1a, 0xe9, 0xcd, 0x04, 0x9e, 0xc2, 0xe5,
  0x3b, 0x3c, 0xa2, 0x05, 0xb6, 0x9d, 0x47, 0xfb, 0xad, 0x11, 0x49, 0x3a,
  0xfd, 0x1f, 0x47, 0xa9, 0x39, 0xe0, 0xcd, 0xfc, 0xa8, 0xbd, 0x9c, 0xf7,
  0xac, 0xa7, 0x4d, 0x47, 0x09, 0x2f, 0xac, 0x1e, 0xd8, 0x29, 0xc8, 0xff,
  0xf5, 0x3f, 0xa6, 0xd9, 0x81, 0x1a, 0xce, 0xa6, 0x1b, 0xeb, 0x99, 0xc3,
  0x4a, 0xbf, 0x47, 0xb2, 0x90, 0x93, 0x87, 0xfa, 0x3a, 0x34, 0xbe, 0x5b,
  0x55, 0x78, 0xf5, 0x2d, 0xed, 0x78, 0x0d, 0x4c, 0xdf, 0x5b, 0x98, 0x1c,
  0x88, 0x27, 0xef, 0x31, 0x5d, 0xf4, 0x72, 0x1f, 0xaf, 0x5f, 0xab, 0x5a,
  0x53, 0xa3, 0x8d, 0x90, 0x72, 0x7c, 0x40, 0xcb, 0x72, 0x33, 0x11, 0xf3,
  0x97, 0xcc, 0xb7, 0x97, 0x1d, 0xa4, 0xcb, 0x9e, 0x59, 0x74, 0xac, 0x96,
  0xbd, 0x16, 0x81, 0xd1, 0xef, 0x2b, 0x9b, 0x40, 0xf4, 0xc4, 0x28, 0x0b,
  0x37, 0x8c, 0x7a, 0xe4, 0x6e, 0x30, 0x47, 0x64, 0x7e, 0x14, 0xa9, 0xcd,
  0x8f, 0x27, 0x65, 0x51, 0x88, 0x76, 0xe5, 0x25, 0xce, 0xd7, 0x05, 0x55,
  0x70, 0xe5, 0xa6, 0xeb, 0x40, 0xd5, 0x8f, 0x09, 0x3c, 0xb2, 0x1a, 0x01,
  0x8f, 0xe2, 0x05, 0xcc, 0xe2, 0xfa, 0xa7, 0xa6, 0x2b, 0x48, 0x08, 0x5a,
  0xe5, 0x09, 0x50, 0xec, 0xa9, 0x9a, 0xd0, 0x43, 0xd6, 0x1f, 0x4e, 0x1a,
  0xb1, 0x1a, 0x85, 0xe0, 0x02, 0xad, 0xba, 0x83, 0x3e, 0x7c, 0x12, 0x7f,
  0x3c, 0x11, 0x86, 0xdc, 0xd0, 0xda, 0x93, 0x81, 0x07, 0x37, 0xdd, 0xf0,
  0x4a, 0x94, 0x11, 0xb8, 0xb2, 0x96, 0xce, 0x6d, 0xaf, 0xeb, 0x90, 0x4e,
  0x4d, 0xff, 0xd2, 0x13, 0x05, 0xb7, 0x09, 0x15, 0x3e, 0x05, 0xbc, 0x05,
  0x2c, 0xe9, 0x48, 0x32, 0x7a, 0xd5, 0x23, 0x6b, 0xec, 0xe1, 0xbc, 0x59,
  0xb7, 0x30, 0x03, 0xdd, 0x19, 0x51, 0xbb, 0xd9, 0x1e, 0x9c, 0x23, 0x2b,
  0xc0, 0x71, 0xf3, 0xb6, 0x0c, 0xc6, 0x5f, 0x28, 0x55, 0x59, 0xed, 0xad,
  0x20, 0x0f, 0xf9, 0xf0, 0x05, 0x31, 0x33, 0xc2, 0x26, 0xd3, 0xde, 0x2e,
  0xea, 0x3d, 0x34, 0x0f, 0xbe, 0xbe, 0x31, 0x10, 0x8c, 0x0d, 0x14, 0x38,
  0x18, 0xcb, 0xb9, 0xcf, 0x08, 0xc5, 0xb9, 0xe9, 0xe8, 0x3d, 0xcc, 0x41,
  0xbf, 0xd9, 0x85, 0x52, 0xd2, 0xdb, 0x22, 0xc3, 0x43, 0xe3, 0x22, 0xdd,
  0xbe, 0x85, 0xf8, 0x44, 0x1b, 0xe8, 0x85, 0xd3, 0xc6, 0xc8, 0xb5, 0x3e,
  0xc6, 0x26, 0xb2, 0xfb, 0xd9, 0x11, 0x04, 0x81, 0x3c, 0xc8, 0xba, 0xfa,
  0xe6, 0xf9, 0x21, 0xeb, 0x17, 0xfa, 0x5d, 0x9d, 0xbd, 0x1a, 0xce, 0xd7,
  0xb4, 0xe4, 0x31, 0xcf, 0xae, 0x6c, 0x27, 0x23, 0xfd, 0x48, 0xc8, 0x1f,
  0x1c, 0xbb, 0x15, 0xd6, 0x60, 0x97, 0xf5, 0x18, 0x5a, 0x3b, 0x89, 0xd7,
  0xbf, 0x36, 0x2c, 0xec, 0xae, 0xf0, 0x0d, 0xed, 0x9d, 0x7f, 0x53, 0xd1,
  0xa5, 0x19, 0x3c, 0x40, 0x25, 0x0b, 0x64, 0x52, 0xe0, 0xcf, 0x64, 0x0f,
  0x52, 0x02, 0xa5, 0x2f, 0xc4, 0xd6, 0x45, 0xb1, 0x3a, 0x7e, 0x6c, 0x47,
  0x28, 0x4e, 0x05, 0xab, 0xdc, 0xae, 0xd3, 0xef, 0x63, 0x0a, 0xc5, 0x23,
  0xc3, 0x4c, 0xf8, 0x45, 0xa2, 0x5e, 0xdd, 0x05, 0xbd, 0x48, 0x2e, 0x42,
  0xa2, 0xc1, 0xe6, 0x5d, 0x27, 0xe2, 0x19, 0x58, 0x14, 0xaf, 0x81, 0x4e,
  0xca, 0xcc, 0xe3, 0x40, 0x61, 0x16, 0x53, 0x06, 0x33, 0xd1, 0x12, 0xea,
  0xcd, 0xc3, 0xeb, 0x72, 0xb4, 0xe2, 0xb1, 0x08, 0xc0, 0xe5, 0xc6, 0x78,
  0x2b, 0x3e, 0xaa, 0xc1, 0xcd, 0x52, 0x60, 0x83, 0x18, 0xbf, 0x51, 0x26,
  0x1e, 0xa8, 0x25, 0xc1, 0x6d, 0xba, 0xad, 0xdf, 0xb3, 0xdd, 0xfa, 0xe6,
  0xc1, 0xeb, 0x47, 0x42, 0xe0, 0xd3, 0xe2, 0xc3, 0x14, 0xa8, 0xbd, 0xbf,
  0x58, 0x33, 0x2c, 0xe9, 0x45, 0xfd, 0x39, 0xae, 0xa7, 0xe2, 0xf4, 0xbc,
  0xed, 0xf1, 0xf4, 0x2f, 0x7f, 0x01, 0x0f, 0xb8, 0xcb, 0xe3, 0x85, 0xd8,
  0x25, 0xd5, 0xae, 0x1f, 0xa5, 0x56, 0x00, 0x64, 0x10, 0xe0, 0x16, 0x41,
  0xcd, 0x4e, 0xe5, 0x53, 0x5e, 0xdb, 0xbf, 0xc5, 0x6f, 0x14, 0x23, 0x38,
  0xab, 0xab, 0xbf, 0x4a, 0x8f, 0xc2, 0xed, 0x32, 0x62, 0x23, 0x1d, 0x3a,
  0x50, 0xf8, 0x36, 0xd0, 0x0e, 0xdf, 0x3e, 0xc8, 0xf8, 0xc7, 0x24, 0xe6,
  0x30, 0x2c, 0xec, 0xca, 0x36, 0x22, 0xe4, 0x6a, 0x30, 0xd1, 0xf0, 0xee,
  0x1a, 0x4b, 0x57, 0x19, 0x81, 0x10, 0xf1, 0x9b, 0x21, 0xd2, 0x63, 0xe1,
  0x2a, 0x4c, 0xc9, 0xf1, 0xb1, 0x9b, 0xb9, 0x26, 0xba, 0xa6, 0x31, 0x4e,
  0xf2, 0xaa, 0xab, 0x99, 0x43, 0x40, 0xc8, 0xf2, 0x38, 0xab, 0x25, 0xcd,
  0x2a, 0x07, 0x2b, 0x4d, 0xd7, 0x86, 0x83, 0xc9, 0x18, 0x36, 0xa3, 0x9c,
  0x5d, 0xc5, 0xb2, 0x00, 0x67, 0xb7, 0x5e, 0x94, 0xee, 0xd8, 0xe2, 0xb9,
  0x0f, 0xd1, 0xf1, 0x65, 0x9d, 0x4d, 0x73, 0xb4, 0xea, 0x46, 0x19, 0xe7,
  0x32, 0x5c, 0xb4, 0x9f, 0x45, 0x7f, 0x30, 0x2a, 0x38, 0xde, 0x5d, 0xd6,
  0xdd, 0x84, 0xfe, 0xd3, 0x06, 0x06, 0x63, 0x9d, 0x61, 0x17, 0xde, 0x51,
  0x5e, 0x70, 0x22, 0xa4, 0xa9, 0xa5, 0x1e, 0x27, 0xc7, 0xcf, 0xba, 0x15,
  0x74, 0x03, 0xcd, 0x9d, 0xaa, 0xb9, 0xce, 0xec, 0x2c, 0x2b, 0xf6, 0x4b,
  0x2c, 0xf5, 0xb3, 0x2e, 0x66, 0xb5, 0x0f, 0xe3, 0x48, 0xc5, 0x07, 0x5b,
  0xbb, 0x96, 0x00, 0xc1, 0xbd, 0xdf, 0xc9, 0x46, 0x11, 0x02, 0x55, 0x4f,
  0x81, 0xbc, 0xdd, 0x12, 0xc8, 0x05, 0xfc, 0xf6, 0xc1, 0x35, 0x3f, 0x76,
  0xc3, 0xaf, 0xc0, 0xb8, 0xf1, 0xd4, 0x2e, 0x57, 0x4d, 0x1f, 0xad, 0xab,
  0x2b, 0x27, 0xe9, 0xc1, 0xb2, 0x58, 0x64, 0x39, 0x3a, 0x6e, 0xe5, 0xbd,
  0x2d, 0x5f, 0x0a, 0x4b, 0x29, 0x2a, 0x42, 0xe9, 0xf7, 0x08, 0x0e, 0xe4,
  0x2a, 0x3e, 0x9b, 0xdc, 0xc6, 0x6c, 0x1e, 0x2b, 0xe1, 0xed, 0x04, 0x2c,
  0x21, 0x4e, 0xc1, 0x13, 0x1b, 0x48, 0xe1, 0xc9, 0x6f, 0x51, 0xf4, 0x24,
  0xcb, 0x06, 0xc9, 0x3e, 0x4a, 0x40, 0x62, 0x05, 0xfd, 0xc3, 0x8c, 0x79,
  0xbd, 0x1e, 0x92, 0x05, 0xb2, 0xaf, 0x32, 0xaa, 0xef, 0x30, 0xcd, 0xc3,
  0xb9, 0x74, 0xed, 0xd0, 0xd0, 0xbf, 0x7f, 0xa2, 0xf2, 0xdd, 0xdc, 0xfd,
  0x00, 0xd7, 0x35, 0x7a, 0xb5, 0xf4, 0x4f, 0x20, 0x54, 0xfe, 0x9a, 0xe8,
  0x37, 0x53, 0x18, 0x5e, 0x98, 0xdf, 0xc3, 0x9c, 0xd0, 0x0d, 0x82, 0x52,
  0xcb, 0x92, 0x42, 0x18, 0x55, 0x92, 0xe4, 0xe9, 0x48, 0x7f, 0xea, 0x20,
  0xf3, 0xb6, 0x44, 0x0e, 0x43, 0x65, 0xec, 0x08, 0x4d, 0x0a, 0x00, 0x6a,
  0xe8, 0x32, 0x2e, 0x4f, 0x62, 0x23, 0x2b, 0x25, 0xba, 0xbf, 0x84, 0xc7,
  0x24, 0x6f, 0xef, 0x58, 0x8f, 0xdf, 0x10, 0x33, 0x53, 0x3f, 0xce, 0xd7,
  0xd8, 0x12, 0x20, 0xbe, 0x0c, 0x44, 0xeb, 0xb7, 0x03, 0xe8, 0xf4, 0xaf,
  0x43, 0xc4, 0x86, 0x11, 0x7f, 0x31, 0xaa, 0xa2, 0x66, 0xcb, 0xa9, 0x0b,
  0xf0, 0x93, 0xbe, 0x9f, 0xa8, 0x67, 0xc0, 0x56, 0x59, 0x60, 0xb5, 0x51,
  0xfe, 0x00, 0xd9, 0xd1, 0x17, 0xb0, 0xab, 0x9e, 0x3c, 0xa7, 0xc0, 0x67,
  0x36, 0x68, 0x81, 0xa0, 0x1c, 0x49, 0x55, 0x1d, 0xc4, 0xd7, 0xa9, 0xab,
  0x4b, 0x0a, 0x63, 0x60, 0x1e, 0x37, 0x42, 0xf7, 0x60, 0x49, 0x82, 0xc1,
  0x0b, 0xfa, 0x23, 0x55, 0x8a, 0xe8, 0x67, 0xf8, 0x08, 0xc8, 0x0f, 0xf5,
  0x27, 0xd8, 0x1d, 0x2d, 0x81, 0x2b, 0xe2, 0xc4, 0xcd, 0xb1, 0xe8, 0xd6,
  0xf7, 0xaf, 0x02, 0xec, 0x08, 0x27, 0x63, 0x69, 0xd9, 0x9f, 0xfe, 0x05,
  0xbe, 0x0a, 0xd4, 0x47, 0xea, 0xb1, 0x5f, 0xae, 0x09, 0xe9, 0xe5, 0x3f,
  0x14, 0xd8, 0xfc, 0x6b, 0xcf, 0xaf, 0xf6, 0xfc, 0x24, 0xef, 0x09, 0x2f,
  0x4c, 0xcc, 0xef, 0xc0, 0x1e, 0xb5, 0xfe, 0x57, 0x0a, 0x29, 0xcb, 0x36,
  0xbb, 0x4f, 0x33, 0xb0, 0x38, 0x19, 0x98, 0xee, 0xbf, 0x2f, 0xa3, 0x2a,
  0xdc, 0x3d, 0x8e, 0xb1, 0x60, 0x94, 0x2a, 0x3c, 0xa3, 0x1b, 0xe0, 0x45,
  0x0a, 0xb2, 0xe5, 0x23, 0xef, 0xec, 0xf0, 0xce, 0xf8, 0x62, 0x9c, 0xaf,
  0xfc, 0xbe, 0x2f, 0x19, 0x51, 0x06, 0xff, 0xf2, 0xf7, 0x7f, 0x91, 0xf6,
  0x23, 0xfb, 0x1a, 0x94, 0x1a, 0xa2, 0x6d, 0x70, 0xca, 0x39, 0xfa, 0x05,
  0xf2, 0xff, 0xa4, 0x26, 0xd4, 0xc2, 0xb4, 0xc5, 0xbc, 0x2f, 0x09, 0x5d,
  0xbd, 0x29, 0x3d, 0x45, 0x5d, 0xc2, 0x9d, 0x97, 0x4a, 0x5d, 0xc2, 0x78,
  0x6b, 0x06, 0xb2, 0xeb, 0x7b, 0xe0, 0x2b, 0x1f, 0x13, 0x95, 0xfa, 0x45,
  0xc6, 0x3a, 0x8a, 0xa6, 0x37, 0xb7, 0xf9, 0x47, 0x2c, 0x57, 0xa3, 0x77,
  0x35, 0x17, 0x66, 0x89, 0xea, 0x99, 0x40, 0xcb, 0x89, 0x57, 0xf8, 0x1c,
  0x11, 0x42, 0x5f, 0x7c, 0x38, 0x45, 0xb8, 0xe2, 0xc5, 0x33, 0x23, 0xa3,
  0x26, 0x34, 0x81, 0xc6, 0x08, 0x22, 0x52, 0xed, 0xdc, 0x74, 0x0c, 0x63,
  0xf5, 0x05, 0x4b, 0xf6, 0xbe, 0xda, 0xff, 0xff, 0x04, 0x00, 0x00, 0x00,
  0x60, 0x00, 0x00, 0x00, 0x16, 0xf2, 0xff, 0xff, 0xd9, 0xfd, 0xff, 0xff,
  0xea, 0xf8, 0xff, 0xff, 0xe6, 0xf5, 0xff, 0xff, 0x00, 0x00, 0x00, 0x00,
  0xf8, 0xfb, 0xff, 0xff, 0x40, 0xfb, 0xff, 0xff, 0x38, 0xf6, 0xff, 0xff,
  0x45, 0xfa, 0xff, 0xff, 0x57, 0xee, 0xff, 0xff, 0xf2, 0xfd, 0xff, 0xff,
  0xbf, 0xe8, 0xff, 0xff, 0x67, 0xf3, 0xff, 0xff, 0x7c, 0xf2, 0xff, 0xff,
  0xc4, 0xfd, 0xff, 0xff, 0x56, 0xf7, 0xff, 0xff, 0xe8, 0xf9, 0xff, 0xff,
  0x77, 0xf2, 0xff, 0xff, 0xa0, 0xeb, 0xff, 0xff, 0x15, 0xed, 0xff, 0xff,
  0x88, 0xf9, 0xff, 0xff, 0xec, 0xfc, 0xff, 0xff, 0x2b, 0xff, 0xff, 0xff,
  0xa6, 0xf9, 0xff, 0xff, 0x2a, 0xdb, 0xff, 0xff, 0x04, 0x00, 0x00, 0x00,
  0xc0, 0x06, 0x00, 0x00, 0x9f, 0x19, 0xdd, 0x3f, 0x40, 0x24, 0xb6, 0x11,
  0xd8, 0x9e, 0x09, 0x37, 0x14, 0xa4, 0xa4, 0x8b, 0xf1, 0x4c, 0x12, 0x46,
  0x08, 0x82, 0xe1, 0xa6, 0x30, 0x35, 0x92, 0x44, 0x3b, 0xa0, 0x4e, 0x3a,
  0xa2, 0xc2, 0xea, 0xac, 0x8b, 0xd2, 0x34, 0x36, 0xc8, 0xe1, 0xac, 0x1a,
  0xda, 0xd6, 0xd9, 0x05, 0xed, 0x9e, 0x9d, 0xaf, 0xc1, 0x13, 0x88, 0xf0,
  0x5b, 0x21, 0x40, 0xd3, 0xc4, 0x59, 0x5c, 0x9b, 0x81, 0xf0, 0x4e, 0x91,
  0x38, 0xa3, 0x7d, 0x9c, 0x9f, 0xf8, 0xf1, 0xd1, 0xfa, 0xde, 0x27, 0xd7,
  0xa2, 0x00, 0xdb, 0x2e, 0x2d, 0x50, 0x3a, 0x52, 0x98, 0x52, 0xb2, 0xd1,
  0x10, 0x36, 0x4d, 0xd8, 0xe3, 0x11, 0x00, 0xd6, 0xc3, 0x1f, 0x42, 0x3c,
  0x1b, 0x94, 0xd4, 0xe7, 0x1d, 0x1f, 0x05, 0xed, 0x27, 0xc7, 0x33, 0xa4,
  0xfa, 0xe8, 0xb6, 0xc3, 0x07, 0x7f, 0xd4, 0x3c, 0x25, 0xf9, 0x07, 0xfa,
  0xfa, 0x25, 0x17, 0x47, 0xbc, 0xe5, 0x1f, 0x3a, 0x05, 0x4d, 0x4a, 0xfa,
  0x95, 0x33, 0x33, 0xcf, 0xad, 0xe2, 0x29, 0x10, 0x8f, 0x69, 0x1f, 0x63,
  0x23, 0x8d, 0x68, 0xff, 0x50, 0xdc, 0x1d, 0xb0, 0x7d, 0x5e, 0x43, 0x36,
  0x6e, 0xc2, 0x6c, 0xe6, 0x96, 0xfc, 0x8c, 0x22, 0x8c, 0x1b, 0x28, 0x37,
  0xb6, 0x0c, 0xbf, 0xba, 0x5f, 0x77, 0x43, 0xec, 0x02, 0xf2, 0xf5, 0xd4,
  0xba, 0xbc, 0xbf, 0xae, 0x5b, 0xb0, 0xc9, 0xc9, 0x2c, 0x4e, 0xdf, 0x90,
  0x72, 0x81, 0xb4, 0x9d, 0xab, 0xe2, 0xfe, 0x90, 0xd2, 0xaf, 0x9b, 0x72,
  0xa4, 0x17, 0x64, 0xda, 0xc1, 0x49, 0x3a, 0xc5, 0x1b, 0x62, 0x48, 0xae,
  0x59, 0x15, 0x8f, 0xb1, 0xd9, 0x3a, 0xd0, 0x0b, 0x7d, 0x5f, 0xee, 0x54,
  0x2d, 0x38, 0x41, 0x2a, 0xa6, 0xef, 0x82, 0xc2, 0x24, 0xe5, 0x36, 0x08,
  0x3d, 0x84, 0x8c, 0x14, 0x0e, 0x3b, 0x46, 0x88, 0x2c, 0x86, 0x4d, 0x95,
  0x4e, 0x08, 0x93, 0xd4, 0xd6, 0x9f, 0x81, 0x10, 0xa3, 0x7b, 0x8b, 0xd7,
  0x45, 0x18, 0xdb, 0x1c, 0xaa, 0xc9, 0xb6, 0x53, 0xfa, 0xa5, 0xcd, 0x64,
  0x56, 0x8f, 0x12, 0xb8, 0xc3, 0x41, 0xa2, 0xea, 0x33, 0x30, 0x88, 0xb3,
  0xc5, 0x56, 0xe4, 0xee, 0x32, 0xc7, 0x90, 0x2e, 0x3d, 0xb5, 0xa3, 0xa2,
  0x94, 0xeb, 0x9d, 0x1c, 0x3b, 0x19, 0xf3, 0xf1, 0x5e, 0xd3, 0xa8, 0xbb,
  0x5a, 0x5f, 0xde, 0x99, 0xbe, 0x13, 0xce, 0x25, 0x42, 0xda, 0x53, 0xc1,
  0xd3, 0x13, 0x26, 0x31, 0xa4, 0xfe, 0x94, 0xf9, 0x00, 0x61, 0x35, 0xc8,
  0x17, 0x2e, 0xec, 0x4d, 0xad, 0xbe, 0xea, 0x0b, 0x4f, 0x8d, 0x2b, 0x08,
  0x99, 0x81, 0x5a, 0xe3, 0xaf, 0xf1, 0x42, 0x5e, 0x16, 0x57, 0xcf, 0x0c,
  0x9f, 0x32, 0x1c, 0xb4, 0x1d, 0x69, 0x04, 0x06, 0xf7, 0xd4, 0xdd, 0x5f,
  0xb1, 0x1a, 0x6e, 0x93, 0x48, 0x01, 0x57, 0x5a, 0x63, 0xb1, 0x51, 0xeb,
  0x28, 0x25, 0x03, 0x49, 0xf8, 0xe6, 0xca, 0x01, 0x2c, 0xbd, 0x78, 0xe9,
  0x21, 0x67, 0xc6, 0xb7, 0x4e, 0x3c, 0xf7, 0x3d, 0x2d, 0x19, 0xf3, 0xfd,
  0x35, 0xa8, 0x33, 0xc2, 0xa0, 0x7f, 0xb4, 0x4e, 0x0f, 0xe4, 0x14, 0xea,
  0x83, 0xfc, 0x34, 0x15, 0xfd, 0xcd, 0xa7, 0xdb, 0xf1, 0xca, 0xf5, 0x7f,
  0x0a, 0x0a, 0xef, 0xe0, 0xfe, 0x39, 0xed, 0x90, 0xe4, 0xd3, 0xec, 0x4b,
  0xce, 0xc8, 0xf3, 0x3d, 0xf9, 0x04, 0x82, 0xb5, 0x55, 0x47, 0xd4, 0xa0,
  0xda, 0xc7, 0x13, 0x17, 0xd0, 0xe7, 0xba, 0xc5, 0x24, 0x3b, 0xc8, 0xa2,
  0x2e, 0xae, 0x35, 0x07, 0x26, 0x0a, 0x5c, 0xc6, 0xea, 0xc8, 0x9f, 0x56,
  0x38, 0xfc, 0xc6, 0x0f, 0x41, 0xec, 0x30, 0xa0, 0x0e, 0xf9, 0x38, 0xc3,
  0xc1, 0xd7, 0x4b, 0x1f, 0xc9, 0x02, 0xd3, 0x1f, 0xae, 0x60, 0xda, 0x50,
  0xd3, 0x00, 0x8d, 0x13, 0x68, 0xac, 0x3f, 0x13, 0xf8, 0x31, 0x38, 0x01,
  0x33, 0x44, 0x79, 0xa4, 0x81, 0x0a, 0x21, 0xf4, 0xb5, 0x1d, 0x2d, 0xf5,
  0x05, 0x52, 0x42, 0xdd, 0xd4, 0x04, 0x36, 0xca, 0x95, 0x34, 0x20, 0xc5,
  0xd2, 0x4d, 0xd6, 0x42, 0x2e, 0xe1, 0x27, 0x06, 0x49, 0xfe, 0x10, 0xac,
  0xc7, 0x2f, 0x43, 0x4c, 0xe1, 0xc5, 0xd3, 0x2d, 0xaa, 0xf9, 0x2e, 0x12,
  0x1e, 0x05, 0xbd, 0x32, 0x01, 0x2e, 0xab, 0x50, 0x50, 0x10, 0x96, 0x63,
  0x05, 0xc3, 0xb5, 0xd1, 0x27, 0x81, 0x98, 0x4f, 0x4c, 0x2f, 0xe6, 0x5b,
  0xfb, 0x59, 0x41, 0x51, 0x60, 0x99, 0xf6, 0x14, 0x5f, 0xa3, 0x00, 0x3e,
  0xb4, 0x06, 0xad, 0x4c, 0x54, 0x1e, 0x9c, 0xc3, 0x91, 0x9b, 0x3c, 0x32,
  0xf8, 0x9f, 0x5f, 0x90, 0x06, 0xe3, 0x9c, 0xe7, 0xbb, 0x6d, 0xb5, 0x15,
  0x94, 0x0f, 0xb6, 0xfa, 0x18, 0xad, 0xe8, 0xf9, 0xeb, 0xd3, 0xf4, 0x86,
  0x8f, 0x94, 0xb3, 0x3c, 0x34, 0x93, 0xb3, 0x0a, 0xe8, 0x04, 0xb1, 0xe4,
  0xf4, 0x12, 0x07, 0x0a, 0x31, 0x4c, 0x50, 0xea, 0x10, 0xed, 0x9e, 0x16,
  0xa7, 0x91, 0xef, 0xf6, 0x9f, 0xe5, 0x94, 0xb8, 0xc4, 0xa4, 0xc7, 0xec,
  0xcc, 0x17, 0x13, 0x27, 0xcf, 0xab, 0xfd, 0x81, 0x33, 0x46, 0x24, 0xf6,
  0xc7, 0xce, 0x86, 0xce, 0xfb, 0x23, 0x45, 0x88, 0xe4, 0x22, 0x8b, 0xff,
  0x1f, 0x0e, 0x47, 0xbd, 0x07, 0x38, 0xd4, 0x03, 0x49, 0x45, 0x9e, 0x22,
  0x0d, 0xba, 0x1a, 0xe2, 0x13, 0x14, 0x70, 0x64, 0x41, 0x25, 0x1a, 0xa9,
  0xc0, 0xae, 0xbf, 0xb9, 0xf7, 0x11, 0x81, 0x91, 0xb8, 0xbb, 0x50, 0x69,
  0xfc, 0x1a, 0xed, 0xc2, 0xec, 0xdf, 0xa9, 0xcb, 0xd0, 0xcb, 0x70, 0x6e,
  0xf1, 0x16, 0xd8, 0xc4, 0xce, 0xc3, 0xec, 0x46, 0x13, 0xab, 0x50, 0x2e,
  0xd0, 0xd3, 0x10, 0x56, 0x25, 0xda, 0xf1, 0xb5, 0x40, 0xfb, 0xa8, 0x35,
  0x65, 0x59, 0xb7, 0xf7, 0xc9, 0x16, 0xb2, 0x8f, 0xd8, 0x59, 0xa5, 0x55,
  0x54, 0x00, 0xeb, 0xb4, 0xbb, 0x00, 0xd8, 0x40, 0x20, 0xa3, 0x84, 0x29,
  0xe4, 0x9d, 0xdf, 0xc2, 0x5f, 0x29, 0x8a, 0xb6, 0x0d, 0x4f, 0x6f, 0x2d,
  0x38, 0xd5, 0x21, 0xc8, 0x45, 0xa4, 0x94, 0xe1, 0xae, 0xbe, 0x39, 0x8e,
  0x73, 0xa5, 0x5c, 0x31, 0x1d, 0x1d, 0x36, 0x60, 0x2e, 0xbf, 0xe0, 0xcc,
  0x81, 0x45, 0xd5, 0x43, 0x27, 0xdd, 0xf5, 0xff, 0xe8, 0x9c, 0xef, 0x88,
  0x10, 0x5c, 0xd3, 0xcd, 0x08, 0x1e, 0x4f, 0xc1, 0x50, 0xa9, 0xd4, 0x8c,
  0x24, 0xdf, 0x30, 0xae, 0xcf, 0x77, 0x48, 0x19, 0xd7, 0x5a, 0xec, 0x2d,
  0x30, 0xd1, 0x70, 0x0c, 0xc2, 0x14, 0xaf, 0xb9, 0x4b, 0xdb, 0xe0, 0x1d,
  0x2f, 0x24, 0xa0, 0x19, 0xce, 0x7f, 0xa2, 0xd7, 0xaa, 0x33, 0x71, 0x50,
  0x24, 0x00, 0xeb, 0x56, 0xbc, 0xfb, 0xc9, 0x28, 0xbd, 0x33, 0xed, 0xbd,
  0xe3, 0x67, 0x3e, 0xe5, 0x4c, 0x04, 0x1e, 0xe5, 0xcd, 0xa9, 0x44, 0xe6,
  0xd4, 0xcd, 0xb6, 0xdf, 0x94, 0x17, 0xcd, 0xfc, 0x19, 0x1e, 0xd8, 0x56,
  0xc9, 0xd8, 0x3e, 0x27, 0xe6, 0xb0, 0xec, 0xe3, 0xf4, 0xbc, 0xeb, 0xe4,
  0xa8, 0x03, 0x81, 0x51, 0x1f, 0x65, 0xde, 0xb2, 0x24, 0x4d, 0x09, 0x45,
  0x1b, 0x37, 0xcc, 0xd2, 0xb4, 0x2b, 0xc7, 0xb4, 0xb2, 0x13, 0xc6, 0xcd,
  0x3b, 0xbf, 0x3a, 0x2c, 0xb5, 0xdc, 0x96, 0x34, 0x8b, 0xcb, 0x16, 0xae,
  0xcb, 0xc1, 0x45, 0x57, 0xa0, 0xd8, 0xa0, 0x82, 0xa5, 0xce, 0xc6, 0x4f,
  0x4e, 0x37, 0xd6, 0x15, 0x11, 0xba, 0xe8, 0x28, 0xf1, 0xcf, 0x4f, 0x48,
  0xc8, 0x40, 0xad, 0xca, 0xde, 0x25, 0x3b, 0x94, 0x9f, 0xd9, 0x8b, 0x54,
  0x7f, 0xd9, 0x56, 0xb8, 0xf3, 0xb3, 0x15, 0x0c, 0xc9, 0x43, 0x9b, 0x19,
  0x67, 0x55, 0x9e, 0x02, 0x5a, 0x4b, 0x19, 0xc1, 0x77, 0x72, 0xe8, 0x04,
  0xb9, 0x2c, 0xe5, 0x55, 0xd2, 0x64, 0xce, 0x2b, 0xd2, 0xc8, 0x02, 0xa9,
  0x78, 0xaa, 0xab, 0xec, 0x6f, 0x37, 0xe1, 0x3c, 0x78, 0x8a, 0xc6, 0x12,
  0xea, 0x1d, 0xf3, 0x3e, 0xac, 0x3f, 0xc1, 0x2d, 0x7b, 0x71, 0xc5, 0x37,
  0x41, 0x9c, 0xd0, 0x2a, 0x0f, 0xd5, 0x41, 0xa9, 0xb2, 0x5f, 0x1e, 0xcc,
  0x52, 0x44, 0x09, 0x6b, 0x9f, 0xb0, 0xa7, 0x4f, 0x60, 0xbd, 0x67, 0x0b,
  0x3f, 0x52, 0x74, 0x4f, 0x81, 0xcd, 0x91, 0xed, 0xbc, 0x70, 0x8f, 0x69,
  0x9b, 0xbd, 0x6c, 0xf1, 0x54, 0x2f, 0x0c, 0x51, 0xcc, 0x8a, 0x31, 0xba,
  0x38, 0xf0, 0x3f, 0x14, 0x5a, 0x1c, 0x3c, 0x9d, 0x19, 0xb6, 0xf6, 0x29,
  0x0b, 0x5e, 0xa4, 0xd7, 0xac, 0xff, 0x58, 0x9b, 0x46, 0x8f, 0xc9, 0xc3,
  0x22, 0xe4, 0xac, 0x6e, 0xca, 0x4b, 0x9f, 0x35, 0x45, 0xfc, 0xa7, 0xdb,
  0xc9, 0x49, 0xa2, 0xc2, 0x54, 0xc8, 0xf9, 0xd1, 0xc7, 0x8d, 0x54, 0x23,
  0xc6, 0x56, 0x6a, 0x27, 0xba, 0xe9, 0x87, 0x33, 0x6b, 0xea, 0xb4, 0xe6,
  0x98, 0xfb, 0x9b, 0x0d, 0xc1, 0xa1, 0x39, 0xa0, 0x81, 0x43, 0xf0, 0xc2,
  0x0d, 0xeb, 0xbc, 0xa2, 0xb1, 0xcc, 0x3e, 0xe3, 0xa6, 0xd1, 0x03, 0x4e,
  0x9b, 0xa4, 0x91, 0x2f, 0x36, 0xff, 0xf2, 0xaf, 0xd2, 0xd1, 0xb6, 0x51,
  0xf5, 0x2d, 0xad, 0xac, 0x06, 0xc9, 0xcb, 0x2c, 0x3f, 0xf2, 0xd5, 0xf0,
  0xe1, 0xcc, 0x36, 0xc4, 0xd0, 0x28, 0x1c, 0xf4, 0x2f, 0xd1, 0xc4, 0xd8,
  0xd9, 0x1e, 0x23, 0xf9, 0xc4, 0xd9, 0x26, 0xf2, 0x34, 0xee, 0xec, 0x6e,
  0xc8, 0x21, 0x10, 0xf4, 0xcb, 0xd3, 0x20, 0xe8, 0x1d, 0xd6, 0xd8, 0x0c,
  0xe8, 0xe9, 0xe9, 0x26, 0x23, 0x81, 0x17, 0xcc, 0x08, 0xd3, 0x18, 0x4d,
  0xf4, 0xe4, 0x4d, 0xf6, 0x08, 0xd5, 0xec, 0x9d, 0xe2, 0x06, 0xfb, 0x14,
  0xf2, 0xb9, 0x12, 0xfe, 0xc0, 0xe8, 0x3f, 0xd6, 0xb2, 0x03, 0x16, 0xf2,
  0x23, 0xf6, 0x32, 0x5b, 0x3f, 0xf9, 0x28, 0xe6, 0xcd, 0x08, 0xf6, 0x16,
  0x2c, 0xb1, 0x3e, 0xf1, 0xc5, 0x81, 0x4e, 0xd1, 0x26, 0xd7, 0x39, 0xc7,
  0xd6, 0x98, 0xd4, 0x33, 0x27, 0x4f, 0xf1, 0x37, 0x07, 0x02, 0x4c, 0x0a,
  0xec, 0xeb, 0xbe, 0xf5, 0x53, 0xd5, 0xf2, 0xfa, 0x55, 0xae, 0xf5, 0x5a,
  0xcb, 0x9e, 0x3d, 0x41, 0xee, 0x02, 0xee, 0x0f, 0xbe, 0xe7, 0x35, 0xf3,
  0xd7, 0x53, 0xff, 0xb1, 0x4f, 0x3c, 0xc4, 0xe4, 0x4f, 0xf2, 0x15, 0xe1,
  0x9c, 0x45, 0xf4, 0xf2, 0x43, 0xe2, 0x09, 0x11, 0xe8, 0x4d, 0x1e, 0xa6,
  0x1f, 0x8e, 0xc8, 0xfc, 0xb0, 0x06, 0xe3, 0x92, 0x58, 0x2f, 0x2b, 0xac,
  0xe4, 0x30, 0xfc, 0xa3, 0x31, 0x98, 0x5c, 0xde, 0x00, 0xbe, 0x31, 0xb4,
  0xb2, 0x81, 0xa5, 0x41, 0xa7, 0x98, 0xfb, 0x52, 0x2e, 0x30, 0x24, 0x99,
  0x4d, 0x94, 0xa1, 0x48, 0x47, 0x39, 0x39, 0xd2, 0x49, 0x49, 0xf5, 0x34,
  0xc3, 0xcd, 0x34, 0xe8, 0xae, 0x1f, 0xe3, 0x5a, 0xce, 0x46, 0x15, 0x39,
  0xea, 0x9f, 0x32, 0xbb, 0x5c, 0xfa, 0x31, 0x59, 0xf7, 0x3b, 0x92, 0x2a,
  0x9b, 0xeb, 0xda, 0xda, 0xb4, 0x46, 0x96, 0xb7, 0x0d, 0xc8, 0x26, 0x3f,
  0xe1, 0xda, 0xc3, 0x57, 0x35, 0xed, 0x98, 0x29, 0xe2, 0xd2, 0xd9, 0x3f,
  0x36, 0xef, 0x45, 0xf4, 0x44, 0x1d, 0x58, 0x20, 0x16, 0xf0, 0x64, 0x14,
  0xff, 0x8e, 0xcf, 0xf4, 0xde, 0x24, 0x29, 0x57, 0x81, 0x16, 0x0a, 0x5a,
  0xf7, 0x2f, 0x4a, 0xf2, 0x8b, 0x71, 0x04, 0x6d, 0x15, 0xfc, 0xd5, 0x03,
  0xba, 0x08, 0x63, 0x31, 0x06, 0xc8, 0xbf, 0x32, 0xc8, 0x69, 0x58, 0xeb,
  0xbc, 0x5f, 0x5a, 0x6f, 0xc8, 0x5e, 0x1a, 0x5d, 0xa2, 0x56, 0x49, 0x31,
  0xa2, 0x8b, 0x6c, 0x18, 0x14, 0x51, 0xe9, 0x32, 0x40, 0xd1, 0x09, 0xda,
  0xdc, 0x60, 0x4c, 0x2f, 0x27, 0x7f, 0xdb, 0xc0, 0x05, 0x9f, 0x42, 0xd5,
  0x42, 0xc1, 0xaf, 0xc7, 0x26, 0xc5, 0xec, 0xe0, 0xd7, 0x3e, 0x8e, 0x85,
  0xc6, 0x8a, 0x87, 0x88, 0x25, 0x81, 0xf5, 0x42, 0x66, 0x6d, 0x15, 0x8d,
  0x96, 0x98, 0xf1, 0xf6, 0xc7, 0xc5, 0x9e, 0x9e, 0xf7, 0x0d, 0x4a, 0xe4,
  0xc4, 0x28, 0x1d, 0x0f, 0x5e, 0xd0, 0x25, 0x5a, 0xfd, 0x98, 0x43, 0xc3,
  0x4c, 0x5d, 0xd4, 0x36, 0xe2, 0xe9, 0xaa, 0x5d, 0x5d, 0x95, 0x44, 0xe8,
  0x47, 0x45, 0x95, 0x16, 0x94, 0x50, 0xbf, 0xb3, 0x49, 0x4b, 0x63, 0xaf,
  0x28, 0x85, 0xe8, 0xe2, 0x21, 0xfa, 0x0b, 0x0c, 0x97, 0xee, 0x3d, 0x1c,
  0x47, 0x96, 0xe1, 0x1a, 0xd7, 0xd7, 0xc4, 0xcf, 0x64, 0x90, 0xb5, 0xf0,
  0x36, 0x91, 0x10, 0xc2, 0xed, 0x9d, 0xca, 0x8b, 0x8c, 0x8d, 0x34, 0x36,
  0x0c, 0x18, 0x8e, 0x38, 0x58, 0x82, 0x0a, 0x93, 0x74, 0x0a, 0x4f, 0xf3,
  0xc5, 0x12, 0x19, 0xf5, 0xa2, 0x62, 0x3e, 0x8d, 0xc1, 0xe7, 0x0a, 0x15,
  0x03, 0x57, 0x61, 0x61, 0x9c, 0x1c, 0xc5, 0xbf, 0x41, 0xb5, 0xa6, 0xa6,
  0x5f, 0x58, 0x51, 0x28, 0xa4, 0x24, 0x91, 0xaa, 0x4d, 0x3f, 0xb7, 0x81,
  0x3e, 0xd5, 0x5f, 0x51, 0xf6, 0xe1, 0xff, 0xff, 0x04, 0x00, 0x00, 0x00,
  0x60, 0x00, 0x00, 0x00, 0x40, 0xd0, 0xff, 0xff, 0xb8, 0x11, 0x00, 0x00,
  0xa9, 0xee, 0xff, 0xff, 0x6f, 0xd6, 0xff, 0xff, 0x5d, 0xad, 0xff, 0xff,
  0x83, 0xe7, 0xff, 0xff, 0x28, 0x19, 0x00, 0x00, 0xa7, 0xcc, 0xff, 0xff,
  0x46, 0xde, 0xff, 0xff, 0x00, 0xb7, 0xff, 0xff, 0x53, 0x15, 0x00, 0x00,
  0x2d, 0xb5, 0xff, 0xff, 0x2d, 0xfa, 0xff, 0xff, 0x81, 0xca, 0xff, 0xff,
  0x87, 0x09, 0x00, 0x00, 0xbe, 0xe6, 0xff, 0xff, 0xcb, 0xc5, 0xff, 0xff,
  0x80, 0x25, 0x00, 0x00, 0x2d, 0xf7, 0xff, 0xff, 0x87, 0xc5, 0xff, 0xff,
  0x2b, 0xe2, 0xff, 0xff, 0xfd, 0xf8, 0xff, 0xff, 0x58, 0xd4, 0xff, 0xff,
  0x4d, 0xf0, 0xff, 0xff, 0x62, 0xe2, 0xff, 0xff, 0x04, 0x00, 0x00, 0x00,
  0xc0, 0x06, 0x00, 0x00, 0x4f, 0x9e, 0x4f, 0x5d, 0xd0, 0x43, 0x21, 0x54,
  0x31, 0x35, 0xa1, 0xe1, 0x0b, 0xee, 0xa6, 0xd5, 0xc7, 0x5d, 0xce, 0x0c,
  0xe4, 0x16, 0x5d, 0xbf, 0xe4, 0xc8, 0x1a, 0xe5, 0x7f, 0x2e, 0x5a, 0x9c,
  0x75, 0xde, 0xb3, 0x2d, 0xb8, 0x5c, 0x42, 0xef, 0x99, 0x6a, 0x3c, 0x4d,
  0x54, 0xde, 0xba, 0xc8, 0xba, 0x2d, 0x97, 0x34, 0x6f, 0xf5, 0x39, 0xf4,
  0xec, 0xac, 0x8d, 0xa4, 0xc4, 0x61, 0x54, 0x44, 0xde, 0xf2, 0xe0, 0xe0,
  0xd9, 0x9e, 0xf2, 0x75, 0xb9, 0x81, 0x9f, 0xc8, 0x05, 0xf2, 0x09, 0xde,
  0xaa, 0xea, 0x27, 0x64, 0xec, 0x04, 0x6c, 0x31, 0xb0, 0xba, 0x08, 0x3c,
  0xf1, 0xc8, 0xb1, 0x0b, 0x34, 0xd2, 0x95, 0xcb, 0xbb, 0xc9, 0x07, 0x53,
  0x64, 0x2c, 0xdf, 0x99, 0x4f, 0x74, 0x4a, 0xb8, 0x44, 0x00, 0x54, 0xd8,
  0x5b, 0x41, 0xa2, 0xc4, 0xc4, 0x3c, 0x58, 0xe7, 0x1c, 0xfe, 0xac, 0xb3,
  0xaf, 0x3e, 0x96, 0xe0, 0xc8, 0x1d, 0x17, 0x87, 0xd2, 0xa1, 0x00, 0xa4,
  0xaa, 0xaf, 0x53, 0x04, 0xec, 0x98, 0x44, 0xbf, 0x08, 0xa8, 0x90, 0xd0,
  0xfe, 0xab, 0x81, 0x50, 0x10, 0xb2, 0xf9, 0xdf, 0xc6, 0x15, 0xe3, 0x19,
  0xbe, 0x25, 0xd3, 0x5d, 0xa7, 0x41, 0x1d, 0x18, 0xc9, 0xf6, 0xf9, 0x62,
  0x37, 0x7d, 0x08, 0x40, 0xf2, 0x3b, 0x62, 0xfb, 0x3d, 0xc9, 0x8a, 0xb8,
  0xc2, 0x31, 0xf1, 0xcd, 0x16, 0xe6, 0xe8, 0xc9, 0x09, 0x26, 0xd3, 0xcf,
  0xd5, 0xae, 0xa9, 0xd9, 0x44, 0x56, 0xa8, 0x43, 0x36, 0x46, 0xfb, 0x48,
  0x63, 0xdd, 0xbd, 0xaf, 0xef, 0x5b, 0xa3, 0x13, 0x43, 0xe2, 0xc7, 0x3b,
  0xcb, 0x68, 0x0b, 0x14, 0x6a, 0x13, 0xe0, 0x46, 0x5d, 0x48, 0xbe, 0xd7,
  0x6c, 0xba, 0xcc, 0xbe, 0x7f, 0xd3, 0xe0, 0xb6, 0xd8, 0x49, 0x1f, 0xf4,
  0x70, 0x5f, 0x3c, 0x27, 0x44, 0x00, 0xef, 0x11, 0xab, 0x3e, 0xe3, 0x96,
  0xc7, 0x2e, 0x5c, 0xe2, 0xe4, 0x70, 0x50, 0x10, 0x63, 0x66, 0xb9, 0x49,
  0xc9, 0xd6, 0x3a, 0x19, 0x15, 0xe5, 0x9c, 0x59, 0x6a, 0x2c, 0x30, 0x1d,
  0x60, 0x03, 0x2b, 0x2d, 0xf9, 0x81, 0xa8, 0x77, 0xaa, 0x18, 0x3a, 0xe3,
  0x64, 0x23, 0x30, 0xf4, 0x65, 0x0b, 0xea, 0xaa, 0x4f, 0x99, 0xea, 0xfd,
  0x69, 0x70, 0x25, 0xfa, 0x3e, 0x16, 0x83, 0x9e, 0x17, 0xa0, 0xda, 0xa7,
  0xff, 0x42, 0x94, 0xfe, 0x8d, 0x58, 0xe4, 0x92, 0xe5, 0x08, 0xb9, 0xbc,
  0x1f, 0x34, 0xaa, 0x2a, 0xa3, 0x99, 0x0d, 0x1a, 0x9b, 0x03, 0xc0, 0xf1,
  0x19, 0xaa, 0x08, 0x6c, 0xbf, 0x5a, 0x73, 0x87, 0x98, 0x67, 0x83, 0xed,
  0x11, 0x99, 0x28, 0xf0, 0x4a, 0xd2, 0xb9, 0xab, 0x01, 0xe3, 0x16, 0xeb,
  0x1e, 0x3f, 0xb5, 0xdb, 0xd1, 0xc5, 0xb2, 0xad, 0x04, 0x1e, 0x87, 0x3c,
  0x69, 0xd0, 0x3b, 0x57, 0x59, 0x94, 0x81, 0xc8, 0xe6, 0xd2, 0xf6, 0x08,
  0xf3, 0x31, 0xb0, 0xcb, 0x99, 0x72, 0xf6, 0x56, 0x2a, 0x79, 0x4b, 0xc5,
  0xe9, 0xe2, 0x3d, 0xbb, 0x0c, 0xb4, 0x20, 0x5e, 0x15, 0x1a, 0xbc, 0x6c,
  0x87, 0x08, 0xef, 0x5f, 0x2b, 0x32, 0x25, 0xbe, 0x53, 0x73, 0x1d, 0x40,
  0xd4, 0xf6, 0x5b, 0xeb, 0x3c, 0xca, 0x27, 0x9d, 0xcd, 0x31, 0x0c, 0x4b,
  0x05, 0x2b, 0xab, 0xb9, 0xe7, 0xa9, 0x14, 0x69, 0xe3, 0x55, 0xee, 0xd0,
  0xa1, 0x6c, 0xbf, 0xf6, 0xc5, 0x9b, 0x87, 0xb1, 0x0a, 0x4a, 0x46, 0xf3,
  0xf6, 0x6b, 0xa7, 0xb0, 0x4c, 0x2c, 0xc8, 0xab, 0x34, 0xa1, 0xd6, 0x89,
  0x5d, 0x07, 0x3e, 0xed, 0x1c, 0x6c, 0x30, 0x30, 0x20, 0x48, 0xdc, 0x58,
  0x97, 0xb1, 0xf6, 0x3a, 0x43, 0x26, 0xe9, 0x64, 0x4a, 0xf8, 0x81, 0x89,
  0x16, 0x0c, 0xb9, 0xeb, 0xe8, 0xdf, 0x81, 0xde, 0xc9, 0xbd, 0x13, 0x34,
  0xf7, 0x08, 0xb2, 0x47, 0xe4, 0x66, 0x26, 0x24, 0x91, 0xfe, 0xdb, 0x19,
  0xf5, 0xed, 0x9d, 0xee, 0x24, 0x03, 0x49, 0xdd, 0xbd, 0xb3, 0x2b, 0x4c,
  0x4e, 0x20, 0xbb, 0xd3, 0xdb, 0x23, 0xe8, 0xcb, 0x63, 0x56, 0xd4, 0xfe,
  0x52, 0x0e, 0xbf, 0x52, 0xa3, 0xa9, 0x8f, 0x2e, 0x21, 0x81, 0xd7, 0x4f,
  0xf8, 0x0b, 0x0a, 0x02, 0xa2, 0x11, 0xde, 0x43, 0x5e, 0x52, 0xf9, 0xfd,
  0xd4, 0x63, 0x3d, 0xf5, 0x50, 0xae, 0xf9, 0xd7, 0x5a, 0xb4, 0x18, 0xb7,
  0xfb, 0x54, 0x28, 0xe1, 0x1c, 0x0b, 0x0e, 0xfe, 0x95, 0xc7, 0x8b, 0x37,
  0x42, 0x81, 0x39, 0x1f, 0x36, 0xe4, 0x2c, 0xb3, 0xce, 0x47, 0x5a, 0x3a,
  0xde, 0xbc, 0xc3, 0x6e, 0x91, 0xfb, 0x57, 0x40, 0xc0, 0x22, 0xa2, 0x0e,
  0x8d, 0x0b, 0x3d, 0xfe, 0x2b, 0xce, 0xc4, 0x10, 0xf9, 0x24, 0x10, 0x72,
  0x48, 0x38, 0x54, 0x07, 0x46, 0x34, 0xd3, 0xed, 0x21, 0x45, 0xdc, 0x4e,
  0x02, 0xbd, 0x53, 0x38, 0xc5, 0xdb, 0xaf, 0xab, 0xde, 0x50, 0xfa, 0x23,
  0xa9, 0x35, 0xf6, 0xff, 0xba, 0xa8, 0xef, 0xcc, 0xe9, 0x53, 0x96, 0x7c,
  0xf6, 0x05, 0x2b, 0xbe, 0x44, 0x8b, 0x0a, 0x66, 0xb6, 0x89, 0x2e, 0xb9,
  0xcd, 0x3a, 0x0a, 0xab, 0x88, 0xf5, 0x13, 0x16, 0xf7, 0x06, 0x61, 0xcc,
  0x25, 0xb9, 0x4b, 0x67, 0xc7, 0xf7, 0xf1, 0x8a, 0xa5, 0x95, 0xdc, 0x4f,
  0x81, 0x43, 0xcc, 0xfd, 0x52, 0x42, 0x16, 0x26, 0xe9, 0x34, 0xaa, 0xf7,
  0x03, 0x5d, 0x53, 0xee, 0xb7, 0x24, 0x1a, 0x11, 0x02, 0xab, 0x5d, 0xa7,
  0xdc, 0xc7, 0xb9, 0x81, 0xa6, 0x3f, 0x02, 0x4a, 0xfb, 0xcd, 0xf3, 0x3f,
  0x39, 0x2b, 0xa8, 0x0d, 0x4b, 0xaf, 0x2b, 0x0e, 0x54, 0x44, 0x07, 0xb7,
  0xfb, 0x14, 0xc4, 0xcf, 0xd5, 0xfe, 0x06, 0x26, 0x3b, 0x03, 0x46, 0x7e,
  0x13, 0xe3, 0xf3, 0xf9, 0xc8, 0xc9, 0xe2, 0xa3, 0x15, 0xb4, 0x5b, 0xc5,
  0xfa, 0xbe, 0x57, 0x21, 0xf3, 0xaa, 0x62, 0xf0, 0x9f, 0xab, 0xbe, 0xe7,
  0x14, 0xc6, 0xf3, 0x23, 0x69, 0x43, 0x1f, 0x81, 0x08, 0x37, 0x91, 0x6a,
  0xc1, 0x4e, 0x8a, 0xc9, 0xbb, 0x04, 0x96, 0xb7, 0x43, 0x26, 0xf7, 0xf0,
  0x33, 0x32, 0xc2, 0x0e, 0x3d, 0x22, 0x0c, 0x89, 0xee, 0xb4, 0xd6, 0x76,
  0xb1, 0x5e, 0xc9, 0xfc, 0x16, 0xfa, 0xff, 0x35, 0x28, 0xd8, 0xf2, 0x1b,
  0xdd, 0x2a, 0x50, 0x54, 0xf8, 0xab, 0xdb, 0x03, 0xe8, 0x8c, 0x3d, 0xaa,
  0x52, 0x3c, 0xda, 0x55, 0xdd, 0xe6, 0x57, 0x05, 0xdc, 0x3f, 0xae, 0x3a,
  0x4f, 0x01, 0x18, 0xfd, 0xe3, 0x50, 0x9a, 0x81, 0x24, 0x20, 0xf4, 0x1f,
  0xb4, 0xe7, 0x28, 0xbe, 0x9e, 0xcd, 0x34, 0x0d, 0x52, 0x48, 0x87, 0x14,
  0xcf, 0xf4, 0xd4, 0x6e, 0xe9, 0xab, 0xdd, 0x82, 0x43, 0xd4, 0x22, 0x33,
  0x3e, 0x4c, 0x9a, 0x6d, 0xa6, 0xaa, 0xcf, 0x00, 0x23, 0xfc, 0x44, 0x0a,
  0x1e, 0x0c, 0xf7, 0x13, 0x13, 0x9f, 0xd4, 0x8a, 0x25, 0x3b, 0xf6, 0xc5,
  0xb6, 0xb3, 0xd8, 0xce, 0x32, 0xa7, 0x89, 0x9e, 0x5b, 0xd2, 0x0f, 0x31,
  0xd3, 0xb8, 0x0c, 0xb5, 0x00, 0x4e, 0xf3, 0xaa, 0xf6, 0x42, 0x31, 0xf5,
  0x55, 0x2e, 0x9b, 0xf8, 0x09, 0x1a, 0x2a, 0x25, 0x4e, 0x46, 0xe1, 0xc8,
  0xaf, 0xd4, 0x3d, 0x42, 0x41, 0x2f, 0x1e, 0xc4, 0x31, 0x81, 0x2a, 0xff,
  0xd2, 0x39, 0x42, 0x0b, 0x54, 0x56, 0x52, 0x46, 0xae, 0x0c, 0x00, 0x68,
  0x5e, 0xe1, 0xbd, 0x52, 0x29, 0xe4, 0xd8, 0x1b, 0xe7, 0x44, 0x23, 0x45,
  0xa6, 0x0b, 0x34, 0x03, 0x5e, 0xab, 0x2d, 0xe7, 0xc0, 0x32, 0xf3, 0x5f,
  0x4d, 0xac, 0xf9, 0x4e, 0xd4, 0xcc, 0x27, 0xf3, 0xff, 0x3b, 0xd5, 0xfd,
  0xb4, 0x48, 0xa2, 0xfb, 0xdf, 0x10, 0xb8, 0x51, 0xa7, 0xa9, 0x34, 0x63,
  0xb3, 0x44, 0x58, 0x37, 0x2f, 0x43, 0x8d, 0x0e, 0xac, 0x4e, 0xbd, 0x7f,
  0x88, 0x07, 0x31, 0x3e, 0x05, 0x32, 0x8d, 0xe4, 0x54, 0xa7, 0x5c, 0x72,
  0xaf, 0xd1, 0x0e, 0xde, 0x03, 0xd9, 0x81, 0x17, 0x53, 0xe7, 0x85, 0xfa,
  0xcc, 0xa9, 0x12, 0x52, 0xac, 0xc2, 0x26, 0x00, 0xd0, 0x6f, 0xbd, 0xda,
  0x13, 0xd3, 0x07, 0xff, 0x35, 0x58, 0x6c, 0x53, 0x09, 0xd8, 0x09, 0xf9,
  0xe5, 0x18, 0x54, 0xc8, 0xc2, 0x28, 0x67, 0xca, 0x9f, 0x51, 0x65, 0x52,
  0x0c, 0x4e, 0x37, 0x4e, 0xb5, 0xe8, 0xf1, 0x5e, 0x5e, 0x91, 0x0f, 0x03,
  0xcf, 0x55, 0x38, 0xd2, 0x91, 0xef, 0x43, 0x41, 0xca, 0xfc, 0x58, 0x1b,
  0x24, 0xb0, 0xe7, 0x27, 0x9e, 0x26, 0xb1, 0xbb, 0xae, 0x3f, 0xbb, 0xcf,
  0xdc, 0x25, 0xcc, 0xfa, 0xf0, 0x36, 0x3e, 0x00, 0xaa, 0xe1, 0xbd, 0x65,
  0x23, 0xe9, 0x7f, 0xe0, 0xc3, 0xa1, 0xe4, 0xe4, 0x30, 0x69, 0x48, 0x61,
  0xb1, 0x0d, 0xac, 0xb9, 0xe5, 0x29, 0x18, 0xfc, 0x11, 0x63, 0xc9, 0x9d,
  0x81, 0xbb, 0x54, 0xf3, 0xdb, 0xdc, 0x96, 0x3b, 0x42, 0x16, 0xef, 0xe9,
  0x17, 0x18, 0x9d, 0x0c, 0x35, 0x41, 0x46, 0x00, 0xa3, 0x08, 0x28, 0xe2,
  0xa8, 0x5d, 0x5c, 0x15, 0x10, 0xb0, 0xb9, 0x56, 0x44, 0x07, 0x58, 0x1b,
  0x1e, 0xef, 0xf0, 0x50, 0x09, 0x5a, 0x4a, 0x55, 0x64, 0x41, 0x96, 0x2e,
  0xaf, 0xb0, 0x2a, 0x16, 0x7f, 0xd2, 0x12, 0x34, 0xb3, 0xe8, 0xba, 0x5a,
  0xaa, 0xb8, 0xb0, 0x00, 0xfe, 0xb4, 0x1f, 0x37, 0x5a, 0x24, 0xaa, 0xce,
  0xea, 0x38, 0x31, 0x6f, 0x1a, 0xbd, 0xf0, 0x53, 0x25, 0x39, 0x3b, 0x4d,
  0x9a, 0x11, 0x44, 0xd7, 0x64, 0xe2, 0x49, 0x3c, 0x55, 0xe0, 0xc0, 0x2a,
  0x08, 0xb7, 0x8d, 0xd1, 0x18, 0x92, 0x1b, 0xab, 0x33, 0xa2, 0xa7, 0xad,
  0xf8, 0x6d, 0xaa, 0xe2, 0xc3, 0x0e, 0xfc, 0x3c, 0x24, 0xba, 0x1d, 0xdf,
  0x63, 0xf5, 0x24, 0xbc, 0x62, 0x4d, 0xd8, 0xc0, 0xc6, 0xad, 0xcf, 0x4b,
  0x3f, 0xd9, 0xac, 0x28, 0x49, 0xd6, 0x33, 0x56, 0xbc, 0xe7, 0xde, 0x36,
  0x7f, 0x66, 0x00, 0xd3, 0x32, 0xa3, 0x8c, 0x3f, 0xc6, 0xc6, 0xb1, 0xc3,
  0x5c, 0xb1, 0xe8, 0x2d, 0xf0, 0xd8, 0x31, 0x4f, 0xb2, 0x40, 0x98, 0x39,
  0xe5, 0xff, 0xfe, 0xe3, 0x7e, 0xc2, 0xf5, 0xb0, 0x68, 0x20, 0x67, 0x33,
  0xc7, 0x22, 0x45, 0x1f, 0xa8, 0xdc, 0x24, 0x06, 0x27, 0x56, 0x2b, 0xb1,
  0x31, 0x9f, 0x5f, 0xce, 0x04, 0xd9, 0x4e, 0xae, 0xe1, 0xda, 0xb6, 0x33,
  0xdc, 0x4d, 0x9c, 0xa7, 0x8e, 0x39, 0x3e, 0xb9, 0x0b, 0x40, 0xbb, 0x5f,
  0x38, 0x05, 0xe4, 0xf9, 0xb1, 0xe9, 0x45, 0xe3, 0xdb, 0x2f, 0xbf, 0xad,
  0x35, 0x26, 0x1e, 0x81, 0xea, 0x4c, 0x19, 0x73, 0x04, 0x04, 0xbb, 0x5c,
  0xc9, 0x22, 0xc2, 0x09, 0xf4, 0x4c, 0x53, 0xbc, 0x16, 0xdd, 0xcc, 0xf2,
  0x68, 0xbc, 0x3b, 0x94, 0x3c, 0xb6, 0x1c, 0x5f, 0x03, 0x0e, 0x08, 0xe2,
  0x68, 0xe8, 0xce, 0xd8, 0xcd, 0x59, 0xc3, 0x81, 0xc3, 0xe4, 0x19, 0xee,
  0x38, 0x20, 0x0b, 0xbb, 0x01, 0x42, 0x02, 0xc3, 0x32, 0xaa, 0x13, 0xda,
  0xf2, 0x41, 0xab, 0xd8, 0x5f, 0x2d, 0x27, 0x32, 0x4f, 0x0f, 0xb5, 0x6c,
  0xdf, 0x6e, 0xe3, 0x63, 0xd2, 0xfd, 0xbb, 0x2c, 0x35, 0xc2, 0xa3, 0x04,
  0x15, 0x97, 0xe7, 0xca, 0x2f, 0xd4, 0x1c, 0xdb, 0xc5, 0xee, 0x18, 0xb4,
  0x0a, 0xe7, 0xf3, 0x46, 0x29, 0xec, 0x93, 0x4c, 0x3a, 0x53, 0xc6, 0x2a,
  0x51, 0x28, 0x06, 0x05, 0x66, 0xc5, 0xc0, 0xde, 0xb9, 0x58, 0x0c, 0x01,
  0xcd, 0x42, 0xe3, 0x7f, 0x00, 0xb5, 0x1a, 0xb5, 0x48, 0x45, 0x98, 0x59,
  0x66, 0x22, 0x28, 0x4b, 0xd0, 0xb1, 0xfc, 0x9e, 0x65, 0x5d, 0x48, 0x46,
  0xff, 0xad, 0x9f, 0xf9, 0x65, 0xb2, 0x04, 0xc6, 0x4b, 0xed, 0xba, 0x16,
  0x3a, 0xb9, 0xa6, 0x21, 0xb2, 0xa2, 0x3f, 0x30, 0x75, 0x00, 0x16, 0x4c,
  0x27, 0xc7, 0x4c, 0x12, 0x51, 0xf0, 0xe7, 0x05, 0xe9, 0x6c, 0x44, 0xca,
  0x66, 0x4b, 0x03, 0x51, 0x90, 0xa3, 0xf2, 0x99, 0x75, 0x04, 0x0b, 0x82,
  0x67, 0x04, 0x97, 0x04, 0x52, 0x24, 0x3b, 0xad, 0xc4, 0x0a, 0xcd, 0x17,
  0x4f, 0x95, 0x07, 0x4f, 0x7f, 0x05, 0x12, 0xdb, 0xc7, 0xd1, 0xaf, 0xa7,
  0xff, 0x46, 0xf9, 0x25, 0xbe, 0x2f, 0x29, 0x53, 0x91, 0x20, 0xeb, 0xf6,
  0x08, 0xc7, 0xf6, 0x7c, 0x66, 0x1a, 0x83, 0xc1, 0xe1, 0x04, 0xc5, 0xbc,
  0x25, 0x6e, 0xcd, 0xc2, 0x6d, 0xe1, 0x8d, 0x20, 0x0f, 0x21, 0x19, 0x6e,
  0xac, 0xaa, 0x94, 0x7d, 0xf0, 0x26, 0x37, 0xd0, 0xb3, 0x8f, 0x02, 0x1d,
  0xe8, 0xf6, 0xa0, 0x66, 0x43, 0x9e, 0x8b, 0x81, 0x89, 0x3b, 0xb0, 0x34,
  0x4f, 0x38, 0xe6, 0x4e, 0x9f, 0xa5, 0x56, 0x43, 0xf4, 0x14, 0x19, 0x0c,
  0x15, 0xff, 0x5e, 0xf8, 0xd1, 0xc0, 0x96, 0xbe, 0xbc, 0xf7, 0xde, 0xc1,
  0x6b, 0x4d, 0x2b, 0x06, 0x4f, 0x28, 0x13, 0x40, 0x6e, 0x09, 0x25, 0xb8,
  0x5a, 0x5b, 0xd3, 0x50, 0x51, 0x73, 0xf7, 0xba, 0x9f, 0x3f, 0x8f, 0xff,
  0xd8, 0x4a, 0x2e, 0x24, 0xf0, 0xa7, 0xff, 0xff, 0xf4, 0xa7, 0xff, 0xff,
  0xf8, 0xa7, 0xff, 0xff, 0x3a, 0xe9, 0xff, 0xff, 0x04, 0x00, 0x00, 0x00,
  0x60, 0x00, 0x00, 0x00, 0x00, 0x00, 0x00, 0x00, 0x00, 0x00, 0x00, 0x00,
  0x00, 0x00, 0x00, 0x00, 0x00, 0x00, 0x00, 0x00, 0x00, 0x00, 0x00, 0x00,
  0x00, 0x00, 0x00, 0x00, 0x00, 0x00, 0x00, 0x00, 0x00, 0x00, 0x00, 0x00,
  0x00, 0x00, 0x00, 0x00, 0x00, 0x00, 0x00, 0x00, 0x00, 0x00, 0x00, 0x00,
  0x00, 0x00, 0x00, 0x00, 0x00, 0x00, 0x00, 0x00, 0x00, 0x00, 0x00, 0x00,
  0x00, 0x00, 0x00, 0x00, 0x00, 0x00, 0x00, 0x00, 0x00, 0x00, 0x00, 0x00,
  0x00, 0x00, 0x00, 0x00, 0x00, 0x00, 0x00, 0x00, 0x00, 0x00, 0x00, 0x00,
  0x00, 0x00, 0x00, 0x00, 0x00, 0x00, 0x00, 0x00, 0x00, 0x00, 0x00, 0x00,
  0x00, 0x00, 0x00, 0x00, 0xa6, 0xe9, 0xff, 0xff, 0x04, 0x00, 0x00, 0x00,
  0x18, 0x00, 0x00, 0x00, 0xb2, 0x84, 0x80, 0xee, 0xe0, 0xa4, 0x2e, 0xcf,
  0x89, 0xc6, 0xd3, 0xa3, 0xc4, 0xd0, 0x99, 0xdd, 0xe5, 0xb8, 0x02, 0x7f,
  0xab, 0xc6, 0x1f, 0xb7, 0xca, 0xe9, 0xff, 0xff, 0x04, 0x00, 0x00, 0x00,
  0xc0, 0x06, 0x00, 0x00, 0x62, 0x27, 0x14, 0xbd, 0xe5, 0x90, 0xe2, 0xed,
  0x83, 0x2c, 0x1b, 0x10, 0xb5, 0xc9, 0xc2, 0xcb, 0xd7, 0xac, 0x8e, 0xdc,
  0x0f, 0x17, 0xee, 0xf2, 0x05, 0xfa, 0x91, 0x4c, 0xf0, 0xc2, 0x1a, 0xd8,
  0x05, 0xff, 0x36, 0x4b, 0x2e, 0x9a, 0x4d, 0xf2, 0x09, 0xb7, 0xb0, 0xe4,
  0x81, 0x64, 0xbb, 0xc0, 0x98, 0xa2, 0x18, 0xcb, 0xc7, 0x00, 0x4d, 0xb9,
  0xa3, 0x2b, 0x01, 0x87, 0x8d, 0xd5, 0x8e, 0x18, 0x5a, 0xd1, 0xc1, 0xf4,
  0xe8, 0xa6, 0xa7, 0xae, 0x50, 0x4e, 0x0f, 0x81, 0x6b, 0x15, 0x17, 0x4e,
  0xbe, 0x30, 0xb0, 0x4a, 0x32, 0xd6, 0xfc, 0xa1, 0x35, 0x21, 0x56, 0x38,
  0x31, 0x52, 0xc5, 0x58, 0x48, 0xba, 0xdd, 0xd0, 0xe0, 0xd0, 0x85, 0x3a,
  0x31, 0xcb, 0xbc, 0x8b, 0x3c, 0x18, 0x31, 0x56, 0xb4, 0x17, 0xdf, 0xdb,
  0x1d, 0xdb, 0x67, 0xd3, 0x53, 0x5e, 0xac, 0x36, 0x2b, 0x75, 0x42, 0x58,
  0xcd, 0x9c, 0xe4, 0x57, 0xe1, 0xe1, 0xc9, 0x10, 0xe3, 0x9c, 0x90, 0x65,
  0xbf, 0xa7, 0xc0, 0x97, 0xe5, 0x2b, 0xf4, 0x3a, 0xb7, 0x5a, 0x4a, 0x81,
  0xb5, 0x51, 0xc2, 0x47, 0x95, 0x47, 0xa0, 0xda, 0xae, 0xe9, 0xbb, 0xc1,
  0xbb, 0xd2, 0xd6, 0x92, 0xb8, 0xb8, 0xf1, 0x99, 0x8f, 0x38, 0x9f, 0xe2,
  0xe8, 0xb5, 0x2c, 0xbd, 0x39, 0x84, 0x15, 0x65, 0x08, 0x8f, 0xfe, 0x34,
  0x19, 0x38, 0x55, 0xe9, 0xdb, 0x62, 0x07, 0xe9, 0xe5, 0x8c, 0x47, 0x95,
  0x2e, 0x4f, 0xc8, 0xf7, 0x5d, 0x59, 0x54, 0x41, 0xd7, 0x37, 0xb1, 0x6e,
  0x4b, 0xb5, 0xe0, 0xa7, 0x3a, 0xaa, 0x9b, 0xff, 0xa2, 0xbe, 0x88, 0x75,
  0x5a, 0xd3, 0x10, 0x9c, 0x9a, 0x11, 0xd4, 0xe4, 0xc0, 0x47, 0xea, 0x99,
  0x50, 0xf2, 0xdb, 0xdf, 0xbc, 0x11, 0xbd, 0x87, 0x05, 0xb8, 0x24, 0xc9,
  0x37, 0x63, 0x86, 0xea, 0xb7, 0x54, 0x0a, 0x0c, 0xac, 0x9c, 0xe2, 0x0c,
  0x9a, 0x2a, 0xa9, 0xfa, 0xca, 0x01, 0x23, 0xf5, 0x0d, 0x95, 0xe3, 0x73,
  0x05, 0x8f, 0xa7, 0x0a, 0x13, 0x81, 0xca, 0xd4, 0x16, 0xf7, 0xd0, 0xe2,
  0xa4, 0x2a, 0x08, 0x16, 0x73, 0xe0, 0x34, 0x0d, 0x50, 0x3d, 0x4d, 0x5a,
  0x35, 0xd0, 0x5a, 0x30, 0x94, 0xfe, 0xb9, 0x0b, 0x65, 0x0b, 0xce, 0xd6,
  0x6a, 0x24, 0xb7, 0x74, 0x90, 0x2b, 0xc9, 0x74, 0xb1, 0x84, 0xe1, 0xe9,
  0x7f, 0x17, 0x09, 0xd7, 0xf3, 0xb3, 0xcf, 0xad, 0x05, 0xac, 0xc2, 0xc3,
  0xdf, 0xd4, 0xb0, 0xc5, 0xe0, 0xc2, 0x39, 0x67, 0x49, 0x83, 0xac, 0x2d,
  0xfc, 0xf6, 0xb0, 0x53, 0x43, 0x93, 0xd0, 0x48, 0xc5, 0x0c, 0x5a, 0xe9,
  0x4d, 0xe1, 0x8d, 0x79, 0xac, 0x16, 0xdc, 0x07, 0x5c, 0xd7, 0x9b, 0x18,
  0xa3, 0x11, 0xe4, 0x0c, 0x04, 0x13, 0x44, 0x7f, 0x31, 0x05, 0xbd, 0xa2,
  0xe9, 0xe7, 0x05, 0xda, 0xba, 0xdf, 0xb4, 0xcd, 0xea, 0xf1, 0xeb, 0xce,
  0xa7, 0x54, 0xda, 0xd5, 0x44, 0x31, 0xd2, 0x60, 0x24, 0xb0, 0xa6, 0x35,
  0x1c, 0xe4, 0x12, 0x0a, 0x06, 0xec, 0x3a, 0x00, 0xf8, 0xf4, 0x91, 0xd9,
  0x15, 0xa6, 0x04, 0xfe, 0xd7, 0x1f, 0x16, 0x5b, 0xf7, 0x38, 0xd6, 0x45,
  0xed, 0xf3, 0x47, 0xa7, 0x28, 0x0b, 0x27, 0xde, 0x1c, 0x0e, 0x06, 0x9e,
  0xcb, 0x4a, 0xcb, 0x08, 0x58, 0xa5, 0xea, 0x81, 0x1d, 0x36, 0x00, 0xe0,
  0x31, 0xc0, 0x14, 0xd8, 0x93, 0x0a, 0xeb, 0x26, 0xfe, 0x51, 0xdd, 0x09,
  0x54, 0xb8, 0x04, 0x4d, 0x48, 0xc8, 0xc2, 0x02, 0xc4, 0xf1, 0xf3, 0xbb,
  0x30, 0x54, 0x28, 0x55, 0x18, 0xfb, 0xfa, 0xb3, 0xdb, 0xc2, 0x25, 0x44,
  0x60, 0xb0, 0x21, 0x4b, 0x8a, 0xb5, 0x02, 0xa2, 0xa0, 0x36, 0xaf, 0xed,
  0x0c, 0xd6, 0xbf, 0x53, 0xd1, 0xca, 0x23, 0xb2, 0xca, 0x0e, 0xae, 0xcd,
  0xf7, 0x21, 0xcb, 0x27, 0xed, 0x37, 0xb6, 0xab, 0xc5, 0xdf, 0xab, 0x7b,
  0xdb, 0xa0, 0xe6, 0xf5, 0x28, 0x2c, 0xf3, 0x38, 0x3d, 0xc0, 0xb0, 0x1d,
  0xef, 0xeb, 0x29, 0x45, 0xa5, 0x93, 0x44, 0xe4, 0x1a, 0x0a, 0x3d, 0xb6,
  0xab, 0x4d, 0xd2, 0x1c, 0x39, 0x07, 0xf7, 0x50, 0x00, 0x44, 0xe7, 0xf5,
  0x23, 0xa8, 0x7f, 0x9a, 0xeb, 0xc6, 0x22, 0xeb, 0x09, 0x09, 0xc8, 0x56,
  0x17, 0xba, 0x12, 0x48, 0x6f, 0xe8, 0x64, 0xd3, 0x46, 0xad, 0x92, 0x28,
  0x35, 0x60, 0xf0, 0xee, 0x26, 0x42, 0x9d, 0xf7, 0x39, 0x3d, 0x1e, 0x13,
  0x5c, 0x04, 0x9f, 0x62, 0x5e, 0xdc, 0x38, 0x31, 0x68, 0xc6, 0x96, 0xc3,
  0xed, 0x8b, 0xd8, 0x61, 0xff, 0x9b, 0xa8, 0x27, 0x3c, 0x59, 0xbe, 0x32,
  0xbb, 0xc4, 0xa7, 0x10, 0x81, 0x9e, 0x2b, 0xb5, 0x62, 0x44, 0xd5, 0x2a,
  0x33, 0xf5, 0x11, 0x8f, 0x2d, 0xb8, 0x62, 0x1c, 0xd2, 0x4f, 0x94, 0x37,
  0xad, 0x46, 0x42, 0x1d, 0x6e, 0x0a, 0x24, 0x7c, 0xe5, 0xfb, 0x66, 0x3c,
  0xad, 0xef, 0x4c, 0xa7, 0x35, 0x2c, 0x2b, 0xfd, 0x45, 0x56, 0x66, 0xa1,
  0x34, 0x5c, 0x78, 0xee, 0xb1, 0x96, 0x35, 0xfa, 0x99, 0x36, 0xe6, 0xa8,
  0x44, 0xff, 0xf9, 0x32, 0x6b, 0xe9, 0x5e, 0x0f, 0x5b, 0x55, 0x7f, 0xb9,
  0x7d, 0x06, 0x00, 0xcc, 0x6a, 0x33, 0x28, 0x06, 0x46, 0xb1, 0xda, 0x9d,
  0xfa, 0x38, 0xb9, 0x6c, 0x3c, 0xe9, 0xe5, 0xea, 0xb2, 0x0e, 0x52, 0xb5,
  0xbf, 0xe1, 0x9b, 0x3d, 0xd6, 0xd1, 0x50, 0x9b, 0x5c, 0xc2, 0x9f, 0x30,
  0xe0, 0x11, 0xc6, 0x7d, 0xc0, 0x2e, 0x8a, 0xad, 0xc3, 0x9f, 0x42, 0x3c,
  0xcc, 0x49, 0x19, 0x0b, 0x3e, 0xcc, 0x06, 0x57, 0xb9, 0xda, 0x93, 0x74,
  0x28, 0x09, 0x1a, 0x08, 0x30, 0x4b, 0x81, 0x0c, 0x01, 0x8b, 0x27, 0x97,
  0x36, 0xbb, 0x21, 0xa4, 0xd5, 0xba, 0x19, 0x98, 0x4c, 0x10, 0x8e, 0xca,
  0xc7, 0x47, 0xd0, 0xc5, 0x45, 0x39, 0xbd, 0xe8, 0xd8, 0x9d, 0xe9, 0x3f,
  0x2d, 0x69, 0x6c, 0xdc, 0xcf, 0xd4, 0xe7, 0xc0, 0x4a, 0x39, 0xd6, 0xca,
  0x49, 0x02, 0x47, 0xbb, 0x9c, 0xc3, 0xca, 0x26, 0xbe, 0xe0, 0x36, 0xec,
  0x93, 0xd7, 0x16, 0xf5, 0xf5, 0xda, 0x3b, 0xae, 0xb6, 0xc2, 0x97, 0xd5,
  0x23, 0x3b, 0x05, 0x0a, 0xeb, 0x08, 0xb0, 0xf3, 0x46, 0xde, 0x11, 0x2f,
  0xa4, 0xe5, 0xc2, 0x06, 0xd2, 0x03, 0xa5, 0xa0, 0xf6, 0x45, 0xd8, 0x03,
  0x0e, 0x16, 0x2c, 0xed, 0x93, 0x29, 0x1b, 0x1a, 0xea, 0x5c, 0x15, 0x49,
  0x81, 0xf4, 0x12, 0xd3, 0x2e, 0x05, 0xd0, 0x4e, 0x34, 0xa4, 0xd9, 0xc8,
  0xa0, 0x4e, 0xe8, 0xe4, 0xf0, 0x55, 0xa6, 0x73, 0x0b, 0xea, 0xb7, 0x0d,
  0x46, 0x47, 0x50, 0x86, 0xda, 0x6d, 0xbc, 0x03, 0x16, 0xc1, 0xa0, 0xd2,
  0x47, 0x26, 0xc7, 0xa8, 0x81, 0xad, 0x5a, 0xeb, 0x1e, 0x2d, 0x03, 0xf4,
  0x06, 0xf8, 0x10, 0x50, 0xa0, 0x3c, 0xef, 0xae, 0xc3, 0xf1, 0xd0, 0x3e,
  0xad, 0xc4, 0xd1, 0x65, 0xdc, 0xdb, 0x63, 0x5e, 0x3c, 0x0f, 0xe9, 0x9e,
  0x3e, 0x7d, 0x93, 0xfe, 0xb5, 0xae, 0xe9, 0xd1, 0x4a, 0x26, 0xc2, 0x54,
  0x69, 0x7d, 0x90, 0x6b, 0x52, 0x10, 0x46, 0xac, 0x75, 0x1a, 0x99, 0xc4,
  0x2a, 0xc9, 0x99, 0x70, 0x4f, 0x81, 0xb3, 0xc2, 0xd5, 0xdf, 0x4b, 0x04,
  0x55, 0x7a, 0x09, 0xda, 0x05, 0x47, 0x1f, 0xc5, 0xab, 0x1b, 0xd7, 0xc5,
  0x20, 0xd5, 0xa4, 0xd9, 0xdd, 0x94, 0x31, 0x5d, 0xeb, 0x94, 0xdf, 0xc6,
  0x97, 0xdc, 0xda, 0x97, 0xfc, 0x4c, 0x2c, 0x1e, 0x79, 0x65, 0x9d, 0x6a,
  0xb7, 0xbf, 0x97, 0x17, 0x0d, 0xae, 0x2b, 0xd4, 0xc8, 0xa0, 0x04, 0x1c,
  0x0c, 0x2c, 0x10, 0xad, 0x71, 0x07, 0x46, 0xd6, 0xc1, 0x0e, 0x3f, 0xb7,
  0xcb, 0xd6, 0xed, 0xf0, 0x29, 0x49, 0x00, 0x31, 0x5d, 0xb5, 0xea, 0xd1,
  0x0c, 0xda, 0x17, 0x6e, 0x28, 0xfc, 0xda, 0x81, 0xa4, 0x4e, 0xb7, 0xae,
  0x0d, 0x19, 0xc9, 0xd0, 0x17, 0xe8, 0xf1, 0x34, 0xec, 0x3d, 0x07, 0x57,
  0x43, 0xd4, 0x9a, 0x55, 0x4b, 0xa7, 0x48, 0xa4, 0x37, 0xcd, 0x1f, 0x48,
  0x4a, 0xb8, 0xa3, 0x3a, 0x4f, 0xd9, 0x3b, 0x01, 0x9c, 0xee, 0x2e, 0xb5,
  0x62, 0xfb, 0xbe, 0xe8, 0x49, 0x50, 0x1d, 0x4a, 0x8d, 0x23, 0x8e, 0x51,
  0x3f, 0xbc, 0xb7, 0xd1, 0xc1, 0x32, 0xfe, 0xd4, 0x9d, 0xf0, 0x9f, 0x74,
  0x17, 0x23, 0xc0, 0x56, 0xb2, 0xd0, 0xa1, 0x4c, 0x4b, 0x8e, 0xf7, 0x81,
  0x0f, 0x29, 0xb9, 0xdc, 0x06, 0xf3, 0x59, 0x97, 0x97, 0x3f, 0xbd, 0xe4,
  0x1e, 0xcd, 0x20, 0x6d, 0x34, 0x64, 0x45, 0x94, 0xee, 0xad, 0x9d, 0x06,
  0xbd, 0x04, 0x14, 0xd7, 0x27, 0x24, 0xdd, 0x5a, 0xa1, 0xc7, 0x1f, 0x5f,
  0xcc, 0xd9, 0x17, 0xfa, 0x44, 0x8e, 0x45, 0xb0, 0xa0, 0x0a, 0x2d, 0xbf,
  0xdc, 0x81, 0x34, 0x38, 0xa9, 0x30, 0x02, 0xe6, 0xd5, 0x6c, 0xe1, 0xbf,
  0xe6, 0xc9, 0xda, 0x4e, 0x92, 0x54, 0x1c, 0x2f, 0x35, 0x29, 0xb9, 0x5b,
  0x0b, 0xe2, 0xcc, 0xcf, 0x38, 0xf3, 0xaa, 0x86, 0xb8, 0x43, 0xab, 0xd4,
  0x06, 0xbc, 0xe2, 0x8d, 0xea, 0x9c, 0xb8, 0xc8, 0xf7, 0xe2, 0xd7, 0x9c,
  0x10, 0xaa, 0xd2, 0x45, 0x46, 0xcb, 0x3a, 0xf9, 0x99, 0xd2, 0xd3, 0x50,
  0xa4, 0xfe, 0xcc, 0x7f, 0xce, 0xf8, 0xa2, 0xa0, 0xf3, 0xb5, 0x6b, 0x24,
  0xac, 0xd1, 0x47, 0xc9, 0x3b, 0x10, 0xbc, 0x3e, 0xa1, 0xb4, 0xb7, 0xc1,
  0x2b, 0x1e, 0x48, 0xe9, 0xaf, 0x44, 0x3e, 0xde, 0x02, 0xa5, 0xf1, 0xd0,
  0x5e, 0x39, 0xf5, 0x73, 0xd2, 0xb2, 0xc6, 0x46, 0x9d, 0x5d, 0xac, 0x4f,
  0x43, 0xb6, 0x3b, 0xb8, 0x14, 0x37, 0x57, 0xc4, 0xa9, 0xd1, 0x9f, 0x7b,
  0x25, 0x31, 0x5e, 0x64, 0x3e, 0x18, 0x57, 0x96, 0xc2, 0x06, 0xea, 0x44,
  0xb2, 0xd0, 0xe5, 0xb2, 0xac, 0xe5, 0x2e, 0x49, 0x1a, 0x5b, 0xe7, 0x06,
  0x0c, 0x3e, 0xc2, 0x68, 0xf9, 0xfe, 0x1b, 0x8a, 0x08, 0x4c, 0x31, 0x4a,
  0x81, 0xf5, 0x88, 0x56, 0xa6, 0x87, 0x23, 0x56, 0x98, 0x03, 0x3c, 0x5d,
  0xe8, 0x9c, 0x38, 0x5f, 0xdb, 0x13, 0x4b, 0x01, 0x2c, 0xd7, 0x5e, 0xaa,
  0x58, 0x59, 0xbd, 0xd9, 0xc2, 0x3c, 0x52, 0x20, 0x0f, 0xa8, 0x0c, 0xfa,
  0x38, 0xaa, 0x92, 0xe8, 0x42, 0xcb, 0xaa, 0xb4, 0x4b, 0x57, 0xfa, 0x3e,
  0xa5, 0xf4, 0xfd, 0x03, 0xce, 0x44, 0xb5, 0xe0, 0x63, 0xdf, 0x32, 0x81,
  0x15, 0x89, 0xc6, 0x37, 0xac, 0xec, 0x01, 0xc4, 0xe5, 0x07, 0x19, 0x2a,
  0xb0, 0x16, 0x06, 0x55, 0x1f, 0x57, 0xb7, 0x97, 0x02, 0x5d, 0xe7, 0x1f,
  0x01, 0x00, 0x6e, 0xc7, 0x55, 0x34, 0x87, 0xcc, 0x08, 0xba, 0x54, 0x4c,
  0x17, 0x3b, 0x1d, 0xf4, 0xf9, 0x5f, 0xa3, 0x83, 0x7b, 0x81, 0xd5, 0xf5,
  0x68, 0xe6, 0xf6, 0xc5, 0xee, 0x4b, 0xc0, 0xfd, 0xbc, 0x0f, 0xa8, 0x1d,
  0x9c, 0x32, 0x61, 0x11, 0x8c, 0x65, 0x0b, 0xc3, 0x26, 0xf8, 0x3a, 0xf1,
  0x2c, 0xd0, 0x5e, 0x5d, 0x0a, 0xf7, 0x9c, 0xd4, 0xf5, 0xf6, 0x38, 0x47,
  0xb9, 0x31, 0x6e, 0x01, 0x1d, 0xf1, 0x09, 0x7f, 0xaa, 0x6d, 0xf8, 0xae,
  0xa5, 0x06, 0x3c, 0x42, 0x44, 0xd8, 0xce, 0xe6, 0x64, 0xca, 0x8f, 0x9a,
  0x52, 0x13, 0x4c, 0xaf, 0x08, 0xe0, 0x4c, 0x2d, 0xdb, 0x9f, 0x5f, 0xd7,
  0xe4, 0x1b, 0xcd, 0xb0, 0xce, 0xb5, 0xbd, 0x46, 0x27, 0xff, 0xf5, 0x01,
  0x41, 0x58, 0x48, 0xe0, 0xc6, 0xbc, 0xed, 0x13, 0x5d, 0xb6, 0x39, 0x91,
  0x14, 0x02, 0xbe, 0x8b, 0x17, 0x42, 0xe9, 0x35, 0x17, 0xe7, 0x06, 0xd0,
  0x04, 0xc6, 0x58, 0xeb, 0x30, 0xfc, 0x72, 0x7f, 0xe4, 0x27, 0xaa, 0xba,
  0xef, 0xa5, 0x4e, 0x1d, 0xd6, 0x13, 0x44, 0x01, 0xc6, 0x11, 0x9b, 0x3e,
  0xac, 0xe6, 0xaf, 0x12, 0x59, 0x01, 0x0b, 0xce, 0x5a, 0xc7, 0xbd, 0xb4,
  0x09, 0xbb, 0x9f, 0xdf, 0x62, 0xff, 0xa0, 0x8f, 0x6e, 0xbc, 0x42, 0xf5,
  0x30, 0xe8, 0xcd, 0x16, 0x67, 0xb2, 0xb6, 0x39, 0x2b, 0x02, 0x9d, 0xc7,
  0x0b, 0xf1, 0xde, 0x23, 0xb1, 0x2b, 0x25, 0x09, 0xd5, 0xc4, 0x46, 0x5e,
  0x38, 0xaa, 0x14, 0xe3, 0xcd, 0xb7, 0x7f, 0xe1, 0xfc, 0xf4, 0x4c, 0xfb,
  0x2b, 0x07, 0x40, 0x30, 0xbf, 0x6b, 0x21, 0xe4, 0x0f, 0xd7, 0x03, 0xea,
  0x0b, 0xf4, 0xf0, 0x6c, 0x98, 0x48, 0x4e, 0x60, 0xb5, 0x51, 0x4e, 0xf6,
  0x18, 0x68, 0x15, 0x28, 0x11, 0x56, 0x4f, 0x02, 0xe1, 0x77, 0xc2, 0x28,
  0xc2, 0xdd, 0x11, 0xac, 0xf5, 0x26, 0x31, 0x81, 0xc1, 0xc9, 0x4a, 0x14,
  0xcc, 0x45, 0x0d, 0xcd, 0x5c, 0x83, 0x9a, 0x25, 0xff, 0xa4, 0x61, 0x77,
  0xc3, 0x5e, 0x9f, 0x14, 0xb4, 0x06, 0x9a, 0xde, 0x02, 0x23, 0x18, 0xb6,
  0xe8, 0xf0, 0xaa, 0x39, 0x93, 0xf8, 0x0e, 0xcf, 0x70, 0x2e, 0x63, 0x23,
  0xdf, 0xf4, 0xfb, 0xba, 0x58, 0xdf, 0x2e, 0x05, 0x9a, 0x27, 0x9e, 0x00,
  0x4c, 0x52, 0xc8, 0x56, 0x96, 0xf0, 0xff, 0xff, 0x04, 0x00, 0x00, 0x00,
  0x18, 0x00, 0x00, 0x00, 0x8a, 0xc4, 0xad, 0x99, 0xe7, 0x02, 0x82, 0x29,
  0xde, 0xf3, 0x88, 0x7f, 0xe2, 0xe2, 0x27, 0x80, 0x90, 0xef, 0xb7, 0xee,
  0xf9, 0xaa, 0x88, 0x08, 0xba, 0xf0, 0xff, 0xff, 0x04, 0x00, 0x00, 0x00,
  0xc0, 0x06, 0x00, 0x00, 0xe5, 0x81, 0x91, 0x58, 0xa5, 0x84, 0x48, 0x1f,
  0xdb, 0x62, 0xf2, 0x97, 0xee, 0xdf, 0xb4, 0xd5, 0xf1, 0x88, 0xe8, 0x59,
  0xa8, 0x6e, 0xdb, 0x37, 0xc8, 0xeb, 0x55, 0x03, 0xf2, 0x43, 0x43, 0x66,
  0xac, 0xe4, 0xd0, 0x35, 0xb7, 0x44, 0xe2, 0xae, 0x66, 0x06, 0xd3, 0xea,
  0xe6, 0x48, 0x4b, 0x0b, 0xb0, 0xfc, 0xa6, 0x27, 0xc1, 0xd0, 0x4b, 0xe9,
  0x04, 0x2c, 0x21, 0x59, 0xde, 0x5c, 0x08, 0x8a, 0xd8, 0x4e, 0x79, 0xf0,
  0x18, 0x39, 0xf6, 0x6c, 0xde, 0xd2, 0x74, 0x44, 0x8f, 0xcb, 0xbc, 0x29,
  0x0b, 0xd9, 0x07, 0x32, 0xcf, 0x2d, 0x73, 0xa4, 0xcc, 0x32, 0xba, 0x7b,
  0xc1, 0xd7, 0xb6, 0xa8, 0xff, 0xbf, 0x7f, 0x53, 0x40, 0xa0, 0x3a, 0xdd,
  0x14, 0x14, 0x0b, 0xb0, 0x96, 0x49, 0xe3, 0x1b, 0x49, 0xe4, 0x34, 0x73,
  0xbd, 0x6b, 0x30, 0x24, 0x3f, 0x3f, 0x26, 0xab, 0x38, 0xda, 0x52, 0xa0,
  0x53, 0xa0, 0x63, 0xab, 0x9c, 0x62, 0xf8, 0xe7, 0x23, 0x4c, 0x58, 0xe3,
  0x18, 0x01, 0x20, 0x66, 0xa0, 0xac, 0x5f, 0xf5, 0xc0, 0x53, 0xd5, 0x73,
  0xe0, 0x19, 0xf8, 0x3b, 0x2f, 0xba, 0xf8, 0x64, 0x10, 0xc5, 0xd9, 0x46,
  0x95, 0x19, 0x37, 0x5f, 0x31, 0x19, 0x10, 0xbf, 0x19, 0xe2, 0x41, 0xa9,
  0x38, 0xba, 0x1a, 0x83, 0x27, 0x6b, 0xfa, 0x14, 0xc9, 0x40, 0x6d, 0x2a,
  0xc8, 0x57, 0x47, 0xef, 0x22, 0xfc, 0xbb, 0x62, 0xd4, 0xad, 0x05, 0x9b,
  0xc5, 0xb1, 0x5b, 0xb0, 0x81, 0x33, 0x30, 0xcb, 0x98, 0x3d, 0xa7, 0x60,
  0x3b, 0xe9, 0x65, 0x3e, 0x81, 0x84, 0x4a, 0x15, 0x55, 0x9d, 0x5d, 0xe0,
  0xee, 0x96, 0xb1, 0xc0, 0xcf, 0x0f, 0x67, 0xb3, 0x14, 0x46, 0x2a, 0xc4,
  0xb5, 0xe5, 0xc8, 0x59, 0xfc, 0xf9, 0xbe, 0x60, 0x21, 0x3d, 0xab, 0x6b,
  0xfe, 0xec, 0xfb, 0x2b, 0x1c, 0xfa, 0x59, 0x4f, 0xf9, 0x97, 0x15, 0x60,
  0x06, 0xd0, 0xe7, 0xa8, 0xf6, 0x11, 0x54, 0x42, 0x9a, 0x35, 0x2e, 0xaf,
  0x1c, 0xd3, 0x0d, 0xc8, 0x88, 0xab, 0xb9, 0xcc, 0x52, 0xcd, 0xda, 0x44,
  0x0b, 0xc5, 0xeb, 0x32, 0x6d, 0xfc, 0x32, 0xde, 0x55, 0x5a, 0xdc, 0x4f,
  0x40, 0xb0, 0x5c, 0x5b, 0xb0, 0xa8, 0x27, 0x8f, 0x69, 0x61, 0xd0, 0xc6,
  0x53, 0xf5, 0x39, 0x23, 0x13, 0x6e, 0x21, 0xb5, 0xfe, 0xa9, 0xb0, 0x7f,
  0x5b, 0x48, 0x22, 0x69, 0xfc, 0xd7, 0x60, 0xa6, 0x62, 0xb7, 0x5e, 0x97,
  0xd9, 0x15, 0x4a, 0x20, 0xdf, 0xa2, 0x8f, 0x52, 0x12, 0x51, 0xb0, 0xf9,
  0x21, 0xfc, 0xdd, 0x7e, 0xdd, 0xd7, 0x4c, 0x12, 0xdb, 0x37, 0xe5, 0x55,
  0xd6, 0x26, 0x2a, 0x43, 0xb6, 0x84, 0x5b, 0xe8, 0xfc, 0x55, 0x58, 0x06,
  0xb9, 0xe0, 0xb0, 0x09, 0xad, 0xa3, 0x61, 0x07, 0x17, 0x0b, 0xde, 0x61,
  0xda, 0xe8, 0x8e, 0x36, 0x3e, 0x22, 0xda, 0xad, 0x96, 0x3f, 0x8d, 0x05,
  0x12, 0xb1, 0xae, 0x7f, 0xe2, 0xac, 0xe2, 0xf4, 0x02, 0x64, 0xba, 0xcc,
  0xb2, 0xd0, 0x05, 0xd2, 0x31, 0xb4, 0x4b, 0x95, 0x35, 0xe5, 0xc6, 0x33,
  0xd7, 0xc9, 0xc3, 0xb0, 0x7b, 0xd4, 0xbc, 0x02, 0xd0, 0xee, 0x52, 0x11,
  0xef, 0x28, 0xd5, 0xed, 0x11, 0xef, 0x23, 0xbf, 0xa9, 0x0a, 0x14, 0xf7,
  0x1e, 0xe9, 0xfa, 0xba, 0x5a, 0x4e, 0x1c, 0xa3, 0x5e, 0x90, 0x39, 0x3a,
  0x56, 0x11, 0xde, 0xc1, 0xa5, 0xad, 0xcc, 0x49, 0xd6, 0xbf, 0x8c, 0x61,
  0x9a, 0xe2, 0xc8, 0xee, 0x93, 0x41, 0x24, 0x1d, 0x36, 0xa6, 0x5d, 0xe0,
  0xa7, 0x13, 0xfe, 0xb4, 0x9c, 0x88, 0x7f, 0xa2, 0x54, 0xef, 0x07, 0x94,
  0x07, 0xaf, 0x40, 0xdd, 0x54, 0xaa, 0x7e, 0x2f, 0xd6, 0xfa, 0xe8, 0xa2,
  0x52, 0x1f, 0x96, 0xc8, 0x3b, 0xc0, 0x27, 0xfb, 0xf9, 0xce, 0xe0, 0xf0,
  0xfa, 0xd2, 0x63, 0x8c, 0x03, 0xf4, 0x3e, 0xc9, 0x08, 0x4c, 0x10, 0x3c,
  0xfe, 0x2b, 0xc5, 0xd9, 0x23, 0xcc, 0x2b, 0xd5, 0xaa, 0x41, 0xf9, 0x9e,
  0x5b, 0xf1, 0xb2, 0x86, 0xbb, 0xf4, 0xc4, 0xf0, 0x4b, 0xe9, 0x79, 0x56,
  0x3b, 0x35, 0x51, 0x4f, 0x81, 0xaa, 0x65, 0xd7, 0xb9, 0x1c, 0x42, 0x3f,
  0x15, 0x14, 0xf6, 0x83, 0xf5, 0xbf, 0x3e, 0xcb, 0xaa, 0xbe, 0x01, 0xdb,
  0xd0, 0xd4, 0x1c, 0x59, 0xbe, 0x96, 0x07, 0xf5, 0xf8, 0xd3, 0x88, 0x7c,
  0xf4, 0x11, 0x15, 0xf1, 0xc4, 0xe7, 0xf9, 0x3c, 0xcc, 0x9d, 0x42, 0x07,
  0xc9, 0x8d, 0xab, 0xa6, 0xf4, 0x47, 0x00, 0x9b, 0xad, 0x2a, 0x81, 0x57,
  0xfa, 0xcc, 0xcd, 0x20, 0x3d, 0xa3, 0xc7, 0x17, 0x06, 0x07, 0x86, 0x76,
  0xa8, 0xdf, 0x0e, 0x9c, 0x3e, 0xd6, 0xaa, 0x2e, 0xdb, 0xcb, 0x9f, 0xdd,
  0xe6, 0xe4, 0x5a, 0x00, 0x04, 0xaf, 0xd1, 0xf8, 0xbe, 0x5d, 0xca, 0x62,
  0xca, 0xf8, 0x1c, 0x3f, 0xbb, 0xbe, 0xe5, 0xb6, 0xe6, 0x4f, 0x35, 0x3f,
  0xd7, 0xb3, 0x9b, 0x50, 0xe2, 0x28, 0xc9, 0x91, 0x95, 0x4c, 0x31, 0x39,
  0xf9, 0xa2, 0x81, 0xc6, 0x21, 0x45, 0xd2, 0xbe, 0x02, 0x64, 0x16, 0x17,
  0xf9, 0x35, 0x3e, 0xdd, 0xa2, 0xd7, 0x13, 0xe3, 0x0b, 0x2a, 0x2e, 0x15,
  0x28, 0x2d, 0x90, 0x6c, 0xa4, 0x24, 0x29, 0xe4, 0x2e, 0x10, 0xae, 0x06,
  0xb2, 0x44, 0xd7, 0x58, 0x0f, 0x7c, 0x62, 0xf0, 0x3d, 0xd6, 0xbe, 0x13,
  0xa0, 0x07, 0xb8, 0x6a, 0x3b, 0xd9, 0x81, 0x3a, 0xd1, 0xa5, 0x22, 0x19,
  0x4d, 0x25, 0x1d, 0x59, 0x30, 0xa3, 0xd2, 0x97, 0x9e, 0x34, 0x6d, 0x5c,
  0x3e, 0xcd, 0x53, 0x1c, 0xbb, 0xa6, 0x6b, 0xe4, 0x17, 0x07, 0x57, 0x71,
  0xdf, 0x4a, 0x2d, 0x0f, 0x5f, 0x59, 0xd4, 0xd7, 0xb0, 0x22, 0x9d, 0xd7,
  0x66, 0xfe, 0xbd, 0x85, 0x37, 0xe5, 0x35, 0x39, 0x18, 0x2b, 0x61, 0x63,
  0x14, 0x4c, 0x11, 0x85, 0x97, 0x2c, 0xc6, 0xda, 0x2e, 0x5d, 0x94, 0x0b,
  0xc5, 0x74, 0x5c, 0x95, 0x4b, 0x53, 0xc0, 0x89, 0xfa, 0x1e, 0xc9, 0x03,
  0x53, 0x3e, 0x35, 0xad, 0x38, 0x05, 0x15, 0xce, 0x28, 0xa8, 0x8b, 0x6e,
  0x44, 0xd4, 0x0b, 0xfe, 0x94, 0xac, 0xfd, 0xc1, 0x0f, 0x1e, 0x0e, 0x5b,
  0x14, 0x2e, 0xd7, 0x55, 0xf4, 0x55, 0x67, 0x8e, 0xcd, 0x15, 0xbc, 0x5c,
  0x2e, 0x97, 0x59, 0x34, 0x1b, 0xb6, 0xcf, 0xd3, 0x26, 0x5f, 0x3a, 0x81,
  0xf9, 0xc8, 0x57, 0xc6, 0xc7, 0x43, 0xc1, 0x85, 0x31, 0x4c, 0xdd, 0x1d,
  0x86, 0x60, 0x16, 0x72, 0x50, 0xce, 0x23, 0x1a, 0x5a, 0xd1, 0x2f, 0x36,
  0xd6, 0x33, 0x0f, 0x0d, 0x57, 0x21, 0xf2, 0xc3, 0x4d, 0x2d, 0xcb, 0xad,
  0x51, 0xbf, 0x13, 0xd3, 0x36, 0x25, 0xa7, 0xd5, 0xc3, 0xe0, 0x27, 0x0d,
  0x11, 0x94, 0x20, 0xec, 0x66, 0xe7, 0x43, 0xed, 0xaf, 0x27, 0x9a, 0x2b,
  0x67, 0x55, 0xb7, 0xe3, 0x24, 0x04, 0x1f, 0x29, 0xe6, 0xc6, 0xb4, 0xd5,
  0x02, 0xc7, 0x53, 0x71, 0x5e, 0xe7, 0x28, 0x40, 0x0e, 0x70, 0x16, 0xb0,
  0x7f, 0xee, 0x1d, 0xbc, 0x71, 0x0b, 0xb2, 0x8f, 0x98, 0xd1, 0x20, 0x71,
  0xc5, 0xdb, 0x09, 0x7c, 0xca, 0x6e, 0x81, 0xa5, 0x89, 0x56, 0xdd, 0x35,
  0x46, 0xb3, 0xd4, 0x79, 0xe0, 0x3c, 0x2a, 0x43, 0xd4, 0xff, 0x53, 0x79,
  0x49, 0x18, 0xb5, 0xe7, 0x42, 0xf9, 0xfe, 0x00, 0xa8, 0xcd, 0xff, 0x1f,
  0xaf, 0x3e, 0x23, 0xce, 0x63, 0x4c, 0xec, 0xe3, 0xb6, 0x39, 0x1d, 0x61,
  0xef, 0xf6, 0x9f, 0xb5, 0x9a, 0x1d, 0xf9, 0x48, 0xb7, 0xc4, 0x16, 0x59,
  0x14, 0x42, 0x14, 0x3d, 0x91, 0xf8, 0x3f, 0x9b, 0x15, 0xd5, 0x97, 0x90,
  0x44, 0x10, 0x15, 0xc7, 0xe2, 0xf3, 0x4f, 0x69, 0xc3, 0x42, 0x44, 0xaf,
  0xdf, 0x8d, 0x53, 0x21, 0x3c, 0xb1, 0x17, 0xd9, 0x9c, 0xe5, 0xb2, 0x05,
  0x30, 0x08, 0xec, 0x1a, 0xc3, 0x6e, 0x7f, 0x3a, 0x03, 0xe5, 0xf9, 0xf1,
  0x24, 0x3b, 0x9c, 0x2e, 0xd6, 0x43, 0x43, 0x5b, 0x89, 0xb6, 0x5c, 0x12,
  0x64, 0xa7, 0xd3, 0x45, 0x8c, 0x74, 0xbd, 0x4d, 0xf1, 0xa9, 0xdd, 0x11,
  0xfc, 0x62, 0xf1, 0x63, 0xa6, 0x5e, 0x99, 0x16, 0xf2, 0x9e, 0x79, 0xd7,
  0xbe, 0xb4, 0x1b, 0xae, 0x73, 0xe5, 0xf5, 0xb6, 0xdc, 0xeb, 0x01, 0xb5,
  0x59, 0xc0, 0xf5, 0xcd, 0x0d, 0xd8, 0x5d, 0x16, 0xe3, 0x13, 0xc6, 0xd4,
  0xc7, 0xf9, 0xaa, 0xcb, 0xec, 0x56, 0x4a, 0x40, 0x68, 0xf4, 0x5d, 0xe9,
  0xfb, 0xa7, 0x7f, 0xa7, 0x44, 0x3d, 0x49, 0x70, 0xbe, 0x61, 0x11, 0xc3,
  0xd7, 0xb8, 0x12, 0xd4, 0x28, 0x2c, 0xba, 0x20, 0x75, 0x53, 0x04, 0x3c,
  0x2c, 0x78, 0xa9, 0x56, 0xe7, 0x08, 0x8d, 0x63, 0xa4, 0xd9, 0x81, 0xf2,
  0x24, 0xc2, 0x24, 0x43, 0xbe, 0x58, 0x00, 0x91, 0x60, 0x06, 0xa8, 0x0c,
  0x01, 0xed, 0xfb, 0x28, 0xa9, 0x30, 0x59, 0xed, 0x3b, 0x33, 0x2c, 0x78,
  0xb0, 0xe2, 0x3b, 0xde, 0x13, 0xcd, 0x5a, 0xa9, 0x2d, 0xdc, 0x0b, 0x76,
  0xc5, 0x8d, 0x32, 0x24, 0xce, 0x9e, 0x99, 0x8c, 0x62, 0x3c, 0xab, 0xb0,
  0x0d, 0xba, 0xc4, 0x0d, 0xf2, 0xc3, 0x0e, 0xca, 0x86, 0x6f, 0x59, 0x4e,
  0xdf, 0xcb, 0xb3, 0xf1, 0xa4, 0x3b, 0x95, 0x2f, 0x03, 0x10, 0x68, 0x32,
  0x2e, 0xbb, 0x9b, 0x3f, 0xb2, 0x1d, 0x69, 0xbc, 0x24, 0x26, 0xfd, 0x49,
  0x14, 0xe6, 0xa2, 0x1b, 0xed, 0x48, 0x8c, 0x3b, 0x9d, 0x3c, 0xb0, 0x07,
  0x67, 0x55, 0x0f, 0x2d, 0x65, 0xe5, 0x73, 0xe9, 0xb2, 0x45, 0x1d, 0xec,
  0xcc, 0x33, 0xc0, 0x68, 0x91, 0x81, 0xe4, 0x25, 0xc1, 0x0d, 0xb7, 0xf2,
  0x77, 0x53, 0xd6, 0x9e, 0x9b, 0x44, 0x86, 0xf4, 0xc4, 0xc5, 0x28, 0x64,
  0xca, 0x19, 0x6c, 0x2e, 0x35, 0xcc, 0x54, 0x58, 0x67, 0xdf, 0x1e, 0xe4,
  0x48, 0x25, 0xc6, 0xed, 0xf7, 0x03, 0xcd, 0xa0, 0xb4, 0x7f, 0xac, 0xe3,
  0xe1, 0x58, 0x65, 0xe4, 0xef, 0x96, 0x03, 0x41, 0xd2, 0x38, 0x4f, 0x21,
  0xb7, 0xe8, 0x4e, 0x2b, 0xfc, 0xe1, 0xc6, 0xa9, 0x33, 0x07, 0xf6, 0x39,
  0xbe, 0x3e, 0xe6, 0x2a, 0xf2, 0xe9, 0x9f, 0x43, 0xd4, 0xac, 0xed, 0xf5,
  0x3f, 0x74, 0x11, 0xfa, 0xde, 0x27, 0xe2, 0x0d, 0x52, 0x76, 0x08, 0xbd,
  0x4d, 0xea, 0xf7, 0x3d, 0xcd, 0x06, 0x37, 0xe8, 0x25, 0xe5, 0x18, 0x95,
  0xdc, 0x48, 0x9d, 0x32, 0xe1, 0xbe, 0x97, 0x5a, 0xff, 0x0b, 0x83, 0xe3,
  0x98, 0x15, 0x28, 0x5c, 0xee, 0xb2, 0x22, 0x1c, 0x15, 0x72, 0x9e, 0xb9,
  0x20, 0x03, 0xe6, 0xc5, 0xee, 0xd7, 0xd8, 0x23, 0x40, 0x2d, 0x1c, 0xd9,
  0x85, 0x43, 0xe3, 0xf7, 0x10, 0xa2, 0xed, 0xed, 0x71, 0xde, 0xb8, 0xd3,
  0x81, 0x7e, 0x2e, 0x35, 0xd2, 0xc8, 0x7d, 0xdb, 0xae, 0x08, 0x94, 0x34,
  0x0c, 0x63, 0x17, 0x15, 0x42, 0x0c, 0xe9, 0x0c, 0x07, 0x5d, 0xc0, 0x75,
  0xce, 0xba, 0x99, 0x0e, 0xa6, 0x00, 0x1d, 0x16, 0xc6, 0x12, 0x1a, 0x33,
  0xc1, 0xe2, 0xe9, 0x41, 0xdd, 0x81, 0x06, 0x68, 0x49, 0xce, 0xc6, 0xed,
  0x3b, 0xf4, 0xb6, 0xcc, 0x02, 0x55, 0xb9, 0xfe, 0xa4, 0x03, 0xb6, 0x6b,
  0x0f, 0xb1, 0x26, 0x45, 0x44, 0xa8, 0xf8, 0x91, 0x28, 0xca, 0xcb, 0xcd,
  0x34, 0xd1, 0xcc, 0xb3, 0xb1, 0x27, 0xcc, 0x16, 0xa2, 0x3b, 0x82, 0xdc,
  0xf6, 0xdc, 0x0a, 0x19, 0x39, 0xa2, 0x15, 0xa3, 0x26, 0xb4, 0x49, 0x60,
  0x3c, 0x17, 0xad, 0x78, 0x26, 0x2b, 0xc7, 0x96, 0xc1, 0xd5, 0xa5, 0xf4,
  0x0b, 0xf8, 0xcb, 0x7f, 0x4c, 0x40, 0xc5, 0x06, 0xd2, 0xaa, 0x1a, 0x29,
  0x04, 0xa1, 0xd6, 0x0e, 0xfd, 0xb1, 0xde, 0x50, 0x47, 0xdd, 0x8c, 0x28,
  0xcf, 0xd2, 0xc7, 0x79, 0x66, 0xaa, 0x30, 0x4d, 0xe0, 0x17, 0xd3, 0x54,
  0x4f, 0xa3, 0xe2, 0xb3, 0xd0, 0x5e, 0x35, 0x20, 0xa3, 0x64, 0x42, 0xb6,
  0xf0, 0x1a, 0x16, 0x32, 0x04, 0x2c, 0x21, 0x47, 0xd8, 0x38, 0xcd, 0xf9,
  0x04, 0xb9, 0x1e, 0x6f, 0xb1, 0xdf, 0xb6, 0xcf, 0xff, 0x4d, 0xd4, 0xbc,
  0x47, 0x14, 0xb3, 0xfc, 0xe3, 0x8e, 0xe3, 0x90, 0x28, 0xc0, 0xcb, 0x25,
  0x98, 0x01, 0xd7, 0xe2, 0xb5, 0x29, 0xc2, 0x83, 0xfd, 0xc3, 0xdb, 0xab,
  0xba, 0xf1, 0x56, 0x23, 0x5b, 0x01, 0xc2, 0xdd, 0xe7, 0xa3, 0x13, 0xa7,
  0xa9, 0xfe, 0x92, 0x7f, 0x41, 0xd3, 0x1a, 0x0c, 0xa5, 0xa9, 0xf1, 0x4d,
  0xf6, 0x03, 0x8e, 0x45, 0x44, 0xce, 0x25, 0x37, 0xd8, 0xfc, 0x96, 0x66,
  0x29, 0x10, 0x31, 0x64, 0x16, 0x3e, 0xed, 0xb5, 0x8a, 0x66, 0x40, 0x35,
  0x9d, 0x0e, 0x12, 0xdd, 0xce, 0x81, 0x97, 0x3a, 0x66, 0x0b, 0xde, 0xcc,
  0xd5, 0xde, 0xf6, 0x08, 0xf3, 0x54, 0x51, 0x8d, 0xf0, 0x76, 0x15, 0xd8,
  0x24, 0x1a, 0xb4, 0x4f, 0x34, 0xb5, 0x08, 0x37, 0xa4, 0x6e, 0xe2, 0x98,
  0xee, 0x39, 0xa5, 0x7e, 0x03, 0xff, 0xf3, 0x9d, 0x03, 0xd3, 0x9f, 0xe2,
  0x3a, 0x55, 0x33, 0x07, 0x86, 0xf7, 0xff, 0xff, 0x04, 0x00, 0x00, 0x00,
  0x18, 0x00, 0x00, 0x00, 0xe7, 0x16, 0xd1, 0x13, 0x30, 0xed, 0x0f, 0x7f,
  0xf5, 0xe8, 0x66, 0xfd, 0x53, 0x87, 0x15, 0x53, 0xf8, 0x28, 0xdb, 0x44,
  0x80, 0xa8, 0xc7, 0xc4, 0xaa, 0xf7, 0xff, 0xff, 0x04, 0x00, 0x00, 0x00,
  0xc0, 0x06, 0x00, 0x00, 0xc8, 0x40, 0x05, 0x91, 0xa0, 0xa7, 0xdd, 0x26,
  0xcd, 0x1e, 0x01, 0xa8, 0x37, 0xcb, 0xa8, 0xe0, 0xba, 0xab, 0xca, 0xc3,
  0x49, 0xcd, 0xca, 0xe7, 0x18, 0xa4, 0x37, 0x81, 0x68, 0xd1, 0x3c, 0x64,
  0xa2, 0x0a, 0x94, 0x9a, 0x93, 0xfb, 0x20, 0x85, 0x1a, 0xbb, 0xf8, 0x0b,
  0x34, 0x45, 0x98, 0x69, 0xd9, 0xff, 0xd0, 0xea, 0x08, 0xdf, 0xdb, 0x9a,
  0xf2, 0xf3, 0x24, 0xa0, 0x17, 0xcb, 0xa2, 0x49, 0xf1, 0xd3, 0xf6, 0xa6,
  0xaa, 0x0e, 0xd0, 0xf5, 0xb1, 0x23, 0xc8, 0x44, 0x00, 0xf7, 0x2b, 0xcb,
  0x94, 0x07, 0x81, 0x98, 0x2c, 0xd7, 0x2a, 0xa8, 0xad, 0x55, 0x89, 0x45,
  0x31, 0x42, 0x54, 0x9b, 0x5c, 0x44, 0x14, 0xa0, 0x2c, 0x11, 0xa3, 0x40,
  0x38, 0xe7, 0xa5, 0xd3, 0xa4, 0x9b, 0x31, 0x2f, 0x15, 0xaf, 0xa7, 0xc4,
  0x48, 0xf0, 0x15, 0xf6, 0xad, 0x49, 0x0b, 0xbc, 0x07, 0x25, 0xd7, 0xd6,
  0x94, 0xfc, 0x38, 0x40, 0x38, 0x25, 0x56, 0xba, 0x64, 0x45, 0x4d, 0xaa,
  0xcf, 0xf2, 0x17, 0xe9, 0x98, 0x10, 0xa3, 0x07, 0xa7, 0xcf, 0xe1, 0x23,
  0xb2, 0x85, 0x45, 0x2a, 0x02, 0x4e, 0xd6, 0xb0, 0x1d, 0x42, 0xbf, 0x2f,
  0x99, 0x44, 0xa7, 0xf8, 0x81, 0xfc, 0xf1, 0x27, 0x35, 0xa5, 0x0a, 0x4c,
  0xbd, 0x3c, 0xc6, 0xd8, 0xac, 0xce, 0x12, 0xfe, 0x3a, 0x98, 0x4a, 0xa0,
  0xd3, 0x9e, 0xb1, 0x20, 0xec, 0xe8, 0xbd, 0x09, 0x3f, 0x40, 0xea, 0x39,
  0x11, 0x3e, 0xed, 0xc9, 0xc5, 0x8d, 0x08, 0xb3, 0xbd, 0xc1, 0xcd, 0xa6,
  0x98, 0x96, 0xdd, 0xa0, 0xd1, 0x1d, 0xa4, 0xee, 0xe8, 0x12, 0x50, 0x41,
  0xe3, 0x41, 0xed, 0x2c, 0x5f, 0xaf, 0xdf, 0xdb, 0x99, 0x53, 0x53, 0xf2,
  0x27, 0x29, 0xce, 0x2a, 0x8e, 0x06, 0xbc, 0xbd, 0x2f, 0x3e, 0xfb, 0xc7,
  0x17, 0xcb, 0x30, 0x7f, 0xb2, 0xd0, 0x5b, 0xa1, 0x28, 0xc0, 0xb9, 0x23,
  0x9e, 0xef, 0x3f, 0xc1, 0x09, 0x35, 0xa1, 0xcb, 0x99, 0x3b, 0xa5, 0xa8,
  0x69, 0x57, 0x1f, 0xf1, 0x39, 0x4a, 0x34, 0xf3, 0xe3, 0x97, 0xbd, 0xf1,
  0xc0, 0x58, 0xee, 0x54, 0x68, 0x5c, 0x3b, 0xa6, 0x66, 0x0b, 0x21, 0xab,
  0x68, 0xe0, 0xd5, 0x26, 0x14, 0x2f, 0x03, 0xa1, 0xa7, 0x81, 0x42, 0xdf,
  0x92, 0x35, 0x0b, 0x2e, 0xed, 0xce, 0xc6, 0xfa, 0x61, 0x56, 0x93, 0x35,
  0x8e, 0x97, 0x15, 0xd3, 0x57, 0xe8, 0xe8, 0xb3, 0x55, 0x1a, 0x14, 0x05,
  0x41, 0xf7, 0xe7, 0xa9, 0xf8, 0xd5, 0x3e, 0x08, 0xde, 0xd8, 0xca, 0x1d,
  0xb0, 0xb7, 0x3c, 0x4e, 0xb5, 0xe0, 0x86, 0xc3, 0x11, 0x2e, 0x64, 0xf2,
  0xdd, 0x69, 0x45, 0xc6, 0x09, 0xdf, 0xc6, 0x4c, 0xf7, 0x54, 0xe4, 0xf0,
  0x37, 0xb2, 0x00, 0xf1, 0x1e, 0xf8, 0x4e, 0xd6, 0x54, 0xe6, 0x5c, 0x24,
  0xa6, 0xf9, 0x68, 0xf6, 0x2a, 0xfc, 0xa9, 0xb2, 0x00, 0x64, 0x39, 0x6d,
  0x6b, 0x62, 0x3b, 0xef, 0xd2, 0x57, 0x26, 0xa7, 0x24, 0xf5, 0xb2, 0x5b,
  0xef, 0xae, 0xf0, 0x4f, 0xb9, 0x29, 0x0f, 0xf3, 0xaa, 0x41, 0x92, 0xab,
  0x95, 0xe8, 0xdb, 0x15, 0x04, 0x3e, 0xa7, 0xa7, 0xf9, 0xf6, 0x99, 0xd4,
  0x57, 0x1a, 0x81, 0x3e, 0xcf, 0x37, 0x4d, 0xbc, 0xa9, 0x9e, 0xbc, 0x46,
  0xea, 0xd2, 0x5b, 0xc8, 0x69, 0x49, 0xc9, 0xa6, 0x04, 0x87, 0xc7, 0xf8,
  0xa0, 0x3a, 0x21, 0x5c, 0x0c, 0xd6, 0x37, 0x4c, 0x36, 0x29, 0xc3, 0xc2,
  0x0c, 0xca, 0xbb, 0xcd, 0x13, 0xd5, 0xee, 0x81, 0xf3, 0x68, 0xea, 0xfe,
  0x23, 0x2d, 0x91, 0xd8, 0x3a, 0xd5, 0xca, 0xeb, 0x03, 0xcc, 0xb7, 0x44,
  0x62, 0xd2, 0xcd, 0xbb, 0xa3, 0xc0, 0x2a, 0x3c, 0x21, 0xe3, 0xf6, 0xab,
  0x08, 0x60, 0xfe, 0xf0, 0x08, 0xf3, 0x43, 0x54, 0xad, 0xf0, 0x35, 0x4c,
  0x96, 0x13, 0xf1, 0xf6, 0x5c, 0x0c, 0x11, 0xf4, 0x51, 0xab, 0x28, 0x0d,
  0x54, 0x49, 0x6f, 0x40, 0xcd, 0x11, 0x03, 0xd2, 0xd0, 0x77, 0x4f, 0xeb,
  0x2b, 0xe7, 0xec, 0x33, 0xbc, 0xd6, 0x74, 0x18, 0xbe, 0xc3, 0x4f, 0xad,
  0x15, 0xdc, 0xd2, 0xa1, 0x5a, 0xe9, 0x46, 0xf8, 0x4c, 0x1b, 0x36, 0x34,
  0xc6, 0x7f, 0xe9, 0xbd, 0x8c, 0x9b, 0xa7, 0x04, 0xae, 0xec, 0x2d, 0xbe,
  0xeb, 0xda, 0x7b, 0xb7, 0x32, 0xa0, 0xb3, 0xac, 0x07, 0xaf, 0x35, 0x57,
  0x2c, 0x5d, 0xb3, 0xfb, 0x3d, 0x6a, 0x58, 0xa3, 0x2d, 0x95, 0xc4, 0x49,
  0xc4, 0x51, 0xb1, 0x7f, 0x69, 0x92, 0x6b, 0x3d, 0x16, 0x6c, 0x69, 0x69,
  0xa2, 0x74, 0xe8, 0x8a, 0x05, 0x35, 0x05, 0x93, 0x41, 0x12, 0xec, 0x95,
  0x71, 0x4a, 0x41, 0x60, 0x0e, 0x35, 0xfe, 0x45, 0xc9, 0xb1, 0x6e, 0x10,
  0xd1, 0xb3, 0xdc, 0xcf, 0xed, 0x6a, 0xec, 0x96, 0xe1, 0x3e, 0xc3, 0x5d,
  0x47, 0x35, 0x72, 0xba, 0xf4, 0x19, 0x18, 0x35, 0x46, 0x12, 0x86, 0xa1,
  0x47, 0xd5, 0xef, 0x5e, 0x60, 0xf5, 0x03, 0x44, 0xd2, 0xb0, 0xb1, 0xd4,
  0x2f, 0xa0, 0xf7, 0xd5, 0xb6, 0x1a, 0x4a, 0x04, 0xb5, 0xf2, 0xe8, 0x1c,
  0xf6, 0xaa, 0x10, 0xba, 0x03, 0xf2, 0xc5, 0xe2, 0x14, 0x09, 0x46, 0xcd,
  0x2c, 0xb7, 0x66, 0xa0, 0xe9, 0xc9, 0x53, 0xd3, 0xc5, 0xdc, 0x89, 0xe9,
  0x37, 0xd9, 0x44, 0xdd, 0x60, 0x92, 0x5d, 0xbb, 0x47, 0x81, 0xc5, 0x4b,
  0x07, 0xd2, 0xb4, 0xd5, 0x0c, 0x2c, 0x3e, 0xae, 0x09, 0x0e, 0xaa, 0xbd,
  0xc1, 0xd1, 0x0c, 0xb0, 0x12, 0x17, 0x42, 0xdc, 0xac, 0x0b, 0xdc, 0x2c,
  0xeb, 0x63, 0xef, 0x32, 0x16, 0xb2, 0xc6, 0x43, 0xe5, 0x53, 0x1b, 0xb2,
  0x4c, 0x99, 0x41, 0x60, 0xbc, 0xef, 0x2d, 0xe4, 0x06, 0xe8, 0xd6, 0x89,
  0x13, 0x31, 0x0b, 0xe8, 0x2a, 0x3f, 0x2a, 0x96, 0x39, 0x56, 0x1f, 0x81,
  0xb4, 0x25, 0xb3, 0x2b, 0xa4, 0x24, 0xdd, 0xe4, 0xd4, 0x40, 0xc7, 0x65,
  0x98, 0x1b, 0xd9, 0xb1, 0x15, 0x51, 0xda, 0x47, 0xa2, 0x1c, 0x68, 0x28,
  0x5b, 0x0f, 0xeb, 0x15, 0x2d, 0x07, 0xf2, 0x54, 0xfc, 0xd8, 0x10, 0xad,
  0xb9, 0x28, 0xe1, 0xaa, 0x5a, 0x6b, 0x50, 0x9e, 0x1f, 0x52, 0xa2, 0x0c,
  0x30, 0x20, 0x27, 0x17, 0xcd, 0x05, 0x00, 0xcf, 0x68, 0x6b, 0x9e, 0xbf,
  0x16, 0x45, 0xda, 0x3a, 0xc2, 0xcb, 0x61, 0x18, 0xf4, 0x26, 0xba, 0x7f,
  0xfe, 0xb8, 0x9d, 0xdc, 0xcd, 0xb4, 0x5e, 0xf5, 0x14, 0x09, 0xc9, 0xe9,
  0x65, 0x5f, 0x2b, 0xc4, 0x26, 0x28, 0xac, 0xc1, 0x65, 0xc0, 0x43, 0x5e,
  0xcd, 0x54, 0x3c, 0x2f, 0x9a, 0x46, 0x3d, 0xcb, 0xb6, 0x7f, 0xc3, 0xe4,
  0xae, 0xae, 0xe5, 0x4c, 0xcb, 0xfb, 0x2c, 0xfd, 0x32, 0x3a, 0x07, 0x43,
  0xfc, 0xb0, 0xcf, 0x1d, 0xe7, 0xe1, 0xd6, 0x23, 0xc9, 0x29, 0x44, 0xc5,
  0x5b, 0xc2, 0x58, 0xe1, 0xc5, 0x65, 0x0f, 0x3d, 0xfd, 0x5a, 0xc6, 0x06,
  0x9d, 0xb0, 0x45, 0xed, 0xf0, 0x35, 0x64, 0xcc, 0xa3, 0xbd, 0x43, 0x18,
  0x0d, 0x2c, 0x1f, 0xbd, 0x96, 0x93, 0xc5, 0x3d, 0x14, 0xf2, 0x22, 0xce,
  0x5f, 0x1f, 0xe4, 0xaf, 0x2c, 0xf8, 0xb6, 0x2e, 0xac, 0x58, 0x40, 0xc2,
  0xf6, 0xc1, 0x33, 0xf5, 0xf9, 0xe4, 0xd4, 0x9c, 0x81, 0xfb, 0xa2, 0x5f,
  0x0c, 0xb2, 0x47, 0x8f, 0xbb, 0x9b, 0xa7, 0xd3, 0xe8, 0xb3, 0xb0, 0x93,
  0x40, 0x54, 0x08, 0x96, 0x22, 0x3c, 0x0e, 0xa2, 0xf4, 0x32, 0x4f, 0xa1,
  0x13, 0xba, 0xdb, 0x51, 0xd1, 0xc0, 0x36, 0xeb, 0xa4, 0x50, 0x49, 0xe1,
  0x23, 0x21, 0xea, 0x46, 0x5d, 0x8c, 0x0c, 0x0e, 0x50, 0x5a, 0x13, 0x82,
  0xd5, 0xe3, 0x08, 0xd7, 0x1d, 0x5f, 0x0a, 0xcf, 0x0d, 0x09, 0x32, 0x2f,
  0x5a, 0x6f, 0x3d, 0x36, 0x2e, 0x21, 0x3f, 0xd5, 0x03, 0xde, 0x27, 0x87,
  0xde, 0xbc, 0x49, 0xd7, 0xea, 0x16, 0x4b, 0xe2, 0xa0, 0x9c, 0x19, 0xd4,
  0xc5, 0xc0, 0x1c, 0xd8, 0xb9, 0x99, 0xea, 0x41, 0x2e, 0xce, 0x81, 0x02,
  0x36, 0x54, 0x4f, 0xb1, 0x21, 0xac, 0x25, 0x5d, 0xe2, 0xfd, 0xe3, 0xdc,
  0xf1, 0x2d, 0xc5, 0xc3, 0x04, 0xf0, 0xce, 0xfb, 0x2a, 0x8e, 0xd5, 0xb5,
  0xcd, 0xfc, 0xfb, 0x6e, 0x35, 0xda, 0xa6, 0x8b, 0x54, 0x8d, 0xec, 0x9f,
  0x2c, 0x3a, 0xf2, 0x2c, 0x44, 0x46, 0x08, 0x54, 0xef, 0xad, 0x10, 0x99,
  0x5c, 0xb0, 0x3c, 0x4b, 0x57, 0xd3, 0xbe, 0x38, 0xf0, 0x81, 0xa7, 0xfb,
  0xee, 0x49, 0xb8, 0x9f, 0xd9, 0x59, 0x6a, 0x94, 0x28, 0x47, 0xd5, 0xc3,
  0xa0, 0xe2, 0x34, 0xf5, 0xf9, 0xb9, 0xb0, 0xdd, 0xdd, 0x92, 0x53, 0x30,
  0x6a, 0x6a, 0x47, 0x41, 0xaa, 0xb9, 0xf8, 0xb4, 0x96, 0x55, 0x93, 0x03,
  0xe9, 0xc4, 0x25, 0xd0, 0x15, 0x22, 0x4f, 0x2b, 0x59, 0xf4, 0x19, 0xb8,
  0x60, 0x5f, 0x50, 0xf7, 0x59, 0x28, 0x30, 0xc5, 0x91, 0x20, 0xdb, 0xdf,
  0xd3, 0xd8, 0x08, 0x3c, 0xc4, 0x3a, 0xa7, 0x9b, 0x31, 0xb4, 0xa9, 0x8b,
  0x5f, 0xaf, 0x25, 0x01, 0xc5, 0xa2, 0xdc, 0x23, 0x14, 0x4a, 0xd0, 0xc8,
  0xd0, 0x03, 0x81, 0xc4, 0x9f, 0x8e, 0x16, 0x8e, 0x42, 0xb7, 0x52, 0x12,
  0x1e, 0xeb, 0x9b, 0x58, 0xf9, 0xce, 0x0b, 0xa8, 0xc1, 0xf2, 0xeb, 0x49,
  0x6d, 0xc2, 0xa7, 0x58, 0x41, 0x3f, 0xab, 0xf7, 0xcd, 0xd7, 0xd3, 0xa6,
  0x95, 0x64, 0xfc, 0x26, 0xf1, 0xd1, 0x6b, 0x86, 0x90, 0x81, 0xc3, 0x3f,
  0xca, 0x07, 0xbd, 0x04, 0xb6, 0xc7, 0x5f, 0x95, 0xda, 0x2c, 0xfc, 0xbc,
  0x6b, 0x4c, 0x50, 0xa1, 0x72, 0x6a, 0x27, 0xee, 0x9c, 0xcf, 0x53, 0xec,
  0x5b, 0x02, 0x5c, 0x0a, 0x02, 0x4a, 0xa4, 0xa7, 0x6d, 0x65, 0x24, 0x43,
  0x19, 0xa5, 0x6c, 0x3d, 0x89, 0x8c, 0xe4, 0x8e, 0x15, 0x1f, 0xca, 0x67,
  0x67, 0xdc, 0xe8, 0x5a, 0xaf, 0x42, 0xb4, 0x86, 0x57, 0x6a, 0x5c, 0x43,
  0x35, 0xb1, 0xe7, 0x08, 0xda, 0x59, 0x81, 0xcc, 0x2f, 0xbb, 0x14, 0x03,
  0x9e, 0x0a, 0x02, 0xab, 0x02, 0x3e, 0xd4, 0xcc, 0x9c, 0x44, 0xc0, 0x01,
  0xc8, 0xcd, 0xf4, 0xb9, 0xa2, 0xff, 0xa4, 0x07, 0x88, 0x04, 0x9c, 0xbf,
  0xf4, 0xe1, 0xcd, 0x4a, 0xc2, 0x31, 0xdc, 0xf6, 0x5d, 0x36, 0xed, 0x11,
  0x38, 0x32, 0x0e, 0xce, 0xa1, 0xa2, 0x1e, 0x3e, 0x29, 0x2f, 0x60, 0xc4,
  0x98, 0x38, 0xe6, 0xb2, 0xde, 0x13, 0x81, 0xbf, 0xc2, 0x33, 0x8a, 0xef,
  0xff, 0xb1, 0x28, 0xda, 0xba, 0x49, 0xf4, 0x01, 0x29, 0x34, 0xbf, 0xef,
  0x24, 0x1e, 0xa5, 0x74, 0xc4, 0x0e, 0x06, 0x01, 0x8f, 0xb7, 0x44, 0xc0,
  0x67, 0x9c, 0xc7, 0x4a, 0x1f, 0xd7, 0x86, 0x4a, 0x84, 0x9c, 0xe8, 0xbd,
  0x11, 0x8c, 0x27, 0x3e, 0xb6, 0x46, 0x37, 0x10, 0x92, 0x4d, 0xe0, 0xb9,
  0x8b, 0x0d, 0x01, 0x2e, 0x42, 0xef, 0x99, 0x0d, 0xed, 0x04, 0x9c, 0x4f,
  0xed, 0xe6, 0x83, 0x18, 0x3d, 0xb7, 0x57, 0xce, 0xc2, 0xb7, 0xd7, 0x81,
  0xaf, 0x8a, 0x11, 0xae, 0xcb, 0x55, 0xa6, 0x58, 0xb7, 0xac, 0xe4, 0x27,
  0xfe, 0x5f, 0x73, 0xa0, 0x8e, 0x5a, 0x08, 0x50, 0x59, 0x1d, 0xc9, 0xb1,
  0xc1, 0x5f, 0x3c, 0x1f, 0x44, 0xfb, 0xfe, 0x72, 0x69, 0x69, 0x0f, 0x08,
  0x4c, 0x16, 0xc1, 0xd7, 0xc0, 0x0b, 0xfb, 0xc1, 0xad, 0xdc, 0x34, 0xa0,
  0xa2, 0xfc, 0xc6, 0x35, 0x2f, 0x0d, 0x57, 0x20, 0x2b, 0xb4, 0xa2, 0x2c,
  0x4f, 0x5c, 0xb3, 0x3a, 0xeb, 0x29, 0x1f, 0xd5, 0xd4, 0xb9, 0x1a, 0xe7,
  0xb7, 0xda, 0x00, 0x07, 0xe7, 0x5e, 0x42, 0x1f, 0xa4, 0xc6, 0x40, 0x03,
  0xab, 0x73, 0xb6, 0x38, 0x39, 0xc0, 0x16, 0x0c, 0x19, 0x7f, 0x2d, 0xb0,
  0x1c, 0xaf, 0xd4, 0x5e, 0x39, 0x47, 0x61, 0x16, 0xc4, 0xc8, 0x28, 0xc8,
  0x36, 0xd8, 0x97, 0x3b, 0xcf, 0x33, 0xa5, 0x4c, 0xa6, 0x20, 0x25, 0x16,
  0xab, 0xf7, 0xdd, 0x58, 0x36, 0xd0, 0xf6, 0x0d, 0xe7, 0x1d, 0x29, 0xcd,
  0x75, 0xd7, 0x20, 0x41, 0xcc, 0xc6, 0x3c, 0xa0, 0x8f, 0xe5, 0xe5, 0x89,
  0xe0, 0x39, 0xa2, 0x16, 0x83, 0xf2, 0xa3, 0xde, 0x84, 0xb7, 0xa4, 0xe4,
  0xa8, 0xd0, 0x1a, 0x50, 0xb6, 0x81, 0x1f, 0x99, 0x3a, 0xfb, 0xf7, 0x1e,
  0xd1, 0xe9, 0x41, 0xc5, 0xff, 0xbf, 0xf5, 0x1c, 0x23, 0x06, 0x00, 0xa7,
  0x19, 0x15, 0xf2, 0x1b, 0x3b, 0x62, 0xdd, 0xe2, 0x0e, 0xb9, 0xaa, 0x16,
  0xe8, 0x05, 0xc4, 0xba, 0xaa, 0x00, 0x95, 0x9f, 0x3f, 0xec, 0x36, 0xb6,
  0x1c, 0x1e, 0x11, 0x5f, 0xb6, 0x57, 0x93, 0xb8, 0x64, 0x16, 0x1c, 0x06,
  0x9a, 0x23, 0x0f, 0xb0, 0x00, 0xb1, 0x60, 0x81, 0xcb, 0x22, 0x3c, 0x31,
  0x10, 0xe6, 0x3a, 0x1f, 0x52, 0x70, 0x5f, 0xe5, 0x3e, 0x2c, 0xe0, 0x34,
  0xf6, 0x46, 0xba, 0x25, 0x16, 0x06, 0x69, 0xed, 0x1b, 0x9d, 0xae, 0x02,
  0x33, 0x5a, 0x1e, 0x21, 0x49, 0x22, 0x84, 0xda, 0x5c, 0xcb, 0xcd, 0x66,
  0x40, 0xdf, 0xf7, 0x53, 0x76, 0xfe, 0xff, 0xff, 0x04, 0x00, 0x00, 0x00,
  0x18, 0x00, 0x00, 0x00, 0x80, 0x25, 0xb4, 0xbe, 0x48, 0x31, 0x4b, 0x38,
  0x3f, 0x37, 0x38, 0x2b, 0x3c, 0xe3, 0x70, 0x6b, 0x11, 0x7f, 0xf9, 0x0a,
  0x21, 0xf1, 0xf7, 0x2b, 0x9a, 0xfe, 0xff, 0xff, 0x04, 0x00, 0x00, 0x00,
  0x18, 0x00, 0x00, 0x00, 0x34, 0x3d, 0xd0, 0xb1, 0xb3, 0x2d, 0xca, 0x2e,
  0x33, 0xcf, 0xeb, 0x56, 0x5d, 0x9a, 0xd9, 0xca, 0x81, 0xb8, 0xc8, 0xae,
  0x54, 0x40, 0x2e, 0xd0, 0xbe, 0xfe, 0xff, 0xff, 0x04, 0x00, 0x00, 0x00,
  0x04, 0x00, 0x00, 0x00, 0xe5, 0xfd, 0xff, 0xff, 0xce, 0xfe, 0xff, 0xff,
  0x04, 0x00, 0x00, 0x00, 0x0c, 0x00, 0x00, 0x00, 0x01, 0x00, 0x00, 0x00,
  0x01, 0x00, 0x00, 0x00, 0x01, 0x00, 0x00, 0x00, 0xe6, 0xfe, 0xff, 0xff,
  0x04, 0x00, 0x00, 0x00, 0x0c, 0x00, 0x00, 0x00, 0x00, 0x00, 0x00, 0x00,
  0x00, 0x00, 0x00, 0x00, 0x00, 0x00, 0x00, 0x00, 0xfe, 0xfe, 0xff, 0xff,
  0x04, 0x00, 0x00, 0x00, 0x0c, 0x00, 0x00, 0x00, 0x00, 0x00, 0x00, 0x00,
  0xff, 0xff, 0xff, 0xff, 0x00, 0x00, 0x00, 0x00, 0x16, 0xff, 0xff, 0xff,
  0x04, 0x00, 0x00, 0x00, 0x0c, 0x00, 0x00, 0x00, 0xff, 0xff, 0xff, 0xff,
  0x06, 0x00, 0x00, 0x00, 0x18, 0x00, 0x00, 0x00, 0x2e, 0xff, 0xff, 0xff,
  0x04, 0x00, 0x00, 0x00, 0x04, 0x00, 0x00, 0x00, 0x04, 0x00, 0x00, 0x00,
  0x3e, 0xff, 0xff, 0xff, 0x04, 0x00, 0x00, 0x00, 0x18, 0x00, 0x00, 0x00,
  0x00, 0x00, 0x00, 0x00, 0x00, 0x00, 0x00, 0x00, 0x08, 0x00, 0x00, 0x00,
  0x00, 0x00, 0x00, 0x00, 0x00, 0x00, 0x00, 0x00, 0x00, 0x00, 0x00, 0x00,
  0x62, 0xff, 0xff, 0xff, 0x04, 0x00, 0x00, 0x00, 0x0c, 0x00, 0x00, 0x00,
  0xff, 0xff, 0xff, 0xff, 0x0c, 0x00, 0x00, 0x00, 0x18, 0x00, 0x00, 0x00,
  0x7a, 0xff, 0xff, 0xff, 0x04, 0x00, 0x00, 0x00, 0x08, 0x00, 0x00, 0x00,
  0x00, 0x00, 0x00, 0x00, 0x00, 0x00, 0x00, 0x00, 0x8e, 0xff, 0xff, 0xff,
  0x04, 0x00, 0x00, 0x00, 0x04, 0x00, 0x00, 0x00, 0x02, 0x00, 0x00, 0x00,
  0x9e, 0xff, 0xff, 0xff, 0x04, 0x00, 0x00, 0x00, 0x18, 0x00, 0x00, 0x00,
  0x00, 0x00, 0x00, 0x00, 0x00, 0x00, 0x00, 0x00, 0x04, 0x00, 0x00, 0x00,
  0x00, 0x00, 0x00, 0x00, 0x00, 0x00, 0x00, 0x00, 0x00, 0x00, 0x00, 0x00,
  0xc2, 0xff, 0xff, 0xff, 0x04, 0x00, 0x00, 0x00, 0x18, 0x00, 0x00, 0x00,
  0x00, 0x00, 0x00, 0x00, 0x00, 0x00, 0x00, 0x00, 0x02, 0x00, 0x00, 0x00,
  0x00, 0x00, 0x00, 0x00, 0x00, 0x00, 0x00, 0x00, 0x00, 0x00, 0x00, 0x00,
  0xe6, 0xff, 0xff, 0xff, 0x04, 0x00, 0x00, 0x00, 0x0c, 0x00, 0x00, 0x00,
  0xff, 0xff, 0xff, 0xff, 0x18, 0x00, 0x00, 0x00, 0x18, 0x00, 0x00, 0x00,
  0x00, 0x00, 0x06, 0x00, 0x08, 0x00, 0x04, 0x00, 0x06, 0x00, 0x00, 0x00,
  0x04, 0x00, 0x00, 0x00, 0x04, 0x00, 0x00, 0x00, 0xfd, 0xff, 0xff, 0xff,
  0xd8, 0xbe, 0xff, 0xff, 0xdc, 0xbe, 0xff, 0xff, 0x0f, 0x00, 0x00, 0x00,
  0x4d, 0x4c, 0x49, 0x52, 0x20, 0x43, 0x6f, 0x6e, 0x76, 0x65, 0x72, 0x74,
  0x65, 0x64, 0x2e, 0x00, 0x01, 0x00, 0x00, 0x00, 0x14, 0x00, 0x00, 0x00,
  0x00, 0x00, 0x0e, 0x00, 0x18, 0x00, 0x14, 0x00, 0x10, 0x00, 0x0c, 0x00,
  0x08, 0x00, 0x04, 0x00, 0x0e, 0x00, 0x00, 0x00, 0x14, 0x00, 0x00, 0x00,
  0x1c, 0x00, 0x00, 0x00, 0x60, 0x09, 0x00, 0x00, 0x64, 0x09, 0x00, 0x00,
  0x68, 0x09, 0x00, 0x00, 0x04, 0x00, 0x00, 0x00, 0x6d, 0x61, 0x69, 0x6e,
  0x00, 0x00, 0x00, 0x00, 0x2c, 0x00, 0x00, 0x00, 0x18, 0x09, 0x00, 0x00,
  0xbc, 0x08, 0x00, 0x00, 0x84, 0x08, 0x00, 0x00, 0x44, 0x08, 0x00, 0x00,
  0x14, 0x08, 0x00, 0x00, 0xc0, 0x07, 0x00, 0x00, 0x98, 0x07, 0x00, 0x00,
  0x64, 0x07, 0x00, 0x00, 0x34, 0x07, 0x00, 0x00, 0xec, 0x06, 0x00, 0x00,
  0xb8, 0x06, 0x00, 0x00, 0x90, 0x06, 0x00, 0x00, 0x5c, 0x06, 0x00, 0x00,
  0x30, 0x06, 0x00, 0x00, 0x00, 0x06, 0x00, 0x00, 0xb0, 0x05, 0x00, 0x00,
  0x88, 0x05, 0x00, 0x00, 0x5c, 0x05, 0x00, 0x00, 0x1c, 0x05, 0x00, 0x00,
  0xe8, 0x04, 0x00, 0x00, 0xbc, 0x04, 0x00, 0x00, 0x8c, 0x04, 0x00, 0x00,
  0x48, 0x04, 0x00, 0x00, 0x20, 0x04, 0x00, 0x00, 0xf4, 0x03, 0x00, 0x00,
  0xbc, 0x03, 0x00, 0x00, 0x88, 0x03, 0x00, 0x00, 0x54, 0x03, 0x00, 0x00,
  0x28, 0x03, 0x00, 0x00, 0xf8, 0x02, 0x00, 0x00, 0xb4, 0x02, 0x00, 0x00,
  0x8c, 0x02, 0x00, 0x00, 0x60, 0x02, 0x00, 0x00, 0x28, 0x02, 0x00, 0x00,
  0xf4, 0x01, 0x00, 0x00, 0xc8, 0x01, 0x00, 0x00, 0x98, 0x01, 0x00, 0x00,
  0x54, 0x01, 0x00, 0x00, 0x2c, 0x01, 0x00, 0x00, 0x00, 0x01, 0x00, 0x00,
  0xc8, 0x00, 0x00, 0x00, 0x94, 0x00, 0x00, 0x00, 0x3c, 0x00, 0x00, 0x00,
  0x04, 0x00, 0x00, 0x00, 0xfe, 0xf7, 0xff, 0xff, 0x14, 0x00, 0x00, 0x00,
  0x00, 0x00, 0x00, 0x08, 0x10, 0x00, 0x00, 0x00, 0x14, 0x00, 0x00, 0x00,
  0x08, 0x00, 0x00, 0x00, 0xfc, 0xbf, 0xff, 0xff, 0x01, 0x00, 0x00, 0x00,
  0x4d, 0x00, 0x00, 0x00, 0x03, 0x00, 0x00, 0x00, 0x4c, 0x00, 0x00, 0x00,
  0x0f, 0x00, 0x00, 0x00, 0x0e, 0x00, 0x00, 0x00, 0x32, 0xf8, 0xff, 0xff,
  0x24, 0x00, 0x00, 0x00, 0x00, 0x00, 0x00, 0x20, 0x2c, 0x00, 0x00, 0x00,
  0x30, 0x00, 0x00, 0x00, 0x07, 0x00, 0x00, 0x00, 0x00, 0x00, 0x0e, 0x00,
  0x10, 0x00, 0x0c, 0x00, 0x08, 0x00, 0x00, 0x00, 0x00, 0x00, 0x04, 0x00,
  0x0e, 0x00, 0x00, 0x00, 0x02, 0x00, 0x00, 0x00, 0x05, 0x00, 0x00, 0x00,
  0x05, 0x00, 0x00, 0x00, 0x01, 0x00, 0x00, 0x00, 0x4c, 0x00, 0x00, 0x00,
  0x04, 0x00, 0x00, 0x00, 0x4b, 0x00, 0x00, 0x00, 0x0b, 0x00, 0x00, 0x00,
  0x0c, 0x00, 0x00, 0x00, 0x0d, 0x00, 0x00, 0x00, 0x86, 0xf8, 0xff, 0xff,
  0x14, 0x00, 0x00, 0x00, 0x00, 0x00, 0x00, 0x0b, 0x10, 0x00, 0x00, 0x00,
  0x14, 0x00, 0x00, 0x00, 0x04, 0x00, 0x00, 0x00, 0x84, 0xc0, 0xff, 0xff,
  0x01, 0x00, 0x00, 0x00, 0x4b, 0x00, 0x00, 0x00, 0x02, 0x00, 0x00, 0x00,
  0x3c, 0x00, 0x00, 0x00, 0x4a, 0x00, 0x00, 0x00, 0xb6, 0xf8, 0xff, 0xff,
  0x14, 0x00, 0x00, 0x00, 0x00, 0x00, 0x00, 0x0b, 0x14, 0x00, 0x00, 0x00,
  0x18, 0x00, 0x00, 0x00, 0x04, 0x00, 0x00, 0x00, 0x02, 0xfc, 0xff, 0xff,
  0x00, 0x00, 0x00, 0x01, 0x01, 0x00, 0x00, 0x00, 0x4a, 0x00, 0x00, 0x00,
  0x02, 0x00, 0x00, 0x00, 0x49, 0x00, 0x00, 0x00, 0x10, 0x00, 0x00, 0x00,
  0x1a, 0xf9, 0xff, 0xff, 0x0c, 0x00, 0x00, 0x00, 0x10, 0x00, 0x00, 0x00,
  0x06, 0x00, 0x00, 0x00, 0x01, 0x00, 0x00, 0x00, 0x49, 0x00, 0x00, 0x00,
  0x03, 0x00, 0x00, 0x00, 0x48, 0x00, 0x00, 0x00, 0x09, 0x00, 0x00, 0x00,
  0x06, 0x00, 0x00, 0x00, 0x42, 0xf9, 0xff, 0xff, 0x0c, 0x00, 0x00, 0x00,
  0x10, 0x00, 0x00, 0x00, 0x02, 0x00, 0x00, 0x00, 0x01, 0x00, 0x00, 0x00,
  0x48, 0x00, 0x00, 0x00, 0x02, 0x00, 0x00, 0x00, 0x47, 0x00, 0x00, 0x00,
  0x0a, 0x00, 0x00, 0x00, 0x36, 0xf9, 0xff, 0xff, 0x14, 0x00, 0x00, 0x00,
  0x00, 0x00, 0x00, 0x01, 0x1c, 0x00, 0x00, 0x00, 0x20, 0x00, 0x00, 0x00,
  0x01, 0x00, 0x00, 0x00, 0xfa, 0xfb, 0xff, 0xff, 0x01, 0x00, 0x00, 0x00,
  0x01, 0x00, 0x00, 0x00, 0x00, 0x00, 0x00, 0x01, 0x01, 0x00, 0x00, 0x00,
  0x47, 0x00, 0x00, 0x00, 0x03, 0x00, 0x00, 0x00, 0x46, 0x00, 0x00, 0x00,
  0x11, 0x00, 0x00, 0x00, 0x1a, 0x00, 0x00, 0x00, 0x1e, 0xf9, 0xff, 0xff,
  0x10, 0x00, 0x00, 0x00, 0x00, 0x00, 0x00, 0x34, 0x0c, 0x00, 0x00, 0x00,
  0x10, 0x00, 0x00, 0x00, 0x70, 0xc1, 0xff, 0xff, 0x01, 0x00, 0x00, 0x00,
  0x46, 0x00, 0x00, 0x00, 0x02, 0x00, 0x00, 0x00, 0x45, 0x00, 0x00, 0x00,
  0x01, 0x00, 0x00, 0x00, 0xd2, 0xf9, 0xff, 0xff, 0x0c, 0x00, 0x00, 0x00,
  0x10, 0x00, 0x00, 0x00, 0x05, 0x00, 0x00, 0x00, 0x01, 0x00, 0x00, 0x00,
  0x45, 0x00, 0x00, 0x00, 0x03, 0x00, 0x00, 0x00, 0x44, 0x00, 0x00, 0x00,
  0x09, 0x00, 0x00, 0x00, 0x06, 0x00, 0x00, 0x00, 0xca, 0xf9, 0xff, 0xff,
  0x14, 0x00, 0x00, 0x00, 0x00, 0x00, 0x00, 0x16, 0x10, 0x00, 0x00, 0x00,
  0x14, 0x00, 0x00, 0x00, 0x03, 0x00, 0x00, 0x00, 0xc8, 0xc1, 0xff, 0xff,
  0x01, 0x00, 0x00, 0x00, 0x44, 0x00, 0x00, 0x00, 0x02, 0x00, 0x00, 0x00,
  0x43, 0x00, 0x00, 0x00, 0x08, 0x00, 0x00, 0x00, 0xfa, 0xf9, 0xff, 0xff,
  0x14, 0x00, 0x00, 0x00, 0x00, 0x00, 0x00, 0x0b, 0x14, 0x00, 0x00, 0x00,
  0x18, 0x00, 0x00, 0x00, 0x04, 0x00, 0x00, 0x00, 0x46, 0xfd, 0xff, 0xff,
  0x00, 0x00, 0x00, 0x01, 0x01, 0x00, 0x00, 0x00, 0x43, 0x00, 0x00, 0x00,
  0x02, 0x00, 0x00, 0x00, 0x42, 0x00, 0x00, 0x00, 0x12, 0x00, 0x00, 0x00,
  0x5e, 0xfa, 0xff, 0xff, 0x0c, 0x00, 0x00, 0x00, 0x10, 0x00, 0x00, 0x00,
  0x06, 0x00, 0x00, 0x00, 0x01, 0x00, 0x00, 0x00, 0x42, 0x00, 0x00, 0x00,
  0x03, 0x00, 0x00, 0x00, 0x41, 0x00, 0x00, 0x00, 0x09, 0x00, 0x00, 0x00,
  0x06, 0x00, 0x00, 0x00, 0x86, 0xfa, 0xff, 0xff, 0x0c, 0x00, 0x00, 0x00,
  0x10, 0x00, 0x00, 0x00, 0x02, 0x00, 0x00, 0x00, 0x01, 0x00, 0x00, 0x00,
  0x41, 0x00, 0x00, 0x00, 0x02, 0x00, 0x00, 0x00, 0x40, 0x00, 0x00, 0x00,
  0x0a, 0x00, 0x00, 0x00, 0x7a, 0xfa, 0xff, 0xff, 0x14, 0x00, 0x00, 0x00,
  0x00, 0x00, 0x00, 0x01, 0x1c, 0x00, 0x00, 0x00, 0x20, 0x00, 0x00, 0x00,
  0x01, 0x00, 0x00, 0x00, 0x3e, 0xfd, 0xff, 0xff, 0x01, 0x00, 0x00, 0x00,
  0x01, 0x00, 0x00, 0x00, 0x00, 0x00, 0x00, 0x01, 0x01, 0x00, 0x00, 0x00,
  0x40, 0x00, 0x00, 0x00, 0x03, 0x00, 0x00, 0x00, 0x3f, 0x00, 0x00, 0x00,
  0x13, 0x00, 0x00, 0x00, 0x19, 0x00, 0x00, 0x00, 0x62, 0xfa, 0xff, 0xff,
  0x10, 0x00, 0x00, 0x00, 0x00, 0x00, 0x00, 0x34, 0x0c, 0x00, 0x00, 0x00,
  0x10, 0x00, 0x00, 0x00, 0xb4, 0xc2, 0xff, 0xff, 0x01, 0x00, 0x00, 0x00,
  0x3f, 0x00, 0x00, 0x00, 0x02, 0x00, 0x00, 0x00, 0x3e, 0x00, 0x00, 0x00,
  0x01, 0x00, 0x00, 0x00, 0x16, 0xfb, 0xff, 0xff, 0x0c, 0x00, 0x00, 0x00,
  0x10, 0x00, 0x00, 0x00, 0x05, 0x00, 0x00, 0x00, 0x01, 0x00, 0x00, 0x00,
  0x3e, 0x00, 0x00, 0x00, 0x03, 0x00, 0x00, 0x00, 0x3d, 0x00, 0x00, 0x00,
  0x09, 0x00, 0x00, 0x00, 0x06, 0x00, 0x00, 0x00, 0x0e, 0xfb, 0xff, 0xff,
  0x14, 0x00, 0x00, 0x00, 0x00, 0x00, 0x00, 0x16, 0x10, 0x00, 0x00, 0x00,
  0x14, 0x00, 0x00, 0x00, 0x03, 0x00, 0x00, 0x00, 0x0c, 0xc3, 0xff, 0xff,
  0x01, 0x00, 0x00, 0x00, 0x3d, 0x00, 0x00, 0x00, 0x02, 0x00, 0x00, 0x00,
  0x3c, 0x00, 0x00, 0x00, 0x08, 0x00, 0x00, 0x00, 0x3e, 0xfb, 0xff, 0xff,
  0x14, 0x00, 0x00, 0x00, 0x00, 0x00, 0x00, 0x0b, 0x10, 0x00, 0x00, 0x00,
  0x14, 0x00, 0x00, 0x00, 0x04, 0x00, 0x00, 0x00, 0x3c, 0xc3, 0xff, 0xff,
  0x01, 0x00, 0x00, 0x00, 0x3c, 0x00, 0x00, 0x00, 0x02, 0x00, 0x00, 0x00,
  0x2d, 0x00, 0x00, 0x00, 0x3b, 0x00, 0x00, 0x00, 0x6e, 0xfb, 0xff, 0xff,
  0x14, 0x00, 0x00, 0x00, 0x00, 0x00, 0x00, 0x0b, 0x14, 0x00, 0x00, 0x00,
  0x18, 0x00, 0x00, 0x00, 0x04, 0x00, 0x00, 0x00, 0xba, 0xfe, 0xff, 0xff,
  0x00, 0x00, 0x00, 0x01, 0x01, 0x00, 0x00, 0x00, 0x3b, 0x00, 0x00, 0x00,
  0x02, 0x00, 0x00, 0x00, 0x3a, 0x00, 0x00, 0x00, 0x14, 0x00, 0x00, 0x00,
  0xd2, 0xfb, 0xff, 0xff, 0x0c, 0x00, 0x00, 0x00, 0x10, 0x00, 0x00, 0x00,
  0x06, 0x00, 0x00, 0x00, 0x01, 0x00, 0x00, 0x00, 0x3a, 0x00, 0x00, 0x00,
  0x03, 0x00, 0x00, 0x00, 0x39, 0x00, 0x00, 0x00, 0x05, 0x00, 0x00, 0x00,
  0x06, 0x00, 0x00, 0x00, 0xfa, 0xfb, 0xff, 0xff, 0x0c, 0x00, 0x00, 0x00,
  0x10, 0x00, 0x00, 0x00, 0x02, 0x00, 0x00, 0x00, 0x01, 0x00, 0x00, 0x00,
  0x39, 0x00, 0x00, 0x00, 0x02, 0x00, 0x00, 0x00, 0x38, 0x00, 0x00, 0x00,
  0x07, 0x00, 0x00, 0x00, 0xee, 0xfb, 0xff, 0xff, 0x14, 0x00, 0x00, 0x00,
  0x00, 0x00, 0x00, 0x01, 0x1c, 0x00, 0x00, 0x00, 0x20, 0x00, 0x00, 0x00,
  0x01, 0x00, 0x00, 0x00, 0xb2, 0xfe, 0xff, 0xff, 0x01, 0x00, 0x00, 0x00,
  0x01, 0x00, 0x00, 0x00, 0x00, 0x00, 0x00, 0x01, 0x01, 0x00, 0x00, 0x00,
  0x38, 0x00, 0x00, 0x00, 0x03, 0x00, 0x00, 0x00, 0x37, 0x00, 0x00, 0x00,
  0x15, 0x00, 0x00, 0x00, 0x18, 0x00, 0x00, 0x00, 0xd6, 0xfb, 0xff, 0xff,
  0x10, 0x00, 0x00, 0x00, 0x00, 0x00, 0x00, 0x34, 0x0c, 0x00, 0x00, 0x00,
  0x10, 0x00, 0x00, 0x00, 0x28, 0xc4, 0xff, 0xff, 0x01, 0x00, 0x00, 0x00,
  0x37, 0x00, 0x00, 0x00, 0x02, 0x00, 0x00, 0x00, 0x36, 0x00, 0x00, 0x00,
  0x01, 0x00, 0x00, 0x00, 0x8a, 0xfc, 0xff, 0xff, 0x0c, 0x00, 0x00, 0x00,
  0x10, 0x00, 0x00, 0x00, 0x05, 0x00, 0x00, 0x00, 0x01, 0x00, 0x00, 0x00,
  0x36, 0x00, 0x00, 0x00, 0x03, 0x00, 0x00, 0x00, 0x35, 0x00, 0x00, 0x00,
  0x05, 0x00, 0x00, 0x00, 0x06, 0x00, 0x00, 0x00, 0x82, 0xfc, 0xff, 0xff,
  0x14, 0x00, 0x00, 0x00, 0x00, 0x00, 0x00, 0x16, 0x10, 0x00, 0x00, 0x00,
  0x14, 0x00, 0x00, 0x00, 0x03, 0x00, 0x00, 0x00, 0x80, 0xc4, 0xff, 0xff,
  0x01, 0x00, 0x00, 0x00, 0x35, 0x00, 0x00, 0x00, 0x02, 0x00, 0x00, 0x00,
  0x34, 0x00, 0x00, 0x00, 0x04, 0x00, 0x00, 0x00, 0xb2, 0xfc, 0xff, 0xff,
  0x1c, 0x00, 0x00, 0x00, 0x00, 0x00, 0x00, 0x0b, 0x1c, 0x00, 0x00, 0x00,
  0x20, 0x00, 0x00, 0x00, 0x04, 0x00, 0x00, 0x00, 0x00, 0x00, 0x06, 0x00,
  0x08, 0x00, 0x07, 0x00, 0x06, 0x00, 0x00, 0x00, 0x00, 0x00, 0x00, 0x01,
  0x01, 0x00, 0x00, 0x00, 0x34, 0x00, 0x00, 0x00, 0x02, 0x00, 0x00, 0x00,
  0x33, 0x00, 0x00, 0x00, 0x16, 0x00, 0x00, 0x00, 0x1e, 0xfd, 0xff, 0xff,
  0x0c, 0x00, 0x00, 0x00, 0x10, 0x00, 0x00, 0x00, 0x06, 0x00, 0x00, 0x00,
  0x01, 0x00, 0x00, 0x00, 0x33, 0x00, 0x00, 0x00, 0x03, 0x00, 0x00, 0x00,
  0x32, 0x00, 0x00, 0x00, 0x05, 0x00, 0x00, 0x00, 0x06, 0x00, 0x00, 0x00,
  0x46, 0xfd, 0xff, 0xff, 0x0c, 0x00, 0x00, 0x00, 0x10, 0x00, 0x00, 0x00,
  0x02, 0x00, 0x00, 0x00, 0x01, 0x00, 0x00, 0x00, 0x32, 0x00, 0x00, 0x00,
  0x02, 0x00, 0x00, 0x00, 0x31, 0x00, 0x00, 0x00, 0x07, 0x00, 0x00, 0x00,
  0x3a, 0xfd, 0xff, 0xff, 0x20, 0x00, 0x00, 0x00, 0x00, 0x00, 0x00, 0x01,
  0x28, 0x00, 0x00, 0x00, 0x2c, 0x00, 0x00, 0x00, 0x01, 0x00, 0x00, 0x00,
  0x00, 0x00, 0x0a, 0x00, 0x10, 0x00, 0x0f, 0x00, 0x08, 0x00, 0x04, 0x00,
  0x0a, 0x00, 0x00, 0x00, 0x01, 0x00, 0x00, 0x00, 0x01, 0x00, 0x00, 0x00,
  0x00, 0x00, 0x00, 0x01, 0x01, 0x00, 0x00, 0x00, 0x31, 0x00, 0x00, 0x00,
  0x03, 0x00, 0x00, 0x00, 0x30, 0x00, 0x00, 0x00, 0x1b, 0x00, 0x00, 0x00,
  0x17, 0x00, 0x00, 0x00, 0x2e, 0xfd, 0xff, 0xff, 0x10, 0x00, 0x00, 0x00,
  0x00, 0x00, 0x00, 0x34, 0x0c, 0x00, 0x00, 0x00, 0x10, 0x00, 0x00, 0x00,
  0x80, 0xc5, 0xff, 0xff, 0x01, 0x00, 0x00, 0x00, 0x30, 0x00, 0x00, 0x00,
  0x02, 0x00, 0x00, 0x00, 0x2f, 0x00, 0x00, 0x00, 0x01, 0x00, 0x00, 0x00,
  0xe2, 0xfd, 0xff, 0xff, 0x0c, 0x00, 0x00, 0x00, 0x10, 0x00, 0x00, 0x00,
  0x05, 0x00, 0x00, 0x00, 0x01, 0x00, 0x00, 0x00, 0x2f, 0x00, 0x00, 0x00,
  0x03, 0x00, 0x00, 0x00, 0x2e, 0x00, 0x00, 0x00, 0x05, 0x00, 0x00, 0x00,
  0x06, 0x00, 0x00, 0x00, 0xda, 0xfd, 0xff, 0xff, 0x14, 0x00, 0x00, 0x00,
  0x00, 0x00, 0x00, 0x16, 0x10, 0x00, 0x00, 0x00, 0x14, 0x00, 0x00, 0x00,
  0x03, 0x00, 0x00, 0x00, 0xd8, 0xc5, 0xff, 0xff, 0x01, 0x00, 0x00, 0x00,
  0x2e, 0x00, 0x00, 0x00, 0x02, 0x00, 0x00, 0x00, 0x2d, 0x00, 0x00, 0x00,
  0x04, 0x00, 0x00, 0x00, 0x3a, 0xfe, 0xff, 0xff, 0x0c, 0x00, 0x00, 0x00,
  0x10, 0x00, 0x00, 0x00, 0x02, 0x00, 0x00, 0x00, 0x01, 0x00, 0x00, 0x00,
  0x2d, 0x00, 0x00, 0x00, 0x02, 0x00, 0x00, 0x00, 0x2c, 0x00, 0x00, 0x00,
  0x02, 0x00, 0x00, 0x00, 0x2e, 0xfe, 0xff, 0xff, 0x14, 0x00, 0x00, 0x00,
  0x00, 0x00, 0x00, 0x0b, 0x10, 0x00, 0x00, 0x00, 0x14, 0x00, 0x00, 0x00,
  0x04, 0x00, 0x00, 0x00, 0x2c, 0xc6, 0xff, 0xff, 0x01, 0x00, 0x00, 0x00,
  0x2c, 0x00, 0x00, 0x00, 0x02, 0x00, 0x00, 0x00, 0x23, 0x00, 0x00, 0x00,
  0x2b, 0x00, 0x00, 0x00, 0x5e, 0xfe, 0xff, 0xff, 0x14, 0x00, 0x00, 0x00,
  0x00, 0x00, 0x00, 0x01, 0x20, 0x00, 0x00, 0x00, 0x24, 0x00, 0x00, 0x00,
  0x01, 0x00, 0x00, 0x00, 0x3c, 0xff, 0xff, 0xff, 0x00, 0x00, 0x00, 0x01,
  0x01, 0x00, 0x00, 0x00, 0x01, 0x00, 0x00, 0x00, 0x00, 0x00, 0x00, 0x01,
  0x01, 0x00, 0x00, 0x00, 0x2b, 0x00, 0x00, 0x00, 0x03, 0x00, 0x00, 0x00,
  0x2a, 0x00, 0x00, 0x00, 0x1d, 0x00, 0x00, 0x00, 0x1c, 0x00, 0x00, 0x00,
  0x4a, 0xfe, 0xff, 0xff, 0x10, 0x00, 0x00, 0x00, 0x00, 0x00, 0x00, 0x34,
  0x0c, 0x00, 0x00, 0x00, 0x10, 0x00, 0x00, 0x00, 0x9c, 0xc6, 0xff, 0xff,
  0x01, 0x00, 0x00, 0x00, 0x2a, 0x00, 0x00, 0x00, 0x02, 0x00, 0x00, 0x00,
  0x29, 0x00, 0x00, 0x00, 0x01, 0x00, 0x00, 0x00, 0xce, 0xfe, 0xff, 0xff,
  0x14, 0x00, 0x00, 0x00, 0x00, 0x00, 0x00, 0x16, 0x10, 0x00, 0x00, 0x00,
  0x14, 0x00, 0x00, 0x00, 0x03, 0x00, 0x00, 0x00, 0xcc, 0xc6, 0xff, 0xff,
  0x01, 0x00, 0x00, 0x00, 0x29, 0x00, 0x00, 0x00, 0x02, 0x00, 0x00, 0x00,
  0x28, 0x00, 0x00, 0x00, 0x03, 0x00, 0x00, 0x00, 0x2e, 0xff, 0xff, 0xff,
  0x0c, 0x00, 0x00, 0x00, 0x10, 0x00, 0x00, 0x00, 0x02, 0x00, 0x00, 0x00,
  0x01, 0x00, 0x00, 0x00, 0x28, 0x00, 0x00, 0x00, 0x02, 0x00, 0x00, 0x00,
  0x27, 0x00, 0x00, 0x00, 0x02, 0x00, 0x00, 0x00, 0x22, 0xff, 0xff, 0xff,
  0x20, 0x00, 0x00, 0x00, 0x00, 0x00, 0x00, 0x01, 0x2c, 0x00, 0x00, 0x00,
  0x30, 0x00, 0x00, 0x00, 0x01, 0x00, 0x00, 0x00, 0x0c, 0x00, 0x14, 0x00,
  0x13, 0x00, 0x0c, 0x00, 0x08, 0x00, 0x07, 0x00, 0x0c, 0x00, 0x00, 0x00,
  0x00, 0x00, 0x00, 0x01, 0x01, 0x00, 0x00, 0x00, 0x01, 0x00, 0x00, 0x00,
  0x00, 0x00, 0x00, 0x01, 0x01, 0x00, 0x00, 0x00, 0x27, 0x00, 0x00, 0x00,
  0x03, 0x00, 0x00, 0x00, 0x26, 0x00, 0x00, 0x00, 0x1f, 0x00, 0x00, 0x00,
  0x1e, 0x00, 0x00, 0x00, 0x1a, 0xff, 0xff, 0xff, 0x10, 0x00, 0x00, 0x00,
  0x00, 0x00, 0x00, 0x34, 0x0c, 0x00, 0x00, 0x00, 0x10, 0x00, 0x00, 0x00,
  0x6c, 0xc7, 0xff, 0xff, 0x01, 0x00, 0x00, 0x00, 0x26, 0x00, 0x00, 0x00,
  0x02, 0x00, 0x00, 0x00, 0x25, 0x00, 0x00, 0x00, 0x01, 0x00, 0x00, 0x00,
  0x9e, 0xff, 0xff, 0xff, 0x14, 0x00, 0x00, 0x00, 0x00, 0x00, 0x00, 0x16,
  0x10, 0x00, 0x00, 0x00, 0x14, 0x00, 0x00, 0x00, 0x03, 0x00, 0x00, 0x00,
  0x9c, 0xc7, 0xff, 0xff, 0x01, 0x00, 0x00, 0x00, 0x25, 0x00, 0x00, 0x00,
  0x02, 0x00, 0x00, 0x00, 0x24, 0x00, 0x00, 0x00, 0x03, 0x00, 0x00, 0x00,
  0x00, 0x00, 0x0a, 0x00, 0x10, 0x00, 0x0c, 0x00, 0x08, 0x00, 0x04, 0x00,
  0x0a, 0x00, 0x00, 0x00, 0x0c, 0x00, 0x00, 0x00, 0x10, 0x00, 0x00, 0x00,
  0x02, 0x00, 0x00, 0x00, 0x01, 0x00, 0x00, 0x00, 0x24, 0x00, 0x00, 0x00,
  0x02, 0x00, 0x00, 0x00, 0x23, 0x00, 0x00, 0x00, 0x02, 0x00, 0x00, 0x00,
  0x00, 0x00, 0x0e, 0x00, 0x1a, 0x00, 0x14, 0x00, 0x10, 0x00, 0x0c, 0x00,
  0x0b, 0x00, 0x04, 0x00, 0x0e, 0x00, 0x00, 0x00, 0x20, 0x00, 0x00, 0x00,
  0x00, 0x00, 0x00, 0x01, 0x24, 0x00, 0x00, 0x00, 0x28, 0x00, 0x00, 0x00,
  0x01, 0x00, 0x00, 0x00, 0x00, 0x00, 0x0a, 0x00, 0x0c, 0x00, 0x00, 0x00,
  0x08, 0x00, 0x04, 0x00, 0x0a, 0x00, 0x00, 0x00, 0x01, 0x00, 0x00, 0x00,
  0x01, 0x00, 0x00, 0x00, 0x01, 0x00, 0x00, 0x00, 0x23, 0x00, 0x00, 0x00,
  0x03, 0x00, 0x00, 0x00, 0x22, 0x00, 0x00, 0x00, 0x21, 0x00, 0x00, 0x00,
  0x20, 0x00, 0x00, 0x00, 0x00, 0x00, 0x0e, 0x00, 0x14, 0x00, 0x00, 0x00,
  0x10, 0x00, 0x0c, 0x00, 0x0b, 0x00, 0x04, 0x00, 0x0e, 0x00, 0x00, 0x00,
  0x10, 0x00, 0x00, 0x00, 0x00, 0x00, 0x00, 0x34, 0x0c, 0x00, 0x00, 0x00,
  0x10, 0x00, 0x00, 0x00, 0x60, 0xc8, 0xff, 0xff, 0x01, 0x00, 0x00, 0x00,
  0x22, 0x00, 0x00, 0x00, 0x02, 0x00, 0x00, 0x00, 0x00, 0x00, 0x00, 0x00,
  0x01, 0x00, 0x00, 0x00, 0x01, 0x00, 0x00, 0x00, 0x4d, 0x00, 0x00, 0x00,
  0x01, 0x00, 0x00, 0x00, 0x00, 0x00, 0x00, 0x00, 0x4e, 0x00, 0x00, 0x00,
  0xc0, 0x37, 0x00, 0x00, 0x54, 0x37, 0x00, 0x00, 0xec, 0x36, 0x00, 0x00,
  0x9c, 0x36, 0x00, 0x00, 0x4c, 0x36, 0x00, 0x00, 0xe8, 0x35, 0x00, 0x00,
  0x88, 0x35, 0x00, 0x00, 0x38, 0x35, 0x00, 0x00, 0xe8, 0x34, 0x00, 0x00,
  0x84, 0x34, 0x00, 0x00, 0x34, 0x34, 0x00, 0x00, 0xe0, 0x33, 0x00, 0x00,
  0x8c, 0x33, 0x00, 0x00, 0x38, 0x33, 0x00, 0x00, 0xc8, 0x32, 0x00, 0x00,
  0x64, 0x32, 0x00, 0x00, 0xf0, 0x31, 0x00, 0x00, 0x6c, 0x30, 0x00, 0x00,
  0xf8, 0x2f, 0x00, 0x00, 0x74, 0x2e, 0x00, 0x00, 0x00, 0x2e, 0x00, 0x00,
  0x7c, 0x2c, 0x00, 0x00, 0x08, 0x2c, 0x00, 0x00, 0x8c, 0x2a, 0x00, 0x00,
  0x10, 0x29, 0x00, 0x00, 0x94, 0x27, 0x00, 0x00, 0x18, 0x26, 0x00, 0x00,
  0x94, 0x24, 0x00, 0x00, 0x08, 0x23, 0x00, 0x00, 0x84, 0x21, 0x00, 0x00,
  0xf8, 0x1f, 0x00, 0x00, 0x74, 0x1e, 0x00, 0x00, 0xf0, 0x1c, 0x00, 0x00,
  0x6c, 0x1b, 0x00, 0x00, 0xd8, 0x1a, 0x00, 0x00, 0xe4, 0x19, 0x00, 0x00,
  0x24, 0x19, 0x00, 0x00, 0xa8, 0x18, 0x00, 0x00, 0x10, 0x18, 0x00, 0x00,
  0x04, 0x17, 0x00, 0x00, 0x2c, 0x16, 0x00, 0x00, 0xb0, 0x15, 0x00, 0x00,
  0x18, 0x15, 0x00, 0x00, 0x0c, 0x14, 0x00, 0x00, 0xc8, 0x12, 0x00, 0x00,
  0x88, 0x11, 0x00, 0x00, 0x0c, 0x11, 0x00, 0x00, 0x78, 0x10, 0x00, 0x00,
  0xe0, 0x0f, 0x00, 0x00, 0x54, 0x0f, 0x00, 0x00, 0xcc, 0x0e, 0x00, 0x00,
  0x38, 0x0e, 0x00, 0x00, 0xa4, 0x0d, 0x00, 0x00, 0x28, 0x0d, 0x00, 0x00,
  0x94, 0x0c, 0x00, 0x00, 0xfc, 0x0b, 0x00, 0x00, 0x70, 0x0b, 0x00, 0x00,
  0xe8, 0x0a, 0x00, 0x00, 0x54, 0x0a, 0x00, 0x00, 0xc0, 0x09, 0x00, 0x00,
  0x44, 0x09, 0x00, 0x00, 0xc8, 0x08, 0x00, 0x00, 0x34, 0x08, 0x00, 0x00,
  0x9c, 0x07, 0x00, 0x00, 0x10, 0x07, 0x00, 0x00, 0x88, 0x06, 0x00, 0x00,
  0xf4, 0x05, 0x00, 0x00, 0x60, 0x05, 0x00, 0x00, 0xe4, 0x04, 0x00, 0x00,
  0x50, 0x04, 0x00, 0x00, 0xb8, 0x03, 0x00, 0x00, 0x2c, 0x03, 0x00, 0x00,
  0xa4, 0x02, 0x00, 0x00, 0x10, 0x02, 0x00, 0x00, 0x7c, 0x01, 0x00, 0x00,
  0x00, 0x01, 0x00, 0x00, 0x80, 0x00, 0x00, 0x00, 0x04, 0x00, 0x00, 0x00,
  0x8e, 0xc9, 0xff, 0xff, 0x00, 0x00, 0x00, 0x01, 0x18, 0x00, 0x00, 0x00,
  0x20, 0x00, 0x00, 0x00, 0x3c, 0x00, 0x00, 0x00, 0x4e, 0x00, 0x00, 0x00,
  0x00, 0x00, 0x00, 0x09, 0x50, 0x00, 0x00, 0x00, 0x02, 0x00, 0x00, 0x00,
  0xff, 0xff, 0xff, 0xff, 0x01, 0x00, 0x00, 0x00, 0x74, 0xc9, 0xff, 0xff,
  0x08, 0x00, 0x00, 0x00, 0x10, 0x00, 0x00, 0x00, 0x01, 0x00, 0x00, 0x00,
  0x80, 0xff, 0xff, 0xff, 0xff, 0xff, 0xff, 0xff, 0x01, 0x00, 0x00, 0x00,
  0xf5, 0x9c, 0x55, 0x3b, 0x19, 0x00, 0x00, 0x00, 0x53, 0x74, 0x61, 0x74,
  0x65, 0x66, 0x75, 0x6c, 0x50, 0x61, 0x72, 0x74, 0x69, 0x74, 0x69, 0x6f,
  0x6e, 0x65, 0x64, 0x43, 0x61, 0x6c, 0x6c, 0x3a, 0x30, 0x00, 0x00, 0x00,
  0x02, 0x00, 0x00, 0x00, 0x01, 0x00, 0x00, 0x00, 0x01, 0x00, 0x00, 0x00,
  0x06, 0xca, 0xff, 0xff, 0x00, 0x00, 0x00, 0x01, 0x18, 0x00, 0x00, 0x00,
  0x20, 0x00, 0x00, 0x00, 0x40, 0x00, 0x00, 0x00, 0x4d, 0x00, 0x00, 0x00,
  0x00, 0x00, 0x00, 0x09, 0x54, 0x00, 0x00, 0x00, 0x02, 0x00, 0x00, 0x00,
  0xff, 0xff, 0xff, 0xff, 0x18, 0x00, 0x00, 0x00, 0xec, 0xc9, 0xff, 0xff,
  0x08, 0x00, 0x00, 0x00, 0x14, 0x00, 0x00, 0x00, 0x01, 0x00, 0x00, 0x00,
  0xfc, 0xff, 0xff, 0xff, 0xff, 0xff, 0xff, 0xff, 0x00, 0x00, 0x00, 0x00,
  0x01, 0x00, 0x00, 0x00, 0x66, 0x82, 0xad, 0x3b, 0x1a, 0x00, 0x00, 0x00,
  0x6d, 0x6f, 0x64, 0x65, 0x6c, 0x2f, 0x6c, 0x61, 0x6d, 0x62, 0x64, 0x61,
  0x2f, 0x73, 0x74, 0x72, 0x69, 0x64, 0x65, 0x64, 0x5f, 0x73, 0x6c, 0x69,
  0x63, 0x65, 0x00, 0x00, 0x02, 0x00, 0x00, 0x00, 0x01, 0x00, 0x00, 0x00,
  0x18, 0x00, 0x00, 0x00, 0x82, 0xca, 0xff, 0xff, 0x00, 0x00, 0x00, 0x01,
  0x18, 0x00, 0x00, 0x00, 0x24, 0x00, 0x00, 0x00, 0x44, 0x00, 0x00, 0x00,
  0x4c, 0x00, 0x00, 0x00, 0x00, 0x00, 0x00, 0x09, 0x4c, 0x00, 0x00, 0x00,
  0x03, 0x00, 0x00, 0x00, 0xff, 0xff, 0xff, 0xff, 0x18, 0x00, 0x00, 0x00,
  0x18, 0x00, 0x00, 0x00, 0x6c, 0xca, 0xff, 0xff, 0x08, 0x00, 0x00, 0x00,
  0x14, 0x00, 0x00, 0x00, 0x01, 0x00, 0x00, 0x00, 0xfc, 0xff, 0xff, 0xff,
  0xff, 0xff, 0xff, 0xff, 0x00, 0x00, 0x00, 0x00, 0x01, 0x00, 0x00, 0x00,
  0x66, 0x82, 0xad, 0x3b, 0x0f, 0x00, 0x00, 0x00, 0x6d, 0x6f, 0x64, 0x65,
  0x6c, 0x2f, 0x61, 0x64, 0x64, 0x5f, 0x32, 0x2f, 0x61, 0x64, 0x64, 0x00,
  0x03, 0x00, 0x00, 0x00, 0x01, 0x00, 0x00, 0x00, 0x18, 0x00, 0x00, 0x00,
  0x18, 0x00, 0x00, 0x00, 0xfa, 0xca, 0xff, 0xff, 0x00, 0x00, 0x00, 0x01,
  0x18, 0x00, 0x00, 0x00, 0x24, 0x00, 0x00, 0x00, 0x40, 0x00, 0x00, 0x00,
  0x4b, 0x00, 0x00, 0x00, 0x00, 0x00, 0x00, 0x09, 0x64, 0x00, 0x00, 0x00,
  0x03, 0x00, 0x00, 0x00, 0xff, 0xff, 0xff, 0xff, 0x18, 0x00, 0x00, 0x00,
  0x18, 0x00, 0x00, 0x00, 0xe4, 0xca, 0xff, 0xff, 0x08, 0x00, 0x00, 0x00,
  0x10, 0x00, 0x00, 0x00, 0x01, 0x00, 0x00, 0x00, 0xfc, 0xff, 0xff, 0xff,
  0xff, 0xff, 0xff, 0xff, 0x01, 0x00, 0x00, 0x00, 0x66, 0x82, 0xad, 0x3b,
  0x2a, 0x00, 0x00, 0x00, 0x6d, 0x6f, 0x64, 0x65, 0x6c, 0x2f, 0x63, 0x6f,
  0x6e, 0x76, 0x31, 0x64, 0x5f, 0x36, 0x2f, 0x52, 0x65, 0x6c, 0x75, 0x3b,
  0x6d, 0x6f, 0x64, 0x65, 0x6c, 0x2f, 0x63, 0x6f, 0x6e, 0x76, 0x31, 0x64,
  0x5f, 0x36, 0x2f, 0x42, 0x69, 0x61, 0x73, 0x41, 0x64, 0x64, 0x00, 0x00,
  0x03, 0x00, 0x00, 0x00, 0x01, 0x00, 0x00, 0x00, 0x18, 0x00, 0x00, 0x00,
  0x18, 0x00, 0x00, 0x00, 0x8a, 0xcb, 0xff, 0xff, 0x00, 0x00, 0x00, 0x01,
  0x18, 0x00, 0x00, 0x00, 0x24, 0x00, 0x00, 0x00, 0x44, 0x00, 0x00, 0x00,
  0x4a, 0x00, 0x00, 0x00, 0x00, 0x00, 0x00, 0x09, 0x64, 0x00, 0x00, 0x00,
  0x03, 0x00, 0x00, 0x00, 0xff, 0xff, 0xff, 0xff, 0x18, 0x00, 0x00, 0x00,
  0x18, 0x00, 0x00, 0x00, 0x74, 0xcb, 0xff, 0xff, 0x08, 0x00, 0x00, 0x00,
  0x14, 0x00, 0x00, 0x00, 0x01, 0x00, 0x00, 0x00, 0x02, 0x00, 0x00, 0x00,
  0x00, 0x00, 0x00, 0x00, 0x00, 0x00, 0x00, 0x00, 0x01, 0x00, 0x00, 0x00,
  0x5b, 0xad, 0xc7, 0x3a, 0x24, 0x00, 0x00, 0x00, 0x6d, 0x6f, 0x64, 0x65,
  0x6c, 0x2f, 0x63, 0x6f, 0x6e, 0x76, 0x31, 0x64, 0x5f, 0x36, 0x2f, 0x43,
  0x6f, 0x6e, 0x76, 0x31, 0x44, 0x2f, 0x42, 0x61, 0x74, 0x63, 0x68, 0x54,
  0x6f, 0x53, 0x70, 0x61, 0x63, 0x65, 0x4e, 0x44, 0x00, 0x00, 0x00, 0x00,
  0x03, 0x00, 0x00, 0x00, 0x01, 0x00, 0x00, 0x00, 0x18, 0x00, 0x00, 0x00,
  0x18, 0x00, 0x00, 0x00, 0x1a, 0xcc, 0xff, 0xff, 0x00, 0x00, 0x00, 0x01,
  0x18, 0x00, 0x00, 0x00, 0x24, 0x00, 0x00, 0x00, 0x40, 0x00, 0x00, 0x00,
  0x49, 0x00, 0x00, 0x00, 0x00, 0x00, 0x00, 0x09, 0x58, 0x00, 0x00, 0x00,
  0x03, 0x00, 0x00, 0x00, 0xff, 0xff, 0xff, 0xff, 0x06, 0x00, 0x00, 0x00,
  0x18, 0x00, 0x00, 0x00, 0x04, 0xcc, 0xff, 0xff, 0x08, 0x00, 0x00, 0x00,
  0x10, 0x00, 0x00, 0x00, 0x01, 0x00, 0x00, 0x00, 0x02, 0x00, 0x00, 0x00,
  0x00, 0x00, 0x00, 0x00, 0x01, 0x00, 0x00, 0x00, 0x5b, 0xad, 0xc7, 0x3a,
  0x1e, 0x00, 0x00, 0x00, 0x6d, 0x6f, 0x64, 0x65, 0x6c, 0x2f, 0x63, 0x6f,
  0x6e, 0x76, 0x31, 0x64, 0x5f, 0x36, 0x2f, 0x43, 0x6f, 0x6e, 0x76, 0x31,
  0x44, 0x2f, 0x53, 0x71, 0x75, 0x65, 0x65, 0x7a, 0x65, 0x31, 0x00, 0x00,
  0x03, 0x00, 0x00, 0x00, 0x01, 0x00, 0x00, 0x00, 0x06, 0x00, 0x00, 0x00,
  0x18, 0x00, 0x00, 0x00, 0x9e, 0xcc, 0xff, 0xff, 0x00, 0x00, 0x00, 0x01,
  0x18, 0x00, 0x00, 0x00, 0x28, 0x00, 0x00, 0x00, 0x48, 0x00, 0x00, 0x00,
  0x48, 0x00, 0x00, 0x00, 0x00, 0x00, 0x00, 0x09, 0x58, 0x00, 0x00, 0x00,
  0x04, 0x00, 0x00, 0x00, 0xff, 0xff, 0xff, 0xff, 0x01, 0x00, 0x00, 0x00,
  0x06, 0x00, 0x00, 0x00, 0x18, 0x00, 0x00, 0x00, 0x8c, 0xcc, 0xff, 0xff,
  0x08, 0x00, 0x00, 0x00, 0x14, 0x00, 0x00, 0x00, 0x01, 0x00, 0x00, 0x00,
  0x02, 0x00, 0x00, 0x00, 0x00, 0x00, 0x00, 0x00, 0x00, 0x00, 0x00, 0x00,
  0x01, 0x00, 0x00, 0x00, 0x5b, 0xad, 0xc7, 0x3a, 0x17, 0x00, 0x00, 0x00,
