const unsigned char g_tcn_model_data[] __attribute__((aligned(16))) = {
  0x20, 0x00, 0x00, 0x00, 0x54, 0x46, 0x4c, 0x33, 0x00, 0x00, 0x00, 0x00,
  0x14, 0x00, 0x20, 0x00, 0x1c, 0x00, 0x18, 0x00, 0x14, 0x00, 0x10, 0x00,
  0x0c, 0x00, 0x00, 0x00, 0x08, 0x00, 0x04, 0x00, 0x14, 0x00, 0x00, 0x00,
  0x1c, 0x00, 0x00, 0x00, 0x80, 0x00, 0x00, 0x00, 0xd8, 0x00, 0x00, 0x00,
  0xc8, 0x30, 0x00, 0x00, 0xd8, 0x30, 0x00, 0x00, 0xcc, 0x72, 0x00, 0x00,
  0x03, 0x00, 0x00, 0x00, 0x01, 0x00, 0x00, 0x00, 0x04, 0x00, 0x00, 0x00,
  0x6a, 0xc6, 0xff, 0xff, 0x0c, 0x00, 0x00, 0x00, 0x1c, 0x00, 0x00, 0x00,
  0x38, 0x00, 0x00, 0x00, 0x0f, 0x00, 0x00, 0x00, 0x73, 0x65, 0x72, 0x76,
  0x69, 0x6e, 0x67, 0x5f, 0x64, 0x65, 0x66, 0x61, 0x75, 0x6c, 0x74, 0x00,
  0x01, 0x00, 0x00, 0x00, 0x04, 0x00, 0x00, 0x00, 0x9c, 0xff, 0xff, 0xff,
  0x4d, 0x00, 0x00, 0x00, 0x04, 0x00, 0x00, 0x00, 0x05, 0x00, 0x00, 0x00,
  0x64, 0x65, 0x6e, 0x73, 0x65, 0x00, 0x00, 0x00, 0x01, 0x00, 0x00, 0x00,
  0x04, 0x00, 0x00, 0x00, 0xba, 0xcf, 0xff, 0xff, 0x04, 0x00, 0x00, 0x00,
  0x07, 0x00, 0x00, 0x00, 0x69, 0x6e, 0x70, 0x75, 0x74, 0x5f, 0x31, 0x00,
  0x02, 0x00, 0x00, 0x00, 0x34, 0x00, 0x00, 0x00, 0x04, 0x00, 0x00, 0x00,
  0xdc, 0xff, 0xff, 0xff, 0x50, 0x00, 0x00, 0x00, 0x04, 0x00, 0x00, 0x00,
  0x13, 0x00, 0x00, 0x00, 0x43, 0x4f, 0x4e, 0x56, 0x45, 0x52, 0x53, 0x49,
  0x4f, 0x4e, 0x5f, 0x4d, 0x45, 0x54, 0x41, 0x44, 0x41, 0x54, 0x41, 0x00,
  0x08, 0x00, 0x0c, 0x00, 0x08, 0x00, 0x04, 0x00, 0x08, 0x00, 0x00, 0x00,
  0x4f, 0x00, 0x00, 0x00, 0x04, 0x00, 0x00, 0x00, 0x13, 0x00, 0x00, 0x00,
  0x6d, 0x69, 0x6e, 0x5f, 0x72, 0x75, 0x6e, 0x74, 0x69, 0x6d, 0x65, 0x5f,
  0x76, 0x65, 0x72, 0x73, 0x69, 0x6f, 0x6e, 0x00, 0x51, 0x00, 0x00, 0x00,
  0xec, 0x2f, 0x00, 0x00, 0xe4, 0x2f, 0x00, 0x00, 0xd0, 0x2f, 0x00, 0x00,
  0xac, 0x2f, 0x00, 0x00, 0x84, 0x2f, 0x00, 0x00, 0x5c, 0x2f, 0x00, 0x00,
  0x48, 0x2f, 0x00, 0x00, 0x30, 0x2f, 0x00, 0x00, 0x14, 0x2f, 0x00, 0x00,
  0xec, 0x2e, 0x00, 0x00, 0xd8, 0x2e, 0x00, 0x00, 0xbc, 0x2e, 0x00, 0x00,
  0xa0, 0x2e, 0x00, 0x00, 0x84, 0x2e, 0x00, 0x00, 0x68, 0x2e, 0x00, 0x00,
  0x54, 0x2e, 0x00, 0x00, 0x2c, 0x2e, 0x00, 0x00, 0x04, 0x2e, 0x00, 0x00,
  0x34, 0x27, 0x00, 0x00, 0x0c, 0x27, 0x00, 0x00, 0x3c, 0x20, 0x00, 0x00,
  0x14, 0x20, 0x00, 0x00, 0x44, 0x19, 0x00, 0x00, 0x1c, 0x19, 0x00, 0x00,
  0xac, 0x18, 0x00, 0x00, 0xa4, 0x18, 0x00, 0x00, 0x9c, 0x18, 0x00, 0x00,
  0x94, 0x18, 0x00, 0x00, 0xc4, 0x11, 0x00, 0x00, 0x54, 0x11, 0x00, 0x00,
  0x84, 0x0a, 0x00, 0x00, 0x14, 0x0a, 0x00, 0x00, 0x44, 0x03, 0x00, 0x00,
  0xd4, 0x02, 0x00, 0x00, 0xec, 0x01, 0x00, 0x00, 0xe4, 0x01, 0x00, 0x00,
  0xdc, 0x01, 0x00, 0x00, 0xd4, 0x01, 0x00, 0x00, 0xcc, 0x01, 0x00, 0x00,
  0xc4, 0x01, 0x00, 0x00, 0xbc, 0x01, 0x00, 0x00, 0xb4, 0x01, 0x00, 0x00,
  0xac, 0x01, 0x00, 0x00, 0xa4, 0x01, 0x00, 0x00, 0x9c, 0x01, 0x00, 0x00,
  0x94, 0x01, 0x00, 0x00, 0x8c, 0x01, 0x00, 0x00, 0x84, 0x01, 0x00, 0x00,
  0x7c, 0x01, 0x00, 0x00, 0x74, 0x01, 0x00, 0x00, 0x6c, 0x01, 0x00, 0x00,
  0x64, 0x01, 0x00, 0x00, 0x5c, 0x01, 0x00, 0x00, 0x54, 0x01, 0x00, 0x00,
  0x4c, 0x01, 0x00, 0x00, 0x44, 0x01, 0x00, 0x00, 0x3c, 0x01, 0x00, 0x00,
  0x34, 0x01, 0x00, 0x00, 0x2c, 0x01, 0x00, 0x00, 0x24, 0x01, 0x00, 0x00,
  0x1c, 0x01, 0x00, 0x00, 0x14, 0x01, 0x00, 0x00, 0x0c, 0x01, 0x00, 0x00,
  0x04, 0x01, 0x00, 0x00, 0xfc, 0x00, 0x00, 0x00, 0xf4, 0x00, 0x00, 0x00,
  0xec, 0x00, 0x00, 0x00, 0xe4, 0x00, 0x00, 0x00, 0xdc, 0x00, 0x00, 0x00,
  0xd4, 0x00, 0x00, 0x00, 0xcc, 0x00, 0x00, 0x00, 0xc4, 0x00, 0x00, 0x00,
  0xbc, 0x00, 0x00, 0x00, 0xb4, 0x00, 0x00, 0x00, 0xac, 0x00, 0x00, 0x00,
  0xa4, 0x00, 0x00, 0x00, 0x9c, 0x00, 0x00, 0x00, 0x94, 0x00, 0x00, 0x00,
  0x8c, 0x00, 0x00, 0x00, 0x6c, 0x00, 0x00, 0x00, 0x04, 0x00, 0x00, 0x00,
  0x72, 0xd1, 0xff, 0xff, 0x04, 0x00, 0x00, 0x00, 0x58, 0x00, 0x00, 0x00,
  0x0c, 0x00, 0x00, 0x00, 0x08, 0x00, 0x0e, 0x00, 0x08, 0x00, 0x04, 0x00,
  0x08, 0x00, 0x00, 0x00, 0x10, 0x00, 0x00, 0x00, 0x28, 0x00, 0x00, 0x00,
  0x00, 0x00, 0x06, 0x00, 0x08, 0x00, 0x04, 0x00, 0x06, 0x00, 0x00, 0x00,
  0x04, 0x00, 0x00, 0x00, 0x01, 0x00, 0x00, 0x00, 0xeb, 0x03, 0x00, 0x00,
  0x00, 0x00, 0x0a, 0x00, 0x10, 0x00, 0x0c, 0x00, 0x08, 0x00, 0x04, 0x00,
  0x0a, 0x00, 0x00, 0x00, 0x02, 0x00, 0x00, 0x00, 0x02, 0x00, 0x00, 0x00,
  0x04, 0x00, 0x00, 0x00, 0x06, 0x00, 0x00, 0x00, 0x32, 0x2e, 0x31, 0x35,
  0x2e, 0x30, 0x00, 0x00, 0xd6, 0xd1, 0xff, 0xff, 0x04, 0x00, 0x00, 0x00,
  0x10, 0x00, 0x00, 0x00, 0x32, 0x2e, 0x33, 0x2e, 0x30, 0x00, 0x00, 0x00,
  0x00, 0x00, 0x00, 0x00, 0x00, 0x00, 0x00, 0x00, 0xa4, 0x90, 0xff, 0xff,
  0xa8, 0x90, 0xff, 0xff, 0xac, 0x90, 0xff, 0xff, 0xb0, 0x90, 0xff, 0xff,
  0xb4, 0x90, 0xff, 0xff, 0xb8, 0x90, 0xff, 0xff, 0xbc, 0x90, 0xff, 0xff,
  0xc0, 0x90, 0xff, 0xff, 0xc4, 0x90, 0xff, 0xff, 0xc8, 0x90, 0xff, 0xff,
  0xcc, 0x90, 0xff, 0xff, 0xd0, 0x90, 0xff, 0xff, 0xd4, 0x90, 0xff, 0xff,
  0xd8, 0x90, 0xff, 0xff, 0xdc, 0x90, 0xff, 0xff, 0xe0, 0x90, 0xff, 0xff,
  0xe4, 0x90, 0xff, 0xff, 0xe8, 0x90, 0xff, 0xff, 0xec, 0x90, 0xff, 0xff,
  0xf0, 0x90, 0xff, 0xff, 0xf4, 0x90, 0xff, 0xff, 0xf8, 0x90, 0xff, 0xff,
  0xfc, 0x90, 0xff, 0xff, 0x00, 0x91, 0xff, 0xff, 0x04, 0x91, 0xff, 0xff,
  0x08, 0x91, 0xff, 0xff, 0x0c, 0x91, 0xff, 0xff, 0x10, 0x91, 0xff, 0xff,
  0x14, 0x91, 0xff, 0xff, 0x18, 0x91, 0xff, 0xff, 0x1c, 0x91, 0xff, 0xff,
  0x20, 0x91, 0xff, 0xff, 0x24, 0x91, 0xff, 0xff, 0x28, 0x91, 0xff, 0xff,
  0x2c, 0x91, 0xff, 0xff, 0x30, 0x91, 0xff, 0xff, 0x34, 0x91, 0xff, 0xff,
  0x38, 0x91, 0xff, 0xff, 0x3c, 0x91, 0xff, 0xff, 0x40, 0x91, 0xff, 0xff,
  0x44, 0x91, 0xff, 0xff, 0x48, 0x91, 0xff, 0xff, 0x4c, 0x91, 0xff, 0xff,
  0x50, 0x91, 0xff, 0xff, 0xa2, 0xd2, 0xff, 0xff, 0x04, 0x00, 0x00, 0x00,
  0xd8, 0x00, 0x00, 0x00, 0xe1, 0xa8, 0x2a, 0x52, 0x29, 0x7f, 0xc0, 0x98,
  0xa2, 0xe0, 0x26, 0x39, 0x81, 0x2e, 0x31, 0x9e, 0x38, 0x75, 0xa5, 0x47,
  0x7f, 0x27, 0x22, 0x5d, 0x38, 0xa6, 0x30, 0xd8, 0xc9, 0x54, 0xa7, 0x4a,
  0xa5, 0xbb, 0xff, 0x7f, 0x93, 0x81, 0xdf, 0xfa, 0x00, 0x3c, 0xaf, 0x54,
  0x0d, 0xed, 0x2c, 0x57, 0x64, 0x03, 0x19, 0xb0, 0x81, 0x4c, 0xe4, 0xe3,
  0x14, 0x9e, 0x31, 0x11, 0x6f, 0x43, 0x7f, 0x7b, 0x12, 0x81, 0xd6, 0x51,
  0x06, 0xd0, 0xa7, 0xd9, 0xca, 0x31, 0x3c, 0x1a, 0xc9, 0x87, 0x9e, 0xfc,
  0x7f, 0xed, 0xa2, 0xf2, 0xf5, 0x41, 0x7f, 0xed, 0xc3, 0xef, 0xc5, 0xd4,
  0x27, 0xa8, 0x7f, 0x42, 0xc1, 0x9a, 0x7b, 0x81, 0xbf, 0x20, 0xa1, 0x1c,
  0xfc, 0xec, 0x1e, 0xa2, 0x4f, 0xf6, 0xb7, 0x47, 0x60, 0xb9, 0x69, 0x3c,
  0x7f, 0x7f, 0xf1, 0xd6, 0x3a, 0xbb, 0x58, 0x72, 0x10, 0x8e, 0xaa, 0x58,
  0x01, 0xe7, 0xf1, 0x34, 0x81, 0xa5, 0xbd, 0x81, 0x58, 0x01, 0x1b, 0x39,
  0x08, 0x2c, 0x50, 0xf0, 0x20, 0xc9, 0x7f, 0xab, 0x44, 0xb8, 0xd8, 0xcc,
  0x08, 0xbe, 0xe3, 0x75, 0x7f, 0xc1, 0x63, 0x99, 0xd5, 0x28, 0x02, 0xec,
  0x06, 0x6f, 0xf4, 0x81, 0x60, 0x7f, 0xd0, 0x81, 0x53, 0x21, 0xd1, 0xc9,
  0xa7, 0x00, 0x14, 0x57, 0x81, 0xd1, 0xda, 0xc3, 0x78, 0xae, 0x1c, 0xf6,
  0x1c, 0x2f, 0xaa, 0x08, 0xd4, 0x40, 0x3e, 0xf4, 0x81, 0x48, 0x01, 0x97,
  0x20, 0x81, 0x7d, 0x90, 0x53, 0x9f, 0xde, 0x81, 0xaa, 0xbc, 0xff, 0xc6,
  0x09, 0x62, 0x9e, 0x0e, 0x86, 0xd3, 0xff, 0xff, 0x04, 0x00, 0x00, 0x00,
  0x60, 0x00, 0x00, 0x00, 0x76, 0xfc, 0xff, 0xff, 0x9d, 0x06, 0x00, 0x00,
  0x0d, 0xf9, 0xff, 0xff, 0x65, 0xfd, 0xff, 0xff, 0x1f, 0x08, 0x00, 0x00,
  0x57, 0xfa, 0xff, 0xff, 0xd7, 0x04, 0x00, 0x00, 0xcc, 0x01, 0x00, 0x00,
  0x07, 0x04, 0x00, 0x00, 0x8a, 0x00, 0x00, 0x00, 0x52, 0xfc, 0xff, 0xff,
  0xd8, 0x00, 0x00, 0x00, 0x57, 0xf0, 0xff, 0xff, 0x64, 0x00, 0x00, 0x00,
  0x30, 0x03, 0x00, 0x00, 0x6e, 0xff, 0xff, 0xff, 0xd0, 0xfb, 0xff, 0xff,
  0x51, 0x09, 0x00, 0x00, 0x70, 0xe9, 0xff, 0xff, 0xd8, 0x04, 0x00, 0x00,
  0x0c, 0x01, 0x00, 0x00, 0x4c, 0xfe, 0xff, 0xff, 0xd8, 0xf5, 0xff, 0xff,
  0x24, 0x07, 0x00, 0x00, 0xf2, 0xd3, 0xff, 0xff, 0x04, 0x00, 0x00, 0x00,
  0xc0, 0x06, 0x00, 0x00, 0x17, 0xc7, 0x02, 0x43, 0x42, 0xfd, 0x84, 0x44,
  0x0d, 0xf2, 0xfd, 0xee, 0xa4, 0xb3, 0x25, 0x38, 0xfd, 0xfc, 0x2f, 0x6f,
  0x16, 0x47, 0xcf, 0x9e, 0x1f, 0x8f, 0x1a, 0x3b, 0xb4, 0xdf, 0xfc, 0x12,
  0x3f, 0x31, 0xaa, 0xe4, 0xe4, 0x0f, 0x63, 0x44, 0xd9, 0xe4, 0x8a, 0x58,
  0xd0, 0x08, 0x38, 0xb8, 0xa8, 0x52, 0x03, 0x17, 0x65, 0x3c, 0xae, 0xea,
  0x64, 0x07, 0x3f, 0xa1, 0x56, 0x03, 0xc8, 0x8d, 0xa3, 0x9f, 0xb2, 0x18,
  0x81, 0xdb, 0x4e, 0xf2, 0xca, 0xdb, 0x18, 0x34, 0x0b, 0xce, 0x0a, 0xf1,
  0xa4, 0x47, 0xe9, 0xc4, 0x2f, 0x9b, 0x1a, 0xc4, 0x48, 0xf0, 0xf2, 0x07,
  0x62, 0x4e, 0x47, 0xd4, 0xc9, 0x9c, 0x4f, 0x97, 0x3e, 0x53, 0x9d, 0xd3,
  0xfd, 0x04, 0x06, 0x53, 0x36, 0x0f, 0x07, 0xb6, 0x07, 0xa3, 0x96, 0x74,
  0xd0, 0x4a, 0x05, 0xc8, 0x18, 0x3b, 0xff, 0x0e, 0xf5, 0x50, 0x3e, 0x4a,
  0x08, 0x35, 0x9f, 0x51, 0x5d, 0x81, 0xef, 0xdb, 0xa7, 0xa6, 0x06, 0xda,
  0xd5, 0x63, 0x28, 0x68, 0xa1, 0x2a, 0x3f, 0xe1, 0xc8, 0x2d, 0x0d, 0x02,
  0xc7, 0x81, 0x28, 0xca, 0x9a, 0x3a, 0xfc, 0xb7, 0x16, 0xed, 0xc9, 0x3c,
  0xff, 0xcb, 0xb4, 0xe0, 0x19, 0x04, 0x13, 0xb7, 0xdb, 0xa5, 0xd5, 0xec,
  0x29, 0x22, 0xf2, 0xf0, 0xe8, 0x48, 0xfe, 0xe6, 0x3f, 0xbc, 0xc1, 0x36,
  0x06, 0xb4, 0xb0, 0x53, 0xc1, 0x2b, 0x44, 0x31, 0x23, 0x41, 0x0c, 0x39,
  0x18, 0xaa, 0x1e, 0x23, 0xc2, 0x0e, 0x1c, 0x08, 0x0d, 0x2a, 0xd2, 0x5c,
  0xec, 0xaa, 0xea, 0x57, 0xf5, 0xdc, 0xce, 0x11, 0xc9, 0xa0, 0x39, 0xbc,
  0xc6, 0x26, 0xcf, 0x1a, 0x1b, 0x37, 0xf7, 0x50, 0xc9, 0x0b, 0x84, 0xf1,
  0xdb, 0x91, 0x33, 0xe4, 0x2c, 0xc7, 0x37, 0x0b, 0xd2, 0x26, 0xff, 0x5a,
  0xe6, 0xfd, 0x18, 0xe6, 0xd1, 0xc3, 0x7f, 0x3a, 0x85, 0x30, 0x8f, 0xb5,
  0x4c, 0x8f, 0x06, 0x48, 0xd2, 0xc4, 0xe9, 0x0e, 0x28, 0x1e, 0x9e, 0xd4,
  0xe3, 0x1e, 0x91, 0x39, 0x36, 0x02, 0x13, 0x24, 0x1d, 0xc6, 0x3e, 0x16,
  0x34, 0xa3, 0x51, 0x63, 0x46, 0x18, 0x8b, 0x5a, 0x6a, 0x32, 0x23, 0xe5,
  0xcb, 0xf7, 0x0d, 0x59, 0xd8, 0x24, 0xaa, 0x94, 0xbb, 0xe7, 0x5e, 0xb4,
  0xde, 0x01, 0x29, 0x52, 0x8f, 0xac, 0x9a, 0x65, 0x7f, 0x4c, 0x18, 0xba,
  0x76, 0x54, 0xec, 0x42, 0x17, 0xc6, 0x6a, 0x23, 0xf2, 0xcf, 0xfa, 0xd3,
  0xf1, 0x4c, 0x16, 0x74, 0xc2, 0xa3, 0xea, 0x26, 0x9a, 0x60, 0x8f, 0xe5,
  0x38, 0xfd, 0x42, 0x52, 0xf3, 0xf1, 0x3f, 0xe1, 0x43, 0x48, 0xc8, 0x7b,
  0xe5, 0x92, 0xc3, 0xe0, 0x87, 0x5d, 0xd5, 0x17, 0x30, 0x0b, 0xb6, 0xbf,
  0xc2, 0x0e, 0xec, 0xae, 0xca, 0xa7, 0xd2, 0xfc, 0x3e, 0xe1, 0x0b, 0x4e,
  0x8f, 0xf8, 0x0f, 0xd8, 0x40, 0x28, 0xa4, 0xdb, 0x2c, 0xb1, 0xe0, 0x1f,
  0xcc, 0xbe, 0xec, 0xe8, 0x4d, 0x9a, 0xf4, 0xeb, 0x82, 0x7f, 0x0c, 0x39,
  0xc9, 0xe2, 0x04, 0xea, 0xff, 0x94, 0x36, 0xa7, 0x71, 0x98, 0xbe, 0xe9,
  0xad, 0x55, 0x37, 0xa3, 0xd2, 0xb6, 0xd8, 0x89, 0xd9, 0x37, 0x86, 0x4b,
  0x26, 0x3d, 0x35, 0x10, 0x9d, 0x36, 0x34, 0x4c, 0x62, 0x16, 0x4d, 0xab,
  0x39, 0x5c, 0xcb, 0xe4, 0x3a, 0x4a, 0x7b, 0x4c, 0xd7, 0xe7, 0x8f, 0xb1,
  0xe3, 0x9e, 0x03, 0x6e, 0x66, 0xe3, 0xaf, 0x2b, 0xe3, 0x81, 0x18, 0x78,
  0x27, 0xb3, 0xcd, 0xcd, 0x0f, 0xbc, 0xc1, 0xb9, 0xe5, 0xca, 0x07, 0x1f,
  0x4d, 0x24, 0xc7, 0xdf, 0x1a, 0xbe, 0xa7, 0xd0, 0x7b, 0x56, 0xee, 0x0d,
  0xa7, 0xfd, 0x1b, 0xe0, 0xa3, 0xa2, 0x07, 0x3d, 0xfe, 0x41, 0x00, 0xf2,
  0xde, 0x94, 0x84, 0xa6, 0xed, 0x12, 0xc3, 0xc2, 0xbd, 0xb3, 0x89, 0x04,
  0x75, 0x32, 0xf2, 0xd0, 0x54, 0xc4, 0x2e, 0x10, 0x32, 0x70, 0xcb, 0x69,
  0xe7, 0xe8, 0x1e, 0xe1, 0xd5, 0xad, 0xb5, 0x84, 0xa2, 0x21, 0xd6, 0xfa,
  0x0d, 0xbb, 0x81, 0x13, 0xbd, 0x23, 0xdf, 0xc9, 0x15, 0xc6, 0x24, 0xaa,
  0xfb, 0x07, 0xfe, 0xde, 0xaf, 0x31, 0x98, 0xf4, 0x5d, 0x4e, 0x4f, 0x45,
  0x7a, 0x9f, 0x47, 0xca, 0x91, 0x15, 0xaa, 0xe2, 0xf3, 0x12, 0x48, 0xf5,
  0x0a, 0xf8, 0x14, 0x0b, 0x2e, 0x06, 0xe2, 0xec, 0xe4, 0xfc, 0xc8, 0xe1,
  0xb5, 0xd2, 0xe3, 0x03, 0xbb, 0x58, 0xb2, 0x03, 0x64, 0x9c, 0x8e, 0x45,
  0xd8, 0xca, 0xde, 0xeb, 0xb6, 0xfc, 0x29, 0xef, 0x57, 0x05, 0x13, 0xd4,
  0xb7, 0xb8, 0x12, 0x77, 0xa6, 0x12, 0x5f, 0x0d, 0xbe, 0x42, 0xfa, 0x1e,
  0xd2, 0x0a, 0x40, 0x2d, 0xd8, 0xd5, 0x06, 0x04, 0x22, 0x9c, 0x9b, 0xff,
  0xf2, 0x99, 0x81, 0xee, 0x8f, 0xfc, 0xee, 0x4c, 0xf7, 0x03, 0x1b, 0x74,
  0xf6, 0x86, 0xb3, 0x08, 0x84, 0xee, 0xfe, 0xe9, 0x65, 0x48, 0x51, 0xee,
  0xb7, 0x29, 0x1b, 0xc5, 0xf5, 0x3c, 0x3f, 0x16, 0x35, 0x21, 0x2a, 0x32,
  0xb6, 0xed, 0xce, 0xe1, 0xf2, 0xb5, 0x59, 0xc1, 0xae, 0x5b, 0xdf, 0xf4,
  0xc2, 0x89, 0x4a, 0xfa, 0xd3, 0xe4, 0xa8, 0xfb, 0x44, 0xe2, 0xdc, 0xd6,
  0xe1, 0xf6, 0x0e, 0x4c, 0x44, 0x81, 0x3a, 0xec, 0x36, 0x51, 0x91, 0x1b,
  0xf2, 0x87, 0x1d, 0xbd, 0xcd, 0x50, 0x2c, 0x9b, 0xc0, 0xea, 0xe1, 0xd7,
  0xa2, 0xc6, 0x2b, 0x70, 0x1e, 0x5c, 0xda, 0x27, 0xb8, 0xba, 0xcc, 0xbb,
  0x2a, 0xe2, 0xa2, 0x8f, 0xb8, 0x20, 0x3e, 0x4b, 0x07, 0xfc, 0x00, 0x23,
  0x5f, 0xb9, 0xc1, 0xfb, 0x3a, 0x8c, 0xde, 0x3e, 0xe1, 0x56, 0x96, 0x20,
  0xeb, 0x1e, 0xd6, 0x42, 0x9a, 0x76, 0x41, 0xee, 0xd9, 0x20, 0x2d, 0x09,
  0x26, 0x6b, 0x71, 0xe8, 0xa5, 0xe0, 0x5d, 0x29, 0x20, 0xa7, 0x4d, 0xa4,
  0xf3, 0x10, 0x64, 0x81, 0xc5, 0x66, 0xc8, 0xb1, 0x01, 0x05, 0xd0, 0x54,
  0xb0, 0x3a, 0x62, 0x20, 0xa0, 0x0e, 0xda, 0xfa, 0x3e, 0x97, 0x8e, 0x4f,
  0xb4, 0xa5, 0x3c, 0x13, 0x19, 0x60, 0x27, 0x28, 0x0b, 0xb8, 0x4f, 0x49,
  0x06, 0xfa, 0xd6, 0xb8, 0xe8, 0x07, 0x81, 0xad, 0x74, 0x49, 0xec, 0x41,
  0x08, 0xc9, 0x05, 0xc7, 0x8d, 0xba, 0xb8, 0xe8, 0xac, 0x1d, 0xbb, 0x05,
  0x96, 0x9a, 0x58, 0x79, 0x49, 0x42, 0xda, 0xf6, 0xed, 0xef, 0x34, 0x13,
  0x8d, 0xc1, 0xe8, 0x94, 0x8c, 0xbf, 0x3b, 0xe8, 0xe2, 0x1d, 0xc3, 0x05,
  0x03, 0x98, 0x3a, 0xda, 0x3c, 0x66, 0xda, 0x1a, 0x64, 0xa6, 0x4f, 0x0e,
  0xed, 0xa8, 0x17, 0x6e, 0xe8, 0x00, 0xf9, 0xfe, 0xec, 0xc9, 0xef, 0x28,
  0xe7, 0xbd, 0xe7, 0x63, 0x66, 0x8a, 0x55, 0x18, 0x23, 0x94, 0x81, 0x6b,
  0xb0, 0x18, 0x47, 0x24, 0x50, 0x17, 0x51, 0xba, 0x21, 0x0d, 0x42, 0xe1,
  0xeb, 0xec, 0x03, 0xd6, 0xd1, 0x99, 0x87, 0xe7, 0x0a, 0xef, 0xe1, 0xac,
  0xf6, 0x15, 0x15, 0x99, 0x46, 0xd6, 0x55, 0x52, 0xb7, 0xcf, 0xeb, 0x69,
  0x12, 0x34, 0xec, 0xfc, 0x1a, 0xc6, 0xf9, 0xaf, 0x85, 0x62, 0x4b, 0xce,
  0x75, 0xa9, 0xc6, 0xd9, 0xac, 0xc8, 0xbd, 0x57, 0x92, 0x07, 0xda, 0x06,
  0xc3, 0xa4, 0xf2, 0x51, 0x08, 0x6a, 0xab, 0xa2, 0xc0, 0xff, 0xf4, 0x7d,
  0x6c, 0x1b, 0x97, 0x2a, 0x50, 0xed, 0x20, 0xd4, 0xc0, 0xe7, 0x1c, 0xec,
  0xb3, 0x4d, 0x49, 0x24, 0xa2, 0xbe, 0x81, 0xd2, 0xeb, 0x10, 0xa5, 0xcd,
  0x6c, 0xa4, 0x07, 0x78, 0xe1, 0x25, 0xac, 0xad, 0x0b, 0x14, 0xe6, 0x92,
  0xbc, 0x18, 0x18, 0x9b, 0xa3, 0xed, 0x50, 0xf4, 0x46, 0x53, 0x1d, 0x36,
  0x00, 0x99, 0x8e, 0x4f, 0x10, 0x8d, 0x2e, 0xef, 0x0e, 0x42, 0xc8, 0x2a,
  0xbe, 0x8f, 0x2f, 0x43, 0x4e, 0x47, 0x53, 0x1f, 0x34, 0x25, 0xcf, 0xea,
  0x5c, 0xa5, 0x94, 0x52, 0x50, 0xd4, 0xef, 0xe3, 0xcd, 0x14, 0x03, 0x2d,
  0x29, 0x91, 0xc6, 0x13, 0x17, 0x85, 0xa5, 0x76, 0xfd, 0x2f, 0x28, 0x69,
  0xb2, 0xb7, 0x41, 0x2d, 0xdd, 0xb6, 0x7f, 0xfd, 0xd4, 0x3c, 0xe4, 0xc8,
  0xba, 0xe1, 0x55, 0x5c, 0xea, 0xf6, 0xee, 0x37, 0x29, 0x2c, 0xdf, 0xff,
  0xbd, 0x43, 0x94, 0xbc, 0x51, 0xd7, 0x2b, 0xd2, 0x43, 0xf3, 0x34, 0x48,
  0xf1, 0xbc, 0xaf, 0x6f, 0xf2, 0x52, 0xea, 0xb6, 0xd1, 0xe6, 0x81, 0xd0,
  0xfd, 0x32, 0x01, 0x45, 0x1c, 0xf5, 0x65, 0xea, 0x08, 0xdc, 0x1d, 0xbf,
  0x06, 0xbd, 0xbb, 0x46, 0xcf, 0x01, 0x8d, 0x3d, 0xaf, 0x38, 0xb8, 0x0f,
  0xc6, 0xd5, 0xc1, 0x17, 0x1c, 0xa5, 0xba, 0x16, 0xc0, 0xe7, 0xf6, 0x35,
  0xf7, 0xdd, 0xfb, 0xac, 0x14, 0x4d, 0x42, 0x2e, 0xce, 0x40, 0xb0, 0xd8,
  0x07, 0xb1, 0x9b, 0xc5, 0x5d, 0x4c, 0x3a, 0x36, 0x05, 0x8c, 0xe3, 0xda,
  0x67, 0xee, 0xb4, 0x23, 0x7f, 0x9c, 0xd1, 0x71, 0x42, 0x06, 0x6e, 0x8b,
  0xda, 0x5f, 0x37, 0x00, 0x9e, 0xc4, 0x52, 0xe2, 0xf6, 0xe5, 0x60, 0x51,
  0x8c, 0xa9, 0x44, 0xac, 0xe4, 0xa6, 0x6a, 0x20, 0x6e, 0x21, 0x1a, 0xec,
  0xcb, 0x5b, 0x6c, 0xfa, 0x40, 0x18, 0xaf, 0x13, 0x68, 0x00, 0x37, 0xba,
  0xc6, 0x36, 0xa0, 0x25, 0x47, 0xe2, 0xd4, 0x99, 0xb0, 0x1c, 0x48, 0xd4,
  0x35, 0x1a, 0xd7, 0xda, 0xf3, 0xa8, 0xa8, 0x48, 0x87, 0x98, 0xcd, 0x6a,
  0x08, 0xef, 0x28, 0x2e, 0x9c, 0xc0, 0x39, 0xd1, 0x0a, 0x5d, 0x30, 0xb2,
  0xc4, 0x2a, 0x3d, 0xa1, 0x62, 0x0b, 0x4a, 0xe9, 0x2f, 0xde, 0xa0, 0xe3,
  0x8c, 0xc2, 0xce, 0x70, 0x9b, 0x81, 0xe5, 0x57, 0xc5, 0xce, 0xaf, 0x3a,
  0x5a, 0x48, 0x0b, 0x5e, 0xc9, 0x2f, 0xd1, 0xed, 0xf9, 0x32, 0xec, 0x53,
  0xe4, 0xda, 0xf6, 0xcc, 0xb2, 0xbb, 0x27, 0x28, 0x01, 0xd9, 0xb9, 0x38,
  0xdf, 0xfe, 0x0c, 0x40, 0xd5, 0x3a, 0x75, 0x12, 0x29, 0x69, 0xdb, 0xf7,
  0xeb, 0x0b, 0xea, 0xae, 0xeb, 0x9f, 0xe2, 0xbc, 0x58, 0x81, 0x58, 0x5e,
  0xa5, 0x4c, 0x96, 0xc9, 0x54, 0xf8, 0x4a, 0x47, 0x52, 0x31, 0x55, 0xba,
  0xad, 0x10, 0xfb, 0xe6, 0xc4, 0xfe, 0x1b, 0x51, 0x44, 0x21, 0xae, 0x1b,
  0x1e, 0xc6, 0x09, 0xed, 0x53, 0x6f, 0xd2, 0xc5, 0xe4, 0x62, 0xc1, 0x71,
  0xaa, 0x25, 0x55, 0x7d, 0x9d, 0xc2, 0xa4, 0x5b, 0xa0, 0xcd, 0xbe, 0xe8,
  0xac, 0xdb, 0x25, 0x50, 0xaa, 0x70, 0xe2, 0x9c, 0x81, 0x6c, 0xdb, 0x0c,
  0xe6, 0x1a, 0xd8, 0x00, 0xf6, 0x95, 0x3f, 0xef, 0xca, 0xd3, 0x2e, 0x2c,
  0x24, 0x49, 0xd5, 0x39, 0xc9, 0x0f, 0x1a, 0xc6, 0x00, 0x22, 0x88, 0x1b,
  0x8e, 0x50, 0x2d, 0x3c, 0xbe, 0x11, 0xef, 0xcd, 0xdb, 0x59, 0x09, 0x9f,
  0x28, 0xf0, 0x52, 0xa3, 0x3c, 0x11, 0x0d, 0x20, 0x41, 0x5f, 0x43, 0x1b,
  0x40, 0x49, 0x64, 0x23, 0x17, 0xae, 0x2e, 0x02, 0x38, 0x48, 0xb9, 0x03,
  0xb0, 0xc4, 0xb6, 0x42, 0x2b, 0xed, 0x6d, 0x39, 0xb0, 0x00, 0x8e, 0x5e,
  0x11, 0xe4, 0xba, 0xba, 0xf2, 0xf9, 0x11, 0xfd, 0x62, 0xfe, 0x06, 0xf5,
  0x55, 0x1a, 0x35, 0xf7, 0xd1, 0x17, 0x76, 0x0f, 0xed, 0xdf, 0x42, 0x48,
  0xe2, 0x1c, 0x45, 0x2c, 0x2a, 0xc4, 0x2c, 0xf5, 0x33, 0xac, 0x9c, 0x05,
  0xea, 0x32, 0x81, 0x3a, 0xd8, 0xf3, 0xe3, 0xfe, 0xe2, 0xe9, 0xec, 0x79,
  0x8c, 0x09, 0xfe, 0x43, 0x83, 0x19, 0x4a, 0xde, 0x56, 0x4a, 0xbd, 0x39,
  0x3e, 0xee, 0x31, 0x16, 0xdb, 0xe9, 0xe0, 0x1e, 0x5c, 0x09, 0x2c, 0x8c,
  0xf3, 0xc1, 0x57, 0xc3, 0xa4, 0x07, 0xd0, 0x9e, 0x14, 0xac, 0xd2, 0xd6,
  0x58, 0x6b, 0x95, 0x29, 0x94, 0xff, 0x2a, 0xe5, 0x8f, 0x96, 0x3d, 0x38,
  0x28, 0x33, 0x4b, 0x38, 0x20, 0x67, 0x14, 0xf6, 0x32, 0xbd, 0xc1, 0x30,
  0x9f, 0xe4, 0xd9, 0x81, 0xd9, 0xcf, 0xe0, 0xeb, 0x00, 0xaa, 0x59, 0x3a,
  0xa4, 0x52, 0xef, 0x47, 0x40, 0x00, 0x1e, 0x72, 0x13, 0x10, 0x7f, 0xf7,
  0x09, 0x36, 0xa0, 0xfb, 0xce, 0xd1, 0xb7, 0xf0, 0xf2, 0x50, 0x5e, 0x63,
  0x50, 0xac, 0x49, 0x96, 0x27, 0x1b, 0xf5, 0xef, 0x3c, 0xd0, 0xc2, 0xda,
  0xab, 0x7d, 0x2f, 0x09, 0x5f, 0xab, 0x63, 0xf2, 0xd0, 0xc4, 0x09, 0x2f,
  0x0d, 0xba, 0xc7, 0x49, 0x6f, 0x48, 0x0e, 0x05, 0x5d, 0x55, 0x6e, 0x48,
  0xd5, 0x7f, 0xeb, 0x66, 0x18, 0x08, 0xe1, 0x06, 0x93, 0x6a, 0xbe, 0xfb,
  0xc5, 0xe7, 0xb5, 0x05, 0xd3, 0x18, 0x27, 0x0c, 0x67, 0x5b, 0x33, 0x22,
  0x91, 0x03, 0xae, 0x49, 0x43, 0xcc, 0xb3, 0xa3, 0x96, 0x38, 0x62, 0x5c,
  0x53, 0x90, 0x68, 0x55, 0x4e, 0xc0, 0x4b, 0x8a, 0xeb, 0xec, 0xe1, 0xae,
  0x9b, 0xf8, 0xb2, 0xa4, 0x34, 0xf1, 0x7f, 0xd9, 0x7a, 0x44, 0x24, 0x52,
  0x1d, 0x1b, 0xc2, 0x22, 0xda, 0x63, 0xbe, 0x92, 0x1e, 0x07, 0xe9, 0x50,
  0x9d, 0x1a, 0xf5, 0x81, 0x08, 0xa0, 0x2a, 0x26, 0xec, 0x8e, 0x8e, 0xf1,
  0xf4, 0x16, 0x59, 0x8c, 0xbe, 0xda, 0xff, 0xff, 0x04, 0x00, 0x00, 0x00,
  0x60, 0x00, 0x00, 0x00, 0x9a, 0xf5, 0xff, 0xff, 0x14, 0xf8, 0xff, 0xff,
  0x74, 0xf8, 0xff, 0xff, 0xb7, 0xf1, 0xff, 0xff, 0xc7, 0xf7, 0xff, 0xff,
  0xa1, 0xf0, 0xff, 0xff, 0xf0, 0xf6, 0xff, 0xff, 0x99, 0xf3, 0xff, 0xff,
  0xf4, 0xed, 0xff, 0xff, 0x68, 0xf7, 0xff, 0xff, 0x2a, 0xf9, 0xff, 0xff,
  0x0f, 0xf5, 0xff, 0xff, 0x1a, 0xf3, 0xff, 0xff, 0xde, 0xf2, 0xff, 0xff,
  0x87, 0xf3, 0xff, 0xff, 0x9e, 0xf4, 0xff, 0xff, 0xac, 0x02, 0x00, 0x00,
  0x68, 0xf7, 0xff, 0xff, 0x5d, 0xf7, 0xff, 0xff, 0x50, 0xf7, 0xff, 0xff,
  0x2c, 0xf1, 0xff, 0xff, 0xe5, 0xf9, 0xff, 0xff, 0xca, 0x03, 0x00, 0x00,
  0xcc, 0xfe, 0xff, 0xff, 0x2a, 0xdb, 0xff, 0xff, 0x04, 0x00, 0x00, 0x00,
  0xc0, 0x06, 0x00, 0x00, 0xab, 0xa2, 0xd3, 0x30, 0xf6, 0x4c, 0xf2, 0x23,
  0xfc, 0x31, 0x37, 0x0f, 0xe2, 0xc5, 0x2d, 0x54, 0xbe, 0x39, 0x0d, 0xf4,
  0x1a, 0xb3, 0x02, 0x43, 0xd7, 0x11, 0xa9, 0xf6, 0x4f, 0xc9, 0xac, 0x4e,
  0x0c, 0xcb, 0x34, 0x28, 0xca, 0xed, 0x23, 0x4c, 0x1f, 0xa8, 0x36, 0x3c,
  0xd9, 0x46, 0xfb, 0x49, 0x2d, 0xfd, 0xf9, 0xdd, 0x17, 0x51, 0xcf, 0x17,
  0xe9, 0x28, 0x0f, 0x39, 0x43, 0xf4, 0xc4, 0x01, 0xdf, 0xd3, 0xde, 0x45,
  0xf9, 0xb2, 0x81, 0x3e, 0xc6, 0xef, 0xa3, 0xe9, 0x38, 0xad, 0x4d, 0x9d,
  0x4c, 0xc2, 0xb1, 0x24, 0xde, 0x48, 0x16, 0xff, 0xdd, 0xe9, 0xcd, 0xd8,
  0x06, 0xbd, 0x44, 0xf2, 0x90, 0x93, 0xe6, 0xe0, 0x42, 0xa6, 0x55, 0x2d,
  0x38, 0x49, 0xa4, 0xe7, 0x2e, 0x22, 0xb2, 0x1b, 0x20, 0xfc, 0x01, 0x90,
  0xce, 0x55, 0xa5, 0x21, 0xd8, 0x43, 0x9a, 0xf0, 0xa6, 0x06, 0x3f, 0xde,
  0xe9, 0x21, 0x98, 0x48, 0x22, 0xc4, 0xdd, 0xfe, 0x81, 0x1c, 0x91, 0xd8,
  0xd3, 0x3a, 0x9f, 0xad, 0xc8, 0xc1, 0x23, 0xad, 0x0f, 0xd6, 0x10, 0x38,
  0x34, 0xbd, 0x20, 0xb7, 0xbb, 0x3b, 0xa2, 0x44, 0xee, 0x0f, 0xd6, 0x29,
  0x0b, 0xf5, 0x0d, 0xe3, 0xfe, 0xf4, 0x3d, 0x48, 0xb2, 0xda, 0x50, 0x0a,
  0xfa, 0x2f, 0x93, 0x38, 0x49, 0xe5, 0x20, 0xb4, 0x20, 0xd1, 0x1d, 0xa0,
  0x20, 0xb8, 0xb8, 0xcf, 0xd8, 0xe9, 0xf6, 0x52, 0x5b, 0xb1, 0xb7, 0x7f,
  0x1b, 0xbd, 0xa1, 0xd2, 0xfa, 0x07, 0x58, 0xfc, 0xe3, 0x1d, 0x18, 0x17,
  0x4a, 0xca, 0x0f, 0xf1, 0x54, 0xad, 0x77, 0x5c, 0xe2, 0xf0, 0xff, 0x9e,
  0xd6, 0x12, 0xf4, 0xbd, 0xe7, 0xce, 0x51, 0xdc, 0xe9, 0x92, 0x87, 0x2e,
  0x8d, 0xa6, 0x41, 0xb4, 0x9f, 0x1f, 0x07, 0xb8, 0xf0, 0xf7, 0xf7, 0xbd,
  0x0d, 0x88, 0x10, 0xb0, 0x8e, 0xa7, 0xc4, 0xc9, 0x15, 0xc4, 0x46, 0x36,
  0xbe, 0xff, 0xf3, 0x96, 0x42, 0x07, 0x7f, 0x44, 0x5b, 0xed, 0x99, 0xf7,
  0xa2, 0x02, 0xe6, 0x65, 0x0d, 0x9f, 0x40, 0x44, 0x99, 0xe1, 0x08, 0x47,
  0x38, 0x09, 0x45, 0x3e, 0x33, 0xcd, 0x30, 0xdc, 0x67, 0x48, 0xc5, 0xcf,
  0xae, 0x95, 0x88, 0x07, 0x40, 0xfe, 0xf7, 0x4a, 0x84, 0xb7, 0x87, 0x0a,
  0xe1, 0xee, 0x08, 0xfa, 0xe9, 0x1f, 0x2b, 0xff, 0x0c, 0x52, 0x1b, 0xa7,
  0x0f, 0x81, 0x5f, 0x08, 0x60, 0x30, 0xf8, 0x07, 0xab, 0x56, 0x08, 0x83,
  0x59, 0x56, 0x59, 0x49, 0xc6, 0xa9, 0x76, 0xd9, 0x5f, 0xe5, 0x34, 0xd9,
  0x4b, 0xfb, 0x38, 0x05, 0xff, 0xf9, 0x98, 0xbb, 0xfd, 0x8b, 0x57, 0x54,
  0xa8, 0x4e, 0x42, 0xf2, 0xc4, 0x08, 0xe1, 0x14, 0xcd, 0x90, 0xc7, 0xe6,
  0x1c, 0xe2, 0xb9, 0xcd, 0x14, 0xfc, 0x10, 0x55, 0xac, 0xc7, 0x0d, 0xb8,
  0xff, 0x3f, 0xb0, 0x4c, 0x4e, 0xae, 0x61, 0xd5, 0xc9, 0x0e, 0xca, 0x46,
  0xe8, 0x53, 0x17, 0x7f, 0xba, 0x8b, 0x5e, 0x21, 0xd4, 0x39, 0xa1, 0x43,
  0x45, 0x55, 0x58, 0x8f, 0x2f, 0xfb, 0xe6, 0x45, 0x95, 0xec, 0xe3, 0x3b,
  0xca, 0xa5, 0xd7, 0xd8, 0x21, 0xee, 0x4f, 0x37, 0xb3, 0xc9, 0x56, 0x31,
  0x15, 0xcc, 0xa4, 0xb0, 0xd8, 0x1b, 0x12, 0xad, 0xd8, 0x1f, 0x3b, 0x29,
  0x5c, 0x84, 0xec, 0x1c, 0xb4, 0xe4, 0x34, 0xf8, 0xb1, 0x53, 0x1c, 0xa1,
  0xed, 0x48, 0xf1, 0x8c, 0xd6, 0x20, 0xf5, 0xec, 0xfa, 0x45, 0x98, 0x0f,
  0xf0, 0x29, 0x9c, 0x13, 0x8e, 0x59, 0xb7, 0xca, 0xbf, 0x03, 0xd0, 0xe9,
  0x48, 0x81, 0x0f, 0xd5, 0x97, 0xf8, 0x0a, 0xbf, 0x2e, 0xc8, 0xec, 0x9d,
  0x3c, 0x4e, 0x10, 0x3f, 0x31, 0xdf, 0x4b, 0x9c, 0x29, 0x47, 0xea, 0xb2,
  0x2d, 0x49, 0xdb, 0x87, 0x60, 0x4b, 0xf8, 0x3b, 0xc2, 0x2f, 0xa7, 0x57,
  0xfc, 0x5a, 0x03, 0x0b, 0xc7, 0x7b, 0xbd, 0x04, 0xbc, 0x9c, 0x5b, 0x30,
  0x06, 0xa2, 0x81, 0xf9, 0x00, 0xb1, 0x15, 0xa6, 0xa1, 0xd4, 0x3e, 0xe3,
  0xdc, 0xed, 0x22, 0x15, 0x10, 0x21, 0x23, 0x22, 0x4f, 0xc4, 0x95, 0xe8,
  0x14, 0x1d, 0x87, 0x02, 0x02, 0xbb, 0x57, 0xf0, 0xe3, 0xbd, 0xac, 0x33,
  0xe1, 0x55, 0x90, 0xb5, 0x5a, 0x35, 0x00, 0x35, 0x03, 0x34, 0x5e, 0xa2,
  0x55, 0xee, 0x8d, 0xac, 0x4f, 0x1f, 0x71, 0x99, 0x43, 0x03, 0xab, 0x18,
  0x15, 0x09, 0xc0, 0x76, 0xfc, 0x8e, 0x2a, 0x27, 0x8a, 0xcd, 0xf2, 0xa0,
  0xa0, 0xd0, 0xae, 0xe4, 0x39, 0xe5, 0x00, 0x33, 0x81, 0xba, 0x25, 0xb5,
  0x7f, 0x9f, 0x4c, 0xc4, 0x9b, 0x0d, 0x1b, 0x13, 0xfe, 0x90, 0xbb, 0xe8,
  0xcf, 0xd4, 0xdb, 0x56, 0xd3, 0x4c, 0x07, 0xdb, 0x86, 0x99, 0xb3, 0xda,
  0xd8, 0x9c, 0xe7, 0x0d, 0x1d, 0xc4, 0xc3, 0x99, 0x39, 0xcc, 0x2b, 0xad,
  0x25, 0x18, 0xed, 0xe7, 0xe8, 0x9b, 0x6a, 0xe8, 0x6c, 0xf3, 0xb5, 0xfd,
  0xb1, 0x63, 0xb6, 0x26, 0xac, 0xdc, 0x1a, 0x00, 0xff, 0xf4, 0x55, 0xca,
  0x0f, 0xb1, 0xe0, 0x28, 0xab, 0x8a, 0xfd, 0x02, 0xa3, 0x9d, 0xb9, 0xc3,
  0x1f, 0x4d, 0x01, 0x34, 0x5d, 0xbc, 0x7f, 0x05, 0xbf, 0x3d, 0x0d, 0x6d,
  0xd2, 0xb4, 0xac, 0xf4, 0xe6, 0xf3, 0x1c, 0x3a, 0x32, 0x14, 0x98, 0xf3,
  0xd4, 0xa5, 0xad, 0x04, 0xb4, 0x2f, 0xf3, 0xb7, 0x16, 0x23, 0x6e, 0xec,
  0x2e, 0xaa, 0xca, 0xf7, 0x34, 0x4a, 0xf7, 0x91, 0x13, 0x35, 0x04, 0x11,
  0xcd, 0x57, 0xc0, 0x0f, 0xce, 0xcc, 0x48, 0x33, 0xae, 0x27, 0xb7, 0x17,
  0x0d, 0x40, 0xb3, 0xfd, 0x3f, 0x43, 0x19, 0xf9, 0x6d, 0xbd, 0xa3, 0x61,
  0x23, 0xad, 0x3d, 0x42, 0xd5, 0xa9, 0x10, 0x32, 0x3b, 0xcf, 0x4d, 0xe5,
  0x01, 0x6b, 0x81, 0x97, 0xda, 0x5b, 0xd4, 0xd0, 0x38, 0xa0, 0xfd, 0x06,
  0xc7, 0x0c, 0xc3, 0x59, 0x9d, 0x02, 0x0d, 0x9d, 0xcf, 0x6e, 0xb3, 0x01,
  0x8d, 0x2e, 0x0b, 0x3e, 0xb6, 0x9f, 0xc5, 0xaa, 0x8a, 0xc9, 0x9f, 0x22,
  0x9e, 0xc0, 0xfe, 0xcc, 0xb6, 0xb9, 0xca, 0xdd, 0xb6, 0x87, 0x41, 0x85,
  0x9a, 0x14, 0xd3, 0xfb, 0xb1, 0x26, 0xda, 0x8f, 0x30, 0xe0, 0x3f, 0x1c,
  0x27, 0x1c, 0xbe, 0x36, 0x97, 0x55, 0x9f, 0x11, 0xc6, 0x0c, 0x0f, 0x26,
  0xd1, 0x07, 0xbe, 0xa0, 0x1a, 0x84, 0x9d, 0x31, 0x51, 0x5c, 0xac, 0x8d,
  0x20, 0x3a, 0x3d, 0x8a, 0xf1, 0x37, 0x1d, 0x81, 0x2e, 0xd8, 0xfa, 0x58,
  0x49, 0x44, 0x9c, 0x14, 0x37, 0x87, 0x01, 0xc9, 0x89, 0xfe, 0x7f, 0x43,
  0x4f, 0x0e, 0xc6, 0xd6, 0x09, 0x06, 0xc4, 0x53, 0xf3, 0x0b, 0x3e, 0xdc,
  0x67, 0xc4, 0x55, 0x9b, 0x81, 0xa7, 0x0b, 0xd5, 0xc3, 0xbf, 0x22, 0x17,
  0xe9, 0x91, 0xab, 0xab, 0x0f, 0xec, 0xd6, 0x1e, 0xd9, 0x8d, 0x27, 0x29,
  0x9b, 0xa1, 0x25, 0x9e, 0xec, 0x4e, 0xf0, 0xae, 0x0b, 0x8d, 0x7b, 0xc8,
  0x8a, 0xdf, 0xfa, 0x59, 0xb5, 0x3b, 0x1e, 0x43, 0x97, 0xab, 0xbc, 0xb4,
  0xbb, 0xe5, 0x0d, 0x96, 0x64, 0x42, 0x0a, 0xdb, 0xe6, 0x23, 0xfe, 0xb0,
  0xcc, 0xca, 0x81, 0xa6, 0xb1, 0x31, 0x99, 0xe7, 0xa4, 0xaf, 0xdf, 0x5b,
  0xed, 0xa4, 0x9b, 0x95, 0x63, 0xe2, 0x9e, 0xc4, 0xde, 0xe4, 0xa5, 0x2d,
  0xcd, 0xf3, 0x53, 0x2f, 0xcd, 0xf5, 0x08, 0x56, 0x87, 0x3e, 0xa4, 0xea,
  0x1a, 0x14, 0x19, 0x0d, 0x43, 0xe7, 0x54, 0xa9, 0xd2, 0x31, 0x5c, 0x3a,
  0x3e, 0x44, 0x9a, 0xdf, 0x1f, 0x23, 0x8b, 0x24, 0xbf, 0x8a, 0xce, 0xe4,
  0x5c, 0x5a, 0x54, 0x2f, 0xb0, 0x13, 0x9f, 0xc1, 0x05, 0xf2, 0xff, 0xf5,
  0x3c, 0xdf, 0x17, 0x3e, 0x29, 0xa8, 0x89, 0x2e, 0xed, 0xbe, 0x28, 0x1c,
  0xd2, 0xfd, 0x1a, 0xbc, 0xe9, 0xb6, 0x49, 0xf0, 0x48, 0xe8, 0xdb, 0x2f,
  0xc3, 0x10, 0x31, 0x1a, 0x44, 0x6a, 0x1b, 0x3d, 0x1e, 0xac, 0xc9, 0xd2,
  0x61, 0xba, 0x8f, 0x38, 0x26, 0x4c, 0x81, 0x34, 0x03, 0xbc, 0x31, 0x2a,
  0x00, 0xf7, 0xa3, 0x1a, 0x28, 0xef, 0x09, 0xd9, 0x01, 0x0b, 0x46, 0xcf,
  0xac, 0x14, 0x34, 0x5b, 0x48, 0x44, 0x42, 0x4a, 0x2b, 0x3b, 0x33, 0x8a,
  0x3f, 0xd0, 0xa8, 0x54, 0x4d, 0x8c, 0x42, 0xf7, 0x48, 0x1c, 0x26, 0x44,
  0x35, 0x9e, 0xdc, 0x92, 0x81, 0xa2, 0x16, 0x2e, 0x51, 0x26, 0xba, 0x1e,
  0x24, 0x9b, 0xef, 0x2d, 0xb0, 0x93, 0xb8, 0x51, 0xac, 0x39, 0x8d, 0x8a,
  0x05, 0x4a, 0x2b, 0xd4, 0x04, 0xb9, 0x1f, 0xe9, 0x54, 0xfb, 0x2e, 0x40,
  0x87, 0xb1, 0x1a, 0xc5, 0x36, 0xfc, 0x9d, 0x01, 0xc0, 0xaf, 0xb9, 0x98,
  0x25, 0xab, 0x84, 0x17, 0xe8, 0x31, 0xeb, 0x31, 0x13, 0xff, 0xb4, 0xd8,
  0x09, 0x24, 0xa1, 0x8e, 0x62, 0xd7, 0xcd, 0xee, 0xa8, 0x30, 0x17, 0xd6,
  0xfe, 0x34, 0x17, 0xc4, 0xe1, 0xb7, 0xfe, 0x22, 0x9b, 0x1e, 0xc3, 0xc2,
  0xe0, 0xfc, 0xe6, 0x20, 0xdd, 0x48, 0xc4, 0x7f, 0x89, 0x3d, 0x11, 0x29,
  0x21, 0xbf, 0x45, 0x9d, 0xde, 0x5b, 0x4d, 0x49, 0xc2, 0x32, 0x0e, 0xf6,
  0x0c, 0x8a, 0x87, 0x58, 0x53, 0x7c, 0xc4, 0xf7, 0x88, 0xfc, 0xbc, 0xa8,
  0x4d, 0x46, 0xbf, 0x8a, 0xe0, 0x1b, 0xdf, 0x23, 0x67, 0x26, 0xa4, 0x05,
  0x25, 0x02, 0x2f, 0x5c, 0x62, 0xbf, 0xd2, 0x2b, 0x9d, 0xbb, 0xdb, 0xb3,
  0xee, 0x7f, 0x32, 0x05, 0x0e, 0xde, 0x00, 0x4a, 0xba, 0x40, 0x25, 0x56,
  0xab, 0x0b, 0xc6, 0x9e, 0x6d, 0x2a, 0x24, 0x30, 0x35, 0x35, 0xed, 0xac,
  0x10, 0x68, 0xb4, 0x67, 0x73, 0x4a, 0xd2, 0xa1, 0xd7, 0xfc, 0x25, 0x12,
  0x0b, 0x1d, 0x4b, 0x1a, 0x6e, 0xab, 0xe5, 0x4d, 0x32, 0x3f, 0xd2, 0x42,
  0xf4, 0x15, 0xe0, 0x48, 0x8b, 0x2a, 0x58, 0xda, 0x01, 0x1d, 0x6e, 0x24,
  0x30, 0xdd, 0xb8, 0xd4, 0xe2, 0x42, 0x43, 0x1a, 0x2e, 0xc4, 0x41, 0x47,
  0xfb, 0xe5, 0xd8, 0xce, 0xc8, 0x2d, 0xf3, 0x49, 0xe9, 0x0e, 0x8e, 0x12,
  0x4c, 0x92, 0xa9, 0xb8, 0x40, 0xb5, 0x0f, 0xeb, 0x81, 0x42, 0x52, 0xd1,
  0xad, 0xc3, 0x03, 0xd7, 0x00, 0xd9, 0xf5, 0xa2, 0x03, 0x35, 0x2b, 0x82,
  0xeb, 0x8b, 0x05, 0x2b, 0x36, 0x01, 0x19, 0x36, 0x83, 0xbe, 0x11, 0xcd,
  0xeb, 0x1e, 0x58, 0x99, 0xc3, 0x2a, 0xfa, 0x5c, 0x53, 0xc1, 0x5d, 0x52,
  0xd7, 0x26, 0x68, 0xae, 0xed, 0x37, 0xa5, 0xec, 0xe4, 0xec, 0x2f, 0xcf,
  0x07, 0x3c, 0x18, 0xd3, 0xe3, 0x53, 0x5c, 0x0f, 0xf1, 0x61, 0x30, 0xa2,
  0x1c, 0x33, 0xa9, 0x77, 0xbd, 0xd8, 0x6f, 0x4a, 0x37, 0x23, 0xd8, 0x1b,
  0xcd, 0x18, 0xda, 0xb4, 0x5c, 0x1d, 0x4e, 0xee, 0x81, 0x2b, 0x04, 0x36,
  0x6f, 0xc1, 0x95, 0xff, 0x45, 0x2b, 0xd9, 0x18, 0xb2, 0xdd, 0x4b, 0x0d,
  0x54, 0xcf, 0x13, 0xf3, 0x48, 0xd6, 0x41, 0x89, 0xeb, 0xbb, 0x36, 0xad,
  0x36, 0x63, 0x0e, 0xbe, 0x3d, 0xa2, 0xbb, 0x0e, 0xc7, 0xa0, 0xfe, 0x95,
  0xb1, 0xa7, 0x0d, 0x0c, 0xe3, 0xff, 0x32, 0x38, 0x53, 0xae, 0x81, 0x43,
  0x02, 0x15, 0xdc, 0x71, 0xf8, 0x04, 0x0f, 0x59, 0x07, 0x39, 0xc3, 0xee,
  0x4a, 0x1a, 0x08, 0xf0, 0x2a, 0xb4, 0x44, 0x30, 0xbb, 0xd7, 0xcb, 0xc8,
  0x2f, 0xb4, 0xc9, 0xa5, 0xf4, 0x69, 0x0f, 0x08, 0xf3, 0xc6, 0x3c, 0x63,
  0x62, 0x06, 0x06, 0x04, 0xd7, 0x91, 0xb8, 0x31, 0xe3, 0x38, 0xcf, 0xe3,
  0xf5, 0x43, 0x9e, 0xac, 0x9a, 0x57, 0x0d, 0x7f, 0xf8, 0x32, 0xdf, 0xf0,
  0xf2, 0x44, 0x92, 0x22, 0x0f, 0x2d, 0x30, 0x2c, 0xd8, 0xbe, 0xe2, 0xd6,
  0x07, 0xe2, 0xdc, 0x00, 0xca, 0x95, 0x04, 0x38, 0xcd, 0x35, 0x0d, 0xa7,
  0xe3, 0x28, 0x1d, 0x3a, 0xdc, 0xa1, 0x26, 0xde, 0xc0, 0x43, 0xc1, 0x8c,
  0xcc, 0x19, 0x1f, 0x06, 0x54, 0x50, 0xe5, 0xbc, 0xf6, 0x12, 0xff, 0x23,
  0x17, 0x1a, 0x62, 0x2b, 0xfa, 0xe3, 0x6c, 0x05, 0xf0, 0xe7, 0x9f, 0x12,
  0x4c, 0x55, 0xf6, 0x64, 0xd7, 0xdf, 0x74, 0x31, 0x94, 0x67, 0xb8, 0xf2,
  0x04, 0x28, 0xa9, 0xff, 0x1c, 0xaf, 0x5c, 0xbb, 0x57, 0xa0, 0xbf, 0xd8,
  0xd4, 0x39, 0x29, 0xb2, 0xd9, 0x05, 0xb9, 0xb7, 0xbd, 0x0e, 0xe5, 0x06,
  0x42, 0x04, 0xf5, 0x97, 0x98, 0xff, 0x4c, 0xe2, 0xff, 0xcb, 0xfb, 0xf4,
  0x28, 0xb0, 0x9f, 0x27, 0x23, 0x61, 0x63, 0x7f, 0x3d, 0x46, 0xaf, 0xd2,
  0x57, 0xf3, 0xe1, 0xea, 0xfd, 0xc8, 0x59, 0x19, 0xd4, 0xa1, 0x1a, 0xa7,
  0x3f, 0x2c, 0xf3, 0xfb, 0xb7, 0x7f, 0x39, 0x38, 0xd2, 0x59, 0xc8, 0xc3,
  0xa3, 0xa0, 0xb3, 0xd4, 0xd7, 0xfa, 0x26, 0x21, 0x4b, 0xcf, 0x22, 0xd0,
  0x0f, 0xac, 0xba, 0xa8, 0x44, 0xdf, 0x12, 0xb2, 0xf2, 0xf2, 0xb7, 0xb8,
  0x28, 0x41, 0xd4, 0xf0, 0xd3, 0x2e, 0x2c, 0xba, 0xab, 0x89, 0xda, 0xb8,
  0x90, 0x1b, 0x27, 0x57, 0x24, 0xc0, 0xee, 0xa6, 0xd8, 0xc7, 0xd1, 0xbc,
  0xd2, 0x36, 0xbe, 0x50, 0xf6, 0xe1, 0xff, 0xff, 0x04, 0x00, 0x00, 0x00,
  0x60, 0x00, 0x00, 0x00, 0x6c, 0xd3, 0xff, 0xff, 0x21, 0xa1, 0xff, 0xff,
  0xcb, 0xf1, 0xff, 0xff, 0x8f, 0xbd, 0xff, 0xff, 0x2f, 0xd7, 0xff, 0xff,
  0xf0, 0xe6, 0xff, 0xff, 0x40, 0xce, 0xff, 0xff, 0x7e, 0xcc, 0xff, 0xff,
  0x7a, 0xbe, 0xff, 0xff, 0x67, 0xd1, 0xff, 0xff, 0xf7, 0xd6, 0xff, 0xff,
  0x72, 0xc4, 0xff, 0xff, 0x3c, 0xa1, 0xff, 0xff, 0xcf, 0xda, 0xff, 0xff,
  0x59, 0xda, 0xff, 0xff, 0xa9, 0xcd, 0xff, 0xff, 0x10, 0xe3, 0xff, 0xff,
  0xd8, 0xea, 0xff, 0xff, 0xff, 0xc1, 0xff, 0xff, 0x43, 0xd7, 0xff, 0xff,
  0x38, 0xdc, 0xff, 0xff, 0x13, 0xa4, 0xff, 0xff, 0x5c, 0xbb, 0xff, 0xff,
  0x79, 0xd6, 0xff, 0xff, 0x62, 0xe2, 0xff, 0xff, 0x04, 0x00, 0x00, 0x00,
  0xc0, 0x06, 0x00, 0x00, 0x2f, 0x45, 0xcc, 0xe2, 0xdc, 0x8d, 0xee, 0xdd,
  0xb2, 0xf2, 0x16, 0xc0, 0x02, 0xe1, 0x15, 0xbc, 0x59, 0x5c, 0x38, 0x22,
  0x0e, 0x81, 0xa4, 0x6a, 0x4d, 0xd2, 0xa8, 0xbe, 0xba, 0x24, 0x83, 0x56,
  0xf4, 0xff, 0x9d, 0xd4, 0xc7, 0xab, 0x11, 0x4f, 0x9b, 0xfe, 0xa9, 0xe1,
  0xdc, 0x85, 0x95, 0x5c, 0x39, 0x29, 0xc5, 0xfb, 0xcc, 0xee, 0xff, 0xaa,
  0xf2, 0xb6, 0xfc, 0xd3, 0xd5, 0x9f, 0x1c, 0xf1, 0x09, 0x0b, 0x54, 0xd2,
  0xf2, 0x9d, 0x3e, 0xbc, 0x34, 0x21, 0xfc, 0xde, 0x41, 0x95, 0xc0, 0x1f,
  0x01, 0xfd, 0x1c, 0x2a, 0xb7, 0xa0, 0xfd, 0x8a, 0x1c, 0x83, 0x51, 0xa4,
  0xc6, 0xb9, 0xb7, 0xda, 0x2c, 0xc5, 0x3a, 0x46, 0x05, 0xd6, 0xb1, 0xb4,
  0x2c, 0xd0, 0xa9, 0x21, 0x3b, 0x22, 0x56, 0xab, 0xf1, 0xb1, 0xe5, 0xe7,
  0x47, 0x9c, 0x36, 0xf4, 0x1e, 0x3a, 0xcc, 0x9b, 0xb0, 0xa7, 0xf6, 0x17,
  0x36, 0x09, 0x45, 0xf8, 0xfc, 0xf0, 0x49, 0x2e, 0xaa, 0x81, 0x30, 0x26,
  0x25, 0x02, 0x02, 0xef, 0xe6, 0x60, 0x08, 0x38, 0x32, 0xec, 0xef, 0xee,
  0x8b, 0xc9, 0x87, 0x3f, 0x9f, 0x20, 0x14, 0x4d, 0x57, 0xd8, 0xac, 0x12,
  0x06, 0x1c, 0xe2, 0x06, 0x5b, 0xce, 0xc8, 0xf6, 0xb6, 0xa2, 0xc6, 0xbf,
  0xd7, 0x0c, 0xbd, 0x27, 0xe6, 0x42, 0x2e, 0x0d, 0xcc, 0x36, 0x81, 0x1a,
  0xf9, 0xa9, 0xb5, 0x28, 0xa9, 0x54, 0xe2, 0xe6, 0x67, 0x46, 0x31, 0xbb,
  0xd4, 0xbf, 0x84, 0xa8, 0xae, 0x9e, 0x42, 0x2c, 0xdb, 0xa6, 0x8d, 0xcf,
  0xda, 0x42, 0xc3, 0x15, 0x47, 0xb6, 0xbc, 0x49, 0xcc, 0xb9, 0x15, 0x25,
  0x63, 0xd8, 0x48, 0xf5, 0xaf, 0xa9, 0xb1, 0x51, 0x9f, 0x10, 0x49, 0x27,
  0xc8, 0xeb, 0x05, 0x42, 0xbe, 0xf6, 0x15, 0x00, 0x49, 0xd8, 0xcc, 0xdd,
  0x0d, 0xd2, 0xe3, 0x09, 0xe9, 0xe5, 0x52, 0xaa, 0x02, 0x25, 0x22, 0x81,
  0x44, 0x3a, 0x1c, 0xf4, 0xd2, 0xaa, 0x2f, 0x9f, 0x65, 0xa6, 0x18, 0xe9,
  0x5e, 0x42, 0x20, 0x1f, 0x35, 0xec, 0x02, 0x31, 0xb9, 0xb4, 0x95, 0x07,
  0xa2, 0x19, 0x9a, 0x1e, 0x3f, 0x3d, 0x0e, 0xe4, 0x1d, 0xc1, 0x36, 0xff,
  0xb5, 0xce, 0xa8, 0x33, 0x3b, 0xf9, 0xca, 0xe8, 0xc9, 0xeb, 0x26, 0x46,
  0xc5, 0x04, 0x2a, 0xa6, 0x96, 0xdd, 0xac, 0x26, 0x02, 0x81, 0xf2, 0x1e,
  0x09, 0xb1, 0x11, 0xba, 0xea, 0x84, 0x55, 0xed, 0xbc, 0xee, 0xa0, 0xf7,
  0xce, 0x1f, 0x1f, 0x24, 0x04, 0x2c, 0x3d, 0xa8, 0x5f, 0x2a, 0x9c, 0xfb,
  0xc3, 0x96, 0x2a, 0x59, 0x0f, 0x35, 0xfc, 0x38, 0xca, 0xae, 0x0e, 0x5d,
  0xaa, 0xc3, 0xc9, 0xe0, 0xb0, 0x2c, 0x35, 0xb6, 0x0a, 0x3d, 0xb4, 0x68,
  0x9d, 0x27, 0x4d, 0x28, 0x20, 0x64, 0x17, 0x94, 0x10, 0x5e, 0x2c, 0xa8,
  0x28, 0xbd, 0x62, 0x1f, 0x55, 0x24, 0x50, 0x04, 0xea, 0xcb, 0x81, 0x49,
  0x63, 0x1e, 0x0f, 0x5c, 0xf0, 0x4d, 0x0b, 0x04, 0x3e, 0xf9, 0xa7, 0x01,
  0x00, 0xea, 0xc1, 0xde, 0x4a, 0xe7, 0x88, 0x8f, 0xd5, 0x8f, 0x42, 0x62,
  0xe5, 0x09, 0xbc, 0xd3, 0x86, 0x24, 0x07, 0x3b, 0x62, 0x5b, 0x1f, 0x62,
  0x23, 0xb9, 0xe9, 0x7d, 0x2f, 0x09, 0xe3, 0xfa, 0xa3, 0x81, 0xbf, 0x43,
  0xdf, 0xbd, 0x87, 0xaa, 0xfb, 0x93, 0xd3, 0x1e, 0xa8, 0xd3, 0x4a, 0xa9,
  0xa6, 0xd4, 0x9b, 0x19, 0xcc, 0x18, 0xfc, 0x85, 0xc2, 0x54, 0x97, 0xd8,
  0x4b, 0x4c, 0xb3, 0xbe, 0x28, 0x1a, 0xb3, 0x0e, 0x9f, 0x98, 0x55, 0x5d,
  0xfe, 0x06, 0x8a, 0xa7, 0xc3, 0xf4, 0xac, 0xc4, 0x79, 0xcd, 0xb8, 0x99,
  0xb3, 0xd0, 0xf4, 0x1b, 0x18, 0x0a, 0x06, 0x99, 0x9e, 0xcf, 0xe9, 0x6e,
  0xdc, 0xa1, 0x43, 0x23, 0x88, 0xb7, 0x04, 0x93, 0x4b, 0xb1, 0xb6, 0xa0,
  0x2c, 0x60, 0xea, 0xef, 0x36, 0x9e, 0xa0, 0x56, 0xb9, 0xbd, 0x2d, 0x02,
  0x52, 0x48, 0x02, 0x94, 0xbe, 0xdd, 0x26, 0x1d, 0x51, 0x5b, 0x16, 0xcf,
  0xab, 0x64, 0xd8, 0x3f, 0x3c, 0xa0, 0xab, 0xcf, 0x42, 0xc1, 0x99, 0x7f,
  0xee, 0xd2, 0x1d, 0xe9, 0x47, 0xd2, 0xc2, 0x99, 0x0e, 0x8e, 0xd5, 0xc4,
  0x30, 0x9c, 0x89, 0x96, 0x59, 0x24, 0xf1, 0x46, 0x05, 0x62, 0xe0, 0x53,
  0xa1, 0x3f, 0xe2, 0x44, 0x05, 0x33, 0xf8, 0x05, 0x6d, 0xd5, 0xde, 0x5e,
  0xa2, 0xdf, 0x8e, 0xe4, 0x32, 0xcd, 0xb7, 0x4d, 0x49, 0x19, 0x18, 0x6d,
  0xd6, 0x34, 0xa2, 0xce, 0xc5, 0xbc, 0x93, 0xa2, 0x1f, 0x3e, 0x27, 0x22,
  0xf2, 0x85, 0x96, 0x95, 0xe6, 0x43, 0xc5, 0xb1, 0x31, 0x99, 0x4a, 0xe0,
  0x53, 0x23, 0x0f, 0x7f, 0x0e, 0xc7, 0x55, 0xdf, 0x0a, 0x4d, 0x18, 0x46,
  0xe5, 0x2d, 0xd0, 0xf5, 0x61, 0x94, 0x48, 0x5d, 0xad, 0xc7, 0xcd, 0xa7,
  0x56, 0xe9, 0x12, 0x6c, 0x35, 0x5b, 0xa5, 0x4d, 0x45, 0xf0, 0x5c, 0xd6,
  0x27, 0xb0, 0xdd, 0x64, 0x54, 0xd8, 0xa0, 0x12, 0xf5, 0x2f, 0x22, 0x40,
  0xb5, 0x57, 0x5b, 0x28, 0xf3, 0x32, 0xd0, 0xd4, 0xd8, 0xac, 0xc5, 0x29,
  0x55, 0x3f, 0x02, 0xb4, 0xe7, 0x62, 0x2c, 0x25, 0xd4, 0x3b, 0x18, 0x5d,
  0xf9, 0x7f, 0x75, 0xc7, 0xb9, 0x12, 0xa0, 0x39, 0xe2, 0x6c, 0xfe, 0xd6,
  0x0f, 0x05, 0xaf, 0x1f, 0xfa, 0x6a, 0x45, 0x78, 0xf4, 0x9e, 0x54, 0x36,
  0xa5, 0x18, 0x3d, 0xe4, 0x43, 0x40, 0xa7, 0x8a, 0xe2, 0x3e, 0xb7, 0x7b,
  0x6d, 0x2d, 0x58, 0xd2, 0xc1, 0xb3, 0xb7, 0xa6, 0xad, 0xdf, 0xba, 0xfd,
  0xf6, 0x33, 0xba, 0xee, 0xb1, 0x4e, 0xaf, 0xcc, 0x57, 0x94, 0x81, 0xdd,
  0x2b, 0xa6, 0xe0, 0x32, 0xcb, 0x2e, 0xcf, 0x14, 0xcc, 0xad, 0x81, 0xc9,
  0xf6, 0x2f, 0x05, 0xdc, 0x38, 0xd3, 0xc5, 0xc4, 0xb0, 0x02, 0x0c, 0xbc,
  0xe0, 0xcd, 0xf7, 0x70, 0xe6, 0xe6, 0xe6, 0xc5, 0x57, 0x28, 0x9d, 0x97,
  0x6f, 0x93, 0x2e, 0xa7, 0x16, 0x8f, 0xc5, 0xfa, 0xa3, 0x0d, 0xf0, 0x26,
  0xe1, 0xe8, 0x6e, 0xa0, 0x0f, 0xea, 0x21, 0x57, 0x93, 0x58, 0x00, 0xbb,
  0x1a, 0x25, 0xbd, 0xc0, 0xc9, 0x33, 0x9b, 0xd2, 0x3e, 0x3e, 0xaa, 0x36,
  0xc4, 0x98, 0x1c, 0x20, 0x17, 0xf3, 0x07, 0xea, 0x6c, 0xcf, 0xb9, 0xde,
  0xbc, 0xa7, 0x0d, 0xfa, 0x53, 0xa1, 0xea, 0xa7, 0x33, 0x5b, 0x25, 0x81,
  0x1a, 0xd2, 0xd0, 0x2d, 0x0f, 0x0a, 0xfe, 0xb9, 0x27, 0xbe, 0x5a, 0x0c,
  0xcd, 0x3a, 0x0f, 0x4b, 0x1f, 0x53, 0x86, 0xae, 0x02, 0x97, 0xd0, 0xd2,
  0x55, 0x5d, 0x9b, 0x22, 0xf4, 0xb4, 0xd2, 0xb8, 0x35, 0xbe, 0xd5, 0x18,
  0xc0, 0x3f, 0xca, 0xd6, 0x9e, 0xa9, 0xaf, 0xcc, 0x37, 0xda, 0xa9, 0xdc,
  0xae, 0xc0, 0x40, 0x0a, 0x8c, 0xc1, 0x49, 0x91, 0x90, 0x12, 0xba, 0xb5,
  0x12, 0xf4, 0x42, 0xb9, 0x1c, 0xe6, 0x38, 0x81, 0xbe, 0xe7, 0xd2, 0xb3,
  0xbb, 0xb8, 0x36, 0xcc, 0x4a, 0xcc, 0x04, 0x13, 0xd5, 0x8a, 0xef, 0x0c,
  0xc0, 0x10, 0x39, 0xe8, 0x8b, 0xc4, 0x9c, 0xe0, 0xca, 0xd5, 0x35, 0x69,
  0x33, 0x10, 0x32, 0x78, 0x1f, 0x1e, 0xed, 0x95, 0x32, 0x0e, 0x27, 0x3a,
  0x3e, 0xda, 0x82, 0xaf, 0x43, 0xe5, 0x0f, 0x3c, 0xd0, 0xe0, 0xde, 0x14,
  0x1c, 0xc9, 0x11, 0x50, 0xfc, 0x27, 0x32, 0x23, 0xf4, 0xb5, 0x18, 0x56,
  0x1c, 0xf2, 0xb4, 0x67, 0x4d, 0xf6, 0x21, 0xbb, 0xd4, 0x89, 0x49, 0x20,
  0xdb, 0x5d, 0x52, 0x36, 0x81, 0x42, 0x4d, 0xc2, 0x9f, 0x07, 0xcd, 0xc9,
  0xbe, 0x44, 0x4a, 0x7e, 0x9b, 0xf6, 0xe2, 0x31, 0x13, 0xeb, 0xc9, 0x07,
  0x16, 0x09, 0x9c, 0xae, 0x17, 0xc2, 0x9b, 0xf4, 0x4c, 0x96, 0x35, 0x17,
  0xa9, 0x18, 0x4d, 0x72, 0x01, 0xe3, 0x57, 0xcd, 0xae, 0xeb, 0x36, 0x46,
  0xe0, 0x8c, 0x34, 0x2d, 0x3e, 0xb8, 0x3c, 0x85, 0x14, 0x33, 0xf0, 0xc2,
  0xa9, 0x43, 0xce, 0xec, 0xef, 0xa0, 0xec, 0x5a, 0x43, 0x50, 0x9a, 0xd2,
  0xca, 0xfc, 0x81, 0xa6, 0x24, 0xdc, 0x5b, 0x0a, 0xa7, 0x31, 0x0c, 0xb1,
  0xa1, 0xa5, 0xd2, 0x05, 0xe8, 0x41, 0x04, 0xf7, 0xfe, 0x2d, 0xf9, 0x3f,
  0x23, 0x19, 0x4b, 0xf2, 0x3d, 0x11, 0xf5, 0x09, 0x2a, 0xf2, 0xfa, 0x2f,
  0x41, 0x2e, 0x48, 0x3a, 0x1b, 0xf9, 0xf5, 0xe4, 0x1d, 0xbe, 0xf9, 0xcf,
  0xd8, 0xe1, 0x0a, 0xf6, 0x57, 0xd5, 0x1b, 0xd8, 0xee, 0x06, 0x52, 0x0f,
  0xb9, 0x3f, 0xee, 0xad, 0x11, 0xd1, 0x00, 0xeb, 0xd9, 0x50, 0xf0, 0xa5,
  0x24, 0x81, 0xea, 0xba, 0xd0, 0x23, 0xe6, 0xfe, 0xda, 0xf0, 0x0c, 0xe6,
  0xc1, 0x30, 0x11, 0xef, 0x6a, 0x9a, 0x26, 0x4d, 0x23, 0xb2, 0x51, 0x6a,
  0xf2, 0xe9, 0x39, 0x33, 0xbb, 0x4a, 0xa5, 0x61, 0x41, 0xee, 0x15, 0xc4,
  0x25, 0xfe, 0x35, 0xd7, 0x0e, 0xcf, 0xa0, 0xc0, 0x32, 0x9f, 0xcc, 0xcb,
  0xab, 0xdc, 0xc1, 0x65, 0x11, 0x25, 0x2e, 0xb0, 0xef, 0x06, 0x5a, 0xa2,
  0x15, 0xbc, 0xc6, 0xa7, 0x5d, 0x55, 0x5e, 0xc5, 0x27, 0x18, 0xac, 0xcd,
  0xf6, 0x7f, 0xd4, 0x48, 0xc9, 0x29, 0xcc, 0x5a, 0xdf, 0x51, 0xba, 0xc0,
  0x31, 0x41, 0x20, 0x1b, 0xbc, 0x9c, 0xdf, 0x19, 0xb9, 0xb4, 0x8a, 0xe6,
  0x12, 0xa3, 0x50, 0x1e, 0x38, 0x29, 0x10, 0x92, 0x56, 0x27, 0xae, 0xe5,
  0xba, 0x1b, 0x62, 0x42, 0xb2, 0xdc, 0xc6, 0x23, 0x0d, 0x8f, 0x03, 0xa1,
  0xe2, 0x4a, 0xbc, 0x18, 0x63, 0xc7, 0xdb, 0x01, 0xef, 0x61, 0xde, 0x42,
  0x68, 0xcd, 0x43, 0xdc, 0xf7, 0xad, 0xa4, 0x71, 0xea, 0xae, 0xe7, 0x9a,
  0xfd, 0x1d, 0x43, 0xa5, 0xb4, 0xdf, 0x57, 0xce, 0xb9, 0x43, 0xf2, 0x4c,
  0x59, 0x0c, 0xe3, 0x7f, 0x31, 0xfd, 0xc1, 0xed, 0xc0, 0xb1, 0xf1, 0xfe,
  0xf8, 0x3b, 0xc0, 0x5d, 0xc0, 0x43, 0x70, 0x94, 0x06, 0xbd, 0xd1, 0xc3,
  0xcf, 0xb4, 0xa3, 0xa8, 0xaa, 0xae, 0xc0, 0xdd, 0x39, 0x3b, 0xa0, 0x1c,
  0x2b, 0xe8, 0xb7, 0xf5, 0x2f, 0xeb, 0xc0, 0x55, 0x56, 0x7f, 0x4f, 0xf1,
  0xce, 0x3f, 0x98, 0xb2, 0x47, 0xe5, 0x51, 0x89, 0x3a, 0xe7, 0x39, 0x62,
  0x32, 0x3b, 0x25, 0x6e, 0x97, 0x36, 0x2f, 0x87, 0xad, 0x97, 0x1f, 0x19,
  0x22, 0x26, 0x05, 0x04, 0x54, 0x67, 0x57, 0xad, 0xea, 0xa5, 0x16, 0x94,
  0xd7, 0x15, 0xd2, 0x87, 0xd8, 0x0e, 0xb6, 0x46, 0xec, 0x3e, 0x6e, 0x32,
  0xcd, 0xcb, 0x59, 0x18, 0x98, 0xe6, 0x10, 0x48, 0xe6, 0x06, 0x4b, 0xd7,
  0xb5, 0xb3, 0x21, 0x23, 0x05, 0x2e, 0x2f, 0x59, 0x21, 0x52, 0x5b, 0x8f,
  0xa1, 0x5e, 0xe5, 0x2b, 0x38, 0xdb, 0x81, 0xa4, 0x4a, 0x9f, 0xa2, 0xbc,
  0xbf, 0xd7, 0x8c, 0x34, 0xa9, 0xac, 0x3e, 0xef, 0x10, 0x97, 0xdf, 0x69,
  0x59, 0x44, 0x35, 0x20, 0x2f, 0x54, 0x4a, 0xc1, 0x36, 0x5e, 0x81, 0xaf,
  0xbf, 0xf5, 0xe2, 0x2f, 0x07, 0x58, 0xa6, 0x29, 0x1c, 0x4e, 0x22, 0x15,
  0x89, 0x57, 0x1e, 0x58, 0x16, 0xa5, 0xd8, 0x1f, 0x61, 0xca, 0xa8, 0x4e,
  0xfe, 0x62, 0xc6, 0xd7, 0xd3, 0x6f, 0x4d, 0xb3, 0xe1, 0xbc, 0x48, 0xcb,
  0x57, 0xd0, 0x20, 0xc4, 0xac, 0xf9, 0xcd, 0x19, 0x0b, 0xdb, 0x45, 0x6d,
  0xa8, 0x1e, 0xe1, 0x3a, 0xf8, 0x0e, 0x05, 0x4b, 0xf4, 0x44, 0xca, 0xc7,
  0x9f, 0x92, 0x25, 0x54, 0x51, 0x08, 0xa9, 0xe4, 0xc7, 0xd8, 0xbf, 0x36,
  0xb4, 0xd9, 0xef, 0x73, 0xc6, 0xfe, 0xd6, 0xce, 0xc6, 0xf7, 0x01, 0xd5,
  0xd2, 0xff, 0xdd, 0xdd, 0x97, 0x3f, 0x5c, 0x46, 0x45, 0x0a, 0x14, 0xcd,
  0xe1, 0x8d, 0x03, 0xf2, 0xe4, 0x86, 0x5e, 0xba, 0x9d, 0xac, 0x68, 0xf4,
  0x9f, 0x61, 0xff, 0x0e, 0x1e, 0x87, 0xd7, 0x15, 0x51, 0x97, 0x04, 0xc3,
  0xa4, 0x03, 0xf9, 0xca, 0xa9, 0xc9, 0x7f, 0x4f, 0x1b, 0xb1, 0xaf, 0xc6,
  0xee, 0x47, 0xce, 0xd4, 0xb2, 0x36, 0xd8, 0xb5, 0x2e, 0xdb, 0x4c, 0x07,
  0x27, 0xdf, 0x0c, 0xb4, 0xe3, 0xc0, 0x08, 0xc8, 0xc6, 0x47, 0x10, 0x1d,
  0x9d, 0x0a, 0x43, 0xd3, 0xe5, 0xfe, 0xda, 0xaf, 0x03, 0xef, 0xb8, 0xee,
  0xd1, 0x5f, 0x10, 0xc9, 0xf8, 0xda, 0xb7, 0xdf, 0x20, 0x07, 0xe4, 0x53,
  0xfc, 0x05, 0x0b, 0xf0, 0x32, 0x22, 0xc5, 0xea, 0xd1, 0xe9, 0x38, 0x0e,
  0x16, 0xf4, 0xe2, 0x81, 0xde, 0x1e, 0xcb, 0xb5, 0xed, 0x21, 0x33, 0xdc,
  0xc5, 0xf1, 0x30, 0xe9, 0x4d, 0x2d, 0x84, 0xa7, 0x3c, 0x2b, 0x37, 0x23,
  0x2f, 0xff, 0x1f, 0xaf, 0x30, 0xdb, 0xf1, 0x8b, 0x90, 0x8b, 0x8c, 0x5f,
  0xe4, 0x19, 0x60, 0xc0, 0xd9, 0x30, 0xc7, 0x90, 0xc2, 0xc0, 0xb8, 0xea,
  0x4c, 0xd0, 0x81, 0x67, 0x5e, 0xcb, 0xd5, 0x11, 0x55, 0x2a, 0xcc, 0xfa,
  0xed, 0xca, 0x41, 0xcb, 0x89, 0x20, 0xf0, 0x1d, 0x02, 0xe6, 0xdb, 0x5f,
  0x44, 0xb5, 0x3c, 0x27, 0x17, 0x0a, 0x5a, 0xa8, 0x5e, 0xf6, 0x84, 0x27,
  0x4e, 0x31, 0x88, 0x34, 0xe0, 0xa7, 0xff, 0xff, 0xe4, 0xa7, 0xff, 0xff,
  0xe8, 0xa7, 0xff, 0xff, 0x3a, 0xe9, 0xff, 0xff, 0x04, 0x00, 0x00, 0x00,
  0x60, 0x00, 0x00, 0x00, 0x00, 0x00, 0x00, 0x00, 0x00, 0x00, 0x00, 0x00,
  0x00, 0x00, 0x00, 0x00, 0x00, 0x00, 0x00, 0x00, 0x00, 0x00, 0x00, 0x00,
  0x00, 0x00, 0x00, 0x00, 0x00, 0x00, 0x00, 0x00, 0x00, 0x00, 0x00, 0x00,
  0x00, 0x00, 0x00, 0x00, 0x00, 0x00, 0x00, 0x00, 0x00, 0x00, 0x00, 0x00,
  0x00, 0x00, 0x00, 0x00, 0x00, 0x00, 0x00, 0x00, 0x00, 0x00, 0x00, 0x00,
  0x00, 0x00, 0x00, 0x00, 0x00, 0x00, 0x00, 0x00, 0x00, 0x00, 0x00, 0x00,
  0x00, 0x00, 0x00, 0x00, 0x00, 0x00, 0x00, 0x00, 0x00, 0x00, 0x00, 0x00,
  0x00, 0x00, 0x00, 0x00, 0x00, 0x00, 0x00, 0x00, 0x00, 0x00, 0x00, 0x00,
  0x00, 0x00, 0x00, 0x00, 0xa6, 0xe9, 0xff, 0xff, 0x04, 0x00, 0x00, 0x00,
  0x18, 0x00, 0x00, 0x00, 0xe6, 0xcb, 0xd2, 0xe0, 0xbd, 0xef, 0xcb, 0x30,
  0xaf, 0x74, 0xaa, 0x25, 0x80, 0xb0, 0xe0, 0x7f, 0x22, 0xfd, 0xe3, 0x0d,
  0xd1, 0xd7, 0x78, 0xd7, 0xca, 0xe9, 0xff, 0xff, 0x04, 0x00, 0x00, 0x00,
  0xc0, 0x06, 0x00, 0x00, 0xbf, 0xc2, 0x2a, 0xd0, 0xaa, 0xcd, 0xfb, 0xd2,
  0xa1, 0xf1, 0xcc, 0xe4, 0x13, 0x55, 0xdf, 0xf7, 0xc2, 0xdd, 0xb7, 0x07,
  0xa1, 0x54, 0xa1, 0xa2, 0x0c, 0xc0, 0x0e, 0x3f, 0x2e, 0xb0, 0x44, 0xf4,
  0xee, 0x00, 0xf2, 0x1d, 0x2d, 0x12, 0x44, 0x25, 0xc8, 0x31, 0x81, 0xa8,
  0xa9, 0x09, 0x52, 0x16, 0x08, 0xe1, 0x57, 0x50, 0xf3, 0x30, 0x53, 0x5f,
  0xe3, 0x4d, 0x3d, 0x36, 0xdb, 0x1b, 0xeb, 0x8f, 0x1d, 0xb4, 0xf0, 0xf9,
  0xba, 0x3b, 0xb9, 0x1c, 0xac, 0xb2, 0xb1, 0xcc, 0x5e, 0x5f, 0xcd, 0xe4,
  0x1b, 0x21, 0x50, 0xc1, 0xbf, 0x26, 0xad, 0x8e, 0x62, 0xb8, 0x10, 0x11,
  0x35, 0x21, 0xa3, 0x3f, 0x32, 0x46, 0xae, 0xee, 0xd0, 0x40, 0xd9, 0x0f,
  0x0c, 0xfb, 0x13, 0xcb, 0x23, 0xd8, 0xff, 0x4b, 0xa2, 0x26, 0x42, 0x5d,
  0x61, 0x32, 0xb3, 0x04, 0x81, 0x5b, 0x1e, 0x06, 0xad, 0xe2, 0xdb, 0x44,
  0x50, 0xc1, 0x42, 0x17, 0x16, 0x2b, 0xb0, 0x57, 0x66, 0xa0, 0x31, 0x5f,
  0xc9, 0xed, 0x2c, 0xaf, 0xca, 0xa5, 0xc1, 0x8a, 0xf0, 0x81, 0x59, 0x61,
  0x4a, 0x68, 0x54, 0x37, 0x92, 0xdf, 0x3b, 0x18, 0x29, 0x9f, 0x4b, 0x20,
  0xd6, 0x69, 0xc0, 0x01, 0xc8, 0x22, 0xf3, 0xef, 0x5e, 0x49, 0x14, 0x47,
  0x98, 0x1a, 0xa0, 0x95, 0xcf, 0x58, 0xb4, 0x3a, 0xb0, 0x2e, 0xed, 0x94,
  0xbf, 0x35, 0xba, 0x77, 0x01, 0xdb, 0x34, 0xb1, 0x6c, 0x90, 0x40, 0x42,
  0x9d, 0xe6, 0x13, 0x38, 0x44, 0xc6, 0x03, 0x81, 0x94, 0x79, 0x1d, 0x17,
  0x37, 0x11, 0xd4, 0x20, 0x9f, 0x44, 0xa9, 0x6f, 0xfc, 0xb2, 0x5b, 0xbb,
  0xa9, 0xe6, 0x49, 0xc0, 0x54, 0x14, 0x85, 0xe8, 0x8c, 0xf8, 0xd2, 0xb9,
  0xd5, 0x14, 0xf0, 0x89, 0xdc, 0x42, 0x95, 0x62, 0x38, 0x0a, 0xa6, 0xbd,
  0xaa, 0xd8, 0x1b, 0x07, 0xea, 0x49, 0x13, 0x42, 0x4f, 0x9a, 0x0d, 0x90,
  0x07, 0xc4, 0x95, 0x15, 0x1e, 0x8f, 0xc7, 0x57, 0x92, 0x36, 0x8c, 0x92,
  0x3d, 0xe5, 0x4d, 0xe3, 0xb8, 0xe9, 0x2e, 0x06, 0x55, 0xe4, 0xc0, 0x16,
  0xd1, 0x1f, 0x81, 0xe3, 0x3a, 0x42, 0x1e, 0xa9, 0x2f, 0x61, 0x6f, 0x16,
  0x67, 0xd4, 0x4f, 0x50, 0x3b, 0x06, 0x47, 0xdc, 0x1b, 0x23, 0x28, 0x55,
  0xcd, 0x77, 0xf8, 0xdd, 0xc2, 0xbf, 0x1a, 0x21, 0xcb, 0xcc, 0xfb, 0xdb,
  0x5b, 0xbc, 0xc1, 0x32, 0xca, 0x8a, 0x70, 0xb5, 0x1c, 0x3f, 0xab, 0xb4,
  0xdc, 0xbb, 0x91, 0x70, 0xbd, 0x28, 0x7f, 0xe5, 0x6e, 0xec, 0xb4, 0xd0,
  0xa4, 0xc2, 0x1a, 0xbf, 0xac, 0xcb, 0x61, 0xbb, 0x4c, 0xe0, 0xad, 0x64,
  0x73, 0x08, 0xf8, 0x61, 0x48, 0xd8, 0xd0, 0xee, 0x42, 0x15, 0xdf, 0xe1,
  0x9b, 0x1f, 0xfd, 0x0a, 0x13, 0xc7, 0xa2, 0xc7, 0x3a, 0x16, 0x3e, 0xaf,
  0x1a, 0x05, 0x81, 0x1e, 0xf5, 0xbe, 0x2c, 0x09, 0x09, 0xe3, 0xe4, 0xf8,
  0x23, 0xa9, 0xb2, 0x06, 0xae, 0x0f, 0x0c, 0x8d, 0x19, 0xfd, 0xfe, 0xbe,
  0xe9, 0xef, 0xc8, 0xd1, 0x55, 0x9a, 0xa4, 0xfb, 0xbe, 0xd4, 0xa7, 0xc9,
  0x02, 0xe7, 0x1a, 0xf0, 0xd7, 0x18, 0x0f, 0xaf, 0x31, 0xe9, 0x42, 0x22,
  0x35, 0x48, 0x44, 0x97, 0x4b, 0x48, 0x39, 0xc8, 0x0a, 0x40, 0x1b, 0x55,
  0xb6, 0x09, 0x30, 0xd1, 0xf4, 0xf1, 0xeb, 0xde, 0x35, 0x27, 0x87, 0x3b,
  0xa6, 0xf5, 0xfc, 0x40, 0x06, 0x8c, 0xea, 0xb2, 0x81, 0x26, 0x1d, 0x6d,
  0xa6, 0x64, 0x22, 0x4f, 0xa9, 0x5e, 0x45, 0xda, 0xaa, 0xe2, 0x0d, 0xd6,
  0xa6, 0xd3, 0xd7, 0x3f, 0x05, 0x50, 0x4f, 0x00, 0xa9, 0x25, 0x14, 0xd0,
  0xc4, 0xa1, 0xa7, 0x57, 0x4e, 0xc3, 0xfe, 0x4f, 0xe6, 0xf2, 0xb3, 0xbf,
  0x95, 0xe9, 0x5f, 0xca, 0x67, 0xcf, 0xff, 0x3d, 0x3c, 0x8f, 0xc3, 0xbc,
  0xe1, 0xc8, 0xa1, 0x3c, 0x41, 0xe8, 0x6b, 0xc1, 0xd1, 0x20, 0xe8, 0x0b,
  0x38, 0x35, 0xca, 0x1b, 0xf9, 0x47, 0x97, 0x1a, 0x9f, 0xe2, 0x32, 0x0a,
  0xd5, 0x53, 0x13, 0x25, 0xab, 0xba, 0x17, 0x31, 0x23, 0xe6, 0x69, 0xd1,
  0x55, 0xc7, 0xf0, 0x47, 0xc3, 0x5f, 0x9c, 0xd3, 0x25, 0x48, 0x7f, 0x21,
  0xb3, 0x04, 0xdd, 0xd3, 0x24, 0x60, 0x46, 0x31, 0xa2, 0x06, 0xc4, 0xd6,
  0x3e, 0x91, 0xef, 0xc2, 0xc1, 0x4e, 0xce, 0x4c, 0x43, 0x16, 0x03, 0x1b,
  0xc6, 0x1d, 0xf0, 0xbb, 0x06, 0x2f, 0xf8, 0xfe, 0x26, 0xa4, 0xe5, 0x05,
  0xa7, 0xa1, 0xc3, 0xd7, 0x31, 0xfb, 0x24, 0x5f, 0xd4, 0x26, 0xa4, 0x98,
  0x02, 0x09, 0xb2, 0x18, 0xc5, 0x1c, 0xb8, 0x9c, 0xa0, 0x9d, 0xf8, 0xd2,
  0x48, 0xaa, 0x81, 0x03, 0xbc, 0x2a, 0x3a, 0xcb, 0xca, 0xa7, 0xdd, 0x22,
  0xd1, 0x01, 0x03, 0x34, 0x33, 0x25, 0x24, 0xc4, 0x15, 0x4c, 0xe0, 0xcc,
  0xb4, 0x30, 0x1c, 0x27, 0x55, 0x08, 0x70, 0x97, 0x98, 0x4c, 0x55, 0xf9,
  0xd8, 0x15, 0xd7, 0x1c, 0xdf, 0xcf, 0x5b, 0xb4, 0x41, 0x3d, 0x16, 0x81,
  0x41, 0xa2, 0xa0, 0x4b, 0x5a, 0xd1, 0xcf, 0x46, 0x59, 0xcf, 0x58, 0xc7,
  0x42, 0x99, 0xd1, 0xf4, 0xff, 0x18, 0x4f, 0x8a, 0x05, 0xac, 0xb9, 0x4d,
  0x55, 0x64, 0xdc, 0x04, 0xb0, 0xbe, 0x38, 0xd4, 0x03, 0x28, 0x41, 0x53,
  0x1c, 0xc9, 0x99, 0x32, 0xab, 0xae, 0xdd, 0xef, 0x8b, 0x6a, 0xe1, 0xd0,
  0xb7, 0x48, 0xe3, 0x64, 0x35, 0xac, 0x46, 0x2e, 0xf5, 0xe2, 0xfa, 0xb4,
  0xa7, 0x4f, 0xca, 0x40, 0x65, 0xba, 0x1b, 0x4e, 0x8f, 0x87, 0x0e, 0xf2,
  0x6e, 0x6b, 0xfa, 0x78, 0x35, 0xc9, 0xd3, 0x52, 0xac, 0xbf, 0xbc, 0xc2,
  0x71, 0x49, 0x22, 0x94, 0x68, 0x05, 0x57, 0xb5, 0xc7, 0xfe, 0x27, 0x96,
  0xf8, 0xab, 0x12, 0xa7, 0xf1, 0x0a, 0xa3, 0xeb, 0xd7, 0x82, 0x51, 0xbf,
  0xd6, 0x34, 0xde, 0x1e, 0x1b, 0x9f, 0x2f, 0xca, 0xa4, 0x0d, 0xf2, 0x5f,
  0x08, 0x81, 0x91, 0x79, 0x5a, 0x1d, 0x85, 0x08, 0x84, 0x6a, 0x35, 0xeb,
  0x29, 0xe0, 0x5b, 0xc4, 0x62, 0x48, 0xb2, 0xe2, 0x0d, 0xd8, 0xbd, 0x91,
  0x55, 0x66, 0x81, 0x1f, 0x36, 0x52, 0x03, 0xbf, 0x30, 0x54, 0x27, 0xd3,
  0xf1, 0x06, 0x2b, 0x56, 0x1a, 0xe6, 0x4b, 0x4a, 0x89, 0xf8, 0xbd, 0x98,
  0xe3, 0xff, 0x41, 0x52, 0xb5, 0x18, 0x84, 0x56, 0x99, 0xd4, 0x99, 0x18,
  0x4e, 0x8f, 0xfc, 0xa3, 0x3e, 0xcf, 0xd5, 0x94, 0xea, 0x4a, 0xe4, 0xa9,
  0x1b, 0xad, 0xed, 0xfe, 0xf0, 0x9f, 0x5d, 0x53, 0xc8, 0xe6, 0x30, 0xcd,
  0xfe, 0x89, 0x8c, 0xbd, 0xa7, 0x19, 0x8d, 0x8c, 0x2a, 0x51, 0x25, 0x53,
  0xf9, 0xec, 0xbd, 0x52, 0xf7, 0x32, 0xee, 0xbd, 0x97, 0xbd, 0x48, 0x1a,
  0x1f, 0xb5, 0xa0, 0x30, 0xcf, 0x1d, 0x06, 0xa0, 0x8e, 0xe0, 0xd3, 0x4e,
  0xc6, 0x5e, 0x9e, 0xe0, 0x9d, 0x7f, 0x32, 0x9f, 0xf9, 0x33, 0xea, 0xa4,
  0xf4, 0xe4, 0xf5, 0xc3, 0x4f, 0xe2, 0xf1, 0xae, 0x47, 0x4a, 0x3d, 0x19,
  0xd2, 0xc3, 0xd4, 0xf1, 0x5b, 0xcc, 0xc9, 0x37, 0x44, 0xb4, 0xc1, 0xaa,
  0xbb, 0xcf, 0xca, 0x1e, 0xa4, 0x2d, 0x67, 0x2a, 0xab, 0x03, 0x40, 0x12,
  0xc3, 0xd4, 0xf7, 0x89, 0x56, 0xcf, 0xbf, 0xce, 0xa7, 0xfc, 0x0a, 0x93,
  0xcd, 0xf8, 0x24, 0xc0, 0x3a, 0x38, 0x5a, 0x88, 0x92, 0xd6, 0xab, 0xdf,
  0x25, 0xbe, 0xe0, 0x2d, 0xf8, 0x3f, 0xa6, 0x96, 0x81, 0x85, 0x45, 0x31,
  0x03, 0x48, 0x3b, 0x82, 0x67, 0x58, 0xfb, 0xa2, 0x9c, 0xce, 0xa4, 0x02,
  0xed, 0xca, 0xdb, 0x9a, 0x4e, 0x3c, 0x16, 0x95, 0xbf, 0x67, 0xa9, 0x99,
  0x3a, 0x1b, 0x62, 0xd8, 0x18, 0x3e, 0x79, 0x54, 0x24, 0xa9, 0x0e, 0x40,
  0x0f, 0x1c, 0x24, 0x45, 0xc0, 0x1a, 0x08, 0xfe, 0xac, 0x1f, 0xcc, 0x52,
  0x4a, 0xc5, 0xbe, 0x97, 0xfb, 0x13, 0xce, 0xee, 0x8c, 0x81, 0xf0, 0x6a,
  0xe1, 0x2f, 0xf4, 0xbb, 0xb6, 0x0e, 0x6a, 0x06, 0x58, 0x00, 0x26, 0xbe,
  0x6e, 0x38, 0x63, 0xe3, 0xfe, 0xdb, 0xc2, 0x2f, 0x07, 0xda, 0x70, 0xb1,
  0xc8, 0xe4, 0xfb, 0x6b, 0xad, 0xdf, 0x2f, 0x2b, 0x88, 0xfb, 0xa5, 0xa2,
  0x35, 0x83, 0xc4, 0x96, 0x48, 0xc6, 0xcf, 0xc6, 0x9f, 0x68, 0x30, 0x60,
  0xb0, 0x71, 0xbc, 0x40, 0xa9, 0xc9, 0x65, 0xa6, 0x9f, 0xa2, 0x9a, 0x9c,
  0xb8, 0x4b, 0x2b, 0xae, 0xf5, 0x91, 0x32, 0xce, 0x93, 0x0f, 0x21, 0xc6,
  0x56, 0xd8, 0x34, 0x25, 0x38, 0xa2, 0x42, 0x24, 0xf0, 0x16, 0x0b, 0xab,
  0x05, 0xc8, 0x95, 0xcd, 0xc0, 0x4a, 0x3f, 0x81, 0x0b, 0xbd, 0xff, 0x44,
  0x87, 0x2f, 0xea, 0x21, 0xfb, 0xe7, 0xca, 0x01, 0x17, 0xbc, 0xc9, 0x33,
  0x68, 0x21, 0x6a, 0xdf, 0x18, 0xa6, 0x17, 0xdb, 0xf6, 0x6a, 0x24, 0xfc,
  0xcb, 0x8e, 0x84, 0xcf, 0xb2, 0x55, 0xf2, 0x34, 0x2d, 0x48, 0xf8, 0x90,
  0x47, 0xb0, 0x11, 0x1a, 0x72, 0xa9, 0x1d, 0x9e, 0x44, 0x45, 0x5c, 0x5b,
  0xe4, 0x47, 0x9f, 0xb7, 0x66, 0x81, 0x0e, 0x1a, 0x62, 0x9a, 0x61, 0xe8,
  0x5f, 0x37, 0x29, 0x44, 0x3a, 0xd4, 0xdd, 0x24, 0x96, 0x89, 0xad, 0x10,
  0x54, 0xdd, 0x5c, 0x14, 0x4b, 0x60, 0x1c, 0x26, 0x35, 0xba, 0x27, 0xdc,
  0x1d, 0xd7, 0xf2, 0xba, 0x04, 0x2d, 0x6c, 0xb2, 0x4a, 0x49, 0x7f, 0x23,
  0x57, 0xe8, 0x9d, 0x12, 0xb7, 0xcc, 0x92, 0xa7, 0xfd, 0x2c, 0xcb, 0xaa,
  0x48, 0xc1, 0xa8, 0xd1, 0xc5, 0x08, 0x6a, 0xf8, 0xe3, 0x15, 0x1b, 0xa7,
  0xef, 0x3e, 0x40, 0xd6, 0xe6, 0xb2, 0xe8, 0xb9, 0x4f, 0xbb, 0x45, 0xd4,
  0xb7, 0xfa, 0xb0, 0xc0, 0x55, 0xd9, 0xda, 0x01, 0xca, 0x3c, 0xdb, 0xae,
  0x01, 0x0d, 0xd3, 0x50, 0x09, 0xef, 0xe2, 0x16, 0x15, 0x29, 0xbc, 0xcd,
  0x2f, 0xaf, 0x47, 0x0f, 0xcd, 0xef, 0xfa, 0x04, 0x5f, 0xe6, 0xb9, 0x29,
  0x1c, 0xf0, 0x81, 0x0f, 0xf6, 0x37, 0xc5, 0xf4, 0xfd, 0xcf, 0xb9, 0x4c,
  0x10, 0x2e, 0xa3, 0xdd, 0xed, 0x54, 0x16, 0xe6, 0x99, 0xa3, 0x53, 0x11,
  0x0f, 0x27, 0x00, 0x8b, 0xdf, 0xfa, 0xbb, 0x15, 0x6a, 0x4c, 0x28, 0x13,
  0x13, 0xbb, 0x11, 0x99, 0xb5, 0xf1, 0xa2, 0x5d, 0xbc, 0xa8, 0xd5, 0xfd,
  0x2b, 0xe8, 0x27, 0x51, 0xd1, 0xa1, 0x11, 0x4b, 0x18, 0xd9, 0xd8, 0xd3,
  0xc8, 0x8c, 0x07, 0xaa, 0x31, 0x06, 0x41, 0xfd, 0x81, 0x0b, 0x50, 0x2f,
  0xd2, 0x2c, 0x17, 0xa7, 0x59, 0xe2, 0x5a, 0x33, 0xa1, 0x0f, 0xef, 0xe2,
  0xb4, 0xe5, 0x9a, 0x90, 0xbd, 0xcb, 0xb6, 0x16, 0xd2, 0x2a, 0x1a, 0x99,
  0x50, 0xf7, 0xc2, 0xdc, 0xaa, 0xfa, 0xf3, 0x3e, 0xd2, 0xe1, 0x4c, 0x17,
  0x4c, 0xd9, 0x59, 0xe0, 0xbf, 0x59, 0xcf, 0xf2, 0x4a, 0xa2, 0x4a, 0x03,
  0x02, 0xf5, 0xc1, 0xf5, 0x9c, 0x34, 0x4e, 0x14, 0x98, 0x54, 0xb6, 0xc5,
  0xe5, 0x44, 0x50, 0x07, 0x5f, 0x2b, 0x8e, 0xf5, 0x10, 0x04, 0x05, 0x5a,
  0x12, 0xa8, 0x90, 0x97, 0xe4, 0xac, 0x66, 0x1e, 0xbc, 0xea, 0xeb, 0x9d,
  0xc2, 0x81, 0xff, 0xf6, 0xf2, 0xff, 0x5d, 0xed, 0x4d, 0xb0, 0xcf, 0x61,
  0x1c, 0x27, 0x02, 0xd3, 0x04, 0xcf, 0x5e, 0xc1, 0x2a, 0x04, 0x3b, 0x8e,
  0xa4, 0x25, 0x4b, 0x96, 0xa4, 0x4b, 0x4f, 0x3b, 0x84, 0x16, 0xff, 0x06,
  0x35, 0xa6, 0x98, 0xf3, 0x59, 0x1a, 0x95, 0x09, 0xf2, 0x72, 0x5b, 0x14,
  0xf4, 0xd1, 0xbf, 0xbe, 0xd1, 0xd2, 0x11, 0xa3, 0x1b, 0x5a, 0xe2, 0xf9,
  0xc8, 0xdc, 0x9d, 0xd2, 0x2d, 0x20, 0x3c, 0xff, 0x05, 0x7f, 0xa9, 0x26,
  0x34, 0x1b, 0x4f, 0xd4, 0x39, 0x23, 0xe2, 0xa8, 0xe5, 0xee, 0x52, 0x63,
  0x22, 0x37, 0xdb, 0xd1, 0xcf, 0xe9, 0xae, 0xfe, 0xe6, 0xd7, 0x03, 0xb4,
  0xa1, 0xa7, 0xd8, 0x84, 0x0d, 0x6d, 0xc6, 0x47, 0xff, 0x26, 0xa6, 0x9d,
  0x3e, 0xb3, 0x0e, 0xaf, 0xc6, 0xb1, 0x34, 0xae, 0x5c, 0x51, 0xca, 0xdc,
  0x8f, 0xd0, 0xbd, 0x0c, 0xd8, 0xa3, 0x3d, 0xda, 0x46, 0x21, 0xb4, 0xab,
  0xa6, 0xb3, 0x81, 0xc7, 0xff, 0xf4, 0x47, 0xd9, 0xd0, 0x1e, 0x0f, 0xeb,
  0xfa, 0xe3, 0x83, 0x65, 0xad, 0xa7, 0xfd, 0xe4, 0x4c, 0x4f, 0x99, 0x04,
  0x24, 0x2e, 0x83, 0x2c, 0x33, 0x57, 0xef, 0x32, 0x2b, 0x38, 0x4f, 0xee,
  0x5e, 0x3c, 0x59, 0x67, 0xf8, 0x0a, 0x96, 0xc7, 0x86, 0x51, 0xc2, 0x19,
  0xc4, 0x30, 0x84, 0x04, 0x06, 0x46, 0xc5, 0x22, 0x08, 0x54, 0x0b, 0xa4,
  0x1d, 0x81, 0x53, 0x0d, 0x07, 0xd1, 0xae, 0x1e, 0x1f, 0x6d, 0x18, 0xf9,
  0x19, 0x50, 0xe9, 0x04, 0x45, 0x50, 0xeb, 0xb0, 0x3f, 0xea, 0xb6, 0xdd,
  0x3b, 0xd8, 0xbd, 0x9f, 0x31, 0x29, 0x41, 0xf7, 0xe9, 0xc2, 0xc1, 0xa0,
  0x5c, 0xb0, 0xbc, 0xfa, 0x9b, 0x29, 0x19, 0xea, 0x3b, 0xe9, 0x0c, 0xf3,
  0x0d, 0xff, 0x07, 0x1b, 0xe2, 0x38, 0x67, 0xa9, 0x3c, 0xd8, 0x5c, 0x5f,
  0xc3, 0xcd, 0xb5, 0x8e, 0x96, 0xf0, 0xff, 0xff, 0x04, 0x00, 0x00, 0x00,
  0x18, 0x00, 0x00, 0x00, 0xa8, 0x2a, 0xa5, 0xf7, 0x47, 0x80, 0xa0, 0x12,
  0x2e, 0x06, 0xa6, 0x35, 0x5b, 0x04, 0x26, 0x06, 0x26, 0x05, 0x72, 0xae,
  0x0a, 0x6e, 0xe5, 0xfc, 0xba, 0xf0, 0xff, 0xff, 0x04, 0x00, 0x00, 0x00,
  0xc0, 0x06, 0x00, 0x00, 0x1c, 0x14, 0x81, 0x2c, 0x02, 0x9e, 0x18, 0x68,
  0xc5, 0x89, 0xe3, 0x09, 0xa3, 0x60, 0x79, 0xd2, 0xcf, 0xac, 0x49, 0x45,
  0x44, 0xf2, 0xc6, 0x20, 0xa3, 0xb7, 0x84, 0x85, 0x58, 0x47, 0xe2, 0xf5,
  0xda, 0xd1, 0xc5, 0x2c, 0xa1, 0x64, 0x17, 0x00, 0xe7, 0x93, 0x3c, 0xd3,
  0xad, 0x0e, 0xec, 0x10, 0xec, 0x20, 0xf5, 0xba, 0x60, 0xef, 0x2e, 0xa8,
  0x62, 0x01, 0x91, 0xa4, 0xca, 0x12, 0x1d, 0xc3, 0x2a, 0xdd, 0x43, 0x47,
  0xe9, 0xc6, 0xcc, 0xb2, 0x33, 0x40, 0xcd, 0x37, 0xf8, 0x8d, 0x5a, 0xfc,
  0xd1, 0x43, 0x6a, 0x29, 0xf3, 0x7f, 0x16, 0x04, 0x52, 0x0f, 0x92, 0x1a,
  0xdf, 0x00, 0xad, 0xf8, 0x39, 0xda, 0xcd, 0x23, 0x62, 0xd2, 0xe3, 0x49,
  0x54, 0x63, 0x97, 0xc0, 0x45, 0xf3, 0xbd, 0x9a, 0xe0, 0x16, 0x25, 0xd5,
  0x1e, 0x03, 0xff, 0x24, 0x27, 0xf5, 0x60, 0xd7, 0x1e, 0xb5, 0xf5, 0xcb,
  0x33, 0xb2, 0xd2, 0x10, 0x41, 0x20, 0x24, 0x31, 0xd8, 0xa4, 0x28, 0xb1,
  0xa7, 0x5a, 0xaa, 0xda, 0xd6, 0xdc, 0x39, 0xaa, 0x04, 0xe2, 0xa2, 0xf3,
  0xe5, 0x6a, 0x8b, 0xd9, 0xfd, 0xb5, 0xa7, 0xd2, 0xd7, 0xb5, 0x38, 0x23,
  0xfb, 0x21, 0x8d, 0xbf, 0xe4, 0xb3, 0x0b, 0x93, 0xaf, 0xa1, 0x49, 0x0e,
  0x34, 0x23, 0xe4, 0x54, 0x17, 0xe9, 0xe9, 0x9d, 0x61, 0xb2, 0x4b, 0x56,
  0xb8, 0x8a, 0xd3, 0x7f, 0x91, 0xfd, 0xbc, 0x48, 0xdf, 0x3f, 0xfd, 0xd5,
  0x40, 0xf5, 0xf3, 0x28, 0xd6, 0x5a, 0xa7, 0xeb, 0x10, 0xd3, 0x51, 0x06,
  0xb7, 0x18, 0xe2, 0x1f, 0x0d, 0xc6, 0xc2, 0xc1, 0xb9, 0xae, 0x36, 0xe4,
  0xa0, 0x87, 0x9a, 0x2a, 0xb8, 0xf6, 0x0c, 0xfe, 0xf8, 0x07, 0xa0, 0xa3,
  0x36, 0x84, 0x25, 0xfe, 0xdd, 0xb4, 0x2c, 0xdf, 0x53, 0xdd, 0x9f, 0xf4,
  0x2c, 0x0d, 0x0b, 0xac, 0x65, 0x42, 0x59, 0xf8, 0x33, 0xcf, 0xb5, 0x81,
  0xf8, 0xb4, 0x9a, 0x4e, 0xd0, 0x90, 0x30, 0xaf, 0x89, 0xc3, 0x2a, 0xf4,
  0x93, 0xdb, 0xf6, 0xf6, 0xfc, 0xb1, 0x09, 0xcc, 0xcd, 0x61, 0x4a, 0x48,
  0xcb, 0x16, 0x34, 0x1f, 0x03, 0x3a, 0xae, 0xf8, 0x61, 0x41, 0xf4, 0x56,
  0x56, 0x5c, 0xe0, 0xf3, 0x8d, 0x9c, 0x42, 0x12, 0xb9, 0x09, 0xd1, 0x18,
  0xfc, 0xf9, 0xfd, 0xd4, 0x57, 0x63, 0x2f, 0x9d, 0x18, 0xea, 0xcd, 0x27,
  0x46, 0x38, 0x34, 0xcb, 0x0b, 0x4a, 0x4a, 0x27, 0x16, 0x27, 0x0c, 0x23,
  0xcd, 0xf7, 0xd8, 0x76, 0xaf, 0x81, 0x1f, 0x44, 0x23, 0x0c, 0x4e, 0xb1,
  0x12, 0x50, 0x2e, 0x61, 0xd0, 0xb6, 0xa9, 0xc1, 0xd8, 0xf2, 0x9d, 0xe2,
  0x60, 0xf4, 0x98, 0x78, 0xbd, 0xb5, 0xe9, 0xf6, 0x50, 0xb0, 0xe5, 0xa8,
  0x4a, 0x31, 0xa3, 0x07, 0xe9, 0xfb, 0x5a, 0x00, 0x3f, 0x66, 0xba, 0x15,
  0xb4, 0x1a, 0x9c, 0xc9, 0x50, 0x5b, 0xbd, 0xd7, 0x93, 0x8c, 0xc6, 0x05,
  0xd8, 0x1f, 0x16, 0x06, 0x3c, 0xa4, 0xb7, 0xa7, 0xce, 0xa4, 0x89, 0x53,
  0x9c, 0xa9, 0x27, 0x45, 0x39, 0xe6, 0xd5, 0x31, 0xda, 0x2d, 0x9a, 0x7f,
  0xf6, 0x1f, 0x32, 0x9c, 0x8c, 0x12, 0xec, 0xbe, 0x17, 0xde, 0x20, 0xae,
  0xd4, 0xd1, 0x0f, 0xbb, 0xe0, 0x51, 0xa1, 0xf6, 0x6e, 0x57, 0xbb, 0xd9,
  0xb5, 0x27, 0xf4, 0x9a, 0x50, 0x8e, 0xb5, 0xe3, 0xe0, 0x3b, 0x25, 0xad,
  0x49, 0x43, 0x9e, 0xc5, 0x07, 0x81, 0xe4, 0x82, 0x20, 0x87, 0xe8, 0x0a,
  0x21, 0xb0, 0x2b, 0x3c, 0x56, 0x35, 0x3f, 0xfc, 0x26, 0xe6, 0xcb, 0xf8,
  0x25, 0xd7, 0x09, 0x7c, 0x8d, 0xae, 0xb3, 0xc4, 0xb1, 0xdd, 0x2c, 0x10,
  0xb2, 0xaf, 0xe3, 0x4d, 0xba, 0xee, 0xc5, 0xbd, 0xaf, 0x11, 0x38, 0xfc,
  0xe7, 0xd1, 0xf7, 0x65, 0x1d, 0xcc, 0xe1, 0x40, 0x3e, 0xae, 0xa6, 0x4b,
  0x18, 0xb5, 0x82, 0xf5, 0x16, 0x65, 0x5a, 0x12, 0xae, 0xe9, 0xe0, 0x21,
  0xef, 0xd8, 0x97, 0x65, 0xf2, 0xed, 0xfb, 0x21, 0x98, 0xd4, 0xd1, 0x72,
  0x9c, 0x1e, 0x41, 0x31, 0x14, 0xa2, 0x02, 0xdc, 0xe3, 0xa5, 0x33, 0xda,
  0x0e, 0x88, 0x8c, 0xeb, 0xbd, 0x3b, 0x48, 0xf2, 0xde, 0x5c, 0xc6, 0xff,
  0x9d, 0x23, 0x07, 0x0e, 0x96, 0x7f, 0xf9, 0x1b, 0x8e, 0xf7, 0x20, 0xfe,
  0xc7, 0x2e, 0x62, 0xc8, 0x6d, 0x8b, 0x3b, 0xbc, 0x52, 0xaa, 0x8f, 0xf3,
  0x70, 0xa0, 0x5c, 0xbb, 0x50, 0x08, 0xa1, 0x36, 0x57, 0x35, 0x4b, 0xce,
  0x07, 0x0f, 0x0e, 0x8d, 0xb9, 0x81, 0xd5, 0xf0, 0xf1, 0xe6, 0x49, 0x70,
  0x61, 0x9b, 0x69, 0x34, 0xb5, 0x9b, 0xbf, 0xb2, 0xfe, 0xd0, 0x79, 0x51,
  0x6c, 0x6c, 0xe4, 0xdd, 0x16, 0xc1, 0xa4, 0x45, 0x0d, 0xbd, 0x1d, 0xa1,
  0xdb, 0xcc, 0x9b, 0x34, 0xc4, 0x14, 0x39, 0x81, 0xb6, 0x20, 0xea, 0x1a,
  0xdf, 0x7b, 0x1e, 0x70, 0x1f, 0x1a, 0x9a, 0x2e, 0xd5, 0x3f, 0x05, 0xd7,
  0x9f, 0x61, 0xdb, 0xf1, 0xb3, 0x61, 0xd7, 0x89, 0x08, 0xe9, 0xf5, 0x3a,
  0x97, 0xc6, 0x99, 0xb8, 0xf6, 0xdb, 0x45, 0xef, 0x57, 0xb7, 0xe1, 0x83,
  0xa6, 0xf2, 0x45, 0x1c, 0x36, 0xbf, 0x1e, 0x2a, 0xba, 0x27, 0xef, 0xd8,
  0x1e, 0x35, 0x4d, 0xdc, 0xa6, 0x1b, 0xf2, 0xbc, 0x30, 0x94, 0x20, 0xc0,
  0xbc, 0x5b, 0xc7, 0xa7, 0x8c, 0x14, 0x7f, 0xdf, 0x1d, 0x25, 0xe9, 0x45,
  0xb8, 0x0c, 0x97, 0x7b, 0x59, 0xc4, 0xb4, 0xd5, 0x30, 0x56, 0x97, 0x06,
  0x6c, 0x02, 0xc7, 0x68, 0xfe, 0xa0, 0x5c, 0xc8, 0x5a, 0x56, 0x21, 0x5e,
  0xf3, 0xdd, 0xff, 0x0e, 0x59, 0xb0, 0x12, 0x34, 0x42, 0xa0, 0xca, 0xcc,
  0x7f, 0xd6, 0x8d, 0xcc, 0xd6, 0xf7, 0x35, 0x61, 0xc4, 0xee, 0xb0, 0xdb,
  0x03, 0x00, 0xd3, 0xad, 0x02, 0x33, 0xbd, 0xf3, 0x5f, 0x4c, 0x2a, 0xf5,
  0x3e, 0xad, 0x0c, 0x1c, 0x02, 0x00, 0xbb, 0xd4, 0xf7, 0x06, 0xa6, 0x10,
  0x52, 0xa8, 0x2b, 0xd4, 0xe2, 0x35, 0xe1, 0xd2, 0x63, 0x03, 0xc8, 0xe9,
  0x44, 0x02, 0xf8, 0x26, 0x02, 0x3f, 0xd6, 0x44, 0xdf, 0x92, 0xf5, 0x81,
  0x0a, 0xbb, 0xbf, 0xc7, 0x1b, 0xbc, 0xf3, 0xc9, 0x36, 0xe6, 0x48, 0x08,
  0xb1, 0x00, 0xb4, 0x6b, 0x1e, 0xc9, 0xb3, 0x5d, 0xc2, 0x25, 0x24, 0xa2,
  0x95, 0xf3, 0xe5, 0x79, 0x40, 0xea, 0xf2, 0xcf, 0x40, 0x2c, 0x2b, 0xff,
  0xff, 0xdb, 0x16, 0xf2, 0x19, 0x0f, 0x4f, 0xb7, 0x65, 0x2a, 0xcd, 0x3c,
  0x10, 0xe5, 0xd1, 0x12, 0x98, 0x6c, 0xb5, 0xba, 0x56, 0x43, 0x06, 0xe6,
  0xa3, 0x1e, 0xd1, 0x73, 0xad, 0x56, 0x60, 0x3a, 0xa4, 0xc6, 0xc5, 0x67,
  0x95, 0x52, 0x45, 0x08, 0xef, 0xd4, 0xa8, 0x67, 0x51, 0x2b, 0xc5, 0xf0,
  0x51, 0xd6, 0x27, 0x1f, 0x41, 0x45, 0x7a, 0xdf, 0x66, 0xb6, 0x47, 0x3e,
  0x18, 0xc3, 0xad, 0xf0, 0x4e, 0x1f, 0x25, 0x81, 0x50, 0x38, 0x5f, 0x31,
  0xf5, 0xa2, 0xfd, 0xd0, 0x8c, 0xc8, 0xd6, 0xb0, 0xcf, 0x4d, 0xcb, 0x58,
  0x0b, 0xd8, 0xb4, 0x57, 0x26, 0x21, 0x0f, 0x52, 0xf8, 0x99, 0x21, 0xbd,
  0xb4, 0x84, 0x2d, 0x20, 0xf9, 0xb9, 0x7f, 0x98, 0x19, 0xef, 0xba, 0x26,
  0xdb, 0x89, 0xaf, 0x44, 0xcd, 0xa6, 0xea, 0x04, 0xc3, 0x4e, 0xb5, 0xc2,
  0xfd, 0xad, 0x09, 0x4c, 0xd3, 0xbb, 0x61, 0xd5, 0x91, 0x1e, 0xba, 0x20,
  0x3f, 0xef, 0xd7, 0x7a, 0x50, 0xc1, 0xbd, 0x44, 0x6e, 0xff, 0x14, 0x01,
  0x47, 0x34, 0xa1, 0x57, 0x44, 0x69, 0xf1, 0xf9, 0x98, 0xc7, 0xc5, 0xd8,
  0xf6, 0xf5, 0xb3, 0xb1, 0x2b, 0x99, 0xb3, 0x48, 0xa1, 0xb4, 0x3c, 0x1c,
  0x0e, 0x43, 0xe0, 0x27, 0xce, 0x29, 0x50, 0xdf, 0x86, 0x41, 0xf4, 0x0f,
  0xa0, 0x27, 0xd2, 0x3c, 0x06, 0x18, 0x4e, 0x95, 0x03, 0xe4, 0x12, 0xfe,
  0xc5, 0xf5, 0xa2, 0x92, 0xb2, 0x25, 0xce, 0xb8, 0x25, 0x9e, 0x0e, 0x08,
  0x45, 0x1e, 0x06, 0xd3, 0xf0, 0xfd, 0x22, 0x9e, 0x64, 0x8f, 0x5c, 0xc4,
  0x76, 0x7f, 0xe4, 0x00, 0xda, 0xbc, 0x79, 0xca, 0xfc, 0x67, 0x4b, 0x43,
  0xf7, 0x25, 0x21, 0x02, 0x4a, 0x10, 0x2b, 0xe7, 0x04, 0xb3, 0x08, 0x2b,
  0x34, 0x44, 0xdf, 0x12, 0xeb, 0xcd, 0x7c, 0x64, 0xc8, 0x81, 0x33, 0xac,
  0x4f, 0x33, 0x20, 0x7d, 0x70, 0xcf, 0xac, 0x1e, 0xec, 0x40, 0xd8, 0xbe,
  0x2c, 0x8a, 0x64, 0xf6, 0x29, 0x71, 0x9f, 0xa3, 0x64, 0x30, 0xd5, 0x1a,
  0xf0, 0x87, 0x23, 0x5d, 0xdb, 0xb4, 0x03, 0xf9, 0xe6, 0x1f, 0x4e, 0xd7,
  0x93, 0x2a, 0x23, 0xf0, 0x16, 0x1d, 0x72, 0x38, 0x83, 0xe4, 0xbf, 0x4a,
  0x8f, 0xdc, 0xc7, 0x99, 0xc9, 0xd8, 0xd1, 0x4c, 0xab, 0xf4, 0x53, 0x07,
  0x7f, 0xeb, 0xeb, 0xf2, 0xfd, 0xb6, 0xa9, 0x17, 0x87, 0xa3, 0x15, 0xb8,
  0x0d, 0xec, 0x0a, 0xaf, 0x59, 0xbb, 0x90, 0xae, 0x57, 0x2e, 0xb9, 0xd6,
  0xfe, 0x35, 0x3a, 0x5c, 0x3a, 0x09, 0xc6, 0x03, 0xb7, 0x49, 0xc2, 0x48,
  0x6d, 0x00, 0x17, 0x9d, 0x35, 0x54, 0xe5, 0xd2, 0xdd, 0x00, 0xb5, 0xce,
  0x11, 0x24, 0x99, 0xed, 0x84, 0xd9, 0x65, 0xc9, 0x2b, 0xe0, 0xa5, 0xa7,
  0xd4, 0xd2, 0xd4, 0xb3, 0xd8, 0xff, 0x0b, 0x0a, 0x22, 0xef, 0x29, 0x86,
  0x7f, 0xd8, 0xde, 0xcc, 0x9d, 0xae, 0x62, 0xbd, 0x2d, 0xaf, 0x59, 0x3f,
  0xea, 0x50, 0x89, 0xde, 0x93, 0x9b, 0xd4, 0x00, 0xba, 0x14, 0xef, 0x30,
  0x42, 0x04, 0x93, 0x5d, 0x3f, 0xae, 0x53, 0x40, 0x38, 0x16, 0xae, 0x32,
  0xac, 0x28, 0xa7, 0x6e, 0x92, 0xb9, 0x48, 0x10, 0xf9, 0x82, 0x32, 0x1c,
  0x31, 0xb8, 0x38, 0x57, 0x27, 0xee, 0xf7, 0x0b, 0xa8, 0xda, 0xc0, 0x50,
  0x4a, 0x12, 0xce, 0xe6, 0x51, 0x1f, 0xbb, 0x54, 0x35, 0xf1, 0x4d, 0xe8,
  0x70, 0x4c, 0x3f, 0x2d, 0x5d, 0x50, 0x7d, 0x56, 0x56, 0xa4, 0x9f, 0xb1,
  0x5f, 0xda, 0xa7, 0xc9, 0xf7, 0xa2, 0xd4, 0x16, 0xc1, 0xc4, 0xb5, 0xb1,
  0x73, 0x24, 0x06, 0xf2, 0xb2, 0x71, 0x28, 0x66, 0xe7, 0x69, 0xfa, 0x33,
  0x46, 0x81, 0xb6, 0xbc, 0x3f, 0xa6, 0x66, 0x66, 0x56, 0xe3, 0xa1, 0x1d,
  0x1d, 0x21, 0x08, 0xbe, 0xc3, 0x75, 0x51, 0x0d, 0xab, 0xc6, 0x2e, 0xe8,
  0x2f, 0x54, 0x1d, 0xec, 0xff, 0x2b, 0xdf, 0xd5, 0xb0, 0xf6, 0x24, 0x39,
  0xdb, 0x47, 0x37, 0x2b, 0x26, 0x8d, 0x2d, 0x2e, 0xee, 0xa1, 0x9c, 0x44,
  0xdf, 0xf1, 0x38, 0x47, 0xfa, 0x8a, 0xda, 0xb0, 0xa6, 0x81, 0x31, 0x08,
  0x3d, 0xf3, 0x48, 0xb8, 0x1f, 0x9e, 0x4b, 0xc2, 0x8c, 0x2a, 0xd7, 0x03,
  0x35, 0x24, 0x62, 0x5b, 0xec, 0xa5, 0x32, 0xa9, 0x07, 0x8d, 0x98, 0xaf,
  0x55, 0xe1, 0xa2, 0x24, 0x0e, 0x4d, 0x39, 0xa5, 0xff, 0x23, 0xeb, 0xb5,
  0x67, 0x99, 0xff, 0x35, 0x8f, 0x59, 0x84, 0xb5, 0x51, 0xfd, 0xe7, 0x45,
  0x44, 0x47, 0x0a, 0x3f, 0x5f, 0x10, 0xb6, 0xb7, 0xba, 0xcf, 0x0e, 0xd5,
  0xb2, 0x88, 0x43, 0x2c, 0x97, 0xe9, 0x81, 0x35, 0x9f, 0x08, 0xba, 0x56,
  0x35, 0x3c, 0x8a, 0x34, 0xf5, 0x0a, 0x50, 0x02, 0xa5, 0xa8, 0xd6, 0xa5,
  0x3e, 0x48, 0x3c, 0x5a, 0x21, 0xef, 0xf9, 0x23, 0x4e, 0x5f, 0x24, 0x6c,
  0x59, 0x59, 0x8a, 0xaf, 0x81, 0x36, 0xd4, 0x57, 0xe5, 0xba, 0x5c, 0x00,
  0x2b, 0x8f, 0x19, 0xf5, 0xa2, 0x27, 0xa9, 0x27, 0x17, 0x58, 0xdf, 0x56,
  0xd7, 0xb4, 0x8e, 0x35, 0x9a, 0x26, 0xf3, 0xc2, 0x09, 0xc6, 0x5d, 0x1e,
  0x33, 0xa1, 0xe9, 0xf9, 0xa2, 0x3c, 0x37, 0xc0, 0xf2, 0x30, 0xf1, 0xb3,
  0x7f, 0xf1, 0xce, 0xea, 0x08, 0xbf, 0xa4, 0x47, 0x8d, 0x33, 0xbd, 0x0d,
  0x19, 0x19, 0xbf, 0xc4, 0x02, 0x3d, 0x2b, 0x38, 0xe9, 0x26, 0x91, 0xa8,
  0xf7, 0xc3, 0xfb, 0xa9, 0xec, 0xfb, 0x1c, 0xe9, 0x12, 0x35, 0x0c, 0x36,
  0x91, 0xc0, 0x98, 0x0f, 0x27, 0x10, 0xad, 0xb6, 0x54, 0xc0, 0xc0, 0x13,
  0xeb, 0xf7, 0x49, 0xca, 0x41, 0xb6, 0x1e, 0xde, 0xa4, 0x81, 0xcc, 0xe1,
  0x57, 0x07, 0xa9, 0x0b, 0x25, 0x3f, 0xa3, 0xd9, 0xf1, 0xf4, 0x06, 0x51,
  0x63, 0x39, 0xf6, 0xef, 0x46, 0x16, 0xe7, 0x10, 0x4f, 0x0d, 0x08, 0xd7,
  0x1c, 0xaf, 0xc8, 0xa8, 0x29, 0xa4, 0xb7, 0xac, 0xfb, 0x10, 0x11, 0xd4,
  0x5e, 0xda, 0x14, 0x51, 0x40, 0x1a, 0x67, 0xcf, 0x0d, 0xe2, 0xe7, 0x2f,
  0x4d, 0xb8, 0xe5, 0x18, 0xea, 0x00, 0x93, 0x07, 0x07, 0x4e, 0xd5, 0x0e,
  0x41, 0xfe, 0x1d, 0x46, 0xc5, 0x48, 0x0c, 0x90, 0x55, 0x9a, 0x4e, 0xc6,
  0xdc, 0xa4, 0x95, 0xcb, 0x17, 0xdf, 0xcb, 0xfc, 0x23, 0x30, 0xec, 0xaa,
  0x41, 0x8d, 0x73, 0xdb, 0xc9, 0x21, 0x74, 0x5e, 0xfb, 0x32, 0x81, 0x24,
  0x98, 0x9d, 0xff, 0xca, 0x59, 0x23, 0x5c, 0x01, 0x45, 0x5e, 0x02, 0x54,
  0x12, 0x94, 0x69, 0xb0, 0x2b, 0xfb, 0xb9, 0xab, 0xf1, 0xe2, 0x88, 0x2a,
  0x48, 0xbf, 0xe7, 0x5e, 0x86, 0xf7, 0xff, 0xff, 0x04, 0x00, 0x00, 0x00,
  0x18, 0x00, 0x00, 0x00, 0xf8, 0x1d, 0xee, 0x0b, 0x0e, 0xcf, 0xec, 0xf9,
  0x6f, 0x16, 0x45, 0x06, 0x1b, 0xc4, 0x0a, 0x40, 0xfa, 0xf4, 0x08, 0x80,
  0xf3, 0xc7, 0x02, 0xf4, 0xaa, 0xf7, 0xff, 0xff, 0x04, 0x00, 0x00, 0x00,
  0xc0, 0x06, 0x00, 0x00, 0xb8, 0xfa, 0x22, 0x2e, 0xb0, 0xdc, 0xb9, 0x1d,
  0xac, 0x0a, 0xf3, 0x43, 0x3b, 0x1e, 0x1a, 0xde, 0xb9, 0xb1, 0x04, 0xf2,
  0x17, 0x8d, 0x46, 0x1a, 0xb8, 0xe0, 0xa6, 0xd9, 0xf1, 0x4a, 0x24, 0xd9,
  0xd2, 0x22, 0x2f, 0x54, 0xba, 0x42, 0x14, 0xc4, 0xd2, 0x03, 0xa8, 0x2a,
  0xcb, 0xc6, 0x3c, 0xa3, 0xc3, 0xea, 0xde, 0xeb, 0xcd, 0xec, 0xa1, 0xf2,
  0x47, 0x05, 0xfc, 0xf6, 0x81, 0x11, 0xd1, 0x09, 0xee, 0xd9, 0xec, 0xf0,
  0xe4, 0x53, 0xda, 0xeb, 0x62, 0xea, 0x2d, 0xd2, 0xb1, 0x15, 0xbb, 0xb1,
  0x19, 0x9a, 0x27, 0xd8, 0xec, 0xac, 0x55, 0x5f, 0xcd, 0xd9, 0xe8, 0x77,
  0x5c, 0x3b, 0x17, 0xe4, 0x00, 0x6f, 0x6d, 0x01, 0x03, 0xb1, 0x0a, 0x5e,
  0x2d, 0xe5, 0x8e, 0x3d, 0x30, 0xf0, 0x52, 0xe8, 0x55, 0x25, 0x38, 0x46,
  0x7f, 0x50, 0xe3, 0xf9, 0xcc, 0x47, 0x9c, 0xef, 0x89, 0xae, 0xbe, 0x1f,
  0x91, 0xcb, 0x43, 0x38, 0xd8, 0xb1, 0xcd, 0xa4, 0x5b, 0xcc, 0x2c, 0x9f,
  0x26, 0xa9, 0x8e, 0xf3, 0xf9, 0x2a, 0x50, 0x7f, 0xc9, 0xd7, 0x9a, 0x03,
  0xab, 0xb8, 0xca, 0x29, 0x56, 0x4b, 0xf4, 0xda, 0x0a, 0x29, 0x69, 0x1b,
  0x63, 0x6c, 0x33, 0xd3, 0x19, 0x5a, 0x0d, 0x1b, 0x12, 0xb9, 0x31, 0x57,
  0x66, 0xac, 0x01, 0x0d, 0x61, 0xb4, 0x12, 0xd4, 0xea, 0xba, 0x16, 0xa3,
  0x6b, 0xc8, 0xe2, 0xcb, 0xb9, 0xe7, 0xc4, 0xe4, 0x90, 0x06, 0xba, 0x6a,
  0x23, 0x92, 0x21, 0x5e, 0x39, 0x00, 0xf2, 0xb6, 0x00, 0x47, 0xee, 0xb5,
  0xc9, 0xad, 0xa7, 0x18, 0xe9, 0xe9, 0xc6, 0xe8, 0xea, 0x5c, 0xc5, 0xd3,
  0x7a, 0xb2, 0xd3, 0x8e, 0x0d, 0xc3, 0x17, 0xb5, 0x27, 0xd3, 0x4a, 0xee,
  0x27, 0x25, 0xc7, 0x21, 0x46, 0x3e, 0xde, 0x1f, 0x47, 0x58, 0x96, 0xd4,
  0x9a, 0xcd, 0x2b, 0xf5, 0xe7, 0xad, 0xda, 0x02, 0x11, 0x4b, 0x2b, 0x1e,
  0x5f, 0xbd, 0x0f, 0xc2, 0x0e, 0x2a, 0x22, 0x4d, 0xba, 0x7e, 0xd0, 0xc4,
  0x26, 0x24, 0x8c, 0x8d, 0xb5, 0xd3, 0xa0, 0x92, 0x40, 0x8c, 0x48, 0x40,
  0x81, 0x47, 0xa5, 0xf1, 0x66, 0xd4, 0x07, 0x48, 0x36, 0x14, 0xde, 0x49,
  0x2b, 0xee, 0x5c, 0x5f, 0x7e, 0xb6, 0xc8, 0x8b, 0x1e, 0x28, 0x66, 0xc6,
  0x40, 0x64, 0x9d, 0x54, 0x12, 0x46, 0xbd, 0x23, 0xe7, 0xc7, 0x40, 0xa2,
  0x1d, 0x41, 0xc6, 0xd8, 0x65, 0x76, 0x81, 0x5d, 0x4c, 0xe9, 0x75, 0x64,
  0x9d, 0xbe, 0x5d, 0x0f, 0xd9, 0xd3, 0xea, 0x54, 0xb4, 0xed, 0x36, 0x49,
  0x96, 0x10, 0xf1, 0xb3, 0xc7, 0xe8, 0xfc, 0xf9, 0x33, 0xb7, 0xae, 0x39,
  0x1c, 0x00, 0x36, 0x94, 0xdc, 0xe1, 0x86, 0x09, 0x0c, 0x31, 0x08, 0x8a,
  0xbb, 0x47, 0xd4, 0x81, 0xd1, 0xb8, 0x5a, 0x5b, 0x49, 0xd7, 0x54, 0x2d,
  0xba, 0x03, 0xb5, 0x24, 0x74, 0x15, 0xfb, 0x0e, 0xfc, 0x30, 0x0b, 0x0a,
  0xee, 0xdd, 0xd4, 0xdd, 0x0f, 0x40, 0xd4, 0x90, 0x9c, 0x1d, 0xb1, 0x22,
  0xbf, 0xe4, 0x36, 0xf7, 0x2b, 0x31, 0x54, 0x62, 0xf4, 0x2a, 0x35, 0x3b,
  0xb8, 0xa9, 0x19, 0x3f, 0x9d, 0x9a, 0x2b, 0x55, 0xaa, 0x5a, 0x34, 0xb1,
  0x5b, 0xc7, 0x4f, 0x17, 0x15, 0xdf, 0x6f, 0xb6, 0x58, 0xf8, 0x4c, 0x1a,
  0x05, 0x17, 0x00, 0x93, 0xfe, 0x00, 0x00, 0xf4, 0xa0, 0x7f, 0x41, 0xeb,
  0xa7, 0xcf, 0x18, 0xc0, 0x59, 0x39, 0xbf, 0x52, 0x09, 0x9c, 0x32, 0xf2,
  0x1c, 0x94, 0xf6, 0xef, 0x08, 0xfb, 0x25, 0x21, 0xd8, 0x35, 0xe2, 0x4a,
  0x45, 0x52, 0x58, 0x91, 0xb1, 0x29, 0xc7, 0x11, 0xde, 0xff, 0x35, 0xe6,
  0xbe, 0xde, 0xa6, 0x3e, 0x44, 0xab, 0x58, 0x28, 0xf3, 0xea, 0xe8, 0xe0,
  0xe2, 0xc8, 0x89, 0x47, 0x1b, 0x9c, 0x1d, 0x01, 0x1f, 0x93, 0x39, 0x23,
  0x07, 0x33, 0xf4, 0x99, 0x9f, 0xa3, 0x91, 0x6a, 0x37, 0x79, 0x96, 0x8b,
  0x13, 0xc0, 0x46, 0x90, 0xf1, 0x25, 0x06, 0xe6, 0x62, 0x4f, 0xf0, 0x9b,
  0x89, 0x03, 0x38, 0x04, 0x33, 0x34, 0x2a, 0xff, 0xfe, 0x4a, 0xa8, 0xd1,
  0xbc, 0x2e, 0x05, 0x6b, 0xa5, 0x39, 0x2a, 0x3e, 0x35, 0x35, 0xb5, 0x6c,
  0xec, 0x95, 0x84, 0x83, 0x7f, 0xe5, 0xab, 0x5c, 0x10, 0xed, 0x39, 0x15,
  0x12, 0x56, 0xc3, 0x9b, 0x4e, 0xc9, 0xa0, 0xe6, 0x00, 0xf8, 0x1d, 0x17,
  0x06, 0xb3, 0xf4, 0x94, 0xd9, 0x4f, 0x0d, 0xdd, 0x8a, 0xb3, 0xa7, 0x5d,
  0xec, 0x83, 0x3d, 0xca, 0xea, 0x0e, 0xfc, 0x43, 0xbf, 0x95, 0x9f, 0x81,
  0x93, 0x10, 0xa7, 0xdc, 0x1a, 0x0c, 0xab, 0x0e, 0xde, 0x3a, 0x0d, 0x24,
  0x31, 0xca, 0xdb, 0x1b, 0x2b, 0xa9, 0x1a, 0xdd, 0xcd, 0x18, 0x1f, 0x40,
  0x46, 0xeb, 0xaf, 0xc9, 0xa4, 0x94, 0xd9, 0x2f, 0xa5, 0x4a, 0x5c, 0x9b,
  0xa3, 0x11, 0x1a, 0xa5, 0x4e, 0x9c, 0x1e, 0x51, 0x02, 0xc4, 0xc8, 0xaa,
  0x06, 0xeb, 0x01, 0xe4, 0x1e, 0xe6, 0x86, 0xf9, 0x4f, 0x04, 0x34, 0x73,
  0x53, 0x21, 0x25, 0xd0, 0xf1, 0x0c, 0x08, 0xaf, 0x5a, 0x2f, 0xe7, 0xf5,
  0xd9, 0xec, 0xdb, 0x46, 0x57, 0x1f, 0xc1, 0x34, 0x48, 0xf7, 0x53, 0x5b,
  0x42, 0x46, 0xff, 0xc2, 0x06, 0x99, 0x15, 0x65, 0x26, 0xf2, 0x16, 0x15,
  0xc0, 0xaf, 0xb0, 0x41, 0x1b, 0x51, 0x81, 0x02, 0xc1, 0xba, 0x93, 0xae,
  0xc3, 0xa7, 0x4a, 0x6a, 0x13, 0xed, 0xbb, 0xe8, 0x2e, 0x7c, 0xc8, 0xe0,
  0x51, 0xc5, 0x41, 0xc1, 0xf7, 0x49, 0x87, 0x0e, 0x08, 0xc6, 0x23, 0xf2,
  0x6b, 0xe2, 0xfd, 0x84, 0xa9, 0x5e, 0xb0, 0xdd, 0xef, 0x3a, 0xe7, 0x4d,
  0xde, 0x35, 0x5d, 0xaa, 0xe6, 0xbd, 0xf4, 0x29, 0xe0, 0x3f, 0xdd, 0xda,
  0x2a, 0x36, 0x36, 0x5d, 0xf4, 0xdd, 0x7f, 0x16, 0xf5, 0xd2, 0x34, 0xb9,
  0xf7, 0x1e, 0x89, 0x3f, 0x26, 0xc4, 0x90, 0xfc, 0x4b, 0x6c, 0xdc, 0xc6,
  0x07, 0x95, 0x5f, 0x50, 0x2a, 0x3e, 0xe3, 0x47, 0x39, 0x33, 0xb6, 0xef,
  0xd1, 0xbd, 0xeb, 0x81, 0x11, 0xd7, 0xd6, 0xec, 0x19, 0xb4, 0x19, 0x12,
  0x26, 0x19, 0x9c, 0xb4, 0xfa, 0x06, 0x55, 0xef, 0xc0, 0xe8, 0xf3, 0xa7,
  0x3b, 0x1d, 0xa7, 0xfd, 0xd1, 0xaa, 0xea, 0x37, 0xf7, 0x15, 0x27, 0x11,
  0xe3, 0x52, 0xf2, 0x45, 0xb0, 0xee, 0x8c, 0x37, 0x9a, 0x53, 0x3b, 0x99,
  0xcb, 0x1d, 0xd0, 0xea, 0x5a, 0x10, 0x0f, 0x2c, 0xb0, 0x05, 0xa4, 0xb8,
  0x9f, 0x96, 0xb1, 0x5f, 0xd0, 0xe0, 0x49, 0xe3, 0xc9, 0x1a, 0x25, 0x69,
  0x22, 0x1d, 0xae, 0x15, 0x7f, 0x57, 0x94, 0xce, 0xd9, 0xba, 0xf3, 0x32,
  0xcc, 0x44, 0x5b, 0x31, 0xab, 0x1d, 0xe9, 0x22, 0x91, 0xa3, 0xf5, 0xf9,
  0x14, 0xdc, 0xce, 0x42, 0xd3, 0x56, 0x9a, 0xc6, 0xbc, 0xdd, 0xe4, 0xf3,
  0xb7, 0x4d, 0xac, 0x04, 0x3f, 0xdb, 0x64, 0xd7, 0xe0, 0x3a, 0x0c, 0xe4,
  0xb9, 0xb4, 0xfa, 0xbe, 0x17, 0x27, 0x34, 0x09, 0x2c, 0xb1, 0x1f, 0x1f,
  0xbc, 0x5a, 0xe8, 0x2c, 0x58, 0xf6, 0x90, 0x1d, 0xad, 0x49, 0x3f, 0xf0,
  0x28, 0x81, 0x98, 0xc2, 0x6d, 0x65, 0x29, 0xe7, 0xb2, 0x63, 0x3c, 0x45,
  0x42, 0xcf, 0xb3, 0x44, 0xd9, 0xd6, 0xbb, 0x04, 0x85, 0xe4, 0x00, 0x1d,
  0xfe, 0x41, 0xca, 0x9d, 0xe0, 0x35, 0x5a, 0x58, 0xd8, 0xbb, 0xe6, 0xd8,
  0xd4, 0xf0, 0x9a, 0xf7, 0x60, 0xb8, 0x16, 0xe0, 0xad, 0x61, 0xae, 0xa8,
  0xbe, 0x41, 0xf7, 0x97, 0xe8, 0x3e, 0xb1, 0xcd, 0xaf, 0xb7, 0xd0, 0xc1,
  0xbf, 0xc3, 0x18, 0xe6, 0xc0, 0xe9, 0xb1, 0x16, 0xa5, 0x4b, 0x2a, 0x8d,
  0xb3, 0x1f, 0x51, 0x31, 0x0b, 0x03, 0xce, 0x91, 0x11, 0x04, 0x1a, 0x62,
  0xfa, 0x47, 0x99, 0x04, 0xa5, 0x3d, 0xe9, 0xa5, 0x40, 0x0b, 0x5f, 0x0f,
  0xed, 0x2e, 0x24, 0x2f, 0xe9, 0x16, 0x22, 0x13, 0x2d, 0x44, 0xf4, 0x38,
  0xd2, 0x19, 0x0b, 0xd8, 0xd6, 0x00, 0xe4, 0x0c, 0x39, 0x2a, 0x50, 0x72,
  0xd6, 0xd0, 0x27, 0x1e, 0x1f, 0xa4, 0x5a, 0x87, 0x91, 0xdf, 0x04, 0x81,
  0xc0, 0xf6, 0xbb, 0xda, 0x82, 0x2a, 0x2c, 0x41, 0x19, 0xc2, 0xe3, 0x21,
  0xf2, 0xcb, 0xd2, 0x0f, 0xed, 0x03, 0xb6, 0xb8, 0x8e, 0x56, 0x57, 0x39,
  0x0b, 0xa6, 0x1c, 0x46, 0xdb, 0xbc, 0x30, 0xc1, 0xee, 0xc2, 0xf5, 0x9f,
  0xa0, 0xd5, 0x9f, 0xd5, 0x3e, 0xff, 0xf6, 0x99, 0x49, 0x4a, 0x4b, 0xd8,
  0x11, 0xd8, 0x12, 0x3c, 0xe4, 0xf2, 0x81, 0x1d, 0x29, 0xdf, 0x56, 0x46,
  0xf7, 0xbc, 0x14, 0x5e, 0x86, 0xbe, 0x48, 0x57, 0x24, 0xfb, 0x60, 0x98,
  0x54, 0x3a, 0x6a, 0xcb, 0xc6, 0xcf, 0xcc, 0xaf, 0xb2, 0xa3, 0x24, 0xb1,
  0x8c, 0xba, 0xeb, 0x44, 0xb9, 0xa9, 0xab, 0x98, 0x84, 0xb0, 0x2a, 0x92,
  0xb7, 0x4d, 0x51, 0x27, 0x16, 0xbe, 0x59, 0x26, 0x28, 0xdc, 0x77, 0xe2,
  0xc1, 0xb6, 0x0b, 0x54, 0x99, 0x7f, 0x51, 0x35, 0x2e, 0x47, 0x2f, 0xae,
  0x19, 0x3b, 0x14, 0xaf, 0x70, 0xe6, 0xb7, 0x43, 0xca, 0x0d, 0xff, 0xee,
  0x9b, 0x19, 0x8f, 0xa1, 0x9f, 0xd1, 0xb5, 0xd1, 0x50, 0x44, 0xfa, 0x3c,
  0x13, 0x4d, 0x26, 0x3f, 0x61, 0xfc, 0x39, 0xa7, 0x10, 0x24, 0x8f, 0xb2,
  0xab, 0x5b, 0xb4, 0xf5, 0xc7, 0x81, 0x4e, 0xea, 0x6b, 0xbf, 0x5f, 0xb5,
  0x26, 0x6b, 0x28, 0x68, 0xef, 0x05, 0xe1, 0x11, 0x07, 0xe2, 0x64, 0xdc,
  0x38, 0xcf, 0xb6, 0x08, 0x28, 0xe8, 0xbf, 0x56, 0xe1, 0x08, 0xcd, 0x1e,
  0x3f, 0x68, 0xb9, 0xa4, 0xcc, 0x0f, 0x5b, 0x94, 0x42, 0x3d, 0xe4, 0x2a,
  0xa4, 0xb7, 0xfc, 0x2e, 0x1e, 0x15, 0x7a, 0x65, 0x72, 0x2c, 0x60, 0x5c,
  0xf0, 0xb2, 0xd2, 0xa1, 0xb0, 0xea, 0xec, 0x95, 0xf1, 0x8a, 0x09, 0x19,
  0xb2, 0x71, 0xfd, 0x0c, 0x20, 0x21, 0x0d, 0xbc, 0x30, 0x09, 0x48, 0xe9,
  0x1f, 0x92, 0x34, 0x74, 0x4b, 0x8e, 0x8f, 0x3f, 0xfe, 0x9b, 0x7a, 0x21,
  0xfc, 0xfd, 0x62, 0xcd, 0xac, 0xc9, 0x0f, 0xe2, 0x15, 0x81, 0x38, 0x16,
  0x8b, 0xcc, 0xe2, 0x2f, 0x23, 0xbf, 0xb0, 0x14, 0x8e, 0x78, 0xc6, 0x4e,
  0xa1, 0x8d, 0xbe, 0x2e, 0xdf, 0x06, 0x56, 0xea, 0xd8, 0x9f, 0x12, 0x16,
  0x1f, 0x27, 0x2e, 0x3e, 0xf5, 0x30, 0xc1, 0xec, 0x4b, 0x11, 0xb9, 0x61,
  0xda, 0x0d, 0x62, 0x31, 0x2d, 0x95, 0x47, 0x30, 0x3d, 0xc7, 0x11, 0xe0,
  0x90, 0x97, 0x26, 0x09, 0xf2, 0x6f, 0x81, 0x74, 0x98, 0x1b, 0xee, 0x13,
  0x4a, 0xa6, 0x64, 0xb1, 0x31, 0x93, 0xaa, 0x57, 0x2d, 0xc8, 0x6b, 0x57,
  0x33, 0x11, 0xc8, 0xa8, 0xcd, 0xcc, 0x55, 0x29, 0xf5, 0xd4, 0x0e, 0x47,
  0x1e, 0xdb, 0xaa, 0x0c, 0xbd, 0xe4, 0x70, 0xf8, 0xa1, 0x57, 0xca, 0x3e,
  0x01, 0x56, 0xf2, 0xbb, 0x1b, 0xb0, 0x5b, 0x4a, 0x92, 0xb9, 0xf8, 0x1c,
  0xbc, 0xe1, 0x74, 0x07, 0x3f, 0x17, 0x19, 0x05, 0xbf, 0x3b, 0x86, 0x01,
  0x0a, 0x87, 0xb2, 0xfc, 0xd8, 0x14, 0x51, 0xd5, 0x30, 0xfe, 0x92, 0x93,
  0x8c, 0xb9, 0xe6, 0xf1, 0xab, 0x3a, 0x9f, 0xc2, 0x8e, 0x94, 0x95, 0x48,
  0x08, 0x49, 0x1f, 0xca, 0x43, 0x41, 0xf2, 0xc5, 0x30, 0x99, 0xdc, 0xbc,
  0x9f, 0x81, 0x85, 0xc2, 0x2f, 0x15, 0xd4, 0xf3, 0x4b, 0xff, 0x0b, 0xb4,
  0xe9, 0x0e, 0x43, 0xa3, 0x31, 0x2c, 0xad, 0x8a, 0xe6, 0xc1, 0xd7, 0x43,
  0xe6, 0x09, 0xa0, 0x3b, 0xa7, 0x9b, 0x23, 0xea, 0xfb, 0xde, 0x97, 0x3c,
  0xd4, 0x16, 0xd6, 0xfd, 0x5c, 0x13, 0x37, 0x4a, 0xda, 0x16, 0x28, 0x06,
  0xb5, 0x33, 0x33, 0xf0, 0xde, 0xb4, 0xd5, 0x9a, 0x81, 0x1a, 0x52, 0x1c,
  0x07, 0xbf, 0x25, 0x37, 0x9d, 0x21, 0xc0, 0x5e, 0xb1, 0x43, 0x58, 0x82,
  0xf5, 0xb8, 0x95, 0x31, 0x18, 0xfb, 0x5f, 0xed, 0xff, 0xd3, 0xa9, 0x52,
  0x1e, 0x97, 0xc3, 0xd9, 0x30, 0xf1, 0xb7, 0xdc, 0xf2, 0x25, 0x10, 0xf3,
  0xe5, 0x21, 0xa5, 0x2b, 0x81, 0x41, 0xb4, 0xfd, 0x0b, 0xd2, 0x26, 0x2d,
  0xad, 0xd7, 0xbd, 0xed, 0x2e, 0x88, 0x38, 0x31, 0x70, 0x88, 0x14, 0x22,
  0x91, 0xae, 0x3c, 0xb0, 0x5e, 0xa5, 0xff, 0x5b, 0x4e, 0xf1, 0x32, 0x96,
  0xe3, 0xaf, 0x00, 0x5a, 0x56, 0x03, 0xf0, 0x2f, 0xc5, 0x64, 0x0f, 0x1a,
  0xc0, 0x20, 0xc9, 0xa6, 0xdd, 0xf7, 0x1d, 0xd3, 0xaf, 0x42, 0xd9, 0x9a,
  0x48, 0x3f, 0x08, 0x21, 0x42, 0xd1, 0xff, 0x42, 0xbc, 0xd0, 0xe8, 0xdb,
  0x2b, 0xf2, 0xe0, 0xc1, 0xef, 0xf1, 0xb9, 0xb6, 0xd1, 0x39, 0x3f, 0xd9,
  0x85, 0x00, 0xd6, 0x51, 0xaa, 0x9b, 0x55, 0x18, 0x3b, 0xcd, 0x0f, 0x37,
  0xa6, 0x81, 0x5b, 0xd2, 0x35, 0xb7, 0x4b, 0xa4, 0xb3, 0xb8, 0x17, 0x62,
  0xf0, 0x37, 0x2d, 0x3c, 0x46, 0x32, 0xfd, 0x35, 0xa7, 0x69, 0x16, 0x3b,
  0xcb, 0xf4, 0x12, 0xc8, 0x5d, 0xb2, 0xc4, 0x47, 0x49, 0xb6, 0xb2, 0x8f,
  0xab, 0xae, 0x43, 0x2c, 0x76, 0xfe, 0xff, 0xff, 0x04, 0x00, 0x00, 0x00,
  0x18, 0x00, 0x00, 0x00, 0x16, 0xf6, 0x24, 0x4d, 0x22, 0xe8, 0x0f, 0xca,
  0xcf, 0xff, 0xfb, 0xfc, 0x31, 0xc1, 0xe9, 0xe7, 0x89, 0xf6, 0x7f, 0x2c,
  0x80, 0x80, 0xd3, 0xe1, 0x9a, 0xfe, 0xff, 0xff, 0x04, 0x00, 0x00, 0x00,
  0x18, 0x00, 0x00, 0x00, 0x48, 0x01, 0x19, 0xfa, 0xfe, 0xb9, 0x20, 0x4c,
  0x9f, 0xd0, 0x58, 0x9c, 0x10, 0x7f, 0x18, 0x81, 0x5e, 0xea, 0xf0, 0xdd,
  0xe1, 0xbb, 0xd1, 0x87, 0xbe, 0xfe, 0xff, 0xff, 0x04, 0x00, 0x00, 0x00,
  0x04, 0x00, 0x00, 0x00, 0x25, 0xff, 0xff, 0xff, 0xce, 0xfe, 0xff, 0xff,
  0x04, 0x00, 0x00, 0x00, 0x0c, 0x00, 0x00, 0x00, 0x01, 0x00, 0x00, 0x00,
  0x01, 0x00, 0x00, 0x00, 0x01, 0x00, 0x00, 0x00, 0xe6, 0xfe, 0xff, 0xff,
  0x04, 0x00, 0x00, 0x00, 0x0c, 0x00, 0x00, 0x00, 0x00, 0x00, 0x00, 0x00,
  0x00, 0x00, 0x00, 0x00, 0x00, 0x00, 0x00, 0x00, 0xfe, 0xfe, 0xff, 0xff,
  0x04, 0x00, 0x00, 0x00, 0x0c, 0x00, 0x00, 0x00, 0x00, 0x00, 0x00, 0x00,
  0xff, 0xff, 0xff, 0xff, 0x00, 0x00, 0x00, 0x00, 0x16, 0xff, 0xff, 0xff,
  0x04, 0x00, 0x00, 0x00, 0x0c, 0x00, 0x00, 0x00, 0xff, 0xff, 0xff, 0xff,
  0x06, 0x00, 0x00, 0x00, 0x18, 0x00, 0x00, 0x00, 0x2e, 0xff, 0xff, 0xff,
  0x04, 0x00, 0x00, 0x00, 0x04, 0x00, 0x00, 0x00, 0x04, 0x00, 0x00, 0x00,
  0x3e, 0xff, 0xff, 0xff, 0x04, 0x00, 0x00, 0x00, 0x18, 0x00, 0x00, 0x00,
  0x00, 0x00, 0x00, 0x00, 0x00, 0x00, 0x00, 0x00, 0x08, 0x00, 0x00, 0x00,
  0x00, 0x00, 0x00, 0x00, 0x00, 0x00, 0x00, 0x00, 0x00, 0x00, 0x00, 0x00,
  0x62, 0xff, 0xff, 0xff, 0x04, 0x00, 0x00, 0x00, 0x0c, 0x00, 0x00, 0x00,
  0xff, 0xff, 0xff, 0xff, 0x0c, 0x00, 0x00, 0x00, 0x18, 0x00, 0x00, 0x00,
  0x7a, 0xff, 0xff, 0xff, 0x04, 0x00, 0x00, 0x00, 0x08, 0x00, 0x00, 0x00,
  0x00, 0x00, 0x00, 0x00, 0x00, 0x00, 0x00, 0x00, 0x8e, 0xff, 0xff, 0xff,
  0x04, 0x00, 0x00, 0x00, 0x04, 0x00, 0x00, 0x00, 0x02, 0x00, 0x00, 0x00,
  0x9e, 0xff, 0xff, 0xff, 0x04, 0x00, 0x00, 0x00, 0x18, 0x00, 0x00, 0x00,
  0x00, 0x00, 0x00, 0x00, 0x00, 0x00, 0x00, 0x00, 0x04, 0x00, 0x00, 0x00,
  0x00, 0x00, 0x00, 0x00, 0x00, 0x00, 0x00, 0x00, 0x00, 0x00, 0x00, 0x00,
  0xc2, 0xff, 0xff, 0xff, 0x04, 0x00, 0x00, 0x00, 0x18, 0x00, 0x00, 0x00,
  0x00, 0x00, 0x00, 0x00, 0x00, 0x00, 0x00, 0x00, 0x02, 0x00, 0x00, 0x00,
  0x00, 0x00, 0x00, 0x00, 0x00, 0x00, 0x00, 0x00, 0x00, 0x00, 0x00, 0x00,
  0xe6, 0xff, 0xff, 0xff, 0x04, 0x00, 0x00, 0x00, 0x0c, 0x00, 0x00, 0x00,
  0xff, 0xff, 0xff, 0xff, 0x18, 0x00, 0x00, 0x00, 0x18, 0x00, 0x00, 0x00,
  0x00, 0x00, 0x06, 0x00, 0x08, 0x00, 0x04, 0x00, 0x06, 0x00, 0x00, 0x00,
  0x04, 0x00, 0x00, 0x00, 0x04, 0x00, 0x00, 0x00, 0xfd, 0xff, 0xff, 0xff,
  0xc8, 0xbe, 0xff, 0xff, 0xcc, 0xbe, 0xff, 0xff, 0x0f, 0x00, 0x00, 0x00,
  0x4d, 0x4c, 0x49, 0x52, 0x20, 0x43, 0x6f, 0x6e, 0x76, 0x65, 0x72, 0x74,
  0x65, 0x64, 0x2e, 0x00, 0x01, 0x00, 0x00, 0x00, 0x14, 0x00, 0x00, 0x00,
  0x00, 0x00, 0x0e, 0x00, 0x18, 0x00, 0x14, 0x00, 0x10, 0x00, 0x0c, 0x00,
  0x08, 0x00, 0x04, 0x00, 0x0e, 0x00, 0x00, 0x00, 0x14, 0x00, 0x00, 0x00,
  0x1c, 0x00, 0x00, 0x00, 0x70, 0x09, 0x00, 0x00, 0x74, 0x09, 0x00, 0x00,
  0x78, 0x09, 0x00, 0x00, 0x04, 0x00, 0x00, 0x00, 0x6d, 0x61, 0x69, 0x6e,
  0x00, 0x00, 0x00, 0x00, 0x2c, 0x00, 0x00, 0x00, 0x28, 0x09, 0x00, 0x00,
  0xcc, 0x08, 0x00, 0x00, 0x94, 0x08, 0x00, 0x00, 0x54, 0x08, 0x00, 0x00,
  0x14, 0x08, 0x00, 0x00, 0xc0, 0x07, 0x00, 0x00, 0x98, 0x07, 0x00, 0x00,
  0x64, 0x07, 0x00, 0x00, 0x34, 0x07, 0x00, 0x00, 0xec, 0x06, 0x00, 0x00,
  0xb8, 0x06, 0x00, 0x00, 0x90, 0x06, 0x00, 0x00, 0x5c, 0x06, 0x00, 0x00,
  0x30, 0x06, 0x00, 0x00, 0x00, 0x06, 0x00, 0x00, 0xb0, 0x05, 0x00, 0x00,
  0x88, 0x05, 0x00, 0x00, 0x5c, 0x05, 0x00, 0x00, 0x1c, 0x05, 0x00, 0x00,
  0xe8, 0x04, 0x00, 0x00, 0xbc, 0x04, 0x00, 0x00, 0x8c, 0x04, 0x00, 0x00,
  0x48, 0x04, 0x00, 0x00, 0x20, 0x04, 0x00, 0x00, 0xf4, 0x03, 0x00, 0x00,
  0xbc, 0x03, 0x00, 0x00, 0x88, 0x03, 0x00, 0x00, 0x54, 0x03, 0x00, 0x00,
  0x28, 0x03, 0x00, 0x00, 0xf8, 0x02, 0x00, 0x00, 0xb4, 0x02, 0x00, 0x00,
  0x8c, 0x02, 0x00, 0x00, 0x60, 0x02, 0x00, 0x00, 0x28, 0x02, 0x00, 0x00,
  0xf4, 0x01, 0x00, 0x00, 0xc8, 0x01, 0x00, 0x00, 0x98, 0x01, 0x00, 0x00,
  0x54, 0x01, 0x00, 0x00, 0x2c, 0x01, 0x00, 0x00, 0x00, 0x01, 0x00, 0x00,
  0xc8, 0x00, 0x00, 0x00, 0x94, 0x00, 0x00, 0x00, 0x3c, 0x00, 0x00, 0x00,
  0x04, 0x00, 0x00, 0x00, 0x5e, 0xf8, 0xff, 0xff, 0x14, 0x00, 0x00, 0x00,
  0x00, 0x00, 0x00, 0x08, 0x10, 0x00, 0x00, 0x00, 0x14, 0x00, 0x00, 0x00,
  0x08, 0x00, 0x00, 0x00, 0xec, 0xbf, 0xff, 0xff, 0x01, 0x00, 0x00, 0x00,
  0x4d, 0x00, 0x00, 0x00, 0x03, 0x00, 0x00, 0x00, 0x4c, 0x00, 0x00, 0x00,
  0x0f, 0x00, 0x00, 0x00, 0x0e, 0x00, 0x00, 0x00, 0x22, 0xf8, 0xff, 0xff,
  0x24, 0x00, 0x00, 0x00, 0x00, 0x00, 0x00, 0x20, 0x2c, 0x00, 0x00, 0x00,
  0x30, 0x00, 0x00, 0x00, 0x07, 0x00, 0x00, 0x00, 0x00, 0x00, 0x0e, 0x00,
  0x10, 0x00, 0x0c, 0x00, 0x08, 0x00, 0x00, 0x00, 0x00, 0x00, 0x04, 0x00,
  0x0e, 0x00, 0x00, 0x00, 0x02, 0x00, 0x00, 0x00, 0x05, 0x00, 0x00, 0x00,
  0x05, 0x00, 0x00, 0x00, 0x01, 0x00, 0x00, 0x00, 0x4c, 0x00, 0x00, 0x00,
  0x04, 0x00, 0x00, 0x00, 0x4b, 0x00, 0x00, 0x00, 0x0b, 0x00, 0x00, 0x00,
  0x0c, 0x00, 0x00, 0x00, 0x0d, 0x00, 0x00, 0x00, 0xe6, 0xf8, 0xff, 0xff,
  0x14, 0x00, 0x00, 0x00, 0x00, 0x00, 0x00, 0x0b, 0x10, 0x00, 0x00, 0x00,
  0x14, 0x00, 0x00, 0x00, 0x04, 0x00, 0x00, 0x00, 0x74, 0xc0, 0xff, 0xff,
  0x01, 0x00, 0x00, 0x00, 0x4b, 0x00, 0x00, 0x00, 0x02, 0x00, 0x00, 0x00,
  0x3c, 0x00, 0x00, 0x00, 0x4a, 0x00, 0x00, 0x00, 0x16, 0xf9, 0xff, 0xff,
  0x14, 0x00, 0x00, 0x00, 0x00, 0x00, 0x00, 0x0b, 0x14, 0x00, 0x00, 0x00,
  0x18, 0x00, 0x00, 0x00, 0x04, 0x00, 0x00, 0x00, 0x02, 0xfc, 0xff, 0xff,
  0x00, 0x00, 0x00, 0x01, 0x01, 0x00, 0x00, 0x00, 0x4a, 0x00, 0x00, 0x00,
  0x02, 0x00, 0x00, 0x00, 0x49, 0x00, 0x00, 0x00, 0x10, 0x00, 0x00, 0x00,
  0x0a, 0xf9, 0xff, 0xff, 0x0c, 0x00, 0x00, 0x00, 0x10, 0x00, 0x00, 0x00,
  0x06, 0x00, 0x00, 0x00, 0x01, 0x00, 0x00, 0x00, 0x49, 0x00, 0x00, 0x00,
  0x03, 0x00, 0x00, 0x00, 0x48, 0x00, 0x00, 0x00, 0x09, 0x00, 0x00, 0x00,
  0x06, 0x00, 0x00, 0x00, 0x32, 0xf9, 0xff, 0xff, 0x0c, 0x00, 0x00, 0x00,
  0x10, 0x00, 0x00, 0x00, 0x02, 0x00, 0x00, 0x00, 0x01, 0x00, 0x00, 0x00,
  0x48, 0x00, 0x00, 0x00, 0x02, 0x00, 0x00, 0x00, 0x47, 0x00, 0x00, 0x00,
  0x0a, 0x00, 0x00, 0x00, 0x96, 0xf9, 0xff, 0xff, 0x14, 0x00, 0x00, 0x00,
  0x00, 0x00, 0x00, 0x01, 0x1c, 0x00, 0x00, 0x00, 0x20, 0x00, 0x00, 0x00,
  0x01, 0x00, 0x00, 0x00, 0xfa, 0xfb, 0xff, 0xff, 0x01, 0x00, 0x00, 0x00,
  0x01, 0x00, 0x00, 0x00, 0x00, 0x00, 0x00, 0x01, 0x01, 0x00, 0x00, 0x00,
  0x47, 0x00, 0x00, 0x00, 0x03, 0x00, 0x00, 0x00, 0x46, 0x00, 0x00, 0x00,
  0x11, 0x00, 0x00, 0x00, 0x1a, 0x00, 0x00, 0x00, 0x0e, 0xf9, 0xff, 0xff,
  0x10, 0x00, 0x00, 0x00, 0x00, 0x00, 0x00, 0x34, 0x0c, 0x00, 0x00, 0x00,
  0x10, 0x00, 0x00, 0x00, 0x60, 0xc1, 0xff, 0xff, 0x01, 0x00, 0x00, 0x00,
  0x46, 0x00, 0x00, 0x00, 0x02, 0x00, 0x00, 0x00, 0x45, 0x00, 0x00, 0x00,
  0x01, 0x00, 0x00, 0x00, 0xc2, 0xf9, 0xff, 0xff, 0x0c, 0x00, 0x00, 0x00,
  0x10, 0x00, 0x00, 0x00, 0x05, 0x00, 0x00, 0x00, 0x01, 0x00, 0x00, 0x00,
  0x45, 0x00, 0x00, 0x00, 0x03, 0x00, 0x00, 0x00, 0x44, 0x00, 0x00, 0x00,
  0x09, 0x00, 0x00, 0x00, 0x06, 0x00, 0x00, 0x00, 0x2a, 0xfa, 0xff, 0xff,
  0x14, 0x00, 0x00, 0x00, 0x00, 0x00, 0x00, 0x16, 0x10, 0x00, 0x00, 0x00,
  0x14, 0x00, 0x00, 0x00, 0x03, 0x00, 0x00, 0x00, 0xb8, 0xc1, 0xff, 0xff,
  0x01, 0x00, 0x00, 0x00, 0x44, 0x00, 0x00, 0x00, 0x02, 0x00, 0x00, 0x00,
  0x43, 0x00, 0x00, 0x00, 0x08, 0x00, 0x00, 0x00, 0x5a, 0xfa, 0xff, 0xff,
  0x14, 0x00, 0x00, 0x00, 0x00, 0x00, 0x00, 0x0b, 0x14, 0x00, 0x00, 0x00,
  0x18, 0x00, 0x00, 0x00, 0x04, 0x00, 0x00, 0x00, 0x46, 0xfd, 0xff, 0xff,
  0x00, 0x00, 0x00, 0x01, 0x01, 0x00, 0x00, 0x00, 0x43, 0x00, 0x00, 0x00,
  0x02, 0x00, 0x00, 0x00, 0x42, 0x00, 0x00, 0x00, 0x12, 0x00, 0x00, 0x00,
  0x4e, 0xfa, 0xff, 0xff, 0x0c, 0x00, 0x00, 0x00, 0x10, 0x00, 0x00, 0x00,
  0x06, 0x00, 0x00, 0x00, 0x01, 0x00, 0x00, 0x00, 0x42, 0x00, 0x00, 0x00,
  0x03, 0x00, 0x00, 0x00, 0x41, 0x00, 0x00, 0x00, 0x09, 0x00, 0x00, 0x00,
  0x06, 0x00, 0x00, 0x00, 0x76, 0xfa, 0xff, 0xff, 0x0c, 0x00, 0x00, 0x00,
  0x10, 0x00, 0x00, 0x00, 0x02, 0x00, 0x00, 0x00, 0x01, 0x00, 0x00, 0x00,
  0x41, 0x00, 0x00, 0x00, 0x02, 0x00, 0x00, 0x00, 0x40, 0x00, 0x00, 0x00,
  0x0a, 0x00, 0x00, 0x00, 0xda, 0xfa, 0xff, 0xff, 0x14, 0x00, 0x00, 0x00,
  0x00, 0x00, 0x00, 0x01, 0x1c, 0x00, 0x00, 0x00, 0x20, 0x00, 0x00, 0x00,
  0x01, 0x00, 0x00, 0x00, 0x3e, 0xfd, 0xff, 0xff, 0x01, 0x00, 0x00, 0x00,
  0x01, 0x00, 0x00, 0x00, 0x00, 0x00, 0x00, 0x01, 0x01, 0x00, 0x00, 0x00,
  0x40, 0x00, 0x00, 0x00, 0x03, 0x00, 0x00, 0x00, 0x3f, 0x00, 0x00, 0x00,
  0x13, 0x00, 0x00, 0x00, 0x19, 0x00, 0x00, 0x00, 0x52, 0xfa, 0xff, 0xff,
  0x10, 0x00, 0x00, 0x00, 0x00, 0x00, 0x00, 0x34, 0x0c, 0x00, 0x00, 0x00,
  0x10, 0x00, 0x00, 0x00, 0xa4, 0xc2, 0xff, 0xff, 0x01, 0x00, 0x00, 0x00,
  0x3f, 0x00, 0x00, 0x00, 0x02, 0x00, 0x00, 0x00, 0x3e, 0x00, 0x00, 0x00,
  0x01, 0x00, 0x00, 0x00, 0x06, 0xfb, 0xff, 0xff, 0x0c, 0x00, 0x00, 0x00,
  0x10, 0x00, 0x00, 0x00, 0x05, 0x00, 0x00, 0x00, 0x01, 0x00, 0x00, 0x00,
  0x3e, 0x00, 0x00, 0x00, 0x03, 0x00, 0x00, 0x00, 0x3d, 0x00, 0x00, 0x00,
  0x09, 0x00, 0x00, 0x00, 0x06, 0x00, 0x00, 0x00, 0x6e, 0xfb, 0xff, 0xff,
  0x14, 0x00, 0x00, 0x00, 0x00, 0x00, 0x00, 0x16, 0x10, 0x00, 0x00, 0x00,
  0x14, 0x00, 0x00, 0x00, 0x03, 0x00, 0x00, 0x00, 0xfc, 0xc2, 0xff, 0xff,
  0x01, 0x00, 0x00, 0x00, 0x3d, 0x00, 0x00, 0x00, 0x02, 0x00, 0x00, 0x00,
  0x3c, 0x00, 0x00, 0x00, 0x08, 0x00, 0x00, 0x00, 0x9e, 0xfb, 0xff, 0xff,
  0x14, 0x00, 0x00, 0x00, 0x00, 0x00, 0x00, 0x0b, 0x10, 0x00, 0x00, 0x00,
  0x14, 0x00, 0x00, 0x00, 0x04, 0x00, 0x00, 0x00, 0x2c, 0xc3, 0xff, 0xff,
  0x01, 0x00, 0x00, 0x00, 0x3c, 0x00, 0x00, 0x00, 0x02, 0x00, 0x00, 0x00,
  0x2d, 0x00, 0x00, 0x00, 0x3b, 0x00, 0x00, 0x00, 0xce, 0xfb, 0xff, 0xff,
  0x14, 0x00, 0x00, 0x00, 0x00, 0x00, 0x00, 0x0b, 0x14, 0x00, 0x00, 0x00,
  0x18, 0x00, 0x00, 0x00, 0x04, 0x00, 0x00, 0x00, 0xba, 0xfe, 0xff, 0xff,
  0x00, 0x00, 0x00, 0x01, 0x01, 0x00, 0x00, 0x00, 0x3b, 0x00, 0x00, 0x00,
  0x02, 0x00, 0x00, 0x00, 0x3a, 0x00, 0x00, 0x00, 0x14, 0x00, 0x00, 0x00,
  0xc2, 0xfb, 0xff, 0xff, 0x0c, 0x00, 0x00, 0x00, 0x10, 0x00, 0x00, 0x00,
  0x06, 0x00, 0x00, 0x00, 0x01, 0x00, 0x00, 0x00, 0x3a, 0x00, 0x00, 0x00,
  0x03, 0x00, 0x00, 0x00, 0x39, 0x00, 0x00, 0x00, 0x05, 0x00, 0x00, 0x00,
  0x06, 0x00, 0x00, 0x00, 0xea, 0xfb, 0xff, 0xff, 0x0c, 0x00, 0x00, 0x00,
  0x10, 0x00, 0x00, 0x00, 0x02, 0x00, 0x00, 0x00, 0x01, 0x00, 0x00, 0x00,
  0x39, 0x00, 0x00, 0x00, 0x02, 0x00, 0x00, 0x00, 0x38, 0x00, 0x00, 0x00,
  0x07, 0x00, 0x00, 0x00, 0x4e, 0xfc, 0xff, 0xff, 0x14, 0x00, 0x00, 0x00,
  0x00, 0x00, 0x00, 0x01, 0x1c, 0x00, 0x00, 0x00, 0x20, 0x00, 0x00, 0x00,
  0x01, 0x00, 0x00, 0x00, 0xb2, 0xfe, 0xff, 0xff, 0x01, 0x00, 0x00, 0x00,
  0x01, 0x00, 0x00, 0x00, 0x00, 0x00, 0x00, 0x01, 0x01, 0x00, 0x00, 0x00,
  0x38, 0x00, 0x00, 0x00, 0x03, 0x00, 0x00, 0x00, 0x37, 0x00, 0x00, 0x00,
  0x15, 0x00, 0x00, 0x00, 0x18, 0x00, 0x00, 0x00, 0xc6, 0xfb, 0xff, 0xff,
  0x10, 0x00, 0x00, 0x00, 0x00, 0x00, 0x00, 0x34, 0x0c, 0x00, 0x00, 0x00,
  0x10, 0x00, 0x00, 0x00, 0x18, 0xc4, 0xff, 0xff, 0x01, 0x00, 0x00, 0x00,
  0x37, 0x00, 0x00, 0x00, 0x02, 0x00, 0x00, 0x00, 0x36, 0x00, 0x00, 0x00,
  0x01, 0x00, 0x00, 0x00, 0x7a, 0xfc, 0xff, 0xff, 0x0c, 0x00, 0x00, 0x00,
  0x10, 0x00, 0x00, 0x00, 0x05, 0x00, 0x00, 0x00, 0x01, 0x00, 0x00, 0x00,
  0x36, 0x00, 0x00, 0x00, 0x03, 0x00, 0x00, 0x00, 0x35, 0x00, 0x00, 0x00,
  0x05, 0x00, 0x00, 0x00, 0x06, 0x00, 0x00, 0x00, 0xe2, 0xfc, 0xff, 0xff,
  0x14, 0x00, 0x00, 0x00, 0x00, 0x00, 0x00, 0x16, 0x10, 0x00, 0x00, 0x00,
  0x14, 0x00, 0x00, 0x00, 0x03, 0x00, 0x00, 0x00, 0x70, 0xc4, 0xff, 0xff,
  0x01, 0x00, 0x00, 0x00, 0x35, 0x00, 0x00, 0x00, 0x02, 0x00, 0x00, 0x00,
  0x34, 0x00, 0x00, 0x00, 0x04, 0x00, 0x00, 0x00, 0xa2, 0xfc, 0xff, 0xff,
  0x1c, 0x00, 0x00, 0x00, 0x00, 0x00, 0x00, 0x0b, 0x1c, 0x00, 0x00, 0x00,
  0x20, 0x00, 0x00, 0x00, 0x04, 0x00, 0x00, 0x00, 0x00, 0x00, 0x06, 0x00,
  0x08, 0x00, 0x07, 0x00, 0x06, 0x00, 0x00, 0x00, 0x00, 0x00, 0x00, 0x01,
  0x01, 0x00, 0x00, 0x00, 0x34, 0x00, 0x00, 0x00, 0x02, 0x00, 0x00, 0x00,
  0x33, 0x00, 0x00, 0x00, 0x16, 0x00, 0x00, 0x00, 0x0e, 0xfd, 0xff, 0xff,
  0x0c, 0x00, 0x00, 0x00, 0x10, 0x00, 0x00, 0x00, 0x06, 0x00, 0x00, 0x00,
  0x01, 0x00, 0x00, 0x00, 0x33, 0x00, 0x00, 0x00, 0x03, 0x00, 0x00, 0x00,
  0x32, 0x00, 0x00, 0x00, 0x05, 0x00, 0x00, 0x00, 0x06, 0x00, 0x00, 0x00,
  0x36, 0xfd, 0xff, 0xff, 0x0c, 0x00, 0x00, 0x00, 0x10, 0x00, 0x00, 0x00,
  0x02, 0x00, 0x00, 0x00, 0x01, 0x00, 0x00, 0x00, 0x32, 0x00, 0x00, 0x00,
  0x02, 0x00, 0x00, 0x00, 0x31, 0x00, 0x00, 0x00, 0x07, 0x00, 0x00, 0x00,
  0x2a, 0xfd, 0xff, 0xff, 0x20, 0x00, 0x00, 0x00, 0x00, 0x00, 0x00, 0x01,
  0x28, 0x00, 0x00, 0x00, 0x2c, 0x00, 0x00, 0x00, 0x01, 0x00, 0x00, 0x00,
  0x00, 0x00, 0x0a, 0x00, 0x10, 0x00, 0x0f, 0x00, 0x08, 0x00, 0x04, 0x00,
  0x0a, 0x00, 0x00, 0x00, 0x01, 0x00, 0x00, 0x00, 0x01, 0x00, 0x00, 0x00,
  0x00, 0x00, 0x00, 0x01, 0x01, 0x00, 0x00, 0x00, 0x31, 0x00, 0x00, 0x00,
  0x03, 0x00, 0x00, 0x00, 0x30, 0x00, 0x00, 0x00, 0x1b, 0x00, 0x00, 0x00,
  0x17, 0x00, 0x00, 0x00, 0x1e, 0xfd, 0xff, 0xff, 0x10, 0x00, 0x00, 0x00,
  0x00, 0x00, 0x00, 0x34, 0x0c, 0x00, 0x00, 0x00, 0x10, 0x00, 0x00, 0x00,
  0x70, 0xc5, 0xff, 0xff, 0x01, 0x00, 0x00, 0x00, 0x30, 0x00, 0x00, 0x00,
  0x02, 0x00, 0x00, 0x00, 0x2f, 0x00, 0x00, 0x00, 0x01, 0x00, 0x00, 0x00,
  0xd2, 0xfd, 0xff, 0xff, 0x0c, 0x00, 0x00, 0x00, 0x10, 0x00, 0x00, 0x00,
  0x05, 0x00, 0x00, 0x00, 0x01, 0x00, 0x00, 0x00, 0x2f, 0x00, 0x00, 0x00,
  0x03, 0x00, 0x00, 0x00, 0x2e, 0x00, 0x00, 0x00, 0x05, 0x00, 0x00, 0x00,
  0x06, 0x00, 0x00, 0x00, 0x3a, 0xfe, 0xff, 0xff, 0x14, 0x00, 0x00, 0x00,
  0x00, 0x00, 0x00, 0x16, 0x10, 0x00, 0x00, 0x00, 0x14, 0x00, 0x00, 0x00,
  0x03, 0x00, 0x00, 0x00, 0xc8, 0xc5, 0xff, 0xff, 0x01, 0x00, 0x00, 0x00,
  0x2e, 0x00, 0x00, 0x00, 0x02, 0x00, 0x00, 0x00, 0x2d, 0x00, 0x00, 0x00,
  0x04, 0x00, 0x00, 0x00, 0x2a, 0xfe, 0xff, 0xff, 0x0c, 0x00, 0x00, 0x00,
  0x10, 0x00, 0x00, 0x00, 0x02, 0x00, 0x00, 0x00, 0x01, 0x00, 0x00, 0x00,
  0x2d, 0x00, 0x00, 0x00, 0x02, 0x00, 0x00, 0x00, 0x2c, 0x00, 0x00, 0x00,
  0x02, 0x00, 0x00, 0x00, 0x8e, 0xfe, 0xff, 0xff, 0x14, 0x00, 0x00, 0x00,
  0x00, 0x00, 0x00, 0x0b, 0x10, 0x00, 0x00, 0x00, 0x14, 0x00, 0x00, 0x00,
  0x04, 0x00, 0x00, 0x00, 0x1c, 0xc6, 0xff, 0xff, 0x01, 0x00, 0x00, 0x00,
  0x2c, 0x00, 0x00, 0x00, 0x02, 0x00, 0x00, 0x00, 0x23, 0x00, 0x00, 0x00,
  0x2b, 0x00, 0x00, 0x00, 0xbe, 0xfe, 0xff, 0xff, 0x14, 0x00, 0x00, 0x00,
  0x00, 0x00, 0x00, 0x01, 0x20, 0x00, 0x00, 0x00, 0x24, 0x00, 0x00, 0x00,
  0x01, 0x00, 0x00, 0x00, 0x3c, 0xff, 0xff, 0xff, 0x00, 0x00, 0x00, 0x01,
  0x01, 0x00, 0x00, 0x00, 0x01, 0x00, 0x00, 0x00, 0x00, 0x00, 0x00, 0x01,
  0x01, 0x00, 0x00, 0x00, 0x2b, 0x00, 0x00, 0x00, 0x03, 0x00, 0x00, 0x00,
  0x2a, 0x00, 0x00, 0x00, 0x1d, 0x00, 0x00, 0x00, 0x1c, 0x00, 0x00, 0x00,
  0x3a, 0xfe, 0xff, 0xff, 0x10, 0x00, 0x00, 0x00, 0x00, 0x00, 0x00, 0x34,
  0x0c, 0x00, 0x00, 0x00, 0x10, 0x00, 0x00, 0x00, 0x8c, 0xc6, 0xff, 0xff,
  0x01, 0x00, 0x00, 0x00, 0x2a, 0x00, 0x00, 0x00, 0x02, 0x00, 0x00, 0x00,
  0x29, 0x00, 0x00, 0x00, 0x01, 0x00, 0x00, 0x00, 0x2e, 0xff, 0xff, 0xff,
  0x14, 0x00, 0x00, 0x00, 0x00, 0x00, 0x00, 0x16, 0x10, 0x00, 0x00, 0x00,
  0x14, 0x00, 0x00, 0x00, 0x03, 0x00, 0x00, 0x00, 0xbc, 0xc6, 0xff, 0xff,
  0x01, 0x00, 0x00, 0x00, 0x29, 0x00, 0x00, 0x00, 0x02, 0x00, 0x00, 0x00,
  0x28, 0x00, 0x00, 0x00, 0x03, 0x00, 0x00, 0x00, 0x1e, 0xff, 0xff, 0xff,
  0x0c, 0x00, 0x00, 0x00, 0x10, 0x00, 0x00, 0x00, 0x02, 0x00, 0x00, 0x00,
  0x01, 0x00, 0x00, 0x00, 0x28, 0x00, 0x00, 0x00, 0x02, 0x00, 0x00, 0x00,
  0x27, 0x00, 0x00, 0x00, 0x02, 0x00, 0x00, 0x00, 0x82, 0xff, 0xff, 0xff,
  0x20, 0x00, 0x00, 0x00, 0x00, 0x00, 0x00, 0x01, 0x2c, 0x00, 0x00, 0x00,
  0x30, 0x00, 0x00, 0x00, 0x01, 0x00, 0x00, 0x00, 0x0c, 0x00, 0x14, 0x00,
  0x13, 0x00, 0x0c, 0x00, 0x08, 0x00, 0x07, 0x00, 0x0c, 0x00, 0x00, 0x00,
  0x00, 0x00, 0x00, 0x01, 0x01, 0x00, 0x00, 0x00, 0x01, 0x00, 0x00, 0x00,
  0x00, 0x00, 0x00, 0x01, 0x01, 0x00, 0x00, 0x00, 0x27, 0x00, 0x00, 0x00,
  0x03, 0x00, 0x00, 0x00, 0x26, 0x00, 0x00, 0x00, 0x1f, 0x00, 0x00, 0x00,
  0x1e, 0x00, 0x00, 0x00, 0x0a, 0xff, 0xff, 0xff, 0x10, 0x00, 0x00, 0x00,
  0x00, 0x00, 0x00, 0x34, 0x0c, 0x00, 0x00, 0x00, 0x10, 0x00, 0x00, 0x00,
  0x5c, 0xc7, 0xff, 0xff, 0x01, 0x00, 0x00, 0x00, 0x26, 0x00, 0x00, 0x00,
  0x02, 0x00, 0x00, 0x00, 0x25, 0x00, 0x00, 0x00, 0x01, 0x00, 0x00, 0x00,
  0x00, 0x00, 0x0e, 0x00, 0x18, 0x00, 0x14, 0x00, 0x10, 0x00, 0x0c, 0x00,
  0x0b, 0x00, 0x04, 0x00, 0x0e, 0x00, 0x00, 0x00, 0x14, 0x00, 0x00, 0x00,
  0x00, 0x00, 0x00, 0x16, 0x10, 0x00, 0x00, 0x00, 0x14, 0x00, 0x00, 0x00,
  0x03, 0x00, 0x00, 0x00, 0x9c, 0xc7, 0xff, 0xff, 0x01, 0x00, 0x00, 0x00,
  0x25, 0x00, 0x00, 0x00, 0x02, 0x00, 0x00, 0x00, 0x24, 0x00, 0x00, 0x00,
  0x03, 0x00, 0x00, 0x00, 0x00, 0x00, 0x0a, 0x00, 0x10, 0x00, 0x0c, 0x00,
  0x08, 0x00, 0x04, 0x00, 0x0a, 0x00, 0x00, 0x00, 0x0c, 0x00, 0x00, 0x00,
  0x10, 0x00, 0x00, 0x00, 0x02, 0x00, 0x00, 0x00, 0x01, 0x00, 0x00, 0x00,
  0x24, 0x00, 0x00, 0x00, 0x02, 0x00, 0x00, 0x00, 0x23, 0x00, 0x00, 0x00,
  0x02, 0x00, 0x00, 0x00, 0x00, 0x00, 0x0e, 0x00, 0x1a, 0x00, 0x14, 0x00,
  0x10, 0x00, 0x0c, 0x00, 0x0b, 0x00, 0x04, 0x00, 0x0e, 0x00, 0x00, 0x00,
  0x20, 0x00, 0x00, 0x00, 0x00, 0x00, 0x00, 0x01, 0x24, 0x00, 0x00, 0x00,
  0x28, 0x00, 0x00, 0x00, 0x01, 0x00, 0x00, 0x00, 0x00, 0x00, 0x0a, 0x00,
  0x0c, 0x00, 0x00, 0x00, 0x08, 0x00, 0x04, 0x00, 0x0a, 0x00, 0x00, 0x00,
  0x01, 0x00, 0x00, 0x00, 0x01, 0x00, 0x00, 0x00, 0x01, 0x00, 0x00, 0x00,
  0x23, 0x00, 0x00, 0x00, 0x03, 0x00, 0x00, 0x00, 0x22, 0x00, 0x00, 0x00,
  0x21, 0x00, 0x00, 0x00, 0x20, 0x00, 0x00, 0x00, 0x00, 0x00, 0x0e, 0x00,
  0x14, 0x00, 0x00, 0x00, 0x10, 0x00, 0x0c, 0x00, 0x0b, 0x00, 0x04, 0x00,
  0x0e, 0x00, 0x00, 0x00, 0x10, 0x00, 0x00, 0x00, 0x00, 0x00, 0x00, 0x34,
  0x0c, 0x00, 0x00, 0x00, 0x10, 0x00, 0x00, 0x00, 0x60, 0xc8, 0xff, 0xff,
  0x01, 0x00, 0x00, 0x00, 0x22, 0x00, 0x00, 0x00, 0x02, 0x00, 0x00, 0x00,
  0x00, 0x00, 0x00, 0x00, 0x01, 0x00, 0x00, 0x00, 0x01, 0x00, 0x00, 0x00,
  0x4d, 0x00, 0x00, 0x00, 0x01, 0x00, 0x00, 0x00, 0x00, 0x00, 0x00, 0x00,
  0x4e, 0x00, 0x00, 0x00, 0xc0, 0x37, 0x00, 0x00, 0x54, 0x37, 0x00, 0x00,
  0xec, 0x36, 0x00, 0x00, 0x9c, 0x36, 0x00, 0x00, 0x4c, 0x36, 0x00, 0x00,
  0xe8, 0x35, 0x00, 0x00, 0x88, 0x35, 0x00, 0x00, 0x38, 0x35, 0x00, 0x00,
  0xe8, 0x34, 0x00, 0x00, 0x84, 0x34, 0x00, 0x00, 0x34, 0x34, 0x00, 0x00,
  0xe0, 0x33, 0x00, 0x00, 0x8c, 0x33, 0x00, 0x00, 0x38, 0x33, 0x00, 0x00,
  0xc8, 0x32, 0x00, 0x00, 0x64, 0x32, 0x00, 0x00, 0xf0, 0x31, 0x00, 0x00,
  0x6c, 0x30, 0x00, 0x00, 0xf8, 0x2f, 0x00, 0x00, 0x74, 0x2e, 0x00, 0x00,
  0x00, 0x2e, 0x00, 0x00, 0x7c, 0x2c, 0x00, 0x00, 0x08, 0x2c, 0x00, 0x00,
  0x8c, 0x2a, 0x00, 0x00, 0x10, 0x29, 0x00, 0x00, 0x94, 0x27, 0x00, 0x00,
  0x18, 0x26, 0x00, 0x00, 0x94, 0x24, 0x00, 0x00, 0x08, 0x23, 0x00, 0x00,
  0x84, 0x21, 0x00, 0x00, 0xf8, 0x1f, 0x00, 0x00, 0x74, 0x1e, 0x00, 0x00,
  0xf0, 0x1c, 0x00, 0x00, 0x6c, 0x1b, 0x00, 0x00, 0xd8, 0x1a, 0x00, 0x00,
  0xe4, 0x19, 0x00, 0x00, 0x24, 0x19, 0x00, 0x00, 0xa8, 0x18, 0x00, 0x00,
  0x10, 0x18, 0x00, 0x00, 0x04, 0x17, 0x00, 0x00, 0x2c, 0x16, 0x00, 0x00,
  0xb0, 0x15, 0x00, 0x00, 0x18, 0x15, 0x00, 0x00, 0x0c, 0x14, 0x00, 0x00,
  0xc8, 0x12, 0x00, 0x00, 0x88, 0x11, 0x00, 0x00, 0x0c, 0x11, 0x00, 0x00,
  0x78, 0x10, 0x00, 0x00, 0xe0, 0x0f, 0x00, 0x00, 0x54, 0x0f, 0x00, 0x00,
  0xcc, 0x0e, 0x00, 0x00, 0x38, 0x0e, 0x00, 0x00, 0xa4, 0x0d, 0x00, 0x00,
  0x28, 0x0d, 0x00, 0x00, 0x94, 0x0c, 0x00, 0x00, 0xfc, 0x0b, 0x00, 0x00,
  0x70, 0x0b, 0x00, 0x00, 0xe8, 0x0a, 0x00, 0x00, 0x54, 0x0a, 0x00, 0x00,
  0xc0, 0x09, 0x00, 0x00, 0x44, 0x09, 0x00, 0x00, 0xc8, 0x08, 0x00, 0x00,
  0x34, 0x08, 0x00, 0x00, 0x9c, 0x07, 0x00, 0x00, 0x10, 0x07, 0x00, 0x00,
  0x88, 0x06, 0x00, 0x00, 0xf4, 0x05, 0x00, 0x00, 0x60, 0x05, 0x00, 0x00,
  0xe4, 0x04, 0x00, 0x00, 0x50, 0x04, 0x00, 0x00, 0xb8, 0x03, 0x00, 0x00,
  0x2c, 0x03, 0x00, 0x00, 0xa4, 0x02, 0x00, 0x00, 0x10, 0x02, 0x00, 0x00,
  0x7c, 0x01, 0x00, 0x00, 0x00, 0x01, 0x00, 0x00, 0x80, 0x00, 0x00, 0x00,
  0x04, 0x00, 0x00, 0x00, 0x8e, 0xc9, 0xff, 0xff, 0x00, 0x00, 0x00, 0x01,
  0x18, 0x00, 0x00, 0x00, 0x20, 0x00, 0x00, 0x00, 0x3c, 0x00, 0x00, 0x00,
  0x4e, 0x00, 0x00, 0x00, 0x00, 0x00, 0x00, 0x09, 0x50, 0x00, 0x00, 0x00,
  0x02, 0x00, 0x00, 0x00, 0xff, 0xff, 0xff, 0xff, 0x01, 0x00, 0x00, 0x00,
  0x74, 0xc9, 0xff, 0xff, 0x08, 0x00, 0x00, 0x00, 0x10, 0x00, 0x00, 0x00,
  0x01, 0x00, 0x00, 0x00, 0x80, 0xff, 0xff, 0xff, 0xff, 0xff, 0xff, 0xff,
  0x01, 0x00, 0x00, 0x00, 0x98, 0x97, 0x5a, 0x3b, 0x19, 0x00, 0x00, 0x00,
  0x53, 0x74, 0x61, 0x74, 0x65, 0x66, 0x75, 0x6c, 0x50, 0x61, 0x72, 0x74,
  0x69, 0x74, 0x69, 0x6f, 0x6e, 0x65, 0x64, 0x43, 0x61, 0x6c, 0x6c, 0x3a,
  0x30, 0x00, 0x00, 0x00, 0x02, 0x00, 0x00, 0x00, 0x01, 0x00, 0x00, 0x00,
  0x01, 0x00, 0x00, 0x00, 0x06, 0xca, 0xff, 0xff, 0x00, 0x00, 0x00, 0x01,
  0x18, 0x00, 0x00, 0x00, 0x20, 0x00, 0x00, 0x00, 0x40, 0x00, 0x00, 0x00,
  0x4d, 0x00, 0x00, 0x00, 0x00, 0x00, 0x00, 0x09, 0x54, 0x00, 0x00, 0x00,
  0x02, 0x00, 0x00, 0x00, 0xff, 0xff, 0xff, 0xff, 0x18, 0x00, 0x00, 0x00,
  0xec, 0xc9, 0xff, 0xff, 0x08, 0x00, 0x00, 0x00, 0x14, 0x00, 0x00, 0x00,
  0x01, 0x00, 0x00, 0x00, 0x28, 0x00, 0x00, 0x00, 0x00, 0x00, 0x00, 0x00,
  0x00, 0x00, 0x00, 0x00, 0x01, 0x00, 0x00, 0x00, 0xba, 0x68, 0xdd, 0x3b,
  0x1a, 0x00, 0x00, 0x00, 0x6d, 0x6f, 0x64, 0x65, 0x6c, 0x2f, 0x6c, 0x61,
  0x6d, 0x62, 0x64, 0x61, 0x2f, 0x73, 0x74, 0x72, 0x69, 0x64, 0x65, 0x64,
  0x5f, 0x73, 0x6c, 0x69, 0x63, 0x65, 0x00, 0x00, 0x02, 0x00, 0x00, 0x00,
  0x01, 0x00, 0x00, 0x00, 0x18, 0x00, 0x00, 0x00, 0x82, 0xca, 0xff, 0xff,
  0x00, 0x00, 0x00, 0x01, 0x18, 0x00, 0x00, 0x00, 0x24, 0x00, 0x00, 0x00,
  0x44, 0x00, 0x00, 0x00, 0x4c, 0x00, 0x00, 0x00, 0x00, 0x00, 0x00, 0x09,
  0x4c, 0x00, 0x00, 0x00, 0x03, 0x00, 0x00, 0x00, 0xff, 0xff, 0xff, 0xff,
  0x18, 0x00, 0x00, 0x00, 0x18, 0x00, 0x00, 0x00, 0x6c, 0xca, 0xff, 0xff,
  0x08, 0x00, 0x00, 0x00, 0x14, 0x00, 0x00, 0x00, 0x01, 0x00, 0x00, 0x00,
  0x28, 0x00, 0x00, 0x00, 0x00, 0x00, 0x00, 0x00, 0x00, 0x00, 0x00, 0x00,
  0x01, 0x00, 0x00, 0x00, 0xba, 0x68, 0xdd, 0x3b, 0x0f, 0x00, 0x00, 0x00,
  0x6d, 0x6f, 0x64, 0x65, 0x6c, 0x2f, 0x61, 0x64, 0x64, 0x5f, 0x32, 0x2f,
  0x61, 0x64, 0x64, 0x00, 0x03, 0x00, 0x00, 0x00, 0x01, 0x00, 0x00, 0x00,
  0x18, 0x00, 0x00, 0x00, 0x18, 0x00, 0x00, 0x00, 0xfa, 0xca, 0xff, 0xff,
  0x00, 0x00, 0x00, 0x01, 0x18, 0x00, 0x00, 0x00, 0x24, 0x00, 0x00, 0x00,
  0x40, 0x00, 0x00, 0x00, 0x4b, 0x00, 0x00, 0x00, 0x00, 0x00, 0x00, 0x09,
  0x64, 0x00, 0x00, 0x00, 0x03, 0x00, 0x00, 0x00, 0xff, 0xff, 0xff, 0xff,
  0x18, 0x00, 0x00, 0x00, 0x18, 0x00, 0x00, 0x00, 0xe4, 0xca, 0xff, 0xff,
  0x08, 0x00, 0x00, 0x00, 0x10, 0x00, 0x00, 0x00, 0x01, 0x00, 0x00, 0x00,
  0x28, 0x00, 0x00, 0x00, 0x00, 0x00, 0x00, 0x00, 0x01, 0x00, 0x00, 0x00,
  0xba, 0x68, 0xdd, 0x3b, 0x2a, 0x00, 0x00, 0x00, 0x6d, 0x6f, 0x64, 0x65,
  0x6c, 0x2f, 0x63, 0x6f, 0x6e, 0x76, 0x31, 0x64, 0x5f, 0x36, 0x2f, 0x52,
  0x65, 0x6c, 0x75, 0x3b, 0x6d, 0x6f, 0x64, 0x65, 0x6c, 0x2f, 0x63, 0x6f,
  0x6e, 0x76, 0x31, 0x64, 0x5f, 0x36, 0x2f, 0x42, 0x69, 0x61, 0x73, 0x41,
  0x64, 0x64, 0x00, 0x00, 0x03, 0x00, 0x00, 0x00, 0x01, 0x00, 0x00, 0x00,
  0x18, 0x00, 0x00, 0x00, 0x18, 0x00, 0x00, 0x00, 0x8a, 0xcb, 0xff, 0xff,
  0x00, 0x00, 0x00, 0x01, 0x18, 0x00, 0x00, 0x00, 0x24, 0x00, 0x00, 0x00,
  0x44, 0x00, 0x00, 0x00, 0x4a, 0x00, 0x00, 0x00, 0x00, 0x00, 0x00, 0x09,
  0x64, 0x00, 0x00, 0x00, 0x03, 0x00, 0x00, 0x00, 0xff, 0xff, 0xff, 0xff,
  0x18, 0x00, 0x00, 0x00, 0x18, 0x00, 0x00, 0x00, 0x74, 0xcb, 0xff, 0xff,
  0x08, 0x00, 0x00, 0x00, 0x14, 0x00, 0x00, 0x00, 0x01, 0x00, 0x00, 0x00,
  0x12, 0x00, 0x00, 0x00, 0x00, 0x00, 0x00, 0x00, 0x00, 0x00, 0x00, 0x00,
  0x01, 0x00, 0x00, 0x00, 0xff, 0x32, 0x23, 0x3a, 0x24, 0x00, 0x00, 0x00,
  0x6d, 0x6f, 0x64, 0x65, 0x6c, 0x2f, 0x63, 0x6f, 0x6e, 0x76, 0x31, 0x64,
  0x5f, 0x36, 0x2f, 0x43, 0x6f, 0x6e, 0x76, 0x31, 0x44, 0x2f, 0x42, 0x61,
  0x74, 0x63, 0x68, 0x54, 0x6f, 0x53, 0x70, 0x61, 0x63, 0x65, 0x4e, 0x44,
  0x00, 0x00, 0x00, 0x00, 0x03, 0x00, 0x00, 0x00, 0x01, 0x00, 0x00, 0x00,
  0x18, 0x00, 0x00, 0x00, 0x18, 0x00, 0x00, 0x00, 0x1a, 0xcc, 0xff, 0xff,
  0x00, 0x00, 0x00, 0x01, 0x18, 0x00, 0x00, 0x00, 0x24, 0x00, 0x00, 0x00,
  0x40, 0x00, 0x00, 0x00, 0x49, 0x00, 0x00, 0x00, 0x00, 0x00, 0x00, 0x09,
  0x58, 0x00, 0x00, 0x00, 0x03, 0x00, 0x00, 0x00, 0xff, 0xff, 0xff, 0xff,
  0x06, 0x00, 0x00, 0x00, 0x18, 0x00, 0x00, 0x00, 0x04, 0xcc, 0xff, 0xff,
  0x08, 0x00, 0x00, 0x00, 0x10, 0x00, 0x00, 0x00, 0x01, 0x00, 0x00, 0x00,
  0x12, 0x00, 0x00, 0x00, 0x00, 0x00, 0x00, 0x00, 0x01, 0x00, 0x00, 0x00,
  0xff, 0x32, 0x23, 0x3a, 0x1e, 0x00, 0x00, 0x00, 0x6d, 0x6f, 0x64, 0x65,
  0x6c, 0x2f, 0x63, 0x6f, 0x6e, 0x76, 0x31, 0x64, 0x5f, 0x36, 0x2f, 0x43,
  0x6f, 0x6e, 0x76, 0x31, 0x44, 0x2f, 0x53, 0x71, 0x75, 0x65, 0x65, 0x7a,
  0x65, 0x31, 0x00, 0x00, 0x03, 0x00, 0x00, 0x00, 0x01, 0x00, 0x00, 0x00,
  0x06, 0x00, 0x00, 0x00, 0x18, 0x00, 0x00, 0x00, 0x9e, 0xcc, 0xff, 0xff,
  0x00, 0x00, 0x00, 0x01, 0x18, 0x00, 0x00, 0x00, 0x28, 0x00, 0x00, 0x00,
  0x48, 0x00, 0x00, 0x00, 0x48, 0x00, 0x00, 0x00, 0x00, 0x00, 0x00, 0x09,
  0x58, 0x00, 0x00, 0x00, 0x04, 0x00, 0x00, 0x00, 0xff, 0xff, 0xff, 0xff,
  0x01, 0x00, 0x00, 0x00, 0x06, 0x00, 0x00, 0x00, 0x18, 0x00, 0x00, 0x00,
  0x8c, 0xcc, 0xff, 0xff, 0x08, 0x00, 0x00, 0x00, 0x14, 0x00, 0x00, 0x00,
  0x01, 0x00, 0x00, 0x00, 0x12, 0x00, 0x00, 0x00, 0x00, 0x00, 0x00, 0x00,
