const unsigned char g_tcn_model_data[] __attribute__((aligned(16))) = {
  0x20, 0x00, 0x00, 0x00, 0x54, 0x46, 0x4c, 0x33, 0x00, 0x00, 0x00, 0x00,
  0x14, 0x00, 0x20, 0x00, 0x1c, 0x00, 0x18, 0x00, 0x14, 0x00, 0x10, 0x00,
  0x0c, 0x00, 0x00, 0x00, 0x08, 0x00, 0x04, 0x00, 0x14, 0x00, 0x00, 0x00,
  0x1c, 0x00, 0x00, 0x00, 0x80, 0x00, 0x00, 0x00, 0xd8, 0x00, 0x00, 0x00,
  0xc8, 0x30, 0x00, 0x00, 0xd8, 0x30, 0x00, 0x00, 0xcc, 0x72, 0x00, 0x00,
  0x03, 0x00, 0x00, 0x00, 0x01, 0x00, 0x00, 0x00, 0x04, 0x00, 0x00, 0x00,
  0x6a, 0xc6, 0xff, 0xff, 0x0c, 0x00, 0x00, 0x00, 0x1c, 0x00, 0x00, 0x00,
  0x38, 0x00, 0x00, 0x00, 0x0f, 0x00, 0x00, 0x00, 0x73, 0x65, 0x72, 0x76,
  0x69, 0x6e, 0x67, 0x5f, 0x64, 0x65, 0x66, 0x61, 0x75, 0x6c, 0x74, 0x00,
  0x01, 0x00, 0x00, 0x00, 0x04, 0x00, 0x00, 0x00, 0x9c, 0xff, 0xff, 0xff,
  0x4d, 0x00, 0x00, 0x00, 0x04, 0x00, 0x00, 0x00, 0x05, 0x00, 0x00, 0x00,
  0x64, 0x65, 0x6e, 0x73, 0x65, 0x00, 0x00, 0x00, 0x01, 0x00, 0x00, 0x00,
  0x04, 0x00, 0x00, 0x00, 0xba, 0xcf, 0xff, 0xff, 0x04, 0x00, 0x00, 0x00,
  0x07, 0x00, 0x00, 0x00, 0x69, 0x6e, 0x70, 0x75, 0x74, 0x5f, 0x31, 0x00,
  0x02, 0x00, 0x00, 0x00, 0x34, 0x00, 0x00, 0x00, 0x04, 0x00, 0x00, 0x00,
  0xdc, 0xff, 0xff, 0xff, 0x50, 0x00, 0x00, 0x00, 0x04, 0x00, 0x00, 0x00,
  0x13, 0x00, 0x00, 0x00, 0x43, 0x4f, 0x4e, 0x56, 0x45, 0x52, 0x53, 0x49,
  0x4f, 0x4e, 0x5f, 0x4d, 0x45, 0x54, 0x41, 0x44, 0x41, 0x54, 0x41, 0x00,
  0x08, 0x00, 0x0c, 0x00, 0x08, 0x00, 0x04, 0x00, 0x08, 0x00, 0x00, 0x00,
  0x4f, 0x00, 0x00, 0x00, 0x04, 0x00, 0x00, 0x00, 0x13, 0x00, 0x00, 0x00,
  0x6d, 0x69, 0x6e, 0x5f, 0x72, 0x75, 0x6e, 0x74, 0x69, 0x6d, 0x65, 0x5f,
  0x76, 0x65, 0x72, 0x73, 0x69, 0x6f, 0x6e, 0x00, 0x51, 0x00, 0x00, 0x00,
  0xec, 0x2f, 0x00, 0x00, 0xe4, 0x2f, 0x00, 0x00, 0xd0, 0x2f, 0x00, 0x00,
  0xac, 0x2f, 0x00, 0x00, 0x84, 0x2f, 0x00, 0x00, 0x5c, 0x2f, 0x00, 0x00,
  0x48, 0x2f, 0x00, 0x00, 0x30, 0x2f, 0x00, 0x00, 0x14, 0x2f, 0x00, 0x00,
  0xec, 0x2e, 0x00, 0x00, 0xd8, 0x2e, 0x00, 0x00, 0xbc, 0x2e, 0x00, 0x00,
  0xa0, 0x2e, 0x00, 0x00, 0x84, 0x2e, 0x00, 0x00, 0x68, 0x2e, 0x00, 0x00,
  0x54, 0x2e, 0x00, 0x00, 0x2c, 0x2e, 0x00, 0x00, 0x04, 0x2e, 0x00, 0x00,
  0x34, 0x27, 0x00, 0x00, 0x0c, 0x27, 0x00, 0x00, 0x3c, 0x20, 0x00, 0x00,
  0x14, 0x20, 0x00, 0x00, 0x44, 0x19, 0x00, 0x00, 0x1c, 0x19, 0x00, 0x00,
  0xac, 0x18, 0x00, 0x00, 0xa4, 0x18, 0x00, 0x00, 0x9c, 0x18, 0x00, 0x00,
  0x94, 0x18, 0x00, 0x00, 0xc4, 0x11, 0x00, 0x00, 0x54, 0x11, 0x00, 0x00,
  0x84, 0x0a, 0x00, 0x00, 0x14, 0x0a, 0x00, 0x00, 0x44, 0x03, 0x00, 0x00,
  0xd4, 0x02, 0x00, 0x00, 0xec, 0x01, 0x00, 0x00, 0xe4, 0x01, 0x00, 0x00,
  0xdc, 0x01, 0x00, 0x00, 0xd4, 0x01, 0x00, 0x00, 0xcc, 0x01, 0x00, 0x00,
  0xc4, 0x01, 0x00, 0x00, 0xbc, 0x01, 0x00, 0x00, 0xb4, 0x01, 0x00, 0x00,
  0xac, 0x01, 0x00, 0x00, 0xa4, 0x01, 0x00, 0x00, 0x9c, 0x01, 0x00, 0x00,
  0x94, 0x01, 0x00, 0x00, 0x8c, 0x01, 0x00, 0x00, 0x84, 0x01, 0x00, 0x00,
  0x7c, 0x01, 0x00, 0x00, 0x74, 0x01, 0x00, 0x00, 0x6c, 0x01, 0x00, 0x00,
  0x64, 0x01, 0x00, 0x00, 0x5c, 0x01, 0x00, 0x00, 0x54, 0x01, 0x00, 0x00,
  0x4c, 0x01, 0x00, 0x00, 0x44, 0x01, 0x00, 0x00, 0x3c, 0x01, 0x00, 0x00,
  0x34, 0x01, 0x00, 0x00, 0x2c, 0x01, 0x00, 0x00, 0x24, 0x01, 0x00, 0x00,
  0x1c, 0x01, 0x00, 0x00, 0x14, 0x01, 0x00, 0x00, 0x0c, 0x01, 0x00, 0x00,
  0x04, 0x01, 0x00, 0x00, 0xfc, 0x00, 0x00, 0x00, 0xf4, 0x00, 0x00, 0x00,
  0xec, 0x00, 0x00, 0x00, 0xe4, 0x00, 0x00, 0x00, 0xdc, 0x00, 0x00, 0x00,
  0xd4, 0x00, 0x00, 0x00, 0xcc, 0x00, 0x00, 0x00, 0xc4, 0x00, 0x00, 0x00,
  0xbc, 0x00, 0x00, 0x00, 0xb4, 0x00, 0x00, 0x00, 0xac, 0x00, 0x00, 0x00,
  0xa4, 0x00, 0x00, 0x00, 0x9c, 0x00, 0x00, 0x00, 0x94, 0x00, 0x00, 0x00,
  0x8c, 0x00, 0x00, 0x00, 0x6c, 0x00, 0x00, 0x00, 0x04, 0x00, 0x00, 0x00,
  0x72, 0xd1, 0xff, 0xff, 0x04, 0x00, 0x00, 0x00, 0x58, 0x00, 0x00, 0x00,
  0x0c, 0x00, 0x00, 0x00, 0x08, 0x00, 0x0e, 0x00, 0x08, 0x00, 0x04, 0x00,
  0x08, 0x00, 0x00, 0x00, 0x10, 0x00, 0x00, 0x00, 0x28, 0x00, 0x00, 0x00,
  0x00, 0x00, 0x06, 0x00, 0x08, 0x00, 0x04, 0x00, 0x06, 0x00, 0x00, 0x00,
  0x04, 0x00, 0x00, 0x00, 0x01, 0x00, 0x00, 0x00, 0xeb, 0x03, 0x00, 0x00,
  0x00, 0x00, 0x0a, 0x00, 0x10, 0x00, 0x0c, 0x00, 0x08, 0x00, 0x04, 0x00,
  0x0a, 0x00, 0x00, 0x00, 0x02, 0x00, 0x00, 0x00, 0x02, 0x00, 0x00, 0x00,
  0x04, 0x00, 0x00, 0x00, 0x06, 0x00, 0x00, 0x00, 0x32, 0x2e, 0x31, 0x35,
  0x2e, 0x30, 0x00, 0x00, 0xd6, 0xd1, 0xff, 0xff, 0x04, 0x00, 0x00, 0x00,
  0x10, 0x00, 0x00, 0x00, 0x32, 0x2e, 0x33, 0x2e, 0x30, 0x00, 0x00, 0x00,
  0x00, 0x00, 0x00, 0x00, 0x00, 0x00, 0x00, 0x00, 0xa4, 0x90, 0xff, 0xff,
  0xa8, 0x90, 0xff, 0xff, 0xac, 0x90, 0xff, 0xff, 0xb0, 0x90, 0xff, 0xff,
  0xb4, 0x90, 0xff, 0xff, 0xb8, 0x90, 0xff, 0xff, 0xbc, 0x90, 0xff, 0xff,
  0xc0, 0x90, 0xff, 0xff, 0xc4, 0x90, 0xff, 0xff, 0xc8, 0x90, 0xff, 0xff,
  0xcc, 0x90, 0xff, 0xff, 0xd0, 0x90, 0xff, 0xff, 0xd4, 0x90, 0xff, 0xff,
  0xd8, 0x90, 0xff, 0xff, 0xdc, 0x90, 0xff, 0xff, 0xe0, 0x90, 0xff, 0xff,
  0xe4, 0x90, 0xff, 0xff, 0xe8, 0x90, 0xff, 0xff, 0xec, 0x90, 0xff, 0xff,
  0xf0, 0x90, 0xff, 0xff, 0xf4, 0x90, 0xff, 0xff, 0xf8, 0x90, 0xff, 0xff,
  0xfc, 0x90, 0xff, 0xff, 0x00, 0x91, 0xff, 0xff, 0x04, 0x91, 0xff, 0xff,
  0x08, 0x91, 0xff, 0xff, 0x0c, 0x91, 0xff, 0xff, 0x10, 0x91, 0xff, 0xff,
  0x14, 0x91, 0xff, 0xff, 0x18, 0x91, 0xff, 0xff, 0x1c, 0x91, 0xff, 0xff,
  0x20, 0x91, 0xff, 0xff, 0x24, 0x91, 0xff, 0xff, 0x28, 0x91, 0xff, 0xff,
  0x2c, 0x91, 0xff, 0xff, 0x30, 0x91, 0xff, 0xff, 0x34, 0x91, 0xff, 0xff,
  0x38, 0x91, 0xff, 0xff, 0x3c, 0x91, 0xff, 0xff, 0x40, 0x91, 0xff, 0xff,
  0x44, 0x91, 0xff, 0xff, 0x48, 0x91, 0xff, 0xff, 0x4c, 0x91, 0xff, 0xff,
  0x50, 0x91, 0xff, 0xff, 0xa2, 0xd2, 0xff, 0xff, 0x04, 0x00, 0x00, 0x00,
  0xd8, 0x00, 0x00, 0x00, 0x78, 0x5d, 0x24, 0xcf, 0x45, 0x4b, 0x74, 0xb6,
  0x81, 0x6b, 0xe9, 0x40, 0x7f, 0x85, 0x48, 0xcf, 0x96, 0xbe, 0x3f, 0x48,
  0x54, 0xa5, 0x02, 0x40, 0xd3, 0xb0, 0x7f, 0x81, 0xe5, 0x00, 0x62, 0x1a,
  0xa2, 0xb2, 0xb0, 0xc4, 0x40, 0x5d, 0x68, 0xe1, 0x4a, 0x42, 0x8d, 0x4e,
  0x81, 0xd8, 0xb2, 0x7f, 0x31, 0xe2, 0x0f, 0xd2, 0xb3, 0xc2, 0xb8, 0xc5,
  0xb6, 0xd7, 0x7f, 0xa8, 0xec, 0xf2, 0x4a, 0x19, 0x7f, 0xa3, 0xd4, 0xa1,
  0x4b, 0xdc, 0x25, 0xc3, 0x65, 0x09, 0xc9, 0x50, 0xe7, 0x67, 0x7f, 0xaa,
  0x1a, 0x34, 0x09, 0x3e, 0xa9, 0x0e, 0x54, 0x05, 0x7f, 0xac, 0xb7, 0xc2,
  0x73, 0x72, 0xf2, 0x93, 0xf0, 0x81, 0x9d, 0x7f, 0x9a, 0x04, 0xec, 0x0e,
  0x4d, 0xdb, 0x18, 0x54, 0xc0, 0x7f, 0xa8, 0x9d, 0x11, 0xe1, 0x24, 0xc3,
  0xf3, 0x56, 0xf1, 0x34, 0x8f, 0xb4, 0x54, 0x7f, 0x0c, 0x4d, 0x3d, 0x52,
  0x82, 0x79, 0x20, 0xc7, 0x58, 0x09, 0x81, 0x43, 0xf2, 0x27, 0x2e, 0x18,
  0x81, 0x16, 0x9d, 0x26, 0x81, 0x58, 0xe1, 0xb2, 0x2d, 0x9f, 0xc8, 0xbf,
  0x34, 0xca, 0x95, 0x79, 0xf5, 0xe9, 0xe7, 0x7f, 0xf3, 0x3d, 0x7e, 0x0a,
  0x81, 0xdb, 0xfb, 0xc9, 0xf3, 0xb2, 0xc0, 0x81, 0xfd, 0xe4, 0x57, 0x67,
  0xa5, 0xc8, 0x0e, 0x4d, 0xc3, 0x6e, 0xd0, 0x81, 0xba, 0x6b, 0x0d, 0xae,
  0xdb, 0x36, 0xd6, 0xa5, 0x8a, 0x97, 0x81, 0x26, 0x93, 0xab, 0x7f, 0x1e,
  0x4d, 0x90, 0x28, 0x6a, 0xf8, 0xea, 0xa4, 0x6f, 0x7f, 0x48, 0xeb, 0x75,
  0xf9, 0x37, 0x38, 0xfa, 0x86, 0xd3, 0xff, 0xff, 0x04, 0x00, 0x00, 0x00,
  0x60, 0x00, 0x00, 0x00, 0x98, 0xe7, 0xff, 0xff, 0xa6, 0xf2, 0xff, 0xff,
  0x5c, 0xf2, 0xff, 0xff, 0x8a, 0x19, 0x00, 0x00, 0xfe, 0xf6, 0xff, 0xff,
  0xb3, 0xfb, 0xff, 0xff, 0x50, 0x18, 0x00, 0x00, 0xc4, 0x12, 0x00, 0x00,
  0xeb, 0xfb, 0xff, 0xff, 0x30, 0xf0, 0xff, 0xff, 0xcd, 0xe2, 0xff, 0xff,
  0xe3, 0x0f, 0x00, 0x00, 0xd9, 0x14, 0x00, 0x00, 0x1c, 0xec, 0xff, 0xff,
  0xc2, 0xfe, 0xff, 0xff, 0x5f, 0x07, 0x00, 0x00, 0x70, 0xfd, 0xff, 0xff,
  0x9c, 0x04, 0x00, 0x00, 0x86, 0xd1, 0xff, 0xff, 0x27, 0x15, 0x00, 0x00,
  0x9e, 0x0e, 0x00, 0x00, 0x7b, 0x0d, 0x00, 0x00, 0xe7, 0xf5, 0xff, 0xff,
  0xf8, 0xeb, 0xff, 0xff, 0xf2, 0xd3, 0xff, 0xff, 0x04, 0x00, 0x00, 0x00,
  0xc0, 0x06, 0x00, 0x00, 0xb9, 0xa5, 0x8e, 0x60, 0xa0, 0x0f, 0xbf, 0x9b,
  0x12, 0x6e, 0x7f, 0xce, 0xac, 0x21, 0xde, 0x1e, 0x7a, 0x57, 0x0c, 0xb1,
  0x57, 0x49, 0x99, 0xea, 0x4c, 0xbc, 0x90, 0x7d, 0x9f, 0xdd, 0x68, 0x73,
  0x29, 0x2f, 0xea, 0x5d, 0x5f, 0x4b, 0xee, 0xce, 0xfb, 0xa2, 0x6b, 0x54,
  0xb9, 0x9c, 0xb5, 0x6e, 0xa2, 0x9a, 0x13, 0x51, 0x17, 0xff, 0xfc, 0x2e,
  0x93, 0xe5, 0x58, 0xbc, 0xbd, 0x32, 0x5e, 0x7f, 0xc8, 0x2a, 0xcf, 0x52,
  0x2a, 0x3f, 0xba, 0x92, 0xd7, 0xf1, 0x5c, 0x38, 0x98, 0x39, 0x2d, 0xdd,
  0xf9, 0xe2, 0x3d, 0xc0, 0xa9, 0x89, 0x5c, 0x38, 0x29, 0xd7, 0x5c, 0x1a,
  0x36, 0xf6, 0xa4, 0xcb, 0xf7, 0x06, 0x36, 0x25, 0x94, 0xb8, 0x1c, 0xe5,
  0x65, 0x62, 0xeb, 0x26, 0x19, 0xc5, 0xce, 0x37, 0x4e, 0xb3, 0x7a, 0x1d,
  0x74, 0x5c, 0x4d, 0x3c, 0xd0, 0x44, 0xa8, 0x47, 0x56, 0x55, 0x17, 0x09,
  0x31, 0x6d, 0x7f, 0x91, 0xd3, 0x0f, 0x2e, 0xd0, 0xb6, 0x20, 0x40, 0xc8,
  0xd3, 0xfe, 0xb2, 0x12, 0xa3, 0xc0, 0xad, 0xa7, 0xd2, 0xe5, 0x54, 0xd2,
  0xf9, 0x1c, 0xe8, 0x14, 0xb8, 0xb9, 0x04, 0xf2, 0x4c, 0xfb, 0x5b, 0xfe,
  0xcb, 0x6e, 0xf1, 0x99, 0x03, 0xe5, 0x60, 0xbd, 0x14, 0x09, 0x97, 0xfd,
  0x2f, 0xe3, 0x49, 0xb2, 0xad, 0x9e, 0x5b, 0x46, 0xe6, 0xd1, 0x7f, 0x3e,
  0x5d, 0x2a, 0xd1, 0xc7, 0xd6, 0x56, 0x22, 0x1c, 0x31, 0x98, 0x17, 0xce,
  0x66, 0x48, 0xf7, 0x3f, 0x4a, 0x63, 0x4d, 0x66, 0x2f, 0xba, 0x2f, 0x8f,
  0x27, 0x04, 0x17, 0x2a, 0xe2, 0x2a, 0xa9, 0xc3, 0x34, 0x8f, 0x43, 0xe9,
  0xd9, 0xfd, 0xf8, 0xcc, 0x57, 0xb2, 0x45, 0xe8, 0x1e, 0x35, 0x38, 0x07,
  0xf3, 0xce, 0x9b, 0x2f, 0xb8, 0x24, 0xb8, 0x60, 0xee, 0xcb, 0xf9, 0x7f,
  0xe9, 0x47, 0x05, 0x2f, 0x5e, 0x23, 0xd2, 0xe2, 0x28, 0xde, 0xca, 0xca,
  0xeb, 0xf7, 0xd4, 0xbe, 0x03, 0x5c, 0xb2, 0x35, 0xcc, 0xfb, 0x3d, 0xf9,
  0xff, 0xbf, 0xd1, 0x32, 0x59, 0xd0, 0x1e, 0x37, 0xbf, 0xe8, 0xc3, 0xff,
  0x2e, 0x5a, 0xc8, 0xe2, 0xa6, 0xc3, 0x8b, 0xb5, 0xc6, 0x59, 0xef, 0x6a,
  0xb9, 0x5b, 0xbd, 0x1c, 0x0a, 0xe0, 0x5e, 0xce, 0xd0, 0x05, 0x59, 0xb6,
  0x09, 0x18, 0xc4, 0x18, 0xc8, 0xee, 0xa5, 0x57, 0x1f, 0x0f, 0xa4, 0xb2,
  0xe3, 0xdc, 0x98, 0xa8, 0xb1, 0x52, 0xbd, 0x16, 0xfd, 0xa3, 0x97, 0xff,
  0xd7, 0x05, 0x1a, 0x57, 0x39, 0x2f, 0x0a, 0xa8, 0x98, 0x55, 0xad, 0x62,
  0xd7, 0x4a, 0xd4, 0xa1, 0xbc, 0xcd, 0x12, 0xac, 0x92, 0xa7, 0x7f, 0x57,
  0x18, 0xc6, 0xe7, 0x5b, 0x1e, 0xf0, 0x02, 0xd4, 0xdb, 0xd9, 0xbf, 0xa4,
  0xe5, 0xe5, 0x0f, 0x86, 0x0a, 0xb0, 0x37, 0x82, 0x40, 0x92, 0x46, 0x3a,
  0xc3, 0x06, 0x9e, 0x3e, 0x57, 0x50, 0xf3, 0xb5, 0x44, 0xe8, 0xe8, 0x60,
  0x70, 0x1e, 0x0c, 0xcf, 0xe2, 0x81, 0x4d, 0xc9, 0x40, 0xa5, 0x59, 0xd3,
  0x20, 0x42, 0x43, 0xe8, 0x3d, 0xd1, 0xae, 0xe7, 0xde, 0x2f, 0x4b, 0x58,
  0xc6, 0xd6, 0xd7, 0x95, 0xb2, 0x1f, 0x47, 0x88, 0x32, 0xa3, 0xed, 0xd0,
  0x4d, 0xe1, 0x21, 0x45, 0x61, 0x0f, 0x61, 0xac, 0xd5, 0x1f, 0x67, 0x3a,
  0x5c, 0x88, 0xe3, 0x0d, 0xe4, 0xfb, 0x95, 0xca, 0xb2, 0xc4, 0xed, 0x38,
  0xb6, 0xf2, 0xe3, 0x51, 0x62, 0xe4, 0xe4, 0xd9, 0x33, 0xa1, 0x11, 0xfb,
  0xca, 0xf9, 0x54, 0x0d, 0xe1, 0x01, 0x41, 0xac, 0x25, 0x50, 0x7a, 0x3d,
  0x92, 0xe0, 0x4a, 0x22, 0x34, 0x72, 0x41, 0x96, 0xce, 0xe0, 0xc5, 0x5c,
  0x81, 0xdf, 0x0c, 0xcf, 0x4f, 0x1f, 0x5e, 0xe5, 0x52, 0x46, 0x50, 0xce,
  0x18, 0x49, 0xad, 0xe8, 0xfd, 0xb8, 0x20, 0xd0, 0xeb, 0x18, 0xd3, 0xef,
  0x78, 0xe7, 0x9a, 0xf5, 0xff, 0xb5, 0x08, 0x03, 0x16, 0x81, 0xea, 0xd6,
  0xce, 0x70, 0x97, 0x90, 0x2c, 0x38, 0x33, 0x25, 0x3d, 0x8f, 0xc8, 0xec,
  0xb8, 0x4f, 0xfb, 0x60, 0x39, 0xe8, 0x5f, 0xa4, 0xa2, 0x4f, 0x40, 0x23,
  0xa5, 0xe4, 0xc9, 0xca, 0x0c, 0x5a, 0x4f, 0x50, 0x10, 0x44, 0x14, 0x4f,
  0xb5, 0x99, 0x3f, 0xc7, 0x16, 0xda, 0x13, 0x46, 0xf9, 0x39, 0x12, 0xdf,
  0xed, 0xe8, 0x5b, 0x9e, 0xba, 0x3c, 0xb3, 0x16, 0x05, 0x00, 0x82, 0x8e,
  0xdb, 0x6b, 0xd3, 0xd8, 0x59, 0xc0, 0x9d, 0x21, 0x33, 0xab, 0x27, 0xa3,
  0xce, 0xc7, 0xfc, 0xdb, 0x4d, 0x54, 0x68, 0x8d, 0x6b, 0x65, 0x36, 0x5d,
  0xa8, 0xbb, 0xd7, 0x3d, 0xca, 0x15, 0xda, 0xe2, 0x4e, 0x5b, 0x56, 0x8c,
  0x43, 0x00, 0xc4, 0xcb, 0xff, 0x34, 0xcf, 0xde, 0x0b, 0x05, 0xcd, 0x91,
  0xf8, 0xcc, 0x4e, 0x82, 0x91, 0x7f, 0xf3, 0x01, 0xdc, 0x32, 0x59, 0x50,
  0x62, 0xb5, 0xe2, 0x51, 0x20, 0xd2, 0xb5, 0xba, 0x4e, 0xbe, 0xbe, 0xb4,
  0xa1, 0x88, 0xf5, 0x39, 0xe0, 0xd5, 0x9d, 0xae, 0x70, 0xbd, 0xf1, 0x14,
  0xb6, 0x58, 0x23, 0x1a, 0x0f, 0x60, 0xda, 0xb1, 0xe4, 0x2b, 0xd4, 0x7f,
  0x20, 0x43, 0x08, 0x97, 0xcb, 0x44, 0x37, 0x95, 0xc6, 0xd5, 0x03, 0x22,
  0x27, 0x21, 0x00, 0x2b, 0xf3, 0x0e, 0xf0, 0x7f, 0x11, 0xa1, 0xe1, 0xbe,
  0x91, 0x46, 0x2a, 0xb6, 0x1a, 0xbc, 0xc3, 0xb6, 0x49, 0x4d, 0xc5, 0x0e,
  0x76, 0x40, 0xc9, 0xb6, 0x90, 0xd7, 0xc9, 0xbf, 0xab, 0xb9, 0x28, 0x5e,
  0x14, 0xa4, 0xb1, 0xd7, 0x5b, 0x81, 0xff, 0x33, 0x5a, 0x5a, 0x40, 0x8d,
  0x6c, 0xc2, 0x44, 0x09, 0x4e, 0xf4, 0x92, 0xf4, 0x90, 0xef, 0xbc, 0x5c,
  0x4f, 0x2f, 0xb2, 0xd6, 0xfd, 0xd2, 0x47, 0x27, 0xdf, 0x22, 0xa0, 0xb0,
  0xc1, 0x5e, 0x1c, 0x58, 0x54, 0xe8, 0x8f, 0x7b, 0x1a, 0x99, 0x4f, 0x3a,
  0xd9, 0x38, 0x2f, 0xf7, 0x54, 0x98, 0xc7, 0x9b, 0x25, 0xbd, 0x4b, 0x5b,
  0xb7, 0xd5, 0x88, 0x82, 0xae, 0xc1, 0xa6, 0x0b, 0x4b, 0xec, 0xbb, 0x2b,
  0x04, 0x64, 0xf2, 0x1a, 0xe0, 0xe4, 0x72, 0xc1, 0xf0, 0x5f, 0x15, 0xcc,
  0x1a, 0x7a, 0x10, 0x8a, 0x74, 0x9c, 0x56, 0x71, 0xac, 0x91, 0x67, 0x48,
  0xb9, 0x08, 0xba, 0x60, 0x38, 0x36, 0xcd, 0x14, 0x09, 0xf8, 0xa8, 0xce,
  0x32, 0x05, 0xad, 0x32, 0x29, 0x49, 0x1c, 0x5f, 0x00, 0x04, 0xe0, 0x75,
  0xc7, 0xf9, 0xd9, 0x31, 0x67, 0xaa, 0x46, 0x7f, 0x75, 0xd1, 0x6a, 0x6e,
  0x07, 0xe9, 0x5e, 0xf1, 0xae, 0x62, 0xff, 0xb1, 0xce, 0x81, 0xa4, 0x16,
  0x1f, 0x86, 0x5e, 0xd0, 0x52, 0xab, 0x71, 0xb4, 0xb4, 0x00, 0xe8, 0x4f,
  0x5f, 0x7b, 0x2d, 0x05, 0x8e, 0xce, 0x54, 0x9e, 0xf4, 0x25, 0x08, 0x83,
  0xee, 0xd8, 0x2a, 0xf0, 0xb1, 0x2c, 0xfb, 0xf1, 0xd7, 0xfa, 0x46, 0xa1,
  0x86, 0xff, 0x8d, 0x77, 0x51, 0xfc, 0xde, 0xeb, 0x74, 0x37, 0x48, 0x02,
  0x4c, 0xd6, 0x9b, 0xed, 0xa6, 0x35, 0x21, 0x6f, 0x16, 0x2e, 0x4d, 0x34,
  0x23, 0x52, 0x9c, 0x60, 0x03, 0x00, 0xda, 0x3c, 0x01, 0x42, 0xfa, 0x7f,
  0x2d, 0x00, 0xd1, 0x85, 0xea, 0x2e, 0x4c, 0xfe, 0x62, 0xff, 0x02, 0x12,
  0x0e, 0xcb, 0x14, 0x4c, 0xc7, 0xa2, 0xa1, 0x14, 0xbf, 0x4e, 0x49, 0x37,
  0xfa, 0x72, 0x6f, 0xfe, 0x41, 0x9b, 0x4e, 0x58, 0x3f, 0x4d, 0x2c, 0x42,
  0x4e, 0xcb, 0x01, 0xc2, 0xd7, 0x84, 0xe9, 0x29, 0xe4, 0x12, 0x41, 0xe2,
  0xc0, 0xf7, 0xb4, 0xe4, 0x43, 0x0c, 0xbb, 0x56, 0xe1, 0x14, 0x34, 0xf5,
  0x29, 0xfc, 0xc1, 0xb3, 0xeb, 0x53, 0xd0, 0xa8, 0x38, 0x2b, 0x50, 0x61,
  0x1c, 0x58, 0x9a, 0xca, 0xfc, 0x98, 0x2e, 0x81, 0x73, 0x48, 0xaf, 0x5b,
  0xfc, 0x49, 0xf2, 0x14, 0x17, 0x25, 0x54, 0x3d, 0x3c, 0x9b, 0xbc, 0xbc,
  0xfe, 0xb5, 0x0c, 0xab, 0xf7, 0x13, 0x02, 0xf3, 0xd1, 0x3b, 0x31, 0x1e,
  0x42, 0x0c, 0x2b, 0xa8, 0x3d, 0x3a, 0x58, 0x67, 0xe5, 0xcb, 0xae, 0xb5,
  0xd2, 0x0d, 0xe8, 0xed, 0xcb, 0x17, 0x0f, 0x3c, 0xcc, 0x17, 0x1a, 0xcc,
  0x06, 0x3e, 0x4f, 0xcb, 0xbb, 0xad, 0xb2, 0x44, 0x06, 0x40, 0x95, 0x06,
  0x1a, 0x24, 0x7f, 0xde, 0x37, 0xf4, 0xf9, 0x38, 0x26, 0x8d, 0xbf, 0x11,
  0x19, 0x78, 0xf8, 0x03, 0x14, 0x33, 0xc4, 0x07, 0xc1, 0xb7, 0xab, 0xa3,
  0x46, 0x17, 0x36, 0xdc, 0x58, 0x27, 0xb5, 0xc7, 0xb5, 0x96, 0xb2, 0xe9,
  0x74, 0x19, 0xd2, 0x03, 0x56, 0x77, 0xc4, 0x25, 0x45, 0x13, 0xc3, 0x00,
  0xc2, 0x5e, 0x27, 0x50, 0xa4, 0xdf, 0xfd, 0xec, 0x40, 0x09, 0xc7, 0x43,
  0xae, 0x01, 0x22, 0xbf, 0x47, 0x5d, 0x38, 0x1c, 0xb1, 0x82, 0x9c, 0x30,
  0xe2, 0x27, 0x12, 0x3f, 0x46, 0x30, 0xc6, 0x16, 0x81, 0xa5, 0xa9, 0xa9,
  0x60, 0x0d, 0x72, 0xb2, 0x0b, 0x6e, 0x61, 0x2f, 0xd8, 0xb1, 0x25, 0x59,
  0x48, 0x24, 0xf2, 0x19, 0x68, 0x25, 0x17, 0x63, 0xff, 0xf5, 0xae, 0x0d,
  0xd0, 0x73, 0xd9, 0x3c, 0xfa, 0x17, 0xa0, 0xd3, 0x5e, 0x35, 0xb8, 0x9d,
  0x14, 0x6a, 0xd5, 0x57, 0xfa, 0x33, 0xec, 0x4f, 0x12, 0xac, 0x48, 0xe0,
  0x4d, 0x14, 0xd0, 0x4f, 0xfd, 0x2e, 0xbe, 0xc4, 0xbb, 0x26, 0xf8, 0xdc,
  0x3a, 0x2f, 0xe5, 0x48, 0xfa, 0xae, 0xba, 0xd5, 0xbd, 0xdf, 0xe0, 0xfb,
  0xde, 0xf6, 0xf3, 0xd6, 0x2b, 0x0e, 0xeb, 0x09, 0x92, 0x6b, 0x26, 0xf5,
  0x9f, 0x9d, 0x05, 0x41, 0x7d, 0x8c, 0xd9, 0x96, 0xb6, 0x57, 0xfe, 0x9a,
  0x30, 0x4b, 0x07, 0xe2, 0x84, 0x57, 0x3f, 0xfd, 0xe3, 0x76, 0x12, 0x71,
  0x98, 0x21, 0x00, 0x16, 0x32, 0x53, 0x1e, 0xe8, 0xd1, 0x11, 0x7f, 0xcd,
  0x1d, 0x3d, 0xbd, 0x2a, 0x27, 0x36, 0x51, 0x3c, 0x4d, 0xf3, 0x00, 0x17,
  0xb5, 0xe3, 0x18, 0xd3, 0x17, 0x55, 0x3b, 0xc2, 0x09, 0xc9, 0xc4, 0x37,
  0xd0, 0x5b, 0x66, 0x1e, 0xc4, 0xc9, 0xec, 0x54, 0xe0, 0xb7, 0xe8, 0x42,
  0xcd, 0x04, 0xb9, 0x4c, 0xd8, 0x5b, 0x45, 0x23, 0x98, 0x5a, 0x0c, 0x9c,
  0xb3, 0x4f, 0xd2, 0xb9, 0xef, 0xd3, 0xfd, 0xb4, 0x0e, 0x5c, 0x40, 0x04,
  0xdb, 0x08, 0xf3, 0x7f, 0x26, 0xae, 0x23, 0xeb, 0x9b, 0x9f, 0x4f, 0xac,
  0xb7, 0x50, 0x00, 0x54, 0x0d, 0x58, 0x3d, 0x20, 0x5f, 0x6c, 0xb8, 0xbd,
  0x8e, 0x2b, 0x2b, 0x50, 0xab, 0xc4, 0xe1, 0x51, 0x92, 0x92, 0x78, 0xfb,
  0xfe, 0x36, 0xd8, 0x47, 0x98, 0x8e, 0xb8, 0x33, 0xb6, 0x21, 0x79, 0xd4,
  0x30, 0xce, 0xc2, 0x98, 0x6a, 0x54, 0x5f, 0x9a, 0x51, 0x8b, 0x72, 0xfb,
  0xbf, 0xef, 0xeb, 0x1c, 0xec, 0xf8, 0xca, 0xd9, 0x72, 0xcd, 0xf3, 0xa4,
  0x3a, 0x81, 0x5e, 0x75, 0xf6, 0x30, 0xff, 0xa5, 0xdc, 0x14, 0x53, 0x24,
  0x1e, 0xd7, 0x9d, 0x6a, 0x22, 0xf3, 0x49, 0xea, 0x4c, 0x06, 0x59, 0xc6,
  0xfd, 0xea, 0x30, 0xfe, 0xdc, 0x39, 0x7f, 0xb4, 0x07, 0x27, 0xec, 0x3f,
  0xf6, 0xda, 0xaf, 0xd7, 0x28, 0x38, 0xa9, 0xe4, 0x4d, 0x2f, 0xfd, 0x51,
  0x2c, 0xba, 0xaa, 0x51, 0x49, 0x1c, 0xf2, 0x0b, 0x4b, 0xc7, 0xe2, 0x44,
  0x30, 0x05, 0x39, 0x9e, 0xf5, 0x21, 0x26, 0x11, 0x9c, 0xbf, 0x4f, 0x44,
  0x1b, 0xfc, 0xb7, 0xd4, 0x60, 0xe2, 0xe0, 0x09, 0x48, 0x26, 0xc0, 0x1d,
  0xe9, 0x09, 0x1e, 0x2e, 0x17, 0x32, 0xa5, 0xc7, 0xb3, 0xd5, 0x3e, 0x0e,
  0xfb, 0xab, 0xe1, 0x49, 0xc4, 0xd3, 0x32, 0x4c, 0x10, 0xbc, 0xf6, 0xe1,
  0xeb, 0x24, 0xbf, 0x06, 0xeb, 0xe1, 0xd7, 0xcc, 0xbd, 0xf0, 0x15, 0xe5,
  0x34, 0xfa, 0xd1, 0xee, 0xdd, 0x31, 0x29, 0xec, 0xe6, 0xed, 0x7f, 0x0e,
  0xcd, 0xc1, 0x28, 0xdb, 0x03, 0xc7, 0xb1, 0xd5, 0x57, 0xe7, 0xc1, 0x25,
  0xe8, 0x31, 0xe4, 0x27, 0xd3, 0xd5, 0xd8, 0x0a, 0xd5, 0x14, 0xe0, 0x04,
  0xf2, 0xf0, 0x33, 0xae, 0x87, 0x0f, 0x41, 0x76, 0x38, 0x1d, 0x31, 0x47,
  0x2b, 0x8e, 0x15, 0x36, 0xaa, 0xd8, 0x0b, 0xc3, 0x76, 0x55, 0xa4, 0xb7,
  0x7f, 0xab, 0x14, 0x27, 0xf2, 0x48, 0xf2, 0xae, 0x16, 0x1b, 0x0e, 0x32,
  0xa6, 0x29, 0x47, 0x12, 0x37, 0xc0, 0x2b, 0x10, 0x96, 0x92, 0x2f, 0xdc,
  0x28, 0xd4, 0xce, 0xd1, 0x8f, 0x10, 0xe8, 0xe7, 0x5f, 0x30, 0x4d, 0x44,
  0x19, 0x52, 0x0a, 0x46, 0x50, 0xff, 0xdb, 0xfb, 0x7c, 0xe0, 0xf4, 0xa0,
  0x0b, 0xa5, 0xcf, 0xe3, 0x56, 0x5a, 0x58, 0x65, 0xb1, 0x5f, 0x56, 0xa5,
  0xbe, 0x49, 0xcd, 0x03, 0x2c, 0xf2, 0x32, 0xb4, 0x09, 0x93, 0xd6, 0x29,
  0x49, 0x30, 0x5b, 0xb7, 0x08, 0xd7, 0xe1, 0xf4, 0x0e, 0xf3, 0x6e, 0xb0,
  0xdb, 0xb6, 0x52, 0xc1, 0x43, 0x39, 0x22, 0x15, 0xfc, 0xf5, 0xcb, 0x44,
  0x05, 0x7f, 0x3d, 0xbf, 0xa6, 0xde, 0x83, 0x34, 0x9f, 0x53, 0x31, 0xaf,
  0xf0, 0xf1, 0xe6, 0x70, 0xb5, 0x9b, 0x0a, 0x0a, 0x08, 0x4e, 0x57, 0xc8,
  0x28, 0x7d, 0xb4, 0xf8, 0xbe, 0xda, 0xff, 0xff, 0x04, 0x00, 0x00, 0x00,
  0x60, 0x00, 0x00, 0x00, 0x43, 0xf3, 0xff, 0xff, 0xc7, 0x05, 0x00, 0x00,
  0x96, 0xfd, 0xff, 0xff, 0x26, 0xf7, 0xff, 0xff, 0x1c, 0xfd, 0xff, 0xff,
  0xec, 0xf5, 0xff, 0xff, 0xdb, 0xfa, 0xff, 0xff, 0xbf, 0xf7, 0xff, 0xff,
  0xac, 0x05, 0x00, 0x00, 0x7f, 0xf6, 0xff, 0xff, 0xf0, 0xf5, 0xff, 0xff,
  0x50, 0xf8, 0xff, 0xff, 0x03, 0x00, 0x00, 0x00, 0x40, 0xee, 0xff, 0xff,
  0x6b, 0xfb, 0xff, 0xff, 0x0a, 0xfa, 0xff, 0xff, 0x3b, 0xfd, 0xff, 0xff,
  0x18, 0xf8, 0xff, 0xff, 0xd1, 0xfe, 0xff, 0xff, 0x2d, 0xfc, 0xff, 0xff,
  0x3e, 0xf8, 0xff, 0xff, 0xba, 0xfc, 0xff, 0xff, 0x2b, 0xf6, 0xff, 0xff,
  0xfa, 0xf3, 0xff, 0xff, 0x2a, 0xdb, 0xff, 0xff, 0x04, 0x00, 0x00, 0x00,
  0xc0, 0x06, 0x00, 0x00, 0xba, 0x20, 0xcc, 0x2d, 0x51, 0x52, 0xf6, 0xed,
  0x1c, 0x4c, 0x1e, 0x64, 0xb3, 0xac, 0xaa, 0x33, 0xb0, 0x9d, 0xa0, 0xf8,
  0xf8, 0xca, 0x11, 0xca, 0x47, 0x2d, 0x81, 0xc6, 0xc2, 0xa3, 0x2d, 0x06,
  0xbd, 0xf0, 0x56, 0x51, 0xb0, 0xa2, 0x53, 0xb6, 0x1d, 0xec, 0xba, 0xf2,
  0xca, 0x0d, 0xea, 0xbb, 0x1a, 0xfe, 0x8d, 0xc4, 0xa6, 0x04, 0x49, 0x21,
  0xe3, 0x5c, 0xc7, 0x2c, 0x3e, 0x07, 0xc9, 0xd2, 0x26, 0x5c, 0xb9, 0x1f,
  0xf2, 0x08, 0x0c, 0x35, 0xfc, 0xab, 0x56, 0x94, 0x63, 0xf1, 0x63, 0x22,
  0xa3, 0x1b, 0xf8, 0xb2, 0x3a, 0x0f, 0x20, 0x81, 0x29, 0x2d, 0xe1, 0xfc,
  0x30, 0xc1, 0x9c, 0xb4, 0xf4, 0xa2, 0xd2, 0x1a, 0x98, 0x8d, 0xdc, 0x27,
  0xb3, 0xed, 0x97, 0x0f, 0xf4, 0x4f, 0x2b, 0x53, 0xb4, 0x2e, 0xb5, 0x00,
  0xc2, 0xdc, 0x4e, 0xee, 0x68, 0x13, 0x11, 0xb0, 0x89, 0x18, 0x32, 0x08,
  0x60, 0x58, 0xb1, 0xa7, 0x2a, 0x2c, 0xab, 0x9b, 0x83, 0x60, 0x9f, 0x4d,
  0x5f, 0x9b, 0xd1, 0x2e, 0x25, 0xdd, 0xae, 0xd4, 0x38, 0x3e, 0xe5, 0x27,
  0xd7, 0xde, 0xd1, 0xad, 0x1d, 0xc0, 0x9f, 0xcf, 0x81, 0x13, 0x01, 0x39,
  0x0c, 0xb9, 0x3a, 0xb3, 0x22, 0xa0, 0xda, 0x2c, 0x38, 0xf8, 0xc7, 0xa4,
  0xb4, 0xe9, 0x26, 0x51, 0xef, 0xf7, 0xf2, 0x2d, 0xcb, 0xc2, 0xe6, 0x0f,
  0x43, 0xce, 0x26, 0x21, 0x4e, 0x02, 0xac, 0xe7, 0x14, 0xf9, 0xec, 0x05,
  0x09, 0x0e, 0x21, 0xbd, 0xc9, 0xe7, 0xee, 0x31, 0xa7, 0x44, 0xe7, 0x1e,
  0x22, 0xbc, 0xcf, 0xb9, 0x63, 0x26, 0xdd, 0xc7, 0x28, 0x5b, 0xa4, 0x6d,
  0xe3, 0x30, 0xb3, 0xd8, 0x2a, 0xba, 0x18, 0xc6, 0xb4, 0x23, 0xfd, 0x52,
  0x71, 0x1e, 0xcb, 0x1d, 0x16, 0xb2, 0x00, 0x2b, 0xe9, 0xfe, 0x4c, 0xed,
  0x26, 0xd2, 0x4e, 0x30, 0xa3, 0xd6, 0x0e, 0xbd, 0xf1, 0xda, 0xcd, 0xb0,
  0xad, 0x13, 0xd3, 0x37, 0xb2, 0x0a, 0xfe, 0xef, 0x81, 0xd4, 0x12, 0x3c,
  0xbb, 0xbb, 0xc6, 0xfd, 0x5d, 0x1b, 0x30, 0xd6, 0x98, 0xba, 0xb1, 0x3a,
  0xd0, 0xb1, 0x33, 0x35, 0x59, 0x0a, 0xd1, 0xa0, 0x1e, 0x18, 0xdb, 0x2a,
  0x8f, 0xd3, 0x17, 0x79, 0xe2, 0x30, 0x8c, 0x21, 0xd6, 0xc7, 0xc9, 0xb0,
  0xab, 0x41, 0x54, 0x61, 0x9c, 0x8f, 0x2d, 0x94, 0x07, 0xd1, 0x62, 0x7f,
  0x42, 0x1d, 0xb0, 0x9b, 0x9c, 0x0b, 0x1d, 0x4d, 0x89, 0xd2, 0xa0, 0xcd,
  0x01, 0x81, 0xc9, 0xf6, 0x41, 0x7b, 0x0b, 0xa3, 0x84, 0x1b, 0x68, 0x54,
  0x6a, 0x63, 0x5c, 0x44, 0xb6, 0x22, 0x3a, 0xb6, 0xc3, 0xb9, 0xc2, 0xbf,
  0xd8, 0x0a, 0xd1, 0xbb, 0xa6, 0xaf, 0x3a, 0x4f, 0xcb, 0x0e, 0x95, 0x96,
  0x11, 0xc2, 0x11, 0x3a, 0x3e, 0x3d, 0xe0, 0xf4, 0x1d, 0xf2, 0xb5, 0xe2,
  0x3b, 0xec, 0xd6, 0x3d, 0x08, 0x1f, 0xd8, 0x6d, 0xe7, 0x06, 0x81, 0xa8,
  0xf9, 0x99, 0x04, 0x1c, 0x4a, 0xc3, 0xc2, 0x1f, 0x08, 0x2d, 0x91, 0x90,
  0x64, 0x05, 0x25, 0xf1, 0x12, 0xd8, 0xdf, 0xef, 0xff, 0xab, 0xf1, 0x03,
  0x2e, 0x1c, 0x48, 0x23, 0x2f, 0x3f, 0xed, 0x27, 0x5b, 0x2f, 0x07, 0xd6,
  0x0e, 0xf9, 0xd9, 0x27, 0x5c, 0xd7, 0x4c, 0xe4, 0xf0, 0x7f, 0x73, 0xce,
  0xeb, 0xb5, 0xb0, 0xa9, 0xc7, 0xaa, 0x4a, 0x34, 0x82, 0xe6, 0xef, 0xcb,
  0x0c, 0xe2, 0x13, 0x5f, 0xba, 0xec, 0x11, 0x9c, 0xff, 0x47, 0xee, 0xfe,
  0x03, 0x19, 0x0c, 0x15, 0x08, 0x13, 0xf7, 0x41, 0x83, 0x28, 0xbf, 0x34,
  0x19, 0x15, 0x31, 0x5e, 0xde, 0xa9, 0x9f, 0xec, 0xf5, 0xb2, 0x62, 0xbd,
  0x19, 0x0d, 0xbb, 0xe7, 0xea, 0x30, 0xb8, 0xc5, 0xd7, 0x22, 0xda, 0x2f,
  0x8e, 0xea, 0xea, 0x99, 0xba, 0x41, 0x57, 0x58, 0x29, 0xbe, 0x41, 0xc3,
  0xe2, 0xc9, 0xdb, 0x04, 0x07, 0xd3, 0x77, 0x1a, 0x15, 0xbd, 0xfa, 0x6c,
  0xcb, 0x45, 0xc8, 0x52, 0xc3, 0x57, 0xae, 0xa5, 0x1b, 0x25, 0xcc, 0x15,
  0x19, 0x6a, 0xa6, 0x4d, 0x81, 0xd9, 0x5d, 0x17, 0xcb, 0xf4, 0x30, 0x4b,
  0x09, 0x53, 0xee, 0xac, 0xe3, 0x95, 0x43, 0x05, 0xc5, 0xb9, 0x33, 0xf9,
  0x23, 0xcf, 0x1e, 0xde, 0xb3, 0x08, 0xe3, 0x68, 0xf4, 0x5d, 0xe8, 0x3c,
  0x0c, 0xb1, 0x0f, 0xbe, 0x26, 0x41, 0xcd, 0x07, 0xaa, 0xd1, 0x47, 0xfc,
  0xf1, 0x24, 0xe2, 0xe8, 0x96, 0xe4, 0xd9, 0xdd, 0x9f, 0xd0, 0x35, 0xe2,
  0xd0, 0x3b, 0xc8, 0xb5, 0x00, 0xa7, 0x35, 0x7f, 0x31, 0xdd, 0x1f, 0x47,
  0xe7, 0xef, 0xb7, 0xc5, 0x13, 0xfe, 0xc3, 0x7f, 0xe1, 0x08, 0xdf, 0xc9,
  0x02, 0xc5, 0x21, 0xb5, 0x27, 0x34, 0xc3, 0x55, 0xde, 0x9d, 0x00, 0xd4,
  0xba, 0x02, 0x9d, 0x14, 0xd5, 0x32, 0x1d, 0x11, 0xb2, 0x10, 0x30, 0x13,
  0xb1, 0x36, 0xdc, 0xc5, 0x22, 0x03, 0xb8, 0xa1, 0xe3, 0xb2, 0x03, 0xec,
  0x83, 0x93, 0xda, 0x60, 0xff, 0xfd, 0x4a, 0xca, 0x42, 0xc2, 0xe0, 0x81,
  0xdc, 0x90, 0xf1, 0x18, 0x60, 0x96, 0xc6, 0xfc, 0xb0, 0x3d, 0x86, 0x86,
  0xb9, 0x06, 0x89, 0x5e, 0xe9, 0x45, 0x08, 0x03, 0xd4, 0xf2, 0xb2, 0x22,
  0x70, 0x97, 0xf5, 0x09, 0xea, 0x09, 0x21, 0x13, 0x11, 0xf8, 0xf2, 0xe1,
  0x83, 0x03, 0xef, 0xb2, 0x5b, 0x3d, 0xa4, 0x9d, 0xb6, 0xc8, 0xaf, 0xb4,
  0x13, 0x4b, 0x8f, 0x42, 0x1b, 0x32, 0xfd, 0x10, 0xec, 0xc9, 0x20, 0xcd,
  0xb6, 0xc8, 0xc1, 0x19, 0x92, 0xd4, 0xfc, 0xeb, 0x28, 0xdf, 0x81, 0x3c,
  0x29, 0xb8, 0x11, 0xd1, 0x37, 0xc1, 0xb0, 0xf8, 0xc9, 0x45, 0xf1, 0x44,
  0xc0, 0xbd, 0xfd, 0xc9, 0xbb, 0x0f, 0xd6, 0x2c, 0x16, 0x04, 0xb0, 0xfe,
  0xca, 0x12, 0xde, 0x28, 0xee, 0xef, 0x01, 0x35, 0x3c, 0xd2, 0xdb, 0x00,
  0x30, 0xde, 0x31, 0xc7, 0x91, 0x17, 0xc3, 0x1b, 0x14, 0x49, 0xa5, 0xab,
  0x3e, 0xe7, 0xf0, 0xb8, 0x45, 0xc9, 0x01, 0xbd, 0xb5, 0x08, 0xdc, 0xbd,
  0x01, 0x53, 0xb5, 0x2c, 0xcb, 0x3c, 0x07, 0xf9, 0xe4, 0x45, 0xe8, 0x2c,
  0xa7, 0x2c, 0xd5, 0x02, 0xd5, 0xc8, 0xd1, 0xf6, 0xb2, 0xca, 0xea, 0xba,
  0x2b, 0xfa, 0x24, 0xc1, 0xb1, 0x09, 0xdc, 0xbb, 0x0b, 0xdc, 0xcc, 0x1e,
  0x81, 0xf8, 0xd5, 0xd9, 0xc3, 0x1d, 0x32, 0xd1, 0xea, 0xcd, 0xe0, 0x0c,
  0x59, 0xdb, 0xd4, 0xf7, 0x25, 0xf5, 0x14, 0xf8, 0xd6, 0x41, 0x15, 0x01,
  0xb1, 0x2f, 0x23, 0xba, 0x2c, 0xd7, 0x81, 0xb6, 0x1d, 0x6c, 0xd7, 0xe1,
  0x39, 0x59, 0xfd, 0xa1, 0x19, 0xef, 0x3c, 0x46, 0xbf, 0xba, 0xb3, 0xa7,
  0xbd, 0xf6, 0x07, 0xa9, 0x2f, 0x51, 0xbe, 0x51, 0xed, 0x00, 0x23, 0xc4,
  0xe6, 0xd0, 0x0c, 0x41, 0x3f, 0x94, 0xa7, 0x31, 0x38, 0x53, 0x1a, 0x6b,
  0x57, 0xda, 0x11, 0xa8, 0xa3, 0x1a, 0x34, 0x0b, 0xa6, 0x3a, 0xa6, 0xb3,
  0xcd, 0x41, 0xd8, 0xc4, 0x06, 0xe3, 0xe4, 0x25, 0xc1, 0xd1, 0x98, 0x47,
  0xb7, 0x32, 0xb8, 0xdd, 0x4f, 0xe6, 0x9a, 0x4d, 0x26, 0xf8, 0x96, 0xb7,
  0xb5, 0x14, 0x4a, 0xdd, 0xaa, 0x3d, 0x1b, 0x25, 0x1e, 0xb8, 0xee, 0xad,
  0xfb, 0xdb, 0x2c, 0x37, 0xe9, 0xb7, 0x41, 0x40, 0xc3, 0xff, 0x37, 0xa6,
  0xfa, 0x98, 0x14, 0xb3, 0xb0, 0xb2, 0x34, 0xb4, 0xc3, 0xac, 0x60, 0xed,
  0x08, 0x2a, 0x04, 0x3a, 0xd6, 0xb7, 0xc9, 0xee, 0xdb, 0x47, 0x1f, 0x50,
  0xd3, 0x4d, 0x7f, 0x1c, 0xe7, 0x3f, 0x2f, 0x29, 0xb2, 0xd0, 0xa5, 0xc5,
  0x99, 0x39, 0x44, 0x3b, 0xb1, 0x24, 0xb8, 0xd8, 0xe5, 0x38, 0x46, 0xb6,
  0x2f, 0x20, 0xf4, 0x2f, 0xc5, 0xa3, 0x43, 0x92, 0x04, 0xde, 0x81, 0x5b,
  0x4e, 0x44, 0x28, 0xf1, 0xa4, 0x1a, 0x0a, 0xed, 0x10, 0x58, 0x2f, 0xbd,
  0xa6, 0x0b, 0x41, 0x4a, 0x27, 0xd4, 0x5a, 0x29, 0xee, 0xea, 0xdb, 0x02,
  0xc7, 0x95, 0xa8, 0xee, 0x4b, 0xe6, 0x9d, 0xe5, 0x3b, 0x5b, 0x32, 0xea,
  0xa1, 0x1b, 0x02, 0xcc, 0xd8, 0xca, 0xa2, 0x4f, 0xc3, 0xb8, 0xa1, 0xff,
  0x0b, 0xeb, 0xb6, 0x23, 0x58, 0xe4, 0xc7, 0x31, 0xe1, 0x0e, 0xbb, 0xda,
  0xf2, 0x07, 0x45, 0xb0, 0x18, 0xec, 0xb8, 0x22, 0xc6, 0x4d, 0xa8, 0xd3,
  0xee, 0x46, 0xa9, 0xdd, 0x04, 0x6d, 0x4d, 0xa5, 0xce, 0x96, 0x12, 0xe2,
  0xa6, 0x86, 0x4d, 0xac, 0xa6, 0x09, 0x0c, 0x2a, 0xe6, 0x9e, 0x0e, 0xa7,
  0x8a, 0xb0, 0xae, 0xa8, 0x64, 0x12, 0xcb, 0x15, 0x59, 0x0b, 0xe5, 0xe4,
  0x96, 0x81, 0x33, 0x2e, 0x2c, 0xe9, 0x10, 0xc2, 0x28, 0x8d, 0xc2, 0xb0,
  0xaf, 0x27, 0xa5, 0x18, 0x6c, 0x62, 0x3f, 0xbd, 0xb3, 0x13, 0x9a, 0xc3,
  0x13, 0x32, 0x58, 0xbe, 0xc7, 0xdf, 0xb1, 0xb2, 0xae, 0x28, 0x3f, 0x01,
  0x05, 0xf9, 0x4a, 0x29, 0xdb, 0x33, 0x18, 0x59, 0x81, 0x16, 0xd2, 0x58,
  0x3c, 0xc9, 0x43, 0x23, 0x66, 0xb5, 0x09, 0xd7, 0xef, 0xe9, 0x1c, 0x42,
  0xb7, 0xab, 0x6c, 0xf0, 0x15, 0x95, 0xfc, 0xd2, 0x4a, 0xda, 0x34, 0xfa,
  0xff, 0x3a, 0xcd, 0xf7, 0xaa, 0x9a, 0xd6, 0x8d, 0xf3, 0x3b, 0xa6, 0xe7,
  0x66, 0x97, 0x1a, 0x1c, 0xec, 0xff, 0xc1, 0xd0, 0x18, 0xa7, 0xcd, 0xec,
  0x81, 0xbb, 0x7a, 0x10, 0x52, 0x22, 0xf6, 0x3b, 0x93, 0x4e, 0xe0, 0x2a,
  0x34, 0xf0, 0xdd, 0xb6, 0xa6, 0xad, 0x26, 0x26, 0x9e, 0xcf, 0x47, 0x8d,
  0x1f, 0x38, 0xec, 0xea, 0xfb, 0x11, 0xcf, 0xe0, 0xed, 0xd5, 0xfc, 0x4d,
  0xde, 0xd0, 0x9f, 0x4b, 0xcd, 0xf2, 0x58, 0xeb, 0x25, 0xeb, 0xe5, 0xa4,
  0xc0, 0x19, 0x2b, 0xa4, 0x97, 0xd9, 0xb7, 0x24, 0x1d, 0xb0, 0xc1, 0xb2,
  0xac, 0xbe, 0x03, 0x25, 0xb7, 0xbb, 0x32, 0x53, 0x22, 0x4f, 0xd2, 0x03,
  0xd0, 0x50, 0xe7, 0x05, 0xfa, 0xcf, 0x1b, 0x2d, 0xfe, 0xb1, 0xa5, 0xcc,
  0x12, 0xf1, 0xf8, 0x33, 0xc8, 0x37, 0x0e, 0x64, 0x4a, 0xf5, 0x2a, 0x2a,
  0x04, 0x32, 0xb4, 0xaa, 0x3e, 0x14, 0x8e, 0x19, 0x3c, 0x56, 0xa7, 0x4f,
  0xfb, 0xd6, 0xf6, 0x37, 0xdd, 0x20, 0xbf, 0xc7, 0xdf, 0xea, 0xd0, 0x0b,
  0xe3, 0x90, 0xfc, 0xfc, 0x10, 0x38, 0x41, 0x81, 0xef, 0x2c, 0xb8, 0xbe,
  0x96, 0x05, 0xcc, 0xed, 0xca, 0xd5, 0xdf, 0xc8, 0x3a, 0xb2, 0xd1, 0xb0,
  0xc6, 0x81, 0x1d, 0x55, 0xba, 0xdf, 0x07, 0x8d, 0x02, 0xd8, 0xa3, 0x02,
  0xf5, 0x96, 0x94, 0xa5, 0x2a, 0x2f, 0x05, 0x44, 0xbe, 0x16, 0xd2, 0xd0,
  0x3c, 0x29, 0xef, 0x42, 0x07, 0x38, 0x29, 0x01, 0xb7, 0xa1, 0xdf, 0x85,
  0x41, 0x3b, 0xb7, 0xfd, 0xea, 0xc8, 0xfd, 0x0e, 0xd3, 0xab, 0xb2, 0xfd,
  0x35, 0xde, 0xfa, 0x60, 0xf4, 0x08, 0xe4, 0xfa, 0x90, 0xd9, 0xef, 0xe1,
  0xb1, 0xcd, 0x2e, 0xd8, 0xbd, 0x34, 0x24, 0x13, 0xcd, 0xf7, 0x1f, 0x31,
  0x42, 0x40, 0x1f, 0x23, 0xde, 0x24, 0x09, 0xb0, 0x8b, 0xba, 0x0b, 0xff,
  0xf7, 0x0e, 0xb0, 0xd9, 0x1b, 0x2e, 0xcb, 0x27, 0x92, 0xb2, 0x08, 0xd3,
  0xb0, 0xe6, 0x1d, 0xc6, 0x01, 0xf2, 0xed, 0xa0, 0x01, 0xc6, 0xcd, 0x33,
  0xb8, 0x21, 0x0f, 0x16, 0xe8, 0xc3, 0x20, 0x8d, 0xbd, 0x10, 0x28, 0x43,
  0x3a, 0x51, 0x41, 0xf3, 0x10, 0x10, 0xa3, 0xa4, 0xe7, 0x00, 0x81, 0x0a,
  0x08, 0xf2, 0xd6, 0x2b, 0xa3, 0x4a, 0x1f, 0x78, 0xd7, 0x64, 0x81, 0x62,
  0x2a, 0xfc, 0x6d, 0x24, 0xcf, 0x51, 0xc1, 0x10, 0xc0, 0x24, 0xe7, 0x26,
  0xdb, 0x36, 0x60, 0xd8, 0x50, 0xff, 0xec, 0x6b, 0x44, 0x25, 0xff, 0xeb,
  0x59, 0x5f, 0x07, 0xb7, 0xd0, 0x5d, 0xc9, 0x1a, 0x41, 0x11, 0xd6, 0x90,
  0xf1, 0xf7, 0xb7, 0x0f, 0xf3, 0x9b, 0xeb, 0xa7, 0x04, 0x35, 0x8d, 0x20,
  0x8b, 0x9f, 0x4c, 0x91, 0x26, 0x43, 0x8d, 0xec, 0x26, 0xb2, 0xbe, 0x85,
  0x0f, 0x40, 0xdd, 0xf3, 0x8b, 0x3c, 0x7d, 0x3e, 0x5a, 0x15, 0xb7, 0x47,
  0x3d, 0x5c, 0x64, 0xf6, 0x43, 0xae, 0x0a, 0x45, 0x8a, 0x17, 0xac, 0x65,
  0x5b, 0x17, 0x2e, 0xc5, 0xa6, 0x1a, 0xe1, 0x3a, 0x91, 0x57, 0xc7, 0x6d,
  0xc9, 0x45, 0x7f, 0xfe, 0x90, 0x90, 0xbc, 0xa8, 0x3e, 0xb1, 0x11, 0xe8,
  0x83, 0xb3, 0x8a, 0x11, 0xb2, 0xca, 0x0c, 0xba, 0xd7, 0x34, 0x07, 0x25,
  0x67, 0x07, 0x9d, 0x33, 0x16, 0x58, 0xcb, 0x16, 0xfb, 0xb6, 0xcc, 0x63,
  0x94, 0x78, 0xdc, 0x9b, 0x6a, 0xc0, 0x66, 0xd6, 0xa9, 0xb4, 0x1f, 0xb2,
  0xc8, 0xad, 0x34, 0x51, 0xdc, 0x41, 0x1a, 0x0e, 0x08, 0x0f, 0x2d, 0xe0,
  0x98, 0x4a, 0x96, 0x3b, 0x3c, 0xbd, 0x26, 0xcd, 0xec, 0x95, 0xeb, 0xac,
  0xc9, 0x3d, 0xc2, 0x27, 0xfb, 0x0a, 0xea, 0xa1, 0x07, 0xfb, 0xe7, 0x4d,
  0x56, 0xec, 0xa5, 0x61, 0xa6, 0x93, 0x7f, 0xe7, 0xa7, 0x24, 0xf5, 0xeb,
  0x5b, 0x54, 0x18, 0xe4, 0xf5, 0x14, 0xbd, 0xb0, 0xcf, 0x16, 0x26, 0x58,
  0x1d, 0x12, 0x26, 0xc9, 0xf6, 0xe1, 0xff, 0xff, 0x04, 0x00, 0x00, 0x00,
  0x60, 0x00, 0x00, 0x00, 0x70, 0xd8, 0xff, 0xff, 0x36, 0xd8, 0xff, 0xff,
  0xf2, 0xe1, 0xff, 0xff, 0xf0, 0xee, 0xff, 0xff, 0xf9, 0x09, 0x00, 0x00,
  0xe3, 0xbe, 0xff, 0xff, 0xa9, 0x0c, 0x00, 0x00, 0x88, 0x2e, 0x00, 0x00,
  0x52, 0xbe, 0xff, 0xff, 0x62, 0xa5, 0xff, 0xff, 0x96, 0xcf, 0xff, 0xff,
  0x5b, 0xf5, 0xff, 0xff, 0x05, 0xef, 0xff, 0xff, 0xeb, 0xd3, 0xff, 0xff,
  0x05, 0xf1, 0xff, 0xff, 0xcb, 0xb2, 0xff, 0xff, 0x5b, 0xdf, 0xff, 0xff,
  0xc1, 0xbb, 0xff, 0xff, 0x71, 0xcb, 0xff, 0xff, 0xbe, 0xcc, 0xff, 0xff,
  0xff, 0xff, 0xff, 0xff, 0x80, 0xce, 0xff, 0xff, 0x31, 0xe2, 0xff, 0xff,
  0x21, 0xc6, 0xff, 0xff, 0x62, 0xe2, 0xff, 0xff, 0x04, 0x00, 0x00, 0x00,
  0xc0, 0x06, 0x00, 0x00, 0xff, 0xba, 0x1d, 0x15, 0x7f, 0xc7, 0x40, 0x57,
  0x32, 0x35, 0x59, 0x9e, 0x35, 0x09, 0x71, 0x4e, 0xcf, 0xed, 0xc9, 0x2b,
  0xaa, 0x2b, 0x38, 0xdf, 0xd4, 0x02, 0xcf, 0x12, 0xf3, 0xd9, 0x64, 0xce,
  0x53, 0xf1, 0x0a, 0xec, 0x44, 0xc7, 0x0a, 0x13, 0xee, 0x90, 0x72, 0x0e,
  0xd3, 0x51, 0x26, 0xb6, 0x15, 0x5b, 0xa4, 0x2e, 0x26, 0x1c, 0xd8, 0x7a,
  0x62, 0xf0, 0xa1, 0x2a, 0x13, 0x05, 0x3a, 0xdc, 0x61, 0x92, 0xb9, 0xda,
  0x74, 0x48, 0xc7, 0xe9, 0xea, 0x35, 0xdc, 0x35, 0x23, 0x18, 0xe8, 0x3c,
  0x4c, 0x2a, 0x78, 0xe9, 0xc5, 0xf6, 0x06, 0xd5, 0x01, 0xd7, 0x56, 0xc6,
  0x11, 0xb4, 0xfd, 0x46, 0x14, 0x62, 0x13, 0x28, 0xe7, 0x7f, 0xff, 0xec,
  0xf7, 0x34, 0x38, 0x28, 0x2f, 0x06, 0x31, 0xc9, 0x34, 0x51, 0x29, 0x2e,
  0x40, 0xc1, 0xe0, 0x29, 0xa4, 0x2b, 0x4a, 0xcf, 0x1b, 0x5e, 0xb9, 0xad,
  0x09, 0x3c, 0xd6, 0xa1, 0xd5, 0x52, 0xb9, 0xaf, 0x40, 0xd3, 0xd5, 0xf2,
  0x1d, 0x3d, 0xc4, 0x37, 0x04, 0xe6, 0x57, 0xb8, 0x3a, 0xf5, 0xfa, 0x56,
  0x69, 0x8b, 0x58, 0x16, 0xfc, 0xcb, 0x0b, 0x40, 0x93, 0x29, 0xfc, 0x48,
  0x1d, 0x08, 0x21, 0xcb, 0x0c, 0x25, 0xfc, 0x7a, 0x51, 0x9a, 0xb8, 0x7f,
  0x94, 0xe7, 0xa2, 0xca, 0xe3, 0x08, 0x34, 0xaa, 0xfc, 0x8d, 0x91, 0xf9,
  0x72, 0x38, 0x25, 0xdc, 0x90, 0x37, 0x28, 0xd4, 0x35, 0xa0, 0xfb, 0xb3,
  0xb5, 0x0d, 0x3d, 0xd0, 0x56, 0xe8, 0x02, 0xbe, 0x13, 0x3a, 0x95, 0x53,
  0x63, 0x3b, 0xf0, 0xe5, 0xbe, 0xf9, 0x9c, 0x0d, 0xbc, 0xc8, 0xe8, 0x4c,
  0x83, 0x34, 0x27, 0xc4, 0x7d, 0xa8, 0x99, 0xa2, 0xa9, 0xfc, 0x59, 0x5a,
  0xed, 0xd3, 0x29, 0xee, 0xe7, 0xc3, 0x96, 0xcd, 0x4b, 0x87, 0x26, 0x6c,
  0xbe, 0xf7, 0x9a, 0x84, 0x00, 0xed, 0xd8, 0x98, 0xf6, 0x4b, 0x46, 0x14,
  0xe7, 0xbd, 0x49, 0x89, 0x01, 0x08, 0xf7, 0x48, 0xa4, 0x00, 0xd7, 0x0f,
  0x49, 0x40, 0xd0, 0xfd, 0xe1, 0xb0, 0xf2, 0x94, 0xdc, 0x50, 0x5f, 0x7f,
  0x5a, 0x3e, 0x83, 0xe1, 0x0f, 0xc8, 0x16, 0xdf, 0xa0, 0x42, 0xb5, 0xe5,
  0xaa, 0xa2, 0xd7, 0x06, 0xfc, 0xfe, 0x42, 0xfe, 0x7e, 0xd7, 0x59, 0x4a,
  0x00, 0x1e, 0x29, 0x05, 0x49, 0xd7, 0x3e, 0xfd, 0x02, 0xd2, 0x11, 0xbb,
  0x2a, 0x40, 0x30, 0x11, 0xcf, 0xc5, 0xe1, 0x28, 0x0d, 0xf1, 0x2c, 0xd3,
  0xbe, 0x27, 0xd8, 0xff, 0x42, 0x1f, 0xaf, 0xea, 0x42, 0xd5, 0xdc, 0xe5,
  0x26, 0xfc, 0xfe, 0x81, 0xe5, 0x49, 0xb5, 0x1e, 0x1a, 0xfa, 0x1b, 0x18,
  0x40, 0xf9, 0xc2, 0x42, 0xf8, 0xd4, 0x63, 0x43, 0x03, 0x1d, 0x45, 0x28,
  0x01, 0xab, 0x30, 0xf6, 0x13, 0x95, 0x98, 0x98, 0xd9, 0x31, 0x2c, 0x5f,
  0x7e, 0xcf, 0xfd, 0x2e, 0xf1, 0xb2, 0xe7, 0x03, 0x05, 0x39, 0x81, 0xe1,
  0x4f, 0x48, 0xf7, 0x37, 0xcf, 0xa8, 0x16, 0x5b, 0x6b, 0xe6, 0x3c, 0x64,
  0x79, 0xad, 0xf2, 0xbf, 0x37, 0x33, 0x14, 0x3b, 0x3f, 0x19, 0x33, 0xf3,
  0x28, 0x9b, 0xa7, 0xd2, 0xb7, 0x33, 0x0a, 0x44, 0x0f, 0x50, 0x69, 0xfb,
  0x5e, 0xc0, 0xd8, 0x0e, 0xcc, 0x9e, 0xb4, 0x72, 0x2c, 0x62, 0x73, 0x2c,
  0x18, 0x12, 0xb4, 0x4a, 0xf0, 0x84, 0x0b, 0x75, 0x60, 0xc5, 0x11, 0xc3,
  0x20, 0x0b, 0x17, 0xd1, 0x38, 0x41, 0x8d, 0xc7, 0x23, 0x55, 0x20, 0x67,
  0xd7, 0x10, 0xef, 0x81, 0x75, 0x4f, 0x95, 0xb7, 0xc9, 0xf9, 0x0d, 0x4e,
  0xcf, 0x3a, 0xfd, 0xe5, 0xb2, 0x39, 0xab, 0x57, 0x24, 0xaf, 0xe6, 0x4f,
  0x16, 0x43, 0x0c, 0x3d, 0x5f, 0x85, 0x26, 0x36, 0x3a, 0x8c, 0x07, 0x3f,
  0x89, 0xe9, 0x28, 0xbf, 0xf8, 0xdb, 0x25, 0x76, 0xe0, 0xaf, 0x4d, 0x34,
  0x4b, 0x61, 0x2a, 0x43, 0x38, 0xe1, 0xd4, 0xf4, 0x33, 0x0d, 0x66, 0x26,
  0x0c, 0x7f, 0x07, 0xc3, 0x1e, 0x30, 0xaa, 0xed, 0x1e, 0xf8, 0xef, 0x5a,
  0xca, 0xb5, 0xf2, 0x98, 0x4a, 0x23, 0xfe, 0xe6, 0xb4, 0xc5, 0xe3, 0x1b,
  0x48, 0x34, 0xde, 0xe4, 0x08, 0xf2, 0x86, 0x39, 0xe9, 0x23, 0x37, 0x36,
  0xaf, 0xcf, 0x62, 0x4d, 0x13, 0x47, 0xdb, 0x1b, 0x1d, 0xc4, 0xfa, 0x21,
  0x2b, 0xc8, 0xa2, 0x0d, 0x1f, 0xe6, 0xc3, 0x02, 0xd0, 0x26, 0x1e, 0x06,
  0xf7, 0xfb, 0xe3, 0xf0, 0xaf, 0xcf, 0xee, 0xdf, 0xb2, 0xdd, 0xc1, 0xb9,
  0xb8, 0x50, 0x0a, 0x2d, 0xdf, 0x41, 0x3d, 0xd4, 0xe5, 0x05, 0x5d, 0x6d,
  0x16, 0x91, 0xb8, 0xf1, 0xd6, 0x11, 0x59, 0xbe, 0xe1, 0xaa, 0xfe, 0xa8,
  0xa5, 0x7f, 0x18, 0x49, 0x96, 0xdb, 0xa3, 0xc8, 0x96, 0xab, 0x44, 0xd1,
  0xf3, 0xcd, 0xfb, 0xe4, 0x13, 0x0a, 0xb6, 0xeb, 0x0d, 0x5c, 0x38, 0xfc,
  0xfa, 0xa1, 0x13, 0xf7, 0x09, 0xf7, 0x61, 0x32, 0xd0, 0xe1, 0xb2, 0x30,
  0xdb, 0xc1, 0xdc, 0xd9, 0x24, 0xd5, 0x31, 0xfe, 0xc8, 0xab, 0x1b, 0x2a,
  0xfd, 0xeb, 0x0e, 0xcd, 0xce, 0xf9, 0xd0, 0xd6, 0x37, 0x24, 0x0a, 0x4e,
  0xc9, 0x12, 0xcd, 0x9a, 0x12, 0xcd, 0xfc, 0x91, 0xf9, 0xf9, 0xf1, 0xae,
  0x5f, 0xfe, 0x0b, 0xb7, 0xf1, 0xa8, 0x01, 0xf7, 0x0e, 0x27, 0x3d, 0x5c,
  0xe4, 0x90, 0x1d, 0x0d, 0x33, 0xa6, 0x81, 0x5f, 0xe9, 0xc9, 0xea, 0x4b,
  0x14, 0xd9, 0x36, 0xd9, 0x88, 0x5e, 0xf4, 0x43, 0xe0, 0xf5, 0x9f, 0x9a,
  0x56, 0x4c, 0x70, 0xf2, 0x71, 0x89, 0x02, 0x0f, 0x4f, 0x18, 0x37, 0x35,
  0x53, 0xea, 0xe9, 0xf6, 0x5a, 0x1a, 0x61, 0xf6, 0xab, 0x3b, 0x9f, 0xe7,
  0x85, 0x47, 0xdf, 0x57, 0xe6, 0x5a, 0x61, 0x51, 0xc1, 0xb4, 0xee, 0x57,
  0xda, 0x11, 0xaa, 0xc7, 0xbe, 0x4f, 0x53, 0x7f, 0x3d, 0xe1, 0x4a, 0x53,
  0x5b, 0x54, 0x22, 0xcf, 0x55, 0xfb, 0x3c, 0xb6, 0x0c, 0x64, 0x0d, 0x30,
  0x1e, 0x5b, 0x1c, 0x81, 0xe6, 0x7b, 0xf3, 0xe2, 0x51, 0x06, 0x0a, 0xdf,
  0x1b, 0x4e, 0xcc, 0xf3, 0x0f, 0x4f, 0x38, 0x1e, 0xe8, 0x17, 0x20, 0x3d,
  0x00, 0xb1, 0xc4, 0xc9, 0x01, 0xfd, 0xce, 0xe3, 0xc2, 0x13, 0x0f, 0xb9,
  0x42, 0xdc, 0xcc, 0x13, 0x43, 0xe9, 0xcb, 0x44, 0x5c, 0x36, 0xde, 0xec,
  0x43, 0xef, 0x4e, 0xe6, 0x3b, 0x68, 0x28, 0xeb, 0x1b, 0x39, 0x09, 0xe2,
  0xf2, 0x2b, 0x08, 0xea, 0x17, 0x19, 0x55, 0xb7, 0x7f, 0x36, 0x35, 0xe2,
  0x37, 0xe6, 0xc8, 0xb8, 0x99, 0x5a, 0xd7, 0x4c, 0x82, 0xe7, 0x18, 0xf3,
  0xfd, 0xdf, 0x1f, 0x03, 0x47, 0x2a, 0xe0, 0x39, 0xc4, 0x11, 0x06, 0x99,
  0x36, 0x51, 0x11, 0x16, 0xb3, 0x96, 0xde, 0xab, 0x82, 0x24, 0x02, 0xc1,
  0xba, 0x9b, 0x3b, 0xbd, 0x06, 0xb6, 0xdf, 0xb3, 0xe6, 0x06, 0x07, 0xc9,
  0x40, 0xd1, 0xa8, 0x62, 0xec, 0xbc, 0xbf, 0x01, 0x11, 0x2a, 0xf3, 0x1c,
  0xb9, 0x45, 0x28, 0x81, 0xd0, 0x7f, 0xa7, 0x5e, 0x59, 0x42, 0x5b, 0xef,
  0xc2, 0x08, 0x5b, 0x56, 0xea, 0xf3, 0xad, 0xd0, 0x24, 0xf1, 0x21, 0xe4,
  0xd2, 0xa7, 0x1d, 0xc9, 0xa1, 0x1b, 0xc3, 0x3d, 0x79, 0xd5, 0xef, 0xe9,
  0xf8, 0xa6, 0x0c, 0x2b, 0xac, 0x52, 0x0b, 0xe7, 0x24, 0x08, 0xaa, 0xa8,
  0x37, 0x18, 0xd8, 0x00, 0xca, 0x9e, 0xe6, 0x5a, 0x74, 0xb4, 0x64, 0xbe,
  0x47, 0x2d, 0xbc, 0xe7, 0xb7, 0xe5, 0x3a, 0xab, 0xea, 0xa6, 0xbf, 0xb3,
  0x0d, 0x13, 0x30, 0xd7, 0xf7, 0x00, 0x38, 0xab, 0x7f, 0x4c, 0xad, 0xbc,
  0x1f, 0xce, 0xda, 0x00, 0xa0, 0xdd, 0xf9, 0x64, 0xf4, 0x81, 0xf3, 0x06,
  0xc5, 0x90, 0x12, 0xe9, 0xd4, 0xfb, 0x02, 0x34, 0xd7, 0xaf, 0xf1, 0x07,
  0x16, 0x57, 0x33, 0x4e, 0x60, 0x27, 0x18, 0x77, 0xbc, 0xd0, 0xd7, 0xb6,
  0x2f, 0x20, 0x30, 0xb5, 0x5c, 0x8a, 0xd3, 0xf9, 0xc1, 0x45, 0x59, 0xa0,
  0x8d, 0x16, 0x4d, 0xb7, 0x08, 0xc1, 0xda, 0x45, 0xec, 0xec, 0x18, 0xf1,
  0x0f, 0xbf, 0xbf, 0xc7, 0x21, 0x37, 0xb6, 0xc7, 0x40, 0xa7, 0x4c, 0x38,
  0x2f, 0xb5, 0xbf, 0x51, 0x1b, 0x55, 0x1d, 0xc1, 0x3b, 0x54, 0x4e, 0x79,
  0x32, 0x0d, 0xb2, 0x4b, 0x0e, 0x16, 0xf4, 0xd9, 0xc7, 0xe0, 0x2d, 0xdf,
  0xf3, 0x4b, 0x3b, 0xd3, 0xcd, 0x9f, 0x49, 0x58, 0xae, 0xef, 0xed, 0x30,
  0xfe, 0x3a, 0x13, 0x41, 0xfe, 0x4c, 0x81, 0xad, 0x30, 0x0e, 0xa9, 0xeb,
  0x51, 0xd0, 0xd7, 0x1a, 0xb0, 0x66, 0xda, 0x63, 0x11, 0x3e, 0x37, 0x35,
  0xea, 0xd6, 0x1e, 0x58, 0xd6, 0x23, 0xc5, 0x8a, 0x18, 0x08, 0xf0, 0x26,
  0x3b, 0x54, 0x87, 0x54, 0x04, 0x47, 0xb6, 0xea, 0xd7, 0xfd, 0xd4, 0x69,
  0x12, 0x1b, 0xc2, 0xa3, 0x0a, 0xe5, 0x81, 0x42, 0xb3, 0xfd, 0x90, 0xa8,
  0x26, 0x5c, 0x4e, 0x2f, 0x59, 0xad, 0x5f, 0x74, 0x2f, 0x9e, 0xd7, 0xc1,
  0x88, 0xcb, 0x5e, 0x07, 0xcf, 0xbe, 0x85, 0x3a, 0xee, 0xf8, 0x17, 0xb5,
  0x4c, 0x41, 0xff, 0xa2, 0x90, 0x09, 0xb8, 0x6f, 0x2e, 0x4b, 0x24, 0xbc,
  0x5b, 0xe1, 0x59, 0x3e, 0x2d, 0x44, 0x3d, 0xdb, 0xf9, 0x8a, 0x29, 0x33,
  0xa8, 0x4e, 0xec, 0xaa, 0x4b, 0x8d, 0x4e, 0x23, 0x29, 0x34, 0x45, 0xdf,
  0xc9, 0x13, 0xcc, 0x1f, 0x81, 0xc7, 0x9d, 0x8e, 0xdc, 0x74, 0x1d, 0xac,
  0x0e, 0x5f, 0x3b, 0xf4, 0xb6, 0x13, 0x27, 0x59, 0xa1, 0x85, 0xbc, 0x64,
  0x26, 0x5e, 0x27, 0x30, 0xae, 0xe8, 0x0e, 0x90, 0x58, 0x32, 0x2e, 0xa2,
  0x7b, 0xdd, 0x32, 0x39, 0x39, 0xbf, 0xd5, 0xec, 0xa7, 0xa7, 0xbd, 0xcd,
  0x16, 0x52, 0xba, 0xaf, 0x1b, 0x3e, 0x2e, 0xab, 0x2b, 0x51, 0x64, 0x6c,
  0x9e, 0x1b, 0xb3, 0x2e, 0xe7, 0xfb, 0xa4, 0x5f, 0x5a, 0x4c, 0x06, 0x08,
  0x7c, 0x0e, 0x4f, 0x2e, 0xc0, 0xc4, 0xe5, 0xb4, 0x1a, 0xbe, 0xc7, 0xfb,
  0x46, 0xc0, 0xa5, 0xa4, 0xe3, 0xe6, 0x62, 0xe6, 0xb0, 0x4b, 0x1f, 0x40,
  0x4f, 0x90, 0xfe, 0x23, 0xff, 0xac, 0xda, 0x1c, 0x37, 0xc2, 0x71, 0xc1,
  0x49, 0xeb, 0x2e, 0x5e, 0xc5, 0x4d, 0xea, 0x27, 0x46, 0x9a, 0x81, 0x22,
  0x07, 0x50, 0x12, 0xfe, 0x23, 0x69, 0x15, 0xce, 0x98, 0x3d, 0x3e, 0xbf,
  0xda, 0x54, 0xb5, 0x59, 0x55, 0x15, 0xf4, 0x1b, 0x98, 0xc9, 0x3b, 0x52,
  0x8b, 0x57, 0x30, 0xc4, 0xd3, 0x58, 0x60, 0xbf, 0x03, 0xbe, 0x35, 0xd5,
  0x1b, 0x70, 0x12, 0xc8, 0x1d, 0x1a, 0xad, 0xa8, 0xc1, 0xe9, 0x22, 0x49,
  0xd0, 0xac, 0xb8, 0x12, 0xa1, 0xd7, 0x2c, 0x9b, 0x0d, 0x3c, 0x59, 0xe2,
  0x47, 0x3a, 0x01, 0x09, 0x10, 0x40, 0xb8, 0x0a, 0xa6, 0xb0, 0x04, 0xce,
  0x11, 0xab, 0xfa, 0x6f, 0xfd, 0x81, 0xa7, 0x87, 0x43, 0x24, 0x1d, 0x31,
  0x76, 0x16, 0x84, 0x2b, 0x27, 0xcd, 0xf8, 0x4a, 0x54, 0x93, 0x54, 0x76,
  0x22, 0x10, 0xd1, 0xad, 0x40, 0xba, 0xda, 0xf0, 0xdd, 0x36, 0x3f, 0x37,
  0x34, 0x03, 0xf1, 0x37, 0xf9, 0xca, 0xe9, 0x28, 0x23, 0xb2, 0x48, 0xcb,
  0x36, 0xb9, 0xf6, 0xfa, 0x62, 0xe2, 0xbb, 0xbc, 0xe1, 0x4d, 0x56, 0x48,
  0xe0, 0x2a, 0x13, 0xef, 0xe4, 0xbe, 0x81, 0x04, 0xad, 0xb2, 0x2d, 0x67,
  0xa0, 0xc4, 0x0a, 0x60, 0x65, 0x08, 0x75, 0xb4, 0xd2, 0x9f, 0xe4, 0x33,
  0xdc, 0x02, 0xa1, 0x8c, 0x1d, 0xc2, 0xe7, 0xd2, 0x3c, 0xf5, 0xde, 0xa6,
  0xfb, 0xc6, 0x35, 0x1e, 0xbc, 0x11, 0xd2, 0xd4, 0xde, 0x29, 0x68, 0xdd,
  0xd3, 0x14, 0xd4, 0x28, 0xdd, 0xd3, 0x57, 0x28, 0xa3, 0xda, 0xe1, 0x08,
  0xec, 0x48, 0xe5, 0x8c, 0xb2, 0xfa, 0x0c, 0xdd, 0xec, 0x18, 0x03, 0xdd,
  0x58, 0x0f, 0xd7, 0x4b, 0xad, 0x32, 0x15, 0xa7, 0xff, 0xd8, 0x09, 0xa6,
  0x11, 0x35, 0xb2, 0x81, 0xd0, 0xbb, 0x3f, 0x20, 0x11, 0x42, 0x5a, 0x57,
  0xf5, 0x26, 0xe2, 0xc0, 0x2b, 0x33, 0x13, 0xed, 0x49, 0xa1, 0x2f, 0xac,
  0x35, 0xba, 0xdb, 0x52, 0xb6, 0xb8, 0xff, 0xc9, 0xe9, 0xcf, 0xc6, 0xeb,
  0x40, 0x1b, 0xf8, 0x26, 0xc5, 0xc1, 0xb6, 0xc8, 0xdf, 0xcb, 0x67, 0xab,
  0xba, 0x15, 0x0e, 0xe7, 0x5d, 0x46, 0x6d, 0xbd, 0xcb, 0xc8, 0xc7, 0xae,
  0xe6, 0x2e, 0xd3, 0x56, 0x11, 0x5f, 0xf6, 0x1d, 0x14, 0x21, 0x7f, 0xd6,
  0x4b, 0xc8, 0x9f, 0x63, 0x5d, 0xd3, 0xda, 0xdd, 0x3a, 0x0b, 0xf4, 0x3d,
  0xc2, 0x3d, 0x25, 0xac, 0xb7, 0x03, 0x2b, 0xe8, 0xd8, 0xad, 0xf9, 0xa9,
  0xc7, 0xa1, 0x82, 0x70, 0xec, 0xf8, 0xd0, 0x95, 0xe7, 0x86, 0xb1, 0xa0,
  0x03, 0xdf, 0x15, 0x4e, 0xdc, 0x98, 0xf0, 0x01, 0xa7, 0x8a, 0x17, 0x37,
  0x86, 0xcf, 0x91, 0xac, 0x1c, 0x60, 0x94, 0x96, 0x15, 0xf1, 0xd6, 0x46,
  0x5e, 0x04, 0x9c, 0x13, 0x61, 0x1c, 0x21, 0xd3, 0xbb, 0xf7, 0x7f, 0xe3,
  0xd9, 0xe5, 0x48, 0xdc, 0x17, 0x40, 0x16, 0x48, 0xb1, 0xa2, 0x40, 0xbb,
  0xf2, 0x4c, 0x41, 0x2d, 0xe0, 0xa7, 0xff, 0xff, 0xe4, 0xa7, 0xff, 0xff,
  0xe8, 0xa7, 0xff, 0xff, 0x3a, 0xe9, 0xff, 0xff, 0x04, 0x00, 0x00, 0x00,
  0x60, 0x00, 0x00, 0x00, 0x00, 0x00, 0x00, 0x00, 0x00, 0x00, 0x00, 0x00,
  0x00, 0x00, 0x00, 0x00, 0x00, 0x00, 0x00, 0x00, 0x00, 0x00, 0x00, 0x00,
  0x00, 0x00, 0x00, 0x00, 0x00, 0x00, 0x00, 0x00, 0x00, 0x00, 0x00, 0x00,
  0x00, 0x00, 0x00, 0x00, 0x00, 0x00, 0x00, 0x00, 0x00, 0x00, 0x00, 0x00,
  0x00, 0x00, 0x00, 0x00, 0x00, 0x00, 0x00, 0x00, 0x00, 0x00, 0x00, 0x00,
  0x00, 0x00, 0x00, 0x00, 0x00, 0x00, 0x00, 0x00, 0x00, 0x00, 0x00, 0x00,
  0x00, 0x00, 0x00, 0x00, 0x00, 0x00, 0x00, 0x00, 0x00, 0x00, 0x00, 0x00,
  0x00, 0x00, 0x00, 0x00, 0x00, 0x00, 0x00, 0x00, 0x00, 0x00, 0x00, 0x00,
  0x00, 0x00, 0x00, 0x00, 0xa6, 0xe9, 0xff, 0xff, 0x04, 0x00, 0x00, 0x00,
  0x18, 0x00, 0x00, 0x00, 0x0b, 0x7f, 0x02, 0xd4, 0xf9, 0xf2, 0xb2, 0xeb,
  0x0e, 0x80, 0x2d, 0x53, 0x65, 0x47, 0xdb, 0x10, 0x2c, 0x4c, 0x3c, 0x0e,
  0x13, 0x3e, 0x54, 0x0e, 0xca, 0xe9, 0xff, 0xff, 0x04, 0x00, 0x00, 0x00,
  0xc0, 0x06, 0x00, 0x00, 0x89, 0x1a, 0xe6, 0xd1, 0x2f, 0x3d, 0xf8, 0x56,
  0x44, 0xd0, 0x89, 0x2e, 0xe4, 0x8b, 0x56, 0xf5, 0x14, 0xbd, 0xfa, 0x03,
  0xc6, 0xb6, 0x81, 0x4c, 0x86, 0xa5, 0xcb, 0x20, 0xed, 0x38, 0xb8, 0x39,
  0x39, 0xab, 0x36, 0xb9, 0x35, 0x40, 0xf0, 0xc8, 0xa7, 0x60, 0xc5, 0x89,
  0x06, 0x14, 0x36, 0x48, 0xf6, 0xcc, 0x48, 0x00, 0x48, 0x85, 0xc0, 0x7b,
  0xa1, 0xa3, 0x9f, 0xed, 0x40, 0x1f, 0x65, 0x8d, 0x70, 0x53, 0x24, 0x85,
  0x94, 0x19, 0x94, 0x93, 0xcc, 0x85, 0x42, 0xd6, 0x99, 0xc7, 0x2d, 0xc9,
  0xe4, 0xbf, 0x2d, 0x14, 0x37, 0xa7, 0xed, 0x11, 0x5d, 0xc9, 0x29, 0x29,
  0x24, 0x1c, 0x55, 0x22, 0xaa, 0xe2, 0xd1, 0x4e, 0xee, 0x8c, 0x67, 0x4a,
  0xba, 0x19, 0x5d, 0x81, 0xde, 0xf0, 0x2d, 0x24, 0xcb, 0x1a, 0xeb, 0x1b,
  0x05, 0x91, 0xb8, 0x66, 0xbd, 0x0a, 0xb8, 0xa7, 0x23, 0xa0, 0x09, 0x68,
  0xa2, 0x32, 0x48, 0x1f, 0x9b, 0xd1, 0x07, 0x55, 0xb2, 0x98, 0x47, 0x5d,
  0xf3, 0x3d, 0xdf, 0xba, 0x34, 0xe2, 0x43, 0xea, 0x47, 0xb4, 0x36, 0x0c,
  0x9e, 0x31, 0xe1, 0x14, 0x89, 0x10, 0xc6, 0x01, 0xbd, 0xa7, 0x26, 0xa0,
  0x58, 0x55, 0x4e, 0xb8, 0xcc, 0x2e, 0x4d, 0x03, 0xb1, 0x4f, 0xb9, 0xbd,
  0xe2, 0x29, 0xd8, 0x43, 0x3b, 0x36, 0x52, 0xaa, 0x56, 0xa8, 0xde, 0x9b,
  0x1f, 0x26, 0xb9, 0x42, 0xce, 0x9d, 0x10, 0xb0, 0xea, 0xbb, 0x2d, 0xca,
  0xd0, 0x7f, 0x6c, 0xb2, 0x9b, 0x3a, 0xb1, 0x6b, 0xbe, 0x94, 0x46, 0xc5,
  0xe0, 0xe3, 0xf8, 0xd9, 0xef, 0x9b, 0xb5, 0xbf, 0x12, 0xb5, 0xf2, 0xb9,
  0xed, 0x34, 0x47, 0x0c, 0xb4, 0x0a, 0x63, 0xf1, 0x4d, 0xad, 0x53, 0xd5,
  0xea, 0x9e, 0xae, 0x61, 0xb7, 0xbd, 0xab, 0x41, 0x04, 0xcb, 0xdf, 0x40,
  0x0a, 0xa4, 0xba, 0xd6, 0x11, 0xc6, 0x4a, 0xb8, 0x49, 0x1b, 0x5c, 0x4d,
  0x3e, 0xb6, 0x95, 0xf2, 0x5a, 0x0c, 0xef, 0x55, 0xb0, 0xd8, 0x61, 0x2d,
  0x39, 0xec, 0xc9, 0x30, 0x5a, 0xdb, 0xf0, 0x86, 0x54, 0xfd, 0x81, 0xe0,
  0xb5, 0x2b, 0xb4, 0x03, 0x5b, 0x3a, 0x46, 0xdf, 0x0d, 0xcf, 0xec, 0xe4,
  0xd8, 0xf3, 0x01, 0x17, 0x14, 0x34, 0x06, 0xe5, 0x65, 0xd8, 0x17, 0xcd,
  0x81, 0xb4, 0x8d, 0xe3, 0x33, 0xfb, 0x2c, 0x5b, 0xd1, 0xd9, 0x36, 0x31,
  0x9e, 0xfa, 0xca, 0x1f, 0x1d, 0xd2, 0x17, 0xbe, 0x0d, 0xe9, 0x08, 0x00,
  0x12, 0x47, 0x1a, 0x15, 0x28, 0x41, 0xfe, 0xbf, 0xaa, 0x29, 0xce, 0xde,
  0x05, 0x20, 0x0b, 0xc4, 0x39, 0x0c, 0xe4, 0x16, 0x07, 0xdc, 0x07, 0xbc,
  0xf5, 0x50, 0xc6, 0xe6, 0x7b, 0x01, 0xda, 0xfa, 0xfd, 0xe1, 0x86, 0x0d,
  0x0e, 0x2e, 0x31, 0xde, 0xc4, 0xd3, 0xf9, 0x09, 0x92, 0xc1, 0x9d, 0x9a,
  0x10, 0x8e, 0x81, 0x1f, 0x46, 0xb3, 0xef, 0xcb, 0x6b, 0xb7, 0x4d, 0xb8,
  0x62, 0x89, 0x50, 0x99, 0xc4, 0x19, 0x3b, 0xf9, 0x3d, 0x89, 0xc7, 0x65,
  0x2e, 0xd1, 0x2f, 0xa9, 0x78, 0xba, 0x59, 0xf7, 0x14, 0x09, 0x96, 0x4e,
  0x69, 0xef, 0x31, 0x4e, 0xde, 0x91, 0xd4, 0xb6, 0x89, 0x3e, 0xc7, 0x6c,
  0xf1, 0xea, 0x79, 0xdc, 0xe2, 0x03, 0x2f, 0xf0, 0x69, 0xe6, 0x18, 0x14,
  0xaf, 0x95, 0x25, 0x1c, 0xcc, 0x19, 0x39, 0x42, 0xf6, 0x3c, 0xea, 0x0a,
  0x0b, 0xba, 0x28, 0xad, 0x29, 0x69, 0x50, 0xb8, 0x56, 0x5c, 0xe8, 0x34,
  0x19, 0x2a, 0x0b, 0x09, 0x52, 0x46, 0xdc, 0xaa, 0x56, 0xf2, 0x97, 0xe3,
  0x64, 0x32, 0xdf, 0xef, 0x04, 0xf7, 0xa2, 0x5e, 0x0a, 0xb8, 0xcd, 0x4d,
  0xb1, 0x03, 0xc3, 0x46, 0xd6, 0xc4, 0xf9, 0xe3, 0x20, 0x6e, 0x3e, 0x05,
  0x81, 0xeb, 0xaf, 0xaa, 0x95, 0xf3, 0x4a, 0x07, 0xf1, 0xd7, 0x50, 0xc6,
  0x59, 0xe9, 0xad, 0xd0, 0xf6, 0xd9, 0x3f, 0x52, 0x3c, 0x52, 0xaf, 0x27,
  0x1a, 0x91, 0xac, 0xb3, 0x28, 0xe8, 0x43, 0xac, 0x21, 0xe4, 0x38, 0x93,
  0x58, 0x27, 0xb8, 0x3c, 0x27, 0x95, 0xc8, 0x81, 0xd5, 0xca, 0xb6, 0x25,
  0x70, 0x43, 0x9c, 0x8d, 0x3c, 0xa8, 0x16, 0x68, 0xfb, 0xa4, 0x1a, 0x42,
  0xa0, 0xdf, 0x4c, 0x83, 0xc1, 0xb6, 0x0e, 0x06, 0xb8, 0x3d, 0x32, 0xc5,
  0xa4, 0x8c, 0x53, 0xe6, 0xa0, 0xec, 0x30, 0x96, 0x5b, 0xcd, 0xfc, 0x44,
  0xc0, 0xb8, 0x4d, 0xdb, 0x17, 0x7c, 0xc4, 0xde, 0xcd, 0x97, 0xc3, 0xb1,
  0x00, 0xa7, 0x35, 0xf6, 0xc1, 0x32, 0x6f, 0xa2, 0x65, 0x53, 0x49, 0x3a,
  0x0f, 0x09, 0x53, 0xb0, 0xc2, 0x6e, 0xcf, 0xb6, 0xff, 0x81, 0x62, 0xc5,
  0xdd, 0xb5, 0x4f, 0xaf, 0x31, 0xba, 0x01, 0x4b, 0x73, 0xfb, 0x58, 0x22,
  0xa2, 0xbf, 0xb1, 0x15, 0x0d, 0x44, 0x15, 0x97, 0x8b, 0xd0, 0xd2, 0x11,
  0x33, 0x40, 0xfc, 0x1e, 0x03, 0x15, 0xb9, 0x28, 0x19, 0x13, 0xb2, 0xd7,
  0x0a, 0xa3, 0xe3, 0x8d, 0xde, 0x2b, 0x64, 0xd9, 0x4f, 0xd0, 0x35, 0x06,
  0x53, 0xfe, 0xc9, 0x4d, 0x81, 0x42, 0x48, 0x2f, 0x18, 0xc6, 0x2b, 0x32,
  0xa6, 0xa6, 0xc8, 0xf3, 0xed, 0x06, 0x52, 0xa9, 0x86, 0xf9, 0x18, 0xbf,
  0x56, 0x0a, 0x4c, 0x11, 0xa9, 0x4b, 0xd0, 0x37, 0x9d, 0x05, 0x4b, 0x2e,
  0x35, 0xb0, 0x6e, 0x96, 0x0b, 0xf7, 0x5a, 0x44, 0x90, 0xdf, 0xb1, 0x05,
  0x05, 0x2f, 0x3f, 0x41, 0xe9, 0x35, 0x3c, 0x38, 0xe6, 0x2a, 0x59, 0x47,
  0x30, 0x36, 0x21, 0x89, 0x0f, 0x3a, 0x17, 0x40, 0xab, 0x3d, 0xbf, 0x44,
  0xd0, 0xba, 0xe8, 0xbb, 0x8a, 0x01, 0x5b, 0xc7, 0x1e, 0x59, 0xc0, 0x2e,
  0x11, 0xf8, 0xe5, 0xb4, 0xad, 0xec, 0x2c, 0x92, 0xd6, 0xcd, 0xbb, 0xc1,
  0xdc, 0x4e, 0xcd, 0x81, 0x0b, 0xd4, 0xec, 0xac, 0xca, 0x92, 0x69, 0x57,
  0xbb, 0xc1, 0xb8, 0xbf, 0x2f, 0xc2, 0x40, 0x02, 0xfb, 0xa6, 0xf1, 0x01,
  0x37, 0xaa, 0x39, 0x27, 0xd8, 0x17, 0x64, 0x3d, 0x2b, 0xf5, 0xdb, 0xb7,
  0xfe, 0x3c, 0x4f, 0xac, 0xbd, 0xd3, 0x07, 0xb0, 0xc0, 0x4d, 0x99, 0xee,
  0xec, 0x45, 0xb8, 0xf8, 0x84, 0x1a, 0xb0, 0x38, 0xcb, 0xf7, 0xc3, 0x5e,
  0xe0, 0x3d, 0xc1, 0xd3, 0x17, 0x3a, 0x29, 0xb5, 0x19, 0xce, 0x0c, 0xde,
  0xde, 0xed, 0xf9, 0xfb, 0xd2, 0xf1, 0xf8, 0x38, 0x52, 0x55, 0xd5, 0x3b,
  0x4d, 0x0e, 0x0c, 0x46, 0x7f, 0x3b, 0xd7, 0xd0, 0x3b, 0xc8, 0x2b, 0xee,
  0xf6, 0x30, 0xbf, 0xfd, 0x53, 0x8d, 0xb0, 0x18, 0xee, 0x0e, 0x13, 0x3c,
  0x0f, 0x54, 0x6f, 0x38, 0xee, 0x2a, 0x5f, 0x31, 0xb4, 0xc9, 0xc2, 0x6b,
  0x81, 0xa8, 0x09, 0x94, 0xbd, 0xa2, 0x18, 0xab, 0x4c, 0x46, 0x18, 0x61,
  0x55, 0x60, 0x72, 0x14, 0x70, 0xe2, 0x12, 0x8c, 0x11, 0x03, 0x52, 0x46,
  0xb3, 0x9a, 0xb2, 0x2a, 0xb6, 0x75, 0x86, 0xfa, 0xd7, 0xcd, 0x42, 0x16,
  0xb3, 0xab, 0x0d, 0xf9, 0xc4, 0x38, 0x48, 0xe4, 0x21, 0x43, 0x04, 0x78,
  0x53, 0x1b, 0x96, 0x7f, 0xe5, 0x07, 0xf3, 0x92, 0x13, 0x09, 0xdc, 0x06,
  0x81, 0x12, 0x22, 0xa1, 0x8d, 0x4b, 0x60, 0x5f, 0x15, 0x91, 0xb3, 0xc5,
  0xe7, 0x75, 0xee, 0x36, 0xf0, 0x27, 0xa3, 0x17, 0xd0, 0xcd, 0x64, 0xce,
  0x8c, 0xaa, 0x0f, 0xa6, 0x36, 0x84, 0x67, 0xda, 0xad, 0x3d, 0xcf, 0x65,
  0x40, 0xca, 0x10, 0xe9, 0xb8, 0xa6, 0x3f, 0xa2, 0xc4, 0x69, 0xa2, 0xc9,
  0xdf, 0x15, 0xdf, 0x5e, 0xa9, 0x6a, 0xc4, 0x64, 0xc3, 0x01, 0xfa, 0x77,
  0xe2, 0x75, 0xd7, 0xb4, 0xa8, 0x48, 0xde, 0x09, 0xc0, 0x2b, 0xc8, 0x58,
  0xcf, 0x23, 0xe5, 0x10, 0xcf, 0x4b, 0x05, 0x5f, 0x32, 0x3b, 0x3a, 0xbc,
  0x2b, 0x09, 0x81, 0xe9, 0x3c, 0xac, 0xcd, 0xdd, 0x57, 0x2b, 0xa9, 0x62,
  0xb8, 0xf0, 0xd7, 0xbd, 0x17, 0x20, 0x5e, 0xc8, 0xdf, 0xc5, 0xfa, 0x53,
  0x55, 0x2a, 0xc5, 0xbd, 0x98, 0x5e, 0x4b, 0xe7, 0x4a, 0xca, 0x0b, 0x73,
  0x44, 0xa1, 0x8d, 0xc6, 0xd8, 0x2e, 0x05, 0xa7, 0x93, 0x05, 0xa6, 0x14,
  0x8b, 0x1d, 0xf4, 0xb1, 0x7f, 0xec, 0x2c, 0xde, 0x01, 0xd8, 0x47, 0x08,
  0x08, 0x4e, 0xbf, 0xc7, 0x23, 0xca, 0xb8, 0xf1, 0x23, 0xba, 0xc7, 0xf6,
  0xc3, 0x20, 0x0a, 0xf2, 0xe4, 0xf5, 0x01, 0xf3, 0x39, 0xe1, 0xf8, 0x17,
  0x28, 0x53, 0xe2, 0xee, 0x0f, 0x62, 0x14, 0xaa, 0x50, 0x36, 0x04, 0x4f,
  0x15, 0xdb, 0xe0, 0xd0, 0x60, 0xe3, 0x0d, 0x28, 0xa1, 0x29, 0xf0, 0x1f,
  0xe6, 0x08, 0xd8, 0x0d, 0x31, 0xe9, 0xb8, 0xdf, 0xc3, 0xf8, 0x44, 0x0b,
  0xc6, 0xc4, 0xe5, 0xda, 0xf7, 0x52, 0xbc, 0xe7, 0xba, 0x01, 0x2e, 0xfc,
  0xb1, 0x4b, 0x24, 0xfd, 0x9f, 0x5c, 0x98, 0x46, 0x96, 0x95, 0x85, 0x0a,
  0xe5, 0xc5, 0xb4, 0x52, 0x54, 0xac, 0x1b, 0xe8, 0x10, 0x4c, 0x43, 0x50,
  0xf8, 0x81, 0xb6, 0x9d, 0xc5, 0xa6, 0x4e, 0x34, 0xaa, 0xe1, 0x9a, 0x4f,
  0x91, 0x9f, 0xc8, 0xd9, 0xba, 0x41, 0xcf, 0xff, 0x20, 0x02, 0x3a, 0xbd,
  0xe1, 0x00, 0xd6, 0x26, 0xb8, 0x8c, 0x1d, 0x3b, 0x9b, 0xba, 0x46, 0x19,
  0x20, 0xda, 0x29, 0x00, 0xaa, 0x8f, 0x2f, 0xf1, 0x2d, 0x11, 0xd1, 0xf5,
  0xd2, 0x1e, 0xfd, 0x85, 0xdf, 0x04, 0xdb, 0x0a, 0x61, 0xfc, 0x84, 0xdc,
  0x67, 0xdb, 0xbc, 0xf5, 0xab, 0x0c, 0x15, 0xdb, 0x2f, 0xf3, 0x14, 0x5e,
  0x74, 0x58, 0x62, 0x0a, 0xed, 0x51, 0x70, 0x15, 0x4c, 0xb7, 0xeb, 0xbd,
  0x96, 0x00, 0x28, 0x1d, 0x81, 0x9e, 0xb9, 0x33, 0x47, 0x85, 0xbe, 0x99,
  0x02, 0xbb, 0xec, 0x8e, 0x1b, 0x2d, 0x22, 0xab, 0x2b, 0x16, 0x1f, 0xc2,
  0x89, 0x34, 0x0a, 0xaa, 0x4d, 0xb0, 0x9b, 0x18, 0xf3, 0xda, 0x94, 0xe8,
  0xcd, 0xc4, 0xaf, 0x0b, 0xef, 0x0f, 0xad, 0xcf, 0x5d, 0x87, 0x7f, 0xbc,
  0xe8, 0x4f, 0xe6, 0x5c, 0xd0, 0x8c, 0xaf, 0x26, 0x5a, 0x12, 0x6f, 0xce,
  0x49, 0x66, 0xf2, 0x1d, 0xf8, 0xf8, 0x98, 0x86, 0x43, 0xfd, 0xd9, 0x25,
  0xa8, 0xca, 0x43, 0x29, 0xa1, 0x4c, 0xdc, 0x2e, 0xf2, 0x29, 0x00, 0xb9,
  0xb7, 0xb2, 0xfb, 0x3a, 0xd2, 0xb6, 0xc9, 0xd6, 0x0e, 0x32, 0x45, 0x0d,
  0xdd, 0x00, 0xd7, 0x8a, 0x7e, 0x19, 0x13, 0xa1, 0xe0, 0x37, 0x5f, 0x2c,
  0x99, 0x3b, 0x3f, 0x65, 0x73, 0xaa, 0xed, 0xc7, 0x0c, 0xd7, 0xc4, 0x29,
  0xd7, 0xa8, 0x3e, 0xc0, 0x8d, 0xb1, 0x16, 0xe7, 0x14, 0xc4, 0xc4, 0xc0,
  0xed, 0xbd, 0xd6, 0x44, 0x49, 0xb5, 0x4a, 0x09, 0xd0, 0xf5, 0xf5, 0x99,
  0x81, 0xa4, 0xce, 0x25, 0xb3, 0x7a, 0xb9, 0xcc, 0xd1, 0x61, 0xb7, 0x9c,
  0x9d, 0x05, 0x3a, 0x2b, 0xbb, 0x93, 0x25, 0x3c, 0x9f, 0x1e, 0xc1, 0x5f,
  0xd1, 0x4c, 0xb7, 0x2f, 0x33, 0x9b, 0x49, 0x27, 0xf6, 0xcc, 0x01, 0xa3,
  0xbb, 0x5e, 0x3d, 0x8c, 0x84, 0x15, 0xc4, 0x3f, 0xbb, 0x85, 0xa3, 0x2f,
  0xe8, 0x89, 0xe6, 0x43, 0x21, 0x32, 0xa7, 0xd8, 0xc7, 0x35, 0xdc, 0x93,
  0x14, 0xf0, 0x9f, 0x8a, 0x3a, 0x31, 0x23, 0x09, 0xb7, 0x88, 0x82, 0x37,
  0x0b, 0xa1, 0x10, 0x0d, 0x0c, 0x1c, 0xa9, 0x51, 0x90, 0x8c, 0x42, 0x50,
  0x81, 0x50, 0xe5, 0x35, 0xf0, 0xcd, 0x11, 0x95, 0x14, 0xe8, 0x06, 0x47,
  0xb1, 0x1d, 0xeb, 0xe8, 0x27, 0x48, 0xf9, 0x35, 0x59, 0x86, 0xf6, 0x46,
  0x3a, 0xb3, 0x9b, 0x04, 0xb3, 0x4c, 0xcd, 0x1e, 0x4c, 0x4f, 0xa7, 0x27,
  0xe2, 0xa3, 0xa8, 0x4a, 0xfe, 0x8b, 0x21, 0x1c, 0xdb, 0x04, 0x61, 0xaa,
  0xab, 0x33, 0x2b, 0x0a, 0x40, 0x3b, 0x6c, 0x32, 0x54, 0x1b, 0x00, 0xea,
  0xad, 0x96, 0xb4, 0xfd, 0xdf, 0x06, 0x27, 0xd2, 0xa7, 0x10, 0xb6, 0x7f,
  0x22, 0x0c, 0x2a, 0xf5, 0x2f, 0xa4, 0x37, 0xfc, 0x2f, 0x8a, 0x8d, 0x3b,
  0x25, 0x86, 0xfb, 0x08, 0x4b, 0xfd, 0xa5, 0x88, 0x25, 0xc3, 0x99, 0x90,
  0xb1, 0x1e, 0x08, 0x12, 0xe2, 0xe8, 0x55, 0xa5, 0xa9, 0xb2, 0x91, 0x4a,
  0x57, 0x0c, 0xc6, 0x90, 0x38, 0xb7, 0x43, 0xd3, 0xa0, 0x4f, 0x5c, 0x57,
  0x9f, 0x4d, 0xb3, 0xe4, 0x0a, 0x6b, 0x7f, 0x42, 0x2a, 0x86, 0x27, 0x7d,
  0x0f, 0xb7, 0x24, 0x02, 0x61, 0x0d, 0x2b, 0xf8, 0xf7, 0x1b, 0xf1, 0x1f,
  0xed, 0x63, 0xd9, 0x34, 0xf4, 0x5e, 0xb2, 0x92, 0xe1, 0xc0, 0xbc, 0xa1,
  0x74, 0xbc, 0x4f, 0x0c, 0x0f, 0xbc, 0xc6, 0xea, 0xc7, 0xe0, 0x32, 0x0e,
  0x2c, 0xce, 0xd3, 0xb2, 0xc8, 0x25, 0xe8, 0xdf, 0xea, 0xba, 0xd8, 0xed,
  0xfd, 0x24, 0x38, 0x03, 0xaa, 0xd8, 0x1d, 0xfc, 0x1f, 0xf1, 0xeb, 0xee,
  0x06, 0xf1, 0x10, 0xed, 0xdf, 0x2e, 0xc6, 0x0e, 0xd1, 0xc2, 0xae, 0x37,
  0xf2, 0xd4, 0xf3, 0xfd, 0x33, 0x05, 0xe5, 0x17, 0xe5, 0xe9, 0x3a, 0xc8,
  0x0b, 0xca, 0xfe, 0xf6, 0x08, 0xe3, 0x0b, 0x10, 0xc4, 0x31, 0x2f, 0xd4,
  0xf1, 0xc5, 0x81, 0xf9, 0x96, 0xf0, 0xff, 0xff, 0x04, 0x00, 0x00, 0x00,
  0x18, 0x00, 0x00, 0x00, 0xff, 0x80, 0x00, 0xeb, 0x47, 0x12, 0x7f, 0x10,
  0x58, 0xb8, 0xe6, 0x4b, 0x63, 0x22, 0x45, 0x10, 0xce, 0x32, 0x07, 0xfb,
  0xa0, 0xdf, 0x14, 0xd8, 0xba, 0xf0, 0xff, 0xff, 0x04, 0x00, 0x00, 0x00,
  0xc0, 0x06, 0x00, 0x00, 0x59, 0x59, 0xfc, 0xfd, 0xe8, 0xa6, 0xef, 0xa7,
  0x04, 0xc1, 0xa4, 0xf9, 0xc8, 0x0f, 0x33, 0x04, 0x5c, 0xdc, 0x77, 0x5b,
  0x29, 0x08, 0x30, 0xa7, 0x15, 0xf5, 0x1b, 0xa4, 0x0a, 0x18, 0x14, 0xd5,
  0x3a, 0x2d, 0xa4, 0x3a, 0x4b, 0xf5, 0x5f, 0xfa, 0x89, 0x25, 0x5a, 0x4a,
  0x6f, 0x03, 0xaf, 0x50, 0x99, 0x78, 0xdc, 0x19, 0xdc, 0x93, 0x7a, 0xe9,
  0xa7, 0x1a, 0x2b, 0x0e, 0x18, 0x0e, 0xb9, 0x40, 0x81, 0x06, 0xae, 0xa7,
  0xe3, 0x15, 0x07, 0x14, 0x5a, 0x0d, 0xc3, 0x1a, 0x67, 0x9b, 0xad, 0x54,
  0x25, 0xd2, 0x7f, 0x94, 0x01, 0x6a, 0x4f, 0xff, 0xe4, 0xc3, 0x36, 0xe3,
  0xa2, 0xbd, 0x51, 0xf5, 0x1d, 0x62, 0x41, 0xb6, 0xe0, 0x04, 0x52, 0x5a,
  0x6a, 0xe6, 0x05, 0x91, 0xdd, 0xfb, 0xc8, 0x95, 0x35, 0xfc, 0x28, 0xd7,
  0x53, 0xb1, 0x1f, 0x5c, 0x9e, 0x9d, 0x45, 0x46, 0x48, 0xcd, 0xa3, 0x14,
  0x58, 0x9c, 0x02, 0xbd, 0x5a, 0x3d, 0xf5, 0x8e, 0x4e, 0x11, 0xeb, 0xea,
  0x36, 0x17, 0xdc, 0x6e, 0xbc, 0x1f, 0xfc, 0x58, 0xac, 0x9a, 0x0a, 0xbe,
  0x3d, 0xf5, 0xfc, 0xdd, 0x42, 0xb3, 0x9f, 0xc9, 0x6d, 0x3b, 0xc8, 0x2d,
  0xd2, 0x04, 0x85, 0xc8, 0xa0, 0xca, 0xc5, 0x48, 0xcf, 0x1c, 0xbf, 0xaa,
  0x81, 0xcd, 0x46, 0x24, 0x03, 0x11, 0x41, 0x54, 0x5e, 0xff, 0xbd, 0xa1,
  0xed, 0xd7, 0x43, 0xa1, 0xb3, 0x45, 0xee, 0x7e, 0xec, 0x19, 0x4e, 0x61,
  0x40, 0x2a, 0xd2, 0xea, 0x4b, 0x24, 0xb1, 0x72, 0x46, 0x14, 0x07, 0xcf,
  0x51, 0x42, 0xa5, 0xe9, 0xde, 0x2c, 0x3b, 0xbe, 0x05, 0xf3, 0x08, 0x3b,
  0xd0, 0x28, 0x04, 0xde, 0xef, 0x4e, 0xca, 0xff, 0x23, 0x3f, 0x05, 0x3f,
  0xe3, 0x1c, 0x05, 0x00, 0x1b, 0xaf, 0x0d, 0x79, 0xa5, 0xee, 0xd6, 0x03,
  0x19, 0x34, 0x36, 0x3e, 0xf5, 0xfa, 0x95, 0xb7, 0xe3, 0xd6, 0x54, 0xe9,
  0x0e, 0xf0, 0x1e, 0xd4, 0xe9, 0x32, 0x29, 0x75, 0x05, 0x36, 0x23, 0x55,
  0x9d, 0xa9, 0x24, 0x1d, 0x3f, 0x22, 0xd7, 0x39, 0x21, 0x57, 0xf2, 0x81,
  0x06, 0x1f, 0xd4, 0xc6, 0xf5, 0xcf, 0xe8, 0x29, 0x0c, 0xe7, 0x1c, 0x74,
  0xc6, 0xe0, 0xe6, 0x3a, 0xd6, 0x8f, 0x3c, 0xef, 0xb1, 0x2d, 0xa9, 0xf6,
  0x63, 0x73, 0xfd, 0xff, 0x02, 0x55, 0x25, 0xa3, 0x47, 0xe5, 0x1d, 0x3a,
  0x16, 0x67, 0xc8, 0xce, 0x15, 0x05, 0xe5, 0x1a, 0xeb, 0xbb, 0xd1, 0xce,
  0x55, 0xd1, 0x4b, 0xd9, 0xaf, 0x4e, 0x16, 0xca, 0x81, 0xfc, 0x2d, 0xbf,
  0x4e, 0xf1, 0x0f, 0x83, 0xaf, 0x0d, 0x69, 0x1f, 0x91, 0x5f, 0x5f, 0x83,
  0xfd, 0x0b, 0xc8, 0x44, 0xfe, 0xae, 0xe9, 0x07, 0x45, 0x5d, 0x37, 0xa9,
  0x38, 0x5e, 0x77, 0x61, 0x99, 0x17, 0xff, 0x59, 0x76, 0x3d, 0x27, 0xb9,
  0x51, 0x45, 0x95, 0x02, 0x5b, 0xee, 0xa4, 0x65, 0x58, 0x7a, 0xc9, 0x04,
  0xb5, 0x67, 0x7a, 0xfe, 0x16, 0x64, 0x36, 0x8b, 0xf1, 0xe8, 0xda, 0x00,
  0xed, 0x17, 0xd9, 0xa9, 0xa6, 0xaf, 0x56, 0x36, 0x14, 0x13, 0xd3, 0x0f,
  0x64, 0xf0, 0x16, 0x81, 0xa1, 0x9e, 0x65, 0xb3, 0x28, 0x06, 0x10, 0xe3,
  0x6d, 0x58, 0xeb, 0x21, 0xc0, 0x44, 0x8c, 0x17, 0xad, 0xe2, 0x4d, 0xe3,
  0x62, 0x1b, 0xe3, 0x81, 0x3d, 0x40, 0x39, 0xae, 0xcb, 0x00, 0xe0, 0x10,
  0x44, 0xc3, 0x37, 0x2e, 0x57, 0x5b, 0x9d, 0x30, 0x91, 0xb2, 0x6a, 0xa1,
  0xfa, 0xae, 0xe4, 0xd6, 0x59, 0xf9, 0x8b, 0x1a, 0x47, 0xaa, 0x8e, 0xba,
  0x92, 0x9e, 0x31, 0x35, 0xea, 0x42, 0xe1, 0x07, 0xce, 0xbc, 0xb3, 0xb4,
  0xa4, 0x62, 0x53, 0xba, 0x1e, 0xa6, 0x18, 0x1b, 0x32, 0xd1, 0x0f, 0x48,
  0xda, 0x53, 0x30, 0x91, 0x11, 0x68, 0xd0, 0xb9, 0x30, 0x7e, 0x60, 0xcd,
  0x02, 0xff, 0x5a, 0x06, 0x58, 0xfa, 0x5d, 0xb8, 0x1a, 0xe2, 0x2e, 0x25,
  0xc3, 0xa8, 0x98, 0x3a, 0xe2, 0xd2, 0x3a, 0xbd, 0x51, 0x18, 0xe3, 0x11,
  0xbd, 0x94, 0x5d, 0x81, 0xb2, 0xca, 0xd8, 0xca, 0xdd, 0x0b, 0x73, 0xa6,
  0xfe, 0x29, 0xb9, 0xcb, 0xcb, 0x4b, 0x3d, 0x9c, 0x1b, 0x32, 0x9e, 0xc5,
  0xe0, 0x0c, 0x34, 0xe4, 0xb6, 0x94, 0xc4, 0x10, 0xd8, 0xac, 0x17, 0x50,
  0xfe, 0xcb, 0x34, 0x1d, 0x48, 0x90, 0x81, 0x78, 0x25, 0x40, 0xd4, 0x36,
  0xb1, 0xb3, 0x42, 0xce, 0xdc, 0xdc, 0xbe, 0x8e, 0x86, 0x00, 0xca, 0xf5,
  0x00, 0x6b, 0x86, 0x2e, 0xff, 0x53, 0x47, 0xd8, 0x0d, 0x4a, 0xf1, 0x7e,
  0x49, 0x0a, 0xd7, 0xa5, 0xfd, 0xb9, 0xc0, 0xa9, 0xe8, 0x34, 0xe9, 0xe6,
  0x35, 0xfe, 0x31, 0x6a, 0xfa, 0x00, 0x4d, 0x11, 0x5f, 0xc8, 0x87, 0x36,
  0x81, 0xd8, 0xe5, 0xff, 0x3f, 0xea, 0x08, 0x4a, 0xfb, 0x12, 0x16, 0x9a,
  0x57, 0x77, 0x1e, 0xef, 0x64, 0xc2, 0x2f, 0x4e, 0x18, 0xa1, 0xa3, 0xce,
  0xa7, 0x01, 0x73, 0x81, 0xa7, 0x9e, 0x37, 0x1c, 0xd5, 0x5b, 0x65, 0xf4,
  0xac, 0xf9, 0xf0, 0xc3, 0x54, 0xc9, 0xad, 0xac, 0xab, 0xfd, 0x43, 0xda,
  0xea, 0xc1, 0x0f, 0x44, 0xe7, 0xff, 0x5e, 0x10, 0xf4, 0x16, 0x09, 0x10,
  0x08, 0x04, 0x46, 0x8d, 0xbc, 0x64, 0xe5, 0xe2, 0x50, 0x15, 0xc6, 0x7a,
  0x15, 0x59, 0x0f, 0xc5, 0x66, 0x16, 0xd6, 0x1a, 0xd8, 0x91, 0x12, 0x5f,
  0x09, 0xec, 0x01, 0x08, 0x28, 0x12, 0xb0, 0x3f, 0x3c, 0x2b, 0xf1, 0xe1,
  0xa9, 0x2c, 0xc7, 0xc2, 0xed, 0x06, 0x26, 0xdd, 0x57, 0xd7, 0x5c, 0x24,
  0x2a, 0xf0, 0xed, 0xe0, 0xd6, 0xf0, 0x33, 0x18, 0xb0, 0x81, 0xac, 0x33,
  0x32, 0xf7, 0xf9, 0x01, 0xf2, 0x0b, 0xdb, 0xf0, 0x21, 0xdf, 0xed, 0x47,
  0x6f, 0xdd, 0xc7, 0xc4, 0xa9, 0x57, 0x24, 0x32, 0x37, 0x95, 0x36, 0x49,
  0x1c, 0x8a, 0xa7, 0xbc, 0xc5, 0x0d, 0x19, 0x12, 0x0b, 0xa6, 0x13, 0x33,
  0xf1, 0x6a, 0x0a, 0x43, 0x4a, 0x63, 0x74, 0x33, 0xbe, 0xbe, 0xf5, 0x50,
  0x14, 0x45, 0x1a, 0xbe, 0xf3, 0x5c, 0x00, 0x11, 0xca, 0xd8, 0xe1, 0x96,
  0xb0, 0xb0, 0x63, 0x1f, 0x52, 0x5b, 0xa5, 0x8f, 0x1d, 0x93, 0x5e, 0x9f,
  0x1a, 0x63, 0x0d, 0x1c, 0x1b, 0xbd, 0xb6, 0x21, 0xf9, 0x94, 0x3f, 0x44,
  0x18, 0x7f, 0x49, 0x91, 0xd6, 0xa0, 0xb2, 0xa3, 0xc7, 0x32, 0xc4, 0x12,
  0xd7, 0x93, 0x25, 0x81, 0x4e, 0xcf, 0xf4, 0xb7, 0xf9, 0x05, 0x6b, 0x12,
  0x27, 0x47, 0x4f, 0xc3, 0xb6, 0xd9, 0xd2, 0x0c, 0x2e, 0xf0, 0xc6, 0xb0,
  0x13, 0xd6, 0x3f, 0xa9, 0x32, 0x39, 0x5d, 0xfc, 0xe1, 0xe5, 0xbe, 0xca,
  0x17, 0xbc, 0x3d, 0xef, 0xb6, 0xbf, 0x3d, 0xdb, 0x9c, 0x32, 0xfc, 0xcf,
  0x11, 0x36, 0x5e, 0x9f, 0xf5, 0x3e, 0xf7, 0xf7, 0x41, 0xb2, 0x34, 0xf0,
  0xe1, 0x5e, 0x1d, 0x0c, 0x0a, 0xdc, 0xf4, 0x23, 0xc9, 0x34, 0xb3, 0xee,
  0xd7, 0x0b, 0x18, 0x81, 0xad, 0x21, 0xde, 0x2d, 0x66, 0xb2, 0x61, 0x95,
  0xc9, 0xaa, 0x42, 0x3f, 0xa8, 0xe9, 0x3d, 0x0c, 0x93, 0x93, 0xaf, 0x6a,
  0x21, 0x3f, 0xcc, 0xc6, 0x14, 0x47, 0xc4, 0xa9, 0x20, 0xa8, 0x3c, 0xec,
  0x29, 0x21, 0x2d, 0x49, 0x11, 0x14, 0x9f, 0x35, 0xc5, 0xf0, 0x4c, 0x70,
  0xbe, 0x18, 0x0c, 0x24, 0x1c, 0xf6, 0x4c, 0x02, 0x3f, 0xc0, 0xad, 0x05,
  0xff, 0x15, 0x43, 0xb2, 0x3f, 0x2a, 0xb8, 0x4b, 0x0e, 0xba, 0xd3, 0xb4,
  0xf5, 0x9a, 0xe2, 0xfa, 0xfa, 0x35, 0xb8, 0x0e, 0xec, 0x92, 0xa4, 0x4b,
  0xf9, 0x7f, 0x1b, 0x3d, 0xac, 0x18, 0x0d, 0xcb, 0xc8, 0x44, 0xa4, 0xd4,
  0xbb, 0x43, 0x15, 0x10, 0x5e, 0xf4, 0xd9, 0xc3, 0x54, 0x81, 0x15, 0x31,
  0x09, 0xb6, 0xf3, 0xff, 0x4d, 0x01, 0x10, 0xea, 0x45, 0xf1, 0xb4, 0xd5,
  0xca, 0x38, 0x94, 0xbd, 0xcb, 0x22, 0x55, 0xaa, 0x71, 0x47, 0xc6, 0xe9,
  0x27, 0x44, 0xa3, 0x5c, 0x42, 0x07, 0xc9, 0x6e, 0xba, 0xbe, 0x82, 0xa8,
  0x36, 0xe7, 0xb3, 0x39, 0xca, 0x43, 0x54, 0xdb, 0xc3, 0x4f, 0xc2, 0x95,
  0xf2, 0xc4, 0xa5, 0xae, 0x1c, 0xfc, 0x18, 0xab, 0xc8, 0xd8, 0xe6, 0x44,
  0x27, 0xb3, 0xe9, 0xc0, 0x49, 0xf4, 0xff, 0xe2, 0x36, 0xb1, 0x40, 0xbd,
  0x19, 0x23, 0x0d, 0x1b, 0x1f, 0x3b, 0xce, 0xfa, 0x2c, 0x2f, 0xd5, 0x49,
  0xbf, 0x00, 0x9d, 0x46, 0x50, 0x41, 0xd8, 0x26, 0xb9, 0xb7, 0x96, 0x19,
  0xc5, 0xeb, 0xd3, 0xaa, 0x65, 0xb8, 0xea, 0x9a, 0x99, 0xbb, 0x0e, 0x78,
  0xc3, 0xbc, 0xcf, 0xf1, 0x7f, 0x54, 0x2a, 0x6c, 0x4f, 0xd8, 0x64, 0xa8,
  0xba, 0x52, 0xae, 0x1d, 0x1b, 0x5b, 0xb1, 0x27, 0xf1, 0xcd, 0xcc, 0xca,
  0x98, 0x0b, 0x28, 0xc2, 0x1e, 0xdd, 0x99, 0x9e, 0x7f, 0x37, 0xcb, 0x58,
  0x23, 0xb0, 0x72, 0xc9, 0x41, 0xf6, 0xbd, 0xd8, 0xd2, 0xd8, 0x50, 0x9a,
  0x69, 0x6c, 0x1b, 0x29, 0x8f, 0x63, 0x3d, 0x8b, 0xc4, 0x49, 0x25, 0xe5,
  0x29, 0x31, 0x09, 0x44, 0xee, 0xb4, 0xca, 0x9c, 0x24, 0xcc, 0x8f, 0x4d,
  0xbe, 0x98, 0x9f, 0x52, 0xfe, 0xbf, 0x6b, 0xca, 0x00, 0xae, 0x34, 0xa0,
  0x11, 0x21, 0x1d, 0xe8, 0xc8, 0xee, 0x0d, 0x6b, 0x19, 0x5a, 0x4f, 0x2e,
  0x4d, 0xcc, 0x49, 0x07, 0x0d, 0xd0, 0xf2, 0xad, 0x26, 0xdf, 0xc6, 0x88,
  0xef, 0x15, 0xe6, 0x34, 0x47, 0x09, 0xdb, 0x34, 0xbd, 0xe9, 0x95, 0xda,
  0x46, 0x3e, 0x0f, 0x3e, 0xf7, 0x55, 0x3b, 0x2f, 0x09, 0x38, 0x6b, 0x81,
  0x17, 0x1b, 0x28, 0x92, 0xd6, 0x6e, 0x34, 0xf3, 0x4e, 0xa3, 0x33, 0xe0,
  0xa9, 0x45, 0x08, 0xaa, 0xd3, 0x14, 0x45, 0xe9, 0xc1, 0x47, 0x6c, 0x87,
  0x66, 0xd5, 0xdd, 0xf7, 0x41, 0x93, 0x3c, 0xd5, 0x56, 0xd9, 0x2c, 0xdb,
  0x3c, 0xce, 0xf1, 0x82, 0xf3, 0x27, 0x3d, 0x2d, 0x4f, 0xf8, 0x45, 0x23,
  0x63, 0xef, 0x4d, 0x12, 0x20, 0x12, 0xc9, 0x5d, 0xf4, 0x42, 0x12, 0x50,
  0x83, 0xf6, 0xbe, 0xb6, 0x3d, 0xb0, 0xc9, 0xc5, 0x32, 0x20, 0xfb, 0xa7,
  0x06, 0xff, 0x2c, 0xcb, 0x61, 0x54, 0xa1, 0xdd, 0x54, 0x20, 0x84, 0xd4,
  0xd6, 0x81, 0xbe, 0x85, 0xb1, 0x44, 0x39, 0x2b, 0x01, 0x4b, 0x9c, 0x31,
  0x50, 0x4a, 0x2a, 0xa4, 0x1c, 0xf1, 0xac, 0x46, 0xce, 0x32, 0xde, 0xc7,
  0xda, 0x52, 0xf9, 0x09, 0x37, 0x3c, 0xa9, 0x27, 0x6f, 0x5d, 0xf2, 0xbf,
  0x76, 0xe1, 0x84, 0x11, 0x14, 0x68, 0xaa, 0xfc, 0xca, 0x0a, 0xc5, 0xea,
  0x52, 0x27, 0xcb, 0xb3, 0x52, 0x81, 0xee, 0x51, 0x55, 0xd9, 0xb5, 0xe5,
  0x5d, 0x43, 0xad, 0xcc, 0xf7, 0xaa, 0xa7, 0x05, 0x8f, 0x98, 0x32, 0xf9,
  0x21, 0xa0, 0xba, 0x00, 0x56, 0x0b, 0xaa, 0x3b, 0xe0, 0x62, 0x98, 0xa1,
  0x16, 0x35, 0x2e, 0xc1, 0x27, 0xf4, 0x3e, 0x7b, 0x11, 0x28, 0xc6, 0x93,
  0xa9, 0x08, 0x33, 0xdd, 0x7e, 0x2a, 0x97, 0x20, 0x0a, 0x9f, 0x21, 0xd3,
  0xf6, 0x5c, 0x0d, 0xae, 0x8f, 0x17, 0x4e, 0xab, 0xce, 0x15, 0x1f, 0x98,
  0x9f, 0x20, 0x02, 0x7e, 0x43, 0xed, 0xb9, 0x32, 0xe9, 0x16, 0x42, 0x49,
  0x12, 0x41, 0xcf, 0xe5, 0xaa, 0x83, 0x07, 0x47, 0x8e, 0xbc, 0xfe, 0x43,
  0xf9, 0x7f, 0x4d, 0x86, 0x9d, 0xe3, 0xb2, 0x9d, 0xa7, 0xb9, 0xaa, 0xe2,
  0xe1, 0x4d, 0xcf, 0x46, 0x83, 0xb5, 0xe9, 0x2f, 0xfc, 0xcf, 0x81, 0xec,
  0x12, 0x57, 0x93, 0x5f, 0xdb, 0x2f, 0xb5, 0x62, 0x14, 0xe3, 0xa0, 0xf5,
  0xd6, 0x0c, 0xc7, 0xf6, 0x9c, 0x74, 0x98, 0x1c, 0xa9, 0x16, 0xc4, 0x49,
  0xc0, 0x4f, 0x0a, 0xa6, 0xbc, 0x3b, 0x75, 0x64, 0xe7, 0x52, 0x5d, 0xc9,
  0x08, 0x3e, 0x22, 0x16, 0x95, 0x2d, 0xed, 0x66, 0x6d, 0xa2, 0x66, 0xec,
  0x9c, 0x19, 0x3f, 0x0e, 0x70, 0xdf, 0x09, 0x15, 0xa6, 0x4f, 0x1b, 0x1d,
  0xcf, 0x95, 0x8c, 0xd9, 0x46, 0x64, 0x1c, 0xff, 0x50, 0x33, 0xeb, 0x2d,
  0xcd, 0x94, 0xf1, 0x45, 0xee, 0x3b, 0x9c, 0xa0, 0x36, 0x94, 0xaa, 0x17,
  0xfd, 0x49, 0x91, 0x95, 0xd7, 0x0e, 0x28, 0x1a, 0xd7, 0x37, 0x21, 0x02,
  0xf7, 0xe0, 0x1c, 0x21, 0xab, 0x0f, 0xef, 0xe5, 0x50, 0x27, 0xaf, 0x34,
  0x50, 0x5b, 0x0d, 0xbe, 0x34, 0xe6, 0x86, 0x0a, 0x05, 0x01, 0xe7, 0x40,
  0x51, 0x08, 0x04, 0xec, 0xf9, 0x8f, 0x02, 0xdd, 0xf9, 0xab, 0x52, 0x08,
  0x79, 0x7f, 0xcd, 0x08, 0x0f, 0xde, 0x38, 0x22, 0x0a, 0xa0, 0x48, 0x0b,
  0x81, 0x15, 0x3f, 0xec, 0x13, 0xcc, 0xdf, 0xf8, 0x00, 0xb2, 0xe3, 0xdc,
  0x62, 0x1f, 0xec, 0xac, 0xe3, 0x39, 0xe7, 0x04, 0x2d, 0x1d, 0x16, 0xd1,
  0xde, 0x09, 0xd3, 0x04, 0xea, 0xb4, 0xb2, 0x35, 0x08, 0x2e, 0xbe, 0x2e,
  0xdc, 0x5a, 0xbc, 0xf8, 0xad, 0xf2, 0x23, 0x70, 0x84, 0xa0, 0x83, 0xf6,
  0xc0, 0x0a, 0x09, 0x32, 0x3e, 0xc9, 0x48, 0x4b, 0x15, 0xb7, 0xb5, 0xd0,
  0xb6, 0x0e, 0x08, 0xd1, 0x86, 0xf7, 0xff, 0xff, 0x04, 0x00, 0x00, 0x00,
  0x18, 0x00, 0x00, 0x00, 0x72, 0x5b, 0x80, 0xd7, 0x02, 0x6a, 0x51, 0x7f,
  0x10, 0x30, 0xcb, 0x77, 0x7c, 0xcb, 0xd1, 0x55, 0x3c, 0xf5, 0xbb, 0x12,
  0x76, 0xfb, 0x04, 0xa2, 0xaa, 0xf7, 0xff, 0xff, 0x04, 0x00, 0x00, 0x00,
  0xc0, 0x06, 0x00, 0x00, 0x88, 0xc8, 0xa5, 0xcb, 0xef, 0x3f, 0xf0, 0x12,
  0x4a, 0x49, 0x74, 0xb4, 0x3c, 0x38, 0x9d, 0xf0, 0x0d, 0xa9, 0xba, 0x81,
  0xfb, 0x1d, 0xae, 0x5c, 0xcc, 0xf2, 0x2c, 0x15, 0xae, 0xa8, 0x71, 0x04,
  0x5a, 0xab, 0xca, 0x6d, 0xfc, 0x3d, 0x41, 0xf5, 0x0e, 0x15, 0xb1, 0x5f,
  0xfd, 0x12, 0x9f, 0x5b, 0xe6, 0xa5, 0x35, 0xbd, 0x2f, 0xf3, 0x1f, 0x03,
  0xeb, 0x8e, 0x9e, 0xf8, 0xa9, 0x68, 0x86, 0x38, 0x41, 0xdb, 0xdf, 0x47,
  0xca, 0x9e, 0x56, 0xdb, 0xe5, 0xc2, 0xba, 0xb8, 0x01, 0x2c, 0x30, 0xcb,
  0xb1, 0x21, 0x17, 0x05, 0xaa, 0xa6, 0x51, 0x16, 0x0d, 0x00, 0xd9, 0xf4,
  0x0b, 0x28, 0x2a, 0xbb, 0x40, 0x20, 0x2c, 0xfb, 0x12, 0x04, 0xca, 0xf0,
  0xf9, 0x23, 0xa6, 0x2d, 0xa3, 0xbe, 0x05, 0xb4, 0xae, 0xd8, 0xed, 0xd4,
  0xcd, 0x11, 0x14, 0xbc, 0xbf, 0x09, 0xfb, 0xed, 0xdc, 0x01, 0xb4, 0xca,
  0x3c, 0x2a, 0x0b, 0xad, 0x07, 0xde, 0xdf, 0x81, 0xf6, 0x54, 0x40, 0x9d,
  0xfc, 0xb1, 0xf4, 0xc1, 0x3d, 0x09, 0xec, 0x0f, 0x9c, 0x57, 0xc1, 0xce,
  0x05, 0xe7, 0xf5, 0x56, 0xa3, 0xfb, 0x48, 0x3e, 0x59, 0x4d, 0xdf, 0x17,
  0xc4, 0xe4, 0xba, 0xd0, 0x0e, 0x1e, 0x4a, 0x64, 0x82, 0x84, 0x27, 0x05,
  0x53, 0xae, 0x9e, 0xf6, 0x0a, 0x0c, 0x3a, 0x92, 0x79, 0x4a, 0x5e, 0x43,
  0x0b, 0x11, 0x27, 0x81, 0x6b, 0xa5, 0xf7, 0x2d, 0x1b, 0x0b, 0x84, 0x6a,
  0x5b, 0x4c, 0x45, 0x42, 0xe3, 0xe2, 0x98, 0xc7, 0xbc, 0x1a, 0x8d, 0x3d,
  0x53, 0x1a, 0x36, 0xd5, 0xcf, 0xa2, 0x38, 0x37, 0x10, 0x8f, 0x3c, 0x0a,
  0x73, 0xb3, 0x98, 0x31, 0xb1, 0xe6, 0xe1, 0xea, 0x88, 0x3c, 0x8f, 0xbe,
  0xc1, 0x5c, 0xc5, 0x9f, 0x81, 0x5d, 0x56, 0x56, 0x31, 0x49, 0x0d, 0x9f,
  0xb2, 0xac, 0x0e, 0x22, 0xb2, 0x40, 0x4d, 0xac, 0xf3, 0x48, 0x49, 0x45,
  0x06, 0xab, 0x43, 0xb4, 0x00, 0xee, 0x0b, 0x0f, 0x0d, 0x70, 0x27, 0x12,
  0x3e, 0x25, 0xe5, 0xec, 0x59, 0x27, 0xe5, 0xe2, 0xc3, 0xa6, 0x22, 0xef,
  0x99, 0x4a, 0x9b, 0x27, 0xf2, 0x26, 0xd0, 0x04, 0xfa, 0xe9, 0x02, 0xb5,
  0xf8, 0x3b, 0x81, 0xc3, 0xad, 0x3f, 0xef, 0x28, 0x06, 0xbd, 0xb7, 0xe9,
  0xe2, 0x34, 0xc8, 0xbe, 0xcb, 0xf7, 0xc5, 0xed, 0x2b, 0xde, 0xe7, 0xd5,
  0xad, 0x26, 0xe4, 0xb4, 0x15, 0xdb, 0x3c, 0xfe, 0xc7, 0x3b, 0xb5, 0xd4,
  0x32, 0xdd, 0xd8, 0xd2, 0x0f, 0xd4, 0xb5, 0xfe, 0x15, 0xcc, 0xb2, 0xfa,
  0xc0, 0xc7, 0x99, 0x27, 0x00, 0xfd, 0x29, 0xaa, 0x0e, 0xb7, 0xbf, 0xb3,
  0x2b, 0x23, 0x41, 0xff, 0xab, 0x2d, 0xc8, 0xf0, 0x5a, 0x13, 0xf9, 0x82,
  0x36, 0x19, 0x4e, 0xbb, 0xf7, 0xe6, 0xa0, 0x25, 0xe5, 0x3b, 0x20, 0x43,
  0xae, 0xbc, 0xad, 0x46, 0x25, 0xdb, 0x3e, 0x1c, 0x22, 0xd9, 0xad, 0x81,
  0xfd, 0xe2, 0xeb, 0xf9, 0x0a, 0xfd, 0xc9, 0xcf, 0x9e, 0xb5, 0xd8, 0x0a,
  0xfc, 0x16, 0xa4, 0xde, 0x4a, 0x50, 0x24, 0xe5, 0x27, 0xdb, 0xb3, 0xf7,
  0x29, 0x32, 0xe0, 0x81, 0xab, 0xbc, 0xdc, 0xc4, 0x9c, 0x99, 0x92, 0xab,
  0x08, 0x2f, 0xd8, 0xc5, 0x14, 0xb6, 0x8b, 0xb0, 0x5d, 0x22, 0x2d, 0x13,
  0x2a, 0xb1, 0x6b, 0x3f, 0xbd, 0x54, 0xde, 0x7f, 0x00, 0xd9, 0x04, 0x72,
  0xa9, 0x58, 0x4e, 0x55, 0xba, 0x00, 0x3c, 0xe4, 0x06, 0x08, 0x30, 0xd1,
  0x42, 0x5b, 0x30, 0x15, 0x53, 0x1c, 0x40, 0xee, 0x24, 0x36, 0x1c, 0xe6,
  0x2f, 0xeb, 0xcb, 0x4a, 0xb8, 0x47, 0xc9, 0x0c, 0x1a, 0x56, 0xc9, 0xa6,
  0xbe, 0xd5, 0xb0, 0x51, 0x57, 0x0a, 0xfa, 0xe3, 0xaa, 0xbc, 0xc4, 0x11,
  0x16, 0x34, 0xe5, 0xdf, 0xea, 0xc0, 0x91, 0x74, 0x8d, 0xab, 0xb6, 0x09,
  0xbf, 0xc7, 0x5a, 0xcf, 0x2c, 0xc4, 0x3f, 0x7f, 0x08, 0x08, 0xd2, 0xb6,
  0x99, 0x36, 0x50, 0xf3, 0x1f, 0x59, 0xb1, 0xee, 0x05, 0xfe, 0x1d, 0x10,
  0xf7, 0x4d, 0xa5, 0xfb, 0xde, 0x61, 0xe1, 0x37, 0xbc, 0xb5, 0xe5, 0x4f,
  0x02, 0x58, 0xff, 0xb2, 0x24, 0xaf, 0x71, 0xe2, 0x99, 0x5c, 0xe6, 0x4d,
  0xd4, 0x38, 0x29, 0x55, 0xb6, 0xd9, 0xf3, 0xc3, 0x4d, 0xd0, 0x97, 0xb6,
  0x59, 0x9a, 0xb5, 0xf1, 0x2c, 0x16, 0x47, 0x20, 0x3d, 0xce, 0x58, 0x06,
  0x52, 0x96, 0x35, 0xd5, 0x02, 0x37, 0xd5, 0x89, 0x0d, 0x07, 0x5c, 0xee,
  0x49, 0xcf, 0x57, 0x23, 0xa1, 0x25, 0x6d, 0x59, 0x49, 0x16, 0xf0, 0x42,
  0xe0, 0x3f, 0xc4, 0x8d, 0x3a, 0x86, 0x8c, 0x81, 0xa5, 0x83, 0xda, 0xdd,
  0xe0, 0xa8, 0x83, 0x03, 0xd1, 0x3a, 0xc4, 0x59, 0xff, 0x3b, 0x50, 0xed,
  0x44, 0x91, 0xff, 0x8e, 0x17, 0x21, 0xd7, 0x2e, 0x84, 0xfe, 0xf4, 0xd8,
  0xce, 0x24, 0x57, 0x44, 0xeb, 0xcb, 0x18, 0xf9, 0x6b, 0xe2, 0x53, 0x98,
  0x03, 0xdf, 0x81, 0xf3, 0x93, 0xa5, 0xa5, 0xb2, 0xef, 0x5d, 0x59, 0x57,
  0x44, 0x7f, 0x43, 0xfd, 0xea, 0xb5, 0x43, 0xd4, 0xd7, 0x18, 0x3f, 0xf2,
  0x41, 0x33, 0x52, 0xe6, 0xfa, 0xc7, 0x78, 0xd7, 0x58, 0x09, 0x36, 0x1e,
  0xa2, 0xef, 0x86, 0x9b, 0x4d, 0x54, 0x0f, 0x13, 0xd9, 0xf6, 0x98, 0x9d,
  0x30, 0x21, 0x06, 0xed, 0xa6, 0xaf, 0x19, 0xe7, 0x67, 0xf3, 0x51, 0xad,
  0x19, 0x16, 0xae, 0x62, 0x81, 0xf9, 0x16, 0x11, 0x32, 0xde, 0x4b, 0xdd,
  0xae, 0x86, 0xb0, 0x89, 0xb1, 0xdf, 0x0c, 0x72, 0x3c, 0x92, 0x51, 0xfe,
  0x5b, 0x41, 0x29, 0xf3, 0x3e, 0x8c, 0xe6, 0x2d, 0xc3, 0x9d, 0x3b, 0x8b,
  0x34, 0x3e, 0x22, 0xfd, 0xf3, 0x89, 0xf3, 0x1e, 0xfa, 0xe5, 0x30, 0x17,
  0xd1, 0xae, 0x1a, 0x60, 0x17, 0x04, 0x07, 0x00, 0x0d, 0x0b, 0x90, 0xd8,
  0xe5, 0xb1, 0x15, 0x8d, 0x08, 0x5f, 0x33, 0xfc, 0x82, 0xa3, 0x38, 0x3a,
  0x19, 0xc3, 0x05, 0xf3, 0x26, 0x48, 0x1b, 0xff, 0x01, 0x98, 0x47, 0x38,
  0xb0, 0xc5, 0x53, 0xff, 0x3e, 0xae, 0xdf, 0x79, 0x69, 0xd2, 0x39, 0x2d,
  0x8f, 0xe5, 0xbe, 0x93, 0x9a, 0xcb, 0xc5, 0xef, 0x82, 0x49, 0x52, 0xf5,
  0x55, 0x98, 0xdf, 0x94, 0x2e, 0xce, 0x1a, 0xe9, 0x22, 0x4d, 0x31, 0x31,
  0xc1, 0xab, 0x66, 0xf3, 0x81, 0x22, 0x05, 0x5f, 0x0f, 0x4e, 0x70, 0xfe,
  0xca, 0xe4, 0xc1, 0xa7, 0x66, 0x1f, 0x8a, 0xf7, 0x35, 0x4a, 0x15, 0xb0,
  0x96, 0xf0, 0x1c, 0xf8, 0x29, 0xaf, 0x00, 0xa6, 0x8e, 0xbe, 0xd4, 0x37,
  0x23, 0x67, 0xf6, 0x2d, 0x0e, 0xb2, 0x20, 0x96, 0xc8, 0x2f, 0x43, 0x6e,
  0xf1, 0x0c, 0x4d, 0x61, 0x55, 0x62, 0x58, 0x97, 0xbd, 0x0d, 0x08, 0x66,
  0xdb, 0x36, 0xfe, 0x8e, 0x14, 0x30, 0x43, 0xcc, 0xbc, 0xf8, 0xf8, 0x12,
  0xfa, 0xd7, 0x7f, 0x5d, 0x10, 0xbe, 0x2e, 0xbf, 0xd3, 0xc2, 0x94, 0xec,
  0x73, 0xfb, 0x41, 0xcd, 0x54, 0xac, 0xc1, 0xbd, 0x1a, 0x52, 0x73, 0x61,
  0x63, 0xac, 0xd4, 0x9c, 0x3e, 0xe6, 0x36, 0x9d, 0x9a, 0xb5, 0xae, 0x89,
  0x31, 0xd3, 0x82, 0x81, 0x09, 0x2e, 0xa5, 0xb1, 0xe2, 0xe8, 0xec, 0x26,
  0xe8, 0x1a, 0x4e, 0xbb, 0xf8, 0x86, 0x3e, 0xb0, 0x33, 0xfa, 0xbe, 0xd2,
  0x08, 0xe7, 0xd6, 0x67, 0xd0, 0x63, 0x83, 0xae, 0x18, 0xd5, 0x1b, 0xf2,
  0x35, 0x55, 0x4d, 0xce, 0xf7, 0x92, 0x09, 0xe4, 0x4e, 0x90, 0x63, 0x9f,
  0x84, 0x44, 0xe8, 0x1e, 0x16, 0x53, 0x88, 0x04, 0x7f, 0x1a, 0x1a, 0x03,
  0x3a, 0xef, 0x9e, 0x1c, 0xd9, 0x34, 0xd6, 0x44, 0x8a, 0x0f, 0xe5, 0x1c,
  0xae, 0x00, 0xa1, 0x50, 0xc6, 0xc4, 0xfe, 0xfd, 0x8d, 0xa7, 0xb3, 0xa9,
  0x3a, 0x00, 0x57, 0xd7, 0xe4, 0xc0, 0x7f, 0x02, 0xa6, 0xdd, 0x3b, 0x12,
  0x17, 0x57, 0xe0, 0x0d, 0xdf, 0x1b, 0x28, 0x0c, 0x19, 0x84, 0x04, 0xa5,
  0x93, 0xbf, 0x21, 0xa8, 0xca, 0x5f, 0xcb, 0x4d, 0x33, 0x57, 0x48, 0x54,
  0xb1, 0xbd, 0xd5, 0x08, 0x27, 0x02, 0x2b, 0x48, 0xa2, 0x4f, 0x35, 0x90,
  0xe5, 0xe3, 0xf4, 0xe5, 0x17, 0xd3, 0x87, 0xb7, 0x4f, 0xe6, 0x92, 0x4f,
  0xbb, 0xbe, 0x44, 0x2a, 0xe8, 0xbe, 0x12, 0x92, 0xc2, 0x9b, 0x19, 0x56,
  0xf6, 0x54, 0x5b, 0x48, 0x93, 0xa5, 0x26, 0xea, 0x0f, 0x37, 0xcf, 0x0f,
  0x69, 0xab, 0x7c, 0xc9, 0x50, 0xd7, 0x64, 0xbb, 0x40, 0x4f, 0x46, 0x2f,
  0xc6, 0xa0, 0x75, 0x1a, 0x27, 0xa7, 0x21, 0xbc, 0x52, 0x34, 0x52, 0x1a,
  0x5c, 0xd9, 0x6b, 0xbe, 0xc5, 0x7f, 0x39, 0x3c, 0x10, 0xf0, 0xd0, 0xd4,
  0x4f, 0x50, 0xb6, 0xb6, 0xb5, 0x35, 0x35, 0x50, 0x24, 0xc2, 0xed, 0x30,
  0x05, 0x1f, 0x05, 0xe0, 0xcc, 0x58, 0xe1, 0x5b, 0xeb, 0xea, 0x07, 0xb8,
  0x4b, 0x30, 0xfe, 0x56, 0x9e, 0x2d, 0x46, 0xc5, 0x27, 0x03, 0xcd, 0x1e,
  0x43, 0x4e, 0x23, 0xa4, 0xbf, 0x38, 0xae, 0x75, 0x23, 0x2a, 0xf2, 0x54,
  0x2c, 0x22, 0x46, 0x13, 0x81, 0x04, 0x01, 0x52, 0x23, 0xfe, 0xed, 0x03,
  0xd4, 0xdb, 0xf8, 0x36, 0x6b, 0x1e, 0xc3, 0xfb, 0x46, 0xad, 0xbb, 0x32,
  0x0f, 0xc4, 0xdc, 0x63, 0x39, 0xce, 0xb4, 0xa1, 0x20, 0x17, 0xbf, 0x5b,
  0x64, 0x8e, 0x59, 0x03, 0x91, 0x61, 0xcc, 0x00, 0xc6, 0xe6, 0xe9, 0xeb,
  0x54, 0x20, 0x9f, 0xfe, 0x52, 0xec, 0xd5, 0xec, 0x81, 0xd6, 0xc6, 0x14,
  0xbf, 0x3e, 0x5a, 0xab, 0x8d, 0x67, 0x4a, 0x01, 0x25, 0xb8, 0xb6, 0xc2,
  0x10, 0x50, 0x32, 0x10, 0xe0, 0xcd, 0x2e, 0xfa, 0x8b, 0xb7, 0xd0, 0xf4,
  0xe9, 0x38, 0xab, 0x2b, 0x42, 0x30, 0xda, 0x2e, 0x27, 0x32, 0xa9, 0x0c,
  0xfc, 0x30, 0x4f, 0xbe, 0xd4, 0x9b, 0xe0, 0xe1, 0xea, 0x34, 0x11, 0x8d,
  0xf6, 0x20, 0x8b, 0x2b, 0x40, 0x5c, 0x4e, 0x44, 0x94, 0x3f, 0x1c, 0x47,
  0xa5, 0x78, 0x4c, 0xa0, 0xae, 0xbd, 0x40, 0xf0, 0x95, 0xa1, 0x29, 0xfa,
  0x5b, 0x55, 0xf3, 0x5d, 0xfa, 0x30, 0x36, 0xf1, 0xd0, 0x37, 0xbd, 0x09,
  0x93, 0x27, 0xbc, 0x2a, 0xea, 0xab, 0x0b, 0x57, 0xcb, 0x02, 0x52, 0x0f,
  0x81, 0xf2, 0x4b, 0x05, 0x4a, 0xcf, 0x05, 0xaf, 0x30, 0xc2, 0xcf, 0x23,
  0x4a, 0xd0, 0xa1, 0xa4, 0xb8, 0xe9, 0x21, 0xf7, 0x23, 0x0a, 0x10, 0x36,
  0x0b, 0x11, 0x49, 0xb2, 0xc8, 0x13, 0x51, 0x81, 0x02, 0x33, 0xb1, 0x64,
  0xe9, 0x22, 0xca, 0x3b, 0x24, 0x9e, 0x33, 0x22, 0xa4, 0x52, 0x5f, 0x33,
  0x17, 0xe6, 0x49, 0xde, 0x64, 0x43, 0x34, 0xab, 0x2c, 0xc1, 0x3a, 0xde,
  0x53, 0x1d, 0x15, 0x6e, 0xe5, 0x40, 0xb2, 0xbe, 0x5a, 0x10, 0x04, 0xa6,
  0xab, 0x5e, 0x31, 0xff, 0xc8, 0xb9, 0xff, 0xed, 0x40, 0x21, 0xd4, 0xab,
  0xba, 0xde, 0x50, 0x4d, 0xe5, 0xb8, 0xce, 0xa1, 0x0b, 0xae, 0xe9, 0x60,
  0x54, 0xb5, 0x02, 0xf7, 0xa5, 0xe4, 0x16, 0xd5, 0xeb, 0xce, 0xa8, 0xff,
  0xe8, 0x83, 0x0e, 0x4e, 0xb9, 0x81, 0xab, 0xca, 0xcd, 0xe3, 0xe4, 0xeb,
  0x23, 0xe5, 0xb5, 0xc3, 0x0a, 0xb0, 0xf3, 0xcd, 0xc0, 0xdb, 0xa0, 0xe5,
  0x11, 0x2f, 0xdc, 0x11, 0x0f, 0x9c, 0x3f, 0x02, 0xe9, 0xbb, 0x0e, 0xd6,
  0xf8, 0xc7, 0xbb, 0x51, 0x3f, 0x22, 0x18, 0x38, 0xc0, 0xbd, 0x12, 0x40,
  0xf7, 0x8d, 0xb5, 0x37, 0x29, 0xd6, 0xf3, 0x18, 0xb2, 0x5b, 0x00, 0x1f,
  0xeb, 0x6d, 0xcb, 0xc8, 0x35, 0xfd, 0x26, 0xca, 0x4e, 0x4a, 0x23, 0x12,
  0xe3, 0xce, 0x02, 0xa4, 0x4d, 0xe4, 0x58, 0xfb, 0x9f, 0xec, 0xcd, 0x38,
  0xac, 0x04, 0xf2, 0x1b, 0xd7, 0x55, 0xcb, 0xa8, 0xa7, 0x12, 0x31, 0x2e,
  0x9f, 0xa0, 0x23, 0x62, 0x4a, 0xad, 0xff, 0xed, 0x67, 0xf3, 0xce, 0xe6,
  0x4f, 0x42, 0x74, 0x0c, 0x7f, 0x6a, 0x10, 0x42, 0xa6, 0x1f, 0xfd, 0x5d,
  0x94, 0xb7, 0x13, 0x3e, 0xdf, 0xa8, 0x69, 0x04, 0xc7, 0x81, 0xfa, 0x67,
  0xee, 0xdc, 0xb3, 0xd0, 0xbc, 0x8b, 0x45, 0x39, 0x02, 0x24, 0x5d, 0xf2,
  0xd5, 0x4b, 0xf6, 0x03, 0x07, 0x98, 0xd2, 0x21, 0x55, 0x48, 0x0b, 0xd7,
  0xe0, 0x32, 0xff, 0xd1, 0x9c, 0x42, 0xa6, 0x49, 0xc8, 0x39, 0x3d, 0x62,
  0x5f, 0x02, 0x0c, 0xd8, 0xa1, 0x6a, 0x62, 0xde, 0x43, 0xa1, 0x8f, 0x8d,
  0x13, 0xe0, 0x47, 0xce, 0x09, 0xeb, 0x88, 0xfa, 0x9e, 0x21, 0x0d, 0xe9,
  0x61, 0xc3, 0x14, 0xfb, 0x18, 0x81, 0x30, 0xa8, 0xac, 0xd3, 0x44, 0xf6,
  0xd7, 0x30, 0x59, 0x21, 0xde, 0xda, 0x9c, 0xf9, 0xa5, 0x48, 0x4f, 0xe9,
  0x1f, 0x9c, 0xa2, 0x37, 0x36, 0x36, 0x3a, 0xb8, 0x10, 0x8f, 0xe6, 0x8c,
  0x3c, 0xe6, 0xab, 0xc0, 0x54, 0xcf, 0xad, 0xfb, 0xbe, 0x06, 0x98, 0x5c,
  0x23, 0xf6, 0x9a, 0xaa, 0xc0, 0xf5, 0x52, 0xea, 0x86, 0x9b, 0x3c, 0xaa,
  0xe3, 0x09, 0xab, 0x1c, 0xff, 0x96, 0x2b, 0xb0, 0x04, 0xc3, 0x97, 0xbf,
  0xc0, 0xf5, 0x10, 0x0a, 0x76, 0xfe, 0xff, 0xff, 0x04, 0x00, 0x00, 0x00,
  0x18, 0x00, 0x00, 0x00, 0xc4, 0x26, 0x15, 0x0e, 0xae, 0x7f, 0x3b, 0x0a,
  0x29, 0x7f, 0x18, 0x11, 0x24, 0x34, 0x67, 0x42, 0x67, 0x05, 0x50, 0x53,
  0x80, 0x5b, 0x0b, 0xb5, 0x9a, 0xfe, 0xff, 0xff, 0x04, 0x00, 0x00, 0x00,
  0x18, 0x00, 0x00, 0x00, 0xf2, 0x2f, 0x6b, 0x9e, 0xbb, 0x01, 0xd0, 0xec,
  0x19, 0x29, 0x6a, 0xa9, 0x92, 0x3e, 0xc7, 0xf3, 0xed, 0x81, 0x55, 0xe0,
  0x99, 0xdb, 0x73, 0x65, 0xbe, 0xfe, 0xff, 0xff, 0x04, 0x00, 0x00, 0x00,
  0x04, 0x00, 0x00, 0x00, 0x31, 0xfb, 0xff, 0xff, 0xce, 0xfe, 0xff, 0xff,
  0x04, 0x00, 0x00, 0x00, 0x0c, 0x00, 0x00, 0x00, 0x01, 0x00, 0x00, 0x00,
  0x01, 0x00, 0x00, 0x00, 0x01, 0x00, 0x00, 0x00, 0xe6, 0xfe, 0xff, 0xff,
  0x04, 0x00, 0x00, 0x00, 0x0c, 0x00, 0x00, 0x00, 0x00, 0x00, 0x00, 0x00,
  0x00, 0x00, 0x00, 0x00, 0x00, 0x00, 0x00, 0x00, 0xfe, 0xfe, 0xff, 0xff,
  0x04, 0x00, 0x00, 0x00, 0x0c, 0x00, 0x00, 0x00, 0x00, 0x00, 0x00, 0x00,
  0xff, 0xff, 0xff, 0xff, 0x00, 0x00, 0x00, 0x00, 0x16, 0xff, 0xff, 0xff,
  0x04, 0x00, 0x00, 0x00, 0x0c, 0x00, 0x00, 0x00, 0xff, 0xff, 0xff, 0xff,
  0x06, 0x00, 0x00, 0x00, 0x18, 0x00, 0x00, 0x00, 0x2e, 0xff, 0xff, 0xff,
  0x04, 0x00, 0x00, 0x00, 0x04, 0x00, 0x00, 0x00, 0x04, 0x00, 0x00, 0x00,
  0x3e, 0xff, 0xff, 0xff, 0x04, 0x00, 0x00, 0x00, 0x18, 0x00, 0x00, 0x00,
  0x00, 0x00, 0x00, 0x00, 0x00, 0x00, 0x00, 0x00, 0x08, 0x00, 0x00, 0x00,
  0x00, 0x00, 0x00, 0x00, 0x00, 0x00, 0x00, 0x00, 0x00, 0x00, 0x00, 0x00,
  0x62, 0xff, 0xff, 0xff, 0x04, 0x00, 0x00, 0x00, 0x0c, 0x00, 0x00, 0x00,
  0xff, 0xff, 0xff, 0xff, 0x0c, 0x00, 0x00, 0x00, 0x18, 0x00, 0x00, 0x00,
  0x7a, 0xff, 0xff, 0xff, 0x04, 0x00, 0x00, 0x00, 0x08, 0x00, 0x00, 0x00,
  0x00, 0x00, 0x00, 0x00, 0x00, 0x00, 0x00, 0x00, 0x8e, 0xff, 0xff, 0xff,
  0x04, 0x00, 0x00, 0x00, 0x04, 0x00, 0x00, 0x00, 0x02, 0x00, 0x00, 0x00,
  0x9e, 0xff, 0xff, 0xff, 0x04, 0x00, 0x00, 0x00, 0x18, 0x00, 0x00, 0x00,
  0x00, 0x00, 0x00, 0x00, 0x00, 0x00, 0x00, 0x00, 0x04, 0x00, 0x00, 0x00,
  0x00, 0x00, 0x00, 0x00, 0x00, 0x00, 0x00, 0x00, 0x00, 0x00, 0x00, 0x00,
  0xc2, 0xff, 0xff, 0xff, 0x04, 0x00, 0x00, 0x00, 0x18, 0x00, 0x00, 0x00,
  0x00, 0x00, 0x00, 0x00, 0x00, 0x00, 0x00, 0x00, 0x02, 0x00, 0x00, 0x00,
  0x00, 0x00, 0x00, 0x00, 0x00, 0x00, 0x00, 0x00, 0x00, 0x00, 0x00, 0x00,
  0xe6, 0xff, 0xff, 0xff, 0x04, 0x00, 0x00, 0x00, 0x0c, 0x00, 0x00, 0x00,
  0xff, 0xff, 0xff, 0xff, 0x18, 0x00, 0x00, 0x00, 0x18, 0x00, 0x00, 0x00,
  0x00, 0x00, 0x06, 0x00, 0x08, 0x00, 0x04, 0x00, 0x06, 0x00, 0x00, 0x00,
  0x04, 0x00, 0x00, 0x00, 0x04, 0x00, 0x00, 0x00, 0xfd, 0xff, 0xff, 0xff,
  0xc8, 0xbe, 0xff, 0xff, 0xcc, 0xbe, 0xff, 0xff, 0x0f, 0x00, 0x00, 0x00,
  0x4d, 0x4c, 0x49, 0x52, 0x20, 0x43, 0x6f, 0x6e, 0x76, 0x65, 0x72, 0x74,
  0x65, 0x64, 0x2e, 0x00, 0x01, 0x00, 0x00, 0x00, 0x14, 0x00, 0x00, 0x00,
  0x00, 0x00, 0x0e, 0x00, 0x18, 0x00, 0x14, 0x00, 0x10, 0x00, 0x0c, 0x00,
  0x08, 0x00, 0x04, 0x00, 0x0e, 0x00, 0x00, 0x00, 0x14, 0x00, 0x00, 0x00,
  0x1c, 0x00, 0x00, 0x00, 0x70, 0x09, 0x00, 0x00, 0x74, 0x09, 0x00, 0x00,
  0x78, 0x09, 0x00, 0x00, 0x04, 0x00, 0x00, 0x00, 0x6d, 0x61, 0x69, 0x6e,
  0x00, 0x00, 0x00, 0x00, 0x2c, 0x00, 0x00, 0x00, 0x28, 0x09, 0x00, 0x00,
  0xcc, 0x08, 0x00, 0x00, 0x94, 0x08, 0x00, 0x00, 0x54, 0x08, 0x00, 0x00,
  0x14, 0x08, 0x00, 0x00, 0xc0, 0x07, 0x00, 0x00, 0x98, 0x07, 0x00, 0x00,
  0x64, 0x07, 0x00, 0x00, 0x34, 0x07, 0x00, 0x00, 0xec, 0x06, 0x00, 0x00,
  0xb8, 0x06, 0x00, 0x00, 0x90, 0x06, 0x00, 0x00, 0x5c, 0x06, 0x00, 0x00,
  0x30, 0x06, 0x00, 0x00, 0x00, 0x06, 0x00, 0x00, 0xb0, 0x05, 0x00, 0x00,
  0x88, 0x05, 0x00, 0x00, 0x5c, 0x05, 0x00, 0x00, 0x1c, 0x05, 0x00, 0x00,
  0xe8, 0x04, 0x00, 0x00, 0xbc, 0x04, 0x00, 0x00, 0x8c, 0x04, 0x00, 0x00,
  0x48, 0x04, 0x00, 0x00, 0x20, 0x04, 0x00, 0x00, 0xf4, 0x03, 0x00, 0x00,
  0xbc, 0x03, 0x00, 0x00, 0x88, 0x03, 0x00, 0x00, 0x54, 0x03, 0x00, 0x00,
  0x28, 0x03, 0x00, 0x00, 0xf8, 0x02, 0x00, 0x00, 0xb4, 0x02, 0x00, 0x00,
  0x8c, 0x02, 0x00, 0x00, 0x60, 0x02, 0x00, 0x00, 0x28, 0x02, 0x00, 0x00,
  0xf4, 0x01, 0x00, 0x00, 0xc8, 0x01, 0x00, 0x00, 0x98, 0x01, 0x00, 0x00,
  0x54, 0x01, 0x00, 0x00, 0x2c, 0x01, 0x00, 0x00, 0x00, 0x01, 0x00, 0x00,
  0xc8, 0x00, 0x00, 0x00, 0x94, 0x00, 0x00, 0x00, 0x3c, 0x00, 0x00, 0x00,
  0x04, 0x00, 0x00, 0x00, 0x5e, 0xf8, 0xff, 0xff, 0x14, 0x00, 0x00, 0x00,
  0x00, 0x00, 0x00, 0x08, 0x10, 0x00, 0x00, 0x00, 0x14, 0x00, 0x00, 0x00,
  0x08, 0x00, 0x00, 0x00, 0xec, 0xbf, 0xff, 0xff, 0x01, 0x00, 0x00, 0x00,
  0x4d, 0x00, 0x00, 0x00, 0x03, 0x00, 0x00, 0x00, 0x4c, 0x00, 0x00, 0x00,
  0x0f, 0x00, 0x00, 0x00, 0x0e, 0x00, 0x00, 0x00, 0x22, 0xf8, 0xff, 0xff,
  0x24, 0x00, 0x00, 0x00, 0x00, 0x00, 0x00, 0x20, 0x2c, 0x00, 0x00, 0x00,
  0x30, 0x00, 0x00, 0x00, 0x07, 0x00, 0x00, 0x00, 0x00, 0x00, 0x0e, 0x00,
  0x10, 0x00, 0x0c, 0x00, 0x08, 0x00, 0x00, 0x00, 0x00, 0x00, 0x04, 0x00,
  0x0e, 0x00, 0x00, 0x00, 0x02, 0x00, 0x00, 0x00, 0x05, 0x00, 0x00, 0x00,
  0x05, 0x00, 0x00, 0x00, 0x01, 0x00, 0x00, 0x00, 0x4c, 0x00, 0x00, 0x00,
  0x04, 0x00, 0x00, 0x00, 0x4b, 0x00, 0x00, 0x00, 0x0b, 0x00, 0x00, 0x00,
  0x0c, 0x00, 0x00, 0x00, 0x0d, 0x00, 0x00, 0x00, 0xe6, 0xf8, 0xff, 0xff,
  0x14, 0x00, 0x00, 0x00, 0x00, 0x00, 0x00, 0x0b, 0x10, 0x00, 0x00, 0x00,
  0x14, 0x00, 0x00, 0x00, 0x04, 0x00, 0x00, 0x00, 0x74, 0xc0, 0xff, 0xff,
  0x01, 0x00, 0x00, 0x00, 0x4b, 0x00, 0x00, 0x00, 0x02, 0x00, 0x00, 0x00,
  0x3c, 0x00, 0x00, 0x00, 0x4a, 0x00, 0x00, 0x00, 0x16, 0xf9, 0xff, 0xff,
  0x14, 0x00, 0x00, 0x00, 0x00, 0x00, 0x00, 0x0b, 0x14, 0x00, 0x00, 0x00,
  0x18, 0x00, 0x00, 0x00, 0x04, 0x00, 0x00, 0x00, 0x02, 0xfc, 0xff, 0xff,
  0x00, 0x00, 0x00, 0x01, 0x01, 0x00, 0x00, 0x00, 0x4a, 0x00, 0x00, 0x00,
  0x02, 0x00, 0x00, 0x00, 0x49, 0x00, 0x00, 0x00, 0x10, 0x00, 0x00, 0x00,
  0x0a, 0xf9, 0xff, 0xff, 0x0c, 0x00, 0x00, 0x00, 0x10, 0x00, 0x00, 0x00,
  0x06, 0x00, 0x00, 0x00, 0x01, 0x00, 0x00, 0x00, 0x49, 0x00, 0x00, 0x00,
  0x03, 0x00, 0x00, 0x00, 0x48, 0x00, 0x00, 0x00, 0x09, 0x00, 0x00, 0x00,
  0x06, 0x00, 0x00, 0x00, 0x32, 0xf9, 0xff, 0xff, 0x0c, 0x00, 0x00, 0x00,
  0x10, 0x00, 0x00, 0x00, 0x02, 0x00, 0x00, 0x00, 0x01, 0x00, 0x00, 0x00,
  0x48, 0x00, 0x00, 0x00, 0x02, 0x00, 0x00, 0x00, 0x47, 0x00, 0x00, 0x00,
  0x0a, 0x00, 0x00, 0x00, 0x96, 0xf9, 0xff, 0xff, 0x14, 0x00, 0x00, 0x00,
  0x00, 0x00, 0x00, 0x01, 0x1c, 0x00, 0x00, 0x00, 0x20, 0x00, 0x00, 0x00,
  0x01, 0x00, 0x00, 0x00, 0xfa, 0xfb, 0xff, 0xff, 0x01, 0x00, 0x00, 0x00,
  0x01, 0x00, 0x00, 0x00, 0x00, 0x00, 0x00, 0x01, 0x01, 0x00, 0x00, 0x00,
  0x47, 0x00, 0x00, 0x00, 0x03, 0x00, 0x00, 0x00, 0x46, 0x00, 0x00, 0x00,
  0x11, 0x00, 0x00, 0x00, 0x1a, 0x00, 0x00, 0x00, 0x0e, 0xf9, 0xff, 0xff,
  0x10, 0x00, 0x00, 0x00, 0x00, 0x00, 0x00, 0x34, 0x0c, 0x00, 0x00, 0x00,
  0x10, 0x00, 0x00, 0x00, 0x60, 0xc1, 0xff, 0xff, 0x01, 0x00, 0x00, 0x00,
  0x46, 0x00, 0x00, 0x00, 0x02, 0x00, 0x00, 0x00, 0x45, 0x00, 0x00, 0x00,
  0x01, 0x00, 0x00, 0x00, 0xc2, 0xf9, 0xff, 0xff, 0x0c, 0x00, 0x00, 0x00,
  0x10, 0x00, 0x00, 0x00, 0x05, 0x00, 0x00, 0x00, 0x01, 0x00, 0x00, 0x00,
  0x45, 0x00, 0x00, 0x00, 0x03, 0x00, 0x00, 0x00, 0x44, 0x00, 0x00, 0x00,
  0x09, 0x00, 0x00, 0x00, 0x06, 0x00, 0x00, 0x00, 0x2a, 0xfa, 0xff, 0xff,
  0x14, 0x00, 0x00, 0x00, 0x00, 0x00, 0x00, 0x16, 0x10, 0x00, 0x00, 0x00,
  0x14, 0x00, 0x00, 0x00, 0x03, 0x00, 0x00, 0x00, 0xb8, 0xc1, 0xff, 0xff,
  0x01, 0x00, 0x00, 0x00, 0x44, 0x00, 0x00, 0x00, 0x02, 0x00, 0x00, 0x00,
  0x43, 0x00, 0x00, 0x00, 0x08, 0x00, 0x00, 0x00, 0x5a, 0xfa, 0xff, 0xff,
  0x14, 0x00, 0x00, 0x00, 0x00, 0x00, 0x00, 0x0b, 0x14, 0x00, 0x00, 0x00,
  0x18, 0x00, 0x00, 0x00, 0x04, 0x00, 0x00, 0x00, 0x46, 0xfd, 0xff, 0xff,
  0x00, 0x00, 0x00, 0x01, 0x01, 0x00, 0x00, 0x00, 0x43, 0x00, 0x00, 0x00,
  0x02, 0x00, 0x00, 0x00, 0x42, 0x00, 0x00, 0x00, 0x12, 0x00, 0x00, 0x00,
  0x4e, 0xfa, 0xff, 0xff, 0x0c, 0x00, 0x00, 0x00, 0x10, 0x00, 0x00, 0x00,
  0x06, 0x00, 0x00, 0x00, 0x01, 0x00, 0x00, 0x00, 0x42, 0x00, 0x00, 0x00,
  0x03, 0x00, 0x00, 0x00, 0x41, 0x00, 0x00, 0x00, 0x09, 0x00, 0x00, 0x00,
  0x06, 0x00, 0x00, 0x00, 0x76, 0xfa, 0xff, 0xff, 0x0c, 0x00, 0x00, 0x00,
  0x10, 0x00, 0x00, 0x00, 0x02, 0x00, 0x00, 0x00, 0x01, 0x00, 0x00, 0x00,
  0x41, 0x00, 0x00, 0x00, 0x02, 0x00, 0x00, 0x00, 0x40, 0x00, 0x00, 0x00,
  0x0a, 0x00, 0x00, 0x00, 0xda, 0xfa, 0xff, 0xff, 0x14, 0x00, 0x00, 0x00,
  0x00, 0x00, 0x00, 0x01, 0x1c, 0x00, 0x00, 0x00, 0x20, 0x00, 0x00, 0x00,
  0x01, 0x00, 0x00, 0x00, 0x3e, 0xfd, 0xff, 0xff, 0x01, 0x00, 0x00, 0x00,
  0x01, 0x00, 0x00, 0x00, 0x00, 0x00, 0x00, 0x01, 0x01, 0x00, 0x00, 0x00,
  0x40, 0x00, 0x00, 0x00, 0x03, 0x00, 0x00, 0x00, 0x3f, 0x00, 0x00, 0x00,
  0x13, 0x00, 0x00, 0x00, 0x19, 0x00, 0x00, 0x00, 0x52, 0xfa, 0xff, 0xff,
  0x10, 0x00, 0x00, 0x00, 0x00, 0x00, 0x00, 0x34, 0x0c, 0x00, 0x00, 0x00,
  0x10, 0x00, 0x00, 0x00, 0xa4, 0xc2, 0xff, 0xff, 0x01, 0x00, 0x00, 0x00,
  0x3f, 0x00, 0x00, 0x00, 0x02, 0x00, 0x00, 0x00, 0x3e, 0x00, 0x00, 0x00,
  0x01, 0x00, 0x00, 0x00, 0x06, 0xfb, 0xff, 0xff, 0x0c, 0x00, 0x00, 0x00,
  0x10, 0x00, 0x00, 0x00, 0x05, 0x00, 0x00, 0x00, 0x01, 0x00, 0x00, 0x00,
  0x3e, 0x00, 0x00, 0x00, 0x03, 0x00, 0x00, 0x00, 0x3d, 0x00, 0x00, 0x00,
  0x09, 0x00, 0x00, 0x00, 0x06, 0x00, 0x00, 0x00, 0x6e, 0xfb, 0xff, 0xff,
  0x14, 0x00, 0x00, 0x00, 0x00, 0x00, 0x00, 0x16, 0x10, 0x00, 0x00, 0x00,
  0x14, 0x00, 0x00, 0x00, 0x03, 0x00, 0x00, 0x00, 0xfc, 0xc2, 0xff, 0xff,
  0x01, 0x00, 0x00, 0x00, 0x3d, 0x00, 0x00, 0x00, 0x02, 0x00, 0x00, 0x00,
  0x3c, 0x00, 0x00, 0x00, 0x08, 0x00, 0x00, 0x00, 0x9e, 0xfb, 0xff, 0xff,
  0x14, 0x00, 0x00, 0x00, 0x00, 0x00, 0x00, 0x0b, 0x10, 0x00, 0x00, 0x00,
  0x14, 0x00, 0x00, 0x00, 0x04, 0x00, 0x00, 0x00, 0x2c, 0xc3, 0xff, 0xff,
  0x01, 0x00, 0x00, 0x00, 0x3c, 0x00, 0x00, 0x00, 0x02, 0x00, 0x00, 0x00,
  0x2d, 0x00, 0x00, 0x00, 0x3b, 0x00, 0x00, 0x00, 0xce, 0xfb, 0xff, 0xff,
  0x14, 0x00, 0x00, 0x00, 0x00, 0x00, 0x00, 0x0b, 0x14, 0x00, 0x00, 0x00,
  0x18, 0x00, 0x00, 0x00, 0x04, 0x00, 0x00, 0x00, 0xba, 0xfe, 0xff, 0xff,
  0x00, 0x00, 0x00, 0x01, 0x01, 0x00, 0x00, 0x00, 0x3b, 0x00, 0x00, 0x00,
  0x02, 0x00, 0x00, 0x00, 0x3a, 0x00, 0x00, 0x00, 0x14, 0x00, 0x00, 0x00,
  0xc2, 0xfb, 0xff, 0xff, 0x0c, 0x00, 0x00, 0x00, 0x10, 0x00, 0x00, 0x00,
  0x06, 0x00, 0x00, 0x00, 0x01, 0x00, 0x00, 0x00, 0x3a, 0x00, 0x00, 0x00,
  0x03, 0x00, 0x00, 0x00, 0x39, 0x00, 0x00, 0x00, 0x05, 0x00, 0x00, 0x00,
  0x06, 0x00, 0x00, 0x00, 0xea, 0xfb, 0xff, 0xff, 0x0c, 0x00, 0x00, 0x00,
  0x10, 0x00, 0x00, 0x00, 0x02, 0x00, 0x00, 0x00, 0x01, 0x00, 0x00, 0x00,
  0x39, 0x00, 0x00, 0x00, 0x02, 0x00, 0x00, 0x00, 0x38, 0x00, 0x00, 0x00,
  0x07, 0x00, 0x00, 0x00, 0x4e, 0xfc, 0xff, 0xff, 0x14, 0x00, 0x00, 0x00,
  0x00, 0x00, 0x00, 0x01, 0x1c, 0x00, 0x00, 0x00, 0x20, 0x00, 0x00, 0x00,
  0x01, 0x00, 0x00, 0x00, 0xb2, 0xfe, 0xff, 0xff, 0x01, 0x00, 0x00, 0x00,
  0x01, 0x00, 0x00, 0x00, 0x00, 0x00, 0x00, 0x01, 0x01, 0x00, 0x00, 0x00,
  0x38, 0x00, 0x00, 0x00, 0x03, 0x00, 0x00, 0x00, 0x37, 0x00, 0x00, 0x00,
  0x15, 0x00, 0x00, 0x00, 0x18, 0x00, 0x00, 0x00, 0xc6, 0xfb, 0xff, 0xff,
  0x10, 0x00, 0x00, 0x00, 0x00, 0x00, 0x00, 0x34, 0x0c, 0x00, 0x00, 0x00,
  0x10, 0x00, 0x00, 0x00, 0x18, 0xc4, 0xff, 0xff, 0x01, 0x00, 0x00, 0x00,
  0x37, 0x00, 0x00, 0x00, 0x02, 0x00, 0x00, 0x00, 0x36, 0x00, 0x00, 0x00,
  0x01, 0x00, 0x00, 0x00, 0x7a, 0xfc, 0xff, 0xff, 0x0c, 0x00, 0x00, 0x00,
  0x10, 0x00, 0x00, 0x00, 0x05, 0x00, 0x00, 0x00, 0x01, 0x00, 0x00, 0x00,
  0x36, 0x00, 0x00, 0x00, 0x03, 0x00, 0x00, 0x00, 0x35, 0x00, 0x00, 0x00,
  0x05, 0x00, 0x00, 0x00, 0x06, 0x00, 0x00, 0x00, 0xe2, 0xfc, 0xff, 0xff,
  0x14, 0x00, 0x00, 0x00, 0x00, 0x00, 0x00, 0x16, 0x10, 0x00, 0x00, 0x00,
  0x14, 0x00, 0x00, 0x00, 0x03, 0x00, 0x00, 0x00, 0x70, 0xc4, 0xff, 0xff,
  0x01, 0x00, 0x00, 0x00, 0x35, 0x00, 0x00, 0x00, 0x02, 0x00, 0x00, 0x00,
  0x34, 0x00, 0x00, 0x00, 0x04, 0x00, 0x00, 0x00, 0xa2, 0xfc, 0xff, 0xff,
  0x1c, 0x00, 0x00, 0x00, 0x00, 0x00, 0x00, 0x0b, 0x1c, 0x00, 0x00, 0x00,
  0x20, 0x00, 0x00, 0x00, 0x04, 0x00, 0x00, 0x00, 0x00, 0x00, 0x06, 0x00,
  0x08, 0x00, 0x07, 0x00, 0x06, 0x00, 0x00, 0x00, 0x00, 0x00, 0x00, 0x01,
  0x01, 0x00, 0x00, 0x00, 0x34, 0x00, 0x00, 0x00, 0x02, 0x00, 0x00, 0x00,
  0x33, 0x00, 0x00, 0x00, 0x16, 0x00, 0x00, 0x00, 0x0e, 0xfd, 0xff, 0xff,
  0x0c, 0x00, 0x00, 0x00, 0x10, 0x00, 0x00, 0x00, 0x06, 0x00, 0x00, 0x00,
  0x01, 0x00, 0x00, 0x00, 0x33, 0x00, 0x00, 0x00, 0x03, 0x00, 0x00, 0x00,
  0x32, 0x00, 0x00, 0x00, 0x05, 0x00, 0x00, 0x00, 0x06, 0x00, 0x00, 0x00,
  0x36, 0xfd, 0xff, 0xff, 0x0c, 0x00, 0x00, 0x00, 0x10, 0x00, 0x00, 0x00,
  0x02, 0x00, 0x00, 0x00, 0x01, 0x00, 0x00, 0x00, 0x32, 0x00, 0x00, 0x00,
  0x02, 0x00, 0x00, 0x00, 0x31, 0x00, 0x00, 0x00, 0x07, 0x00, 0x00, 0x00,
  0x2a, 0xfd, 0xff, 0xff, 0x20, 0x00, 0x00, 0x00, 0x00, 0x00, 0x00, 0x01,
  0x28, 0x00, 0x00, 0x00, 0x2c, 0x00, 0x00, 0x00, 0x01, 0x00, 0x00, 0x00,
  0x00, 0x00, 0x0a, 0x00, 0x10, 0x00, 0x0f, 0x00, 0x08, 0x00, 0x04, 0x00,
  0x0a, 0x00, 0x00, 0x00, 0x01, 0x00, 0x00, 0x00, 0x01, 0x00, 0x00, 0x00,
  0x00, 0x00, 0x00, 0x01, 0x01, 0x00, 0x00, 0x00, 0x31, 0x00, 0x00, 0x00,
  0x03, 0x00, 0x00, 0x00, 0x30, 0x00, 0x00, 0x00, 0x1b, 0x00, 0x00, 0x00,
  0x17, 0x00, 0x00, 0x00, 0x1e, 0xfd, 0xff, 0xff, 0x10, 0x00, 0x00, 0x00,
  0x00, 0x00, 0x00, 0x34, 0x0c, 0x00, 0x00, 0x00, 0x10, 0x00, 0x00, 0x00,
  0x70, 0xc5, 0xff, 0xff, 0x01, 0x00, 0x00, 0x00, 0x30, 0x00, 0x00, 0x00,
  0x02, 0x00, 0x00, 0x00, 0x2f, 0x00, 0x00, 0x00, 0x01, 0x00, 0x00, 0x00,
  0xd2, 0xfd, 0xff, 0xff, 0x0c, 0x00, 0x00, 0x00, 0x10, 0x00, 0x00, 0x00,
  0x05, 0x00, 0x00, 0x00, 0x01, 0x00, 0x00, 0x00, 0x2f, 0x00, 0x00, 0x00,
  0x03, 0x00, 0x00, 0x00, 0x2e, 0x00, 0x00, 0x00, 0x05, 0x00, 0x00, 0x00,
  0x06, 0x00, 0x00, 0x00, 0x3a, 0xfe, 0xff, 0xff, 0x14, 0x00, 0x00, 0x00,
  0x00, 0x00, 0x00, 0x16, 0x10, 0x00, 0x00, 0x00, 0x14, 0x00, 0x00, 0x00,
  0x03, 0x00, 0x00, 0x00, 0xc8, 0xc5, 0xff, 0xff, 0x01, 0x00, 0x00, 0x00,
  0x2e, 0x00, 0x00, 0x00, 0x02, 0x00, 0x00, 0x00, 0x2d, 0x00, 0x00, 0x00,
  0x04, 0x00, 0x00, 0x00, 0x2a, 0xfe, 0xff, 0xff, 0x0c, 0x00, 0x00, 0x00,
  0x10, 0x00, 0x00, 0x00, 0x02, 0x00, 0x00, 0x00, 0x01, 0x00, 0x00, 0x00,
  0x2d, 0x00, 0x00, 0x00, 0x02, 0x00, 0x00, 0x00, 0x2c, 0x00, 0x00, 0x00,
  0x02, 0x00, 0x00, 0x00, 0x8e, 0xfe, 0xff, 0xff, 0x14, 0x00, 0x00, 0x00,
  0x00, 0x00, 0x00, 0x0b, 0x10, 0x00, 0x00, 0x00, 0x14, 0x00, 0x00, 0x00,
  0x04, 0x00, 0x00, 0x00, 0x1c, 0xc6, 0xff, 0xff, 0x01, 0x00, 0x00, 0x00,
  0x2c, 0x00, 0x00, 0x00, 0x02, 0x00, 0x00, 0x00, 0x23, 0x00, 0x00, 0x00,
  0x2b, 0x00, 0x00, 0x00, 0xbe, 0xfe, 0xff, 0xff, 0x14, 0x00, 0x00, 0x00,
  0x00, 0x00, 0x00, 0x01, 0x20, 0x00, 0x00, 0x00, 0x24, 0x00, 0x00, 0x00,
  0x01, 0x00, 0x00, 0x00, 0x3c, 0xff, 0xff, 0xff, 0x00, 0x00, 0x00, 0x01,
  0x01, 0x00, 0x00, 0x00, 0x01, 0x00, 0x00, 0x00, 0x00, 0x00, 0x00, 0x01,
  0x01, 0x00, 0x00, 0x00, 0x2b, 0x00, 0x00, 0x00, 0x03, 0x00, 0x00, 0x00,
  0x2a, 0x00, 0x00, 0x00, 0x1d, 0x00, 0x00, 0x00, 0x1c, 0x00, 0x00, 0x00,
  0x3a, 0xfe, 0xff, 0xff, 0x10, 0x00, 0x00, 0x00, 0x00, 0x00, 0x00, 0x34,
  0x0c, 0x00, 0x00, 0x00, 0x10, 0x00, 0x00, 0x00, 0x8c, 0xc6, 0xff, 0xff,
  0x01, 0x00, 0x00, 0x00, 0x2a, 0x00, 0x00, 0x00, 0x02, 0x00, 0x00, 0x00,
  0x29, 0x00, 0x00, 0x00, 0x01, 0x00, 0x00, 0x00, 0x2e, 0xff, 0xff, 0xff,
  0x14, 0x00, 0x00, 0x00, 0x00, 0x00, 0x00, 0x16, 0x10, 0x00, 0x00, 0x00,
  0x14, 0x00, 0x00, 0x00, 0x03, 0x00, 0x00, 0x00, 0xbc, 0xc6, 0xff, 0xff,
  0x01, 0x00, 0x00, 0x00, 0x29, 0x00, 0x00, 0x00, 0x02, 0x00, 0x00, 0x00,
  0x28, 0x00, 0x00, 0x00, 0x03, 0x00, 0x00, 0x00, 0x1e, 0xff, 0xff, 0xff,
  0x0c, 0x00, 0x00, 0x00, 0x10, 0x00, 0x00, 0x00, 0x02, 0x00, 0x00, 0x00,
  0x01, 0x00, 0x00, 0x00, 0x28, 0x00, 0x00, 0x00, 0x02, 0x00, 0x00, 0x00,
  0x27, 0x00, 0x00, 0x00, 0x02, 0x00, 0x00, 0x00, 0x82, 0xff, 0xff, 0xff,
  0x20, 0x00, 0x00, 0x00, 0x00, 0x00, 0x00, 0x01, 0x2c, 0x00, 0x00, 0x00,
  0x30, 0x00, 0x00, 0x00, 0x01, 0x00, 0x00, 0x00, 0x0c, 0x00, 0x14, 0x00,
  0x13, 0x00, 0x0c, 0x00, 0x08, 0x00, 0x07, 0x00, 0x0c, 0x00, 0x00, 0x00,
  0x00, 0x00, 0x00, 0x01, 0x01, 0x00, 0x00, 0x00, 0x01, 0x00, 0x00, 0x00,
  0x00, 0x00, 0x00, 0x01, 0x01, 0x00, 0x00, 0x00, 0x27, 0x00, 0x00, 0x00,
  0x03, 0x00, 0x00, 0x00, 0x26, 0x00, 0x00, 0x00, 0x1f, 0x00, 0x00, 0x00,
  0x1e, 0x00, 0x00, 0x00, 0x0a, 0xff, 0xff, 0xff, 0x10, 0x00, 0x00, 0x00,
  0x00, 0x00, 0x00, 0x34, 0x0c, 0x00, 0x00, 0x00, 0x10, 0x00, 0x00, 0x00,
  0x5c, 0xc7, 0xff, 0xff, 0x01, 0x00, 0x00, 0x00, 0x26, 0x00, 0x00, 0x00,
  0x02, 0x00, 0x00, 0x00, 0x25, 0x00, 0x00, 0x00, 0x01, 0x00, 0x00, 0x00,
  0x00, 0x00, 0x0e, 0x00, 0x18, 0x00, 0x14, 0x00, 0x10, 0x00, 0x0c, 0x00,
  0x0b, 0x00, 0x04, 0x00, 0x0e, 0x00, 0x00, 0x00, 0x14, 0x00, 0x00, 0x00,
  0x00, 0x00, 0x00, 0x16, 0x10, 0x00, 0x00, 0x00, 0x14, 0x00, 0x00, 0x00,
  0x03, 0x00, 0x00, 0x00, 0x9c, 0xc7, 0xff, 0xff, 0x01, 0x00, 0x00, 0x00,
  0x25, 0x00, 0x00, 0x00, 0x02, 0x00, 0x00, 0x00, 0x24, 0x00, 0x00, 0x00,
  0x03, 0x00, 0x00, 0x00, 0x00, 0x00, 0x0a, 0x00, 0x10, 0x00, 0x0c, 0x00,
  0x08, 0x00, 0x04, 0x00, 0x0a, 0x00, 0x00, 0x00, 0x0c, 0x00, 0x00, 0x00,
  0x10, 0x00, 0x00, 0x00, 0x02, 0x00, 0x00, 0x00, 0x01, 0x00, 0x00, 0x00,
  0x24, 0x00, 0x00, 0x00, 0x02, 0x00, 0x00, 0x00, 0x23, 0x00, 0x00, 0x00,
  0x02, 0x00, 0x00, 0x00, 0x00, 0x00, 0x0e, 0x00, 0x1a, 0x00, 0x14, 0x00,
  0x10, 0x00, 0x0c, 0x00, 0x0b, 0x00, 0x04, 0x00, 0x0e, 0x00, 0x00, 0x00,
  0x20, 0x00, 0x00, 0x00, 0x00, 0x00, 0x00, 0x01, 0x24, 0x00, 0x00, 0x00,
  0x28, 0x00, 0x00, 0x00, 0x01, 0x00, 0x00, 0x00, 0x00, 0x00, 0x0a, 0x00,
  0x0c, 0x00, 0x00, 0x00, 0x08, 0x00, 0x04, 0x00, 0x0a, 0x00, 0x00, 0x00,
  0x01, 0x00, 0x00, 0x00, 0x01, 0x00, 0x00, 0x00, 0x01, 0x00, 0x00, 0x00,
  0x23, 0x00, 0x00, 0x00, 0x03, 0x00, 0x00, 0x00, 0x22, 0x00, 0x00, 0x00,
  0x21, 0x00, 0x00, 0x00, 0x20, 0x00, 0x00, 0x00, 0x00, 0x00, 0x0e, 0x00,
  0x14, 0x00, 0x00, 0x00, 0x10, 0x00, 0x0c, 0x00, 0x0b, 0x00, 0x04, 0x00,
  0x0e, 0x00, 0x00, 0x00, 0x10, 0x00, 0x00, 0x00, 0x00, 0x00, 0x00, 0x34,
  0x0c, 0x00, 0x00, 0x00, 0x10, 0x00, 0x00, 0x00, 0x60, 0xc8, 0xff, 0xff,
  0x01, 0x00, 0x00, 0x00, 0x22, 0x00, 0x00, 0x00, 0x02, 0x00, 0x00, 0x00,
  0x00, 0x00, 0x00, 0x00, 0x01, 0x00, 0x00, 0x00, 0x01, 0x00, 0x00, 0x00,
  0x4d, 0x00, 0x00, 0x00, 0x01, 0x00, 0x00, 0x00, 0x00, 0x00, 0x00, 0x00,
  0x4e, 0x00, 0x00, 0x00, 0xc0, 0x37, 0x00, 0x00, 0x54, 0x37, 0x00, 0x00,
  0xec, 0x36, 0x00, 0x00, 0x9c, 0x36, 0x00, 0x00, 0x4c, 0x36, 0x00, 0x00,
  0xe8, 0x35, 0x00, 0x00, 0x88, 0x35, 0x00, 0x00, 0x38, 0x35, 0x00, 0x00,
  0xe8, 0x34, 0x00, 0x00, 0x84, 0x34, 0x00, 0x00, 0x34, 0x34, 0x00, 0x00,
  0xe0, 0x33, 0x00, 0x00, 0x8c, 0x33, 0x00, 0x00, 0x38, 0x33, 0x00, 0x00,
  0xc8, 0x32, 0x00, 0x00, 0x64, 0x32, 0x00, 0x00, 0xf0, 0x31, 0x00, 0x00,
  0x6c, 0x30, 0x00, 0x00, 0xf8, 0x2f, 0x00, 0x00, 0x74, 0x2e, 0x00, 0x00,
  0x00, 0x2e, 0x00, 0x00, 0x7c, 0x2c, 0x00, 0x00, 0x08, 0x2c, 0x00, 0x00,
  0x8c, 0x2a, 0x00, 0x00, 0x10, 0x29, 0x00, 0x00, 0x94, 0x27, 0x00, 0x00,
  0x18, 0x26, 0x00, 0x00, 0x94, 0x24, 0x00, 0x00, 0x08, 0x23, 0x00, 0x00,
  0x84, 0x21, 0x00, 0x00, 0xf8, 0x1f, 0x00, 0x00, 0x74, 0x1e, 0x00, 0x00,
  0xf0, 0x1c, 0x00, 0x00, 0x6c, 0x1b, 0x00, 0x00, 0xd8, 0x1a, 0x00, 0x00,
  0xe4, 0x19, 0x00, 0x00, 0x24, 0x19, 0x00, 0x00, 0xa8, 0x18, 0x00, 0x00,
  0x10, 0x18, 0x00, 0x00, 0x04, 0x17, 0x00, 0x00, 0x2c, 0x16, 0x00, 0x00,
  0xb0, 0x15, 0x00, 0x00, 0x18, 0x15, 0x00, 0x00, 0x0c, 0x14, 0x00, 0x00,
  0xc8, 0x12, 0x00, 0x00, 0x88, 0x11, 0x00, 0x00, 0x0c, 0x11, 0x00, 0x00,
  0x78, 0x10, 0x00, 0x00, 0xe0, 0x0f, 0x00, 0x00, 0x54, 0x0f, 0x00, 0x00,
  0xcc, 0x0e, 0x00, 0x00, 0x38, 0x0e, 0x00, 0x00, 0xa4, 0x0d, 0x00, 0x00,
  0x28, 0x0d, 0x00, 0x00, 0x94, 0x0c, 0x00, 0x00, 0xfc, 0x0b, 0x00, 0x00,
  0x70, 0x0b, 0x00, 0x00, 0xe8, 0x0a, 0x00, 0x00, 0x54, 0x0a, 0x00, 0x00,
  0xc0, 0x09, 0x00, 0x00, 0x44, 0x09, 0x00, 0x00, 0xc8, 0x08, 0x00, 0x00,
  0x34, 0x08, 0x00, 0x00, 0x9c, 0x07, 0x00, 0x00, 0x10, 0x07, 0x00, 0x00,
  0x88, 0x06, 0x00, 0x00, 0xf4, 0x05, 0x00, 0x00, 0x60, 0x05, 0x00, 0x00,
  0xe4, 0x04, 0x00, 0x00, 0x50, 0x04, 0x00, 0x00, 0xb8, 0x03, 0x00, 0x00,
  0x2c, 0x03, 0x00, 0x00, 0xa4, 0x02, 0x00, 0x00, 0x10, 0x02, 0x00, 0x00,
  0x7c, 0x01, 0x00, 0x00, 0x00, 0x01, 0x00, 0x00, 0x80, 0x00, 0x00, 0x00,
  0x04, 0x00, 0x00, 0x00, 0x8e, 0xc9, 0xff, 0xff, 0x00, 0x00, 0x00, 0x01,
  0x18, 0x00, 0x00, 0x00, 0x20, 0x00, 0x00, 0x00, 0x3c, 0x00, 0x00, 0x00,
  0x4e, 0x00, 0x00, 0x00, 0x00, 0x00, 0x00, 0x09, 0x50, 0x00, 0x00, 0x00,
  0x02, 0x00, 0x00, 0x00, 0xff, 0xff, 0xff, 0xff, 0x01, 0x00, 0x00, 0x00,
  0x74, 0xc9, 0xff, 0xff, 0x08, 0x00, 0x00, 0x00, 0x10, 0x00, 0x00, 0x00,
  0x01, 0x00, 0x00, 0x00, 0x80, 0xff, 0xff, 0xff, 0xff, 0xff, 0xff, 0xff,
  0x01, 0x00, 0x00, 0x00, 0x00, 0x78, 0x58, 0x3b, 0x19, 0x00, 0x00, 0x00,
  0x53, 0x74, 0x61, 0x74, 0x65, 0x66, 0x75, 0x6c, 0x50, 0x61, 0x72, 0x74,
  0x69, 0x74, 0x69, 0x6f, 0x6e, 0x65, 0x64, 0x43, 0x61, 0x6c, 0x6c, 0x3a,
  0x30, 0x00, 0x00, 0x00, 0x02, 0x00, 0x00, 0x00, 0x01, 0x00, 0x00, 0x00,
  0x01, 0x00, 0x00, 0x00, 0x06, 0xca, 0xff, 0xff, 0x00, 0x00, 0x00, 0x01,
  0x18, 0x00, 0x00, 0x00, 0x20, 0x00, 0x00, 0x00, 0x40, 0x00, 0x00, 0x00,
  0x4d, 0x00, 0x00, 0x00, 0x00, 0x00, 0x00, 0x09, 0x54, 0x00, 0x00, 0x00,
  0x02, 0x00, 0x00, 0x00, 0xff, 0xff, 0xff, 0xff, 0x18, 0x00, 0x00, 0x00,
  0xec, 0xc9, 0xff, 0xff, 0x08, 0x00, 0x00, 0x00, 0x14, 0x00, 0x00, 0x00,
  0x01, 0x00, 0x00, 0x00, 0xf5, 0xff, 0xff, 0xff, 0xff, 0xff, 0xff, 0xff,
  0x00, 0x00, 0x00, 0x00, 0x01, 0x00, 0x00, 0x00, 0x23, 0xf9, 0xf2, 0x3b,
  0x1a, 0x00, 0x00, 0x00, 0x6d, 0x6f, 0x64, 0x65, 0x6c, 0x2f, 0x6c, 0x61,
  0x6d, 0x62, 0x64, 0x61, 0x2f, 0x73, 0x74, 0x72, 0x69, 0x64, 0x65, 0x64,
  0x5f, 0x73, 0x6c, 0x69, 0x63, 0x65, 0x00, 0x00, 0x02, 0x00, 0x00, 0x00,
  0x01, 0x00, 0x00, 0x00, 0x18, 0x00, 0x00, 0x00, 0x82, 0xca, 0xff, 0xff,
  0x00, 0x00, 0x00, 0x01, 0x18, 0x00, 0x00, 0x00, 0x24, 0x00, 0x00, 0x00,
  0x44, 0x00, 0x00, 0x00, 0x4c, 0x00, 0x00, 0x00, 0x00, 0x00, 0x00, 0x09,
  0x4c, 0x00, 0x00, 0x00, 0x03, 0x00, 0x00, 0x00, 0xff, 0xff, 0xff, 0xff,
  0x18, 0x00, 0x00, 0x00, 0x18, 0x00, 0x00, 0x00, 0x6c, 0xca, 0xff, 0xff,
  0x08, 0x00, 0x00, 0x00, 0x14, 0x00, 0x00, 0x00, 0x01, 0x00, 0x00, 0x00,
  0xf5, 0xff, 0xff, 0xff, 0xff, 0xff, 0xff, 0xff, 0x00, 0x00, 0x00, 0x00,
  0x01, 0x00, 0x00, 0x00, 0x23, 0xf9, 0xf2, 0x3b, 0x0f, 0x00, 0x00, 0x00,
  0x6d, 0x6f, 0x64, 0x65, 0x6c, 0x2f, 0x61, 0x64, 0x64, 0x5f, 0x32, 0x2f,
  0x61, 0x64, 0x64, 0x00, 0x03, 0x00, 0x00, 0x00, 0x01, 0x00, 0x00, 0x00,
  0x18, 0x00, 0x00, 0x00, 0x18, 0x00, 0x00, 0x00, 0xfa, 0xca, 0xff, 0xff,
  0x00, 0x00, 0x00, 0x01, 0x18, 0x00, 0x00, 0x00, 0x24, 0x00, 0x00, 0x00,
  0x40, 0x00, 0x00, 0x00, 0x4b, 0x00, 0x00, 0x00, 0x00, 0x00, 0x00, 0x09,
  0x64, 0x00, 0x00, 0x00, 0x03, 0x00, 0x00, 0x00, 0xff, 0xff, 0xff, 0xff,
  0x18, 0x00, 0x00, 0x00, 0x18, 0x00, 0x00, 0x00, 0xe4, 0xca, 0xff, 0xff,
  0x08, 0x00, 0x00, 0x00, 0x10, 0x00, 0x00, 0x00, 0x01, 0x00, 0x00, 0x00,
  0xf5, 0xff, 0xff, 0xff, 0xff, 0xff, 0xff, 0xff, 0x01, 0x00, 0x00, 0x00,
  0x23, 0xf9, 0xf2, 0x3b, 0x2a, 0x00, 0x00, 0x00, 0x6d, 0x6f, 0x64, 0x65,
  0x6c, 0x2f, 0x63, 0x6f, 0x6e, 0x76, 0x31, 0x64, 0x5f, 0x36, 0x2f, 0x52,
  0x65, 0x6c, 0x75, 0x3b, 0x6d, 0x6f, 0x64, 0x65, 0x6c, 0x2f, 0x63, 0x6f,
  0x6e, 0x76, 0x31, 0x64, 0x5f, 0x36, 0x2f, 0x42, 0x69, 0x61, 0x73, 0x41,
  0x64, 0x64, 0x00, 0x00, 0x03, 0x00, 0x00, 0x00, 0x01, 0x00, 0x00, 0x00,
  0x18, 0x00, 0x00, 0x00, 0x18, 0x00, 0x00, 0x00, 0x8a, 0xcb, 0xff, 0xff,
  0x00, 0x00, 0x00, 0x01, 0x18, 0x00, 0x00, 0x00, 0x24, 0x00, 0x00, 0x00,
  0x44, 0x00, 0x00, 0x00, 0x4a, 0x00, 0x00, 0x00, 0x00, 0x00, 0x00, 0x09,
  0x64, 0x00, 0x00, 0x00, 0x03, 0x00, 0x00, 0x00, 0xff, 0xff, 0xff, 0xff,
  0x18, 0x00, 0x00, 0x00, 0x18, 0x00, 0x00, 0x00, 0x74, 0xcb, 0xff, 0xff,
  0x08, 0x00, 0x00, 0x00, 0x14, 0x00, 0x00, 0x00, 0x01, 0x00, 0x00, 0x00,
  0x20, 0x00, 0x00, 0x00, 0x00, 0x00, 0x00, 0x00, 0x00, 0x00, 0x00, 0x00,
  0x01, 0x00, 0x00, 0x00, 0xa7, 0xc6, 0x66, 0x3a, 0x24, 0x00, 0x00, 0x00,
  0x6d, 0x6f, 0x64, 0x65, 0x6c, 0x2f, 0x63, 0x6f, 0x6e, 0x76, 0x31, 0x64,
  0x5f, 0x36, 0x2f, 0x43, 0x6f, 0x6e, 0x76, 0x31, 0x44, 0x2f, 0x42, 0x61,
  0x74, 0x63, 0x68, 0x54, 0x6f, 0x53, 0x70, 0x61, 0x63, 0x65, 0x4e, 0x44,
  0x00, 0x00, 0x00, 0x00, 0x03, 0x00, 0x00, 0x00, 0x01, 0x00, 0x00, 0x00,
  0x18, 0x00, 0x00, 0x00, 0x18, 0x00, 0x00, 0x00, 0x1a, 0xcc, 0xff, 0xff,
  0x00, 0x00, 0x00, 0x01, 0x18, 0x00, 0x00, 0x00, 0x24, 0x00, 0x00, 0x00,
  0x40, 0x00, 0x00, 0x00, 0x49, 0x00, 0x00, 0x00, 0x00, 0x00, 0x00, 0x09,
  0x58, 0x00, 0x00, 0x00, 0x03, 0x00, 0x00, 0x00, 0xff, 0xff, 0xff, 0xff,
  0x06, 0x00, 0x00, 0x00, 0x18, 0x00, 0x00, 0x00, 0x04, 0xcc, 0xff, 0xff,
  0x08, 0x00, 0x00, 0x00, 0x10, 0x00, 0x00, 0x00, 0x01, 0x00, 0x00, 0x00,
  0x20, 0x00, 0x00, 0x00, 0x00, 0x00, 0x00, 0x00, 0x01, 0x00, 0x00, 0x00,
  0xa7, 0xc6, 0x66, 0x3a, 0x1e, 0x00, 0x00, 0x00, 0x6d, 0x6f, 0x64, 0x65,
  0x6c, 0x2f, 0x63, 0x6f, 0x6e, 0x76, 0x31, 0x64, 0x5f, 0x36, 0x2f, 0x43,
  0x6f, 0x6e, 0x76, 0x31, 0x44, 0x2f, 0x53, 0x71, 0x75, 0x65, 0x65, 0x7a,
  0x65, 0x31, 0x00, 0x00, 0x03, 0x00, 0x00, 0x00, 0x01, 0x00, 0x00, 0x00,
  0x06, 0x00, 0x00, 0x00, 0x18, 0x00, 0x00, 0x00, 0x9e, 0xcc, 0xff, 0xff,
  0x00, 0x00, 0x00, 0x01, 0x18, 0x00, 0x00, 0x00, 0x28, 0x00, 0x00, 0x00,
  0x48, 0x00, 0x00, 0x00, 0x48, 0x00, 0x00, 0x00, 0x00, 0x00, 0x00, 0x09,
  0x58, 0x00, 0x00, 0x00, 0x04, 0x00, 0x00, 0x00, 0xff, 0xff, 0xff, 0xff,
  0x01, 0x00, 0x00, 0x00, 0x06, 0x00, 0x00, 0x00, 0x18, 0x00, 0x00, 0x00,
  0x8c, 0xcc, 0xff, 0xff, 0x08, 0x00, 0x00, 0x00, 0x14, 0x00, 0x00, 0x00,
  0x01, 0x00, 0x00, 0x00, 0x20, 0x00, 0x00, 0x00, 0x00, 0x00, 0x00, 0x00,
