const unsigned char g_tcn_model_data[] __attribute__((aligned(16))) = {
  0x20, 0x00, 0x00, 0x00, 0x54, 0x46, 0x4c, 0x33, 0x00, 0x00, 0x00, 0x00,
  0x14, 0x00, 0x20, 0x00, 0x1c, 0x00, 0x18, 0x00, 0x14, 0x00, 0x10, 0x00,
  0x0c, 0x00, 0x00, 0x00, 0x08, 0x00, 0x04, 0x00, 0x14, 0x00, 0x00, 0x00,
  0x1c, 0x00, 0x00, 0x00, 0x80, 0x00, 0x00, 0x00, 0xd8, 0x00, 0x00, 0x00,
  0xc8, 0x30, 0x00, 0x00, 0xd8, 0x30, 0x00, 0x00, 0xcc, 0x72, 0x00, 0x00,
  0x03, 0x00, 0x00, 0x00, 0x01, 0x00, 0x00, 0x00, 0x04, 0x00, 0x00, 0x00,
  0x6a, 0xc6, 0xff, 0xff, 0x0c, 0x00, 0x00, 0x00, 0x1c, 0x00, 0x00, 0x00,
  0x38, 0x00, 0x00, 0x00, 0x0f, 0x00, 0x00, 0x00, 0x73, 0x65, 0x72, 0x76,
  0x69, 0x6e, 0x67, 0x5f, 0x64, 0x65, 0x66, 0x61, 0x75, 0x6c, 0x74, 0x00,
  0x01, 0x00, 0x00, 0x00, 0x04, 0x00, 0x00, 0x00, 0x9c, 0xff, 0xff, 0xff,
  0x4d, 0x00, 0x00, 0x00, 0x04, 0x00, 0x00, 0x00, 0x05, 0x00, 0x00, 0x00,
  0x64, 0x65, 0x6e, 0x73, 0x65, 0x00, 0x00, 0x00, 0x01, 0x00, 0x00, 0x00,
  0x04, 0x00, 0x00, 0x00, 0xba, 0xcf, 0xff, 0xff, 0x04, 0x00, 0x00, 0x00,
  0x07, 0x00, 0x00, 0x00, 0x69, 0x6e, 0x70, 0x75, 0x74, 0x5f, 0x31, 0x00,
  0x02, 0x00, 0x00, 0x00, 0x34, 0x00, 0x00, 0x00, 0x04, 0x00, 0x00, 0x00,
  0xdc, 0xff, 0xff, 0xff, 0x50, 0x00, 0x00, 0x00, 0x04, 0x00, 0x00, 0x00,
  0x13, 0x00, 0x00, 0x00, 0x43, 0x4f, 0x4e, 0x56, 0x45, 0x52, 0x53, 0x49,
  0x4f, 0x4e, 0x5f, 0x4d, 0x45, 0x54, 0x41, 0x44, 0x41, 0x54, 0x41, 0x00,
  0x08, 0x00, 0x0c, 0x00, 0x08, 0x00, 0x04, 0x00, 0x08, 0x00, 0x00, 0x00,
  0x4f, 0x00, 0x00, 0x00, 0x04, 0x00, 0x00, 0x00, 0x13, 0x00, 0x00, 0x00,
  0x6d, 0x69, 0x6e, 0x5f, 0x72, 0x75, 0x6e, 0x74, 0x69, 0x6d, 0x65, 0x5f,
  0x76, 0x65, 0x72, 0x73, 0x69, 0x6f, 0x6e, 0x00, 0x51, 0x00, 0x00, 0x00,
  0xec, 0x2f, 0x00, 0x00, 0xe4, 0x2f, 0x00, 0x00, 0xd0, 0x2f, 0x00, 0x00,
  0xac, 0x2f, 0x00, 0x00, 0x84, 0x2f, 0x00, 0x00, 0x5c, 0x2f, 0x00, 0x00,
  0x48, 0x2f, 0x00, 0x00, 0x30, 0x2f, 0x00, 0x00, 0x14, 0x2f, 0x00, 0x00,
  0xec, 0x2e, 0x00, 0x00, 0xd8, 0x2e, 0x00, 0x00, 0xbc, 0x2e, 0x00, 0x00,
  0xa0, 0x2e, 0x00, 0x00, 0x84, 0x2e, 0x00, 0x00, 0x68, 0x2e, 0x00, 0x00,
  0x54, 0x2e, 0x00, 0x00, 0x2c, 0x2e, 0x00, 0x00, 0x04, 0x2e, 0x00, 0x00,
  0x34, 0x27, 0x00, 0x00, 0x0c, 0x27, 0x00, 0x00, 0x3c, 0x20, 0x00, 0x00,
  0x14, 0x20, 0x00, 0x00, 0x44, 0x19, 0x00, 0x00, 0x1c, 0x19, 0x00, 0x00,
  0xac, 0x18, 0x00, 0x00, 0xa4, 0x18, 0x00, 0x00, 0x9c, 0x18, 0x00, 0x00,
  0x94, 0x18, 0x00, 0x00, 0xc4, 0x11, 0x00, 0x00, 0x54, 0x11, 0x00, 0x00,
  0x84, 0x0a, 0x00, 0x00, 0x14, 0x0a, 0x00, 0x00, 0x44, 0x03, 0x00, 0x00,
  0xd4, 0x02, 0x00, 0x00, 0xec, 0x01, 0x00, 0x00, 0xe4, 0x01, 0x00, 0x00,
  0xdc, 0x01, 0x00, 0x00, 0xd4, 0x01, 0x00, 0x00, 0xcc, 0x01, 0x00, 0x00,
  0xc4, 0x01, 0x00, 0x00, 0xbc, 0x01, 0x00, 0x00, 0xb4, 0x01, 0x00, 0x00,
  0xac, 0x01, 0x00, 0x00, 0xa4, 0x01, 0x00, 0x00, 0x9c, 0x01, 0x00, 0x00,
  0x94, 0x01, 0x00, 0x00, 0x8c, 0x01, 0x00, 0x00, 0x84, 0x01, 0x00, 0x00,
  0x7c, 0x01, 0x00, 0x00, 0x74, 0x01, 0x00, 0x00, 0x6c, 0x01, 0x00, 0x00,
  0x64, 0x01, 0x00, 0x00, 0x5c, 0x01, 0x00, 0x00, 0x54, 0x01, 0x00, 0x00,
  0x4c, 0x01, 0x00, 0x00, 0x44, 0x01, 0x00, 0x00, 0x3c, 0x01, 0x00, 0x00,
  0x34, 0x01, 0x00, 0x00, 0x2c, 0x01, 0x00, 0x00, 0x24, 0x01, 0x00, 0x00,
  0x1c, 0x01, 0x00, 0x00, 0x14, 0x01, 0x00, 0x00, 0x0c, 0x01, 0x00, 0x00,
  0x04, 0x01, 0x00, 0x00, 0xfc, 0x00, 0x00, 0x00, 0xf4, 0x00, 0x00, 0x00,
  0xec, 0x00, 0x00, 0x00, 0xe4, 0x00, 0x00, 0x00, 0xdc, 0x00, 0x00, 0x00,
  0xd4, 0x00, 0x00, 0x00, 0xcc, 0x00, 0x00, 0x00, 0xc4, 0x00, 0x00, 0x00,
  0xbc, 0x00, 0x00, 0x00, 0xb4, 0x00, 0x00, 0x00, 0xac, 0x00, 0x00, 0x00,
  0xa4, 0x00, 0x00, 0x00, 0x9c, 0x00, 0x00, 0x00, 0x94, 0x00, 0x00, 0x00,
  0x8c, 0x00, 0x00, 0x00, 0x6c, 0x00, 0x00, 0x00, 0x04, 0x00, 0x00, 0x00,
  0x72, 0xd1, 0xff, 0xff, 0x04, 0x00, 0x00, 0x00, 0x58, 0x00, 0x00, 0x00,
  0x0c, 0x00, 0x00, 0x00, 0x08, 0x00, 0x0e, 0x00, 0x08, 0x00, 0x04, 0x00,
  0x08, 0x00, 0x00, 0x00, 0x10, 0x00, 0x00, 0x00, 0x28, 0x00, 0x00, 0x00,
  0x00, 0x00, 0x06, 0x00, 0x08, 0x00, 0x04, 0x00, 0x06, 0x00, 0x00, 0x00,
  0x04, 0x00, 0x00, 0x00, 0x01, 0x00, 0x00, 0x00, 0xeb, 0x03, 0x00, 0x00,
  0x00, 0x00, 0x0a, 0x00, 0x10, 0x00, 0x0c, 0x00, 0x08, 0x00, 0x04, 0x00,
  0x0a, 0x00, 0x00, 0x00, 0x02, 0x00, 0x00, 0x00, 0x02, 0x00, 0x00, 0x00,
  0x04, 0x00, 0x00, 0x00, 0x06, 0x00, 0x00, 0x00, 0x32, 0x2e, 0x31, 0x35,
  0x2e, 0x30, 0x00, 0x00, 0xd6, 0xd1, 0xff, 0xff, 0x04, 0x00, 0x00, 0x00,
  0x10, 0x00, 0x00, 0x00, 0x32, 0x2e, 0x33, 0x2e, 0x30, 0x00, 0x00, 0x00,
  0x00, 0x00, 0x00, 0x00, 0x00, 0x00, 0x00, 0x00, 0xa4, 0x90, 0xff, 0xff,
  0xa8, 0x90, 0xff, 0xff, 0xac, 0x90, 0xff, 0xff, 0xb0, 0x90, 0xff, 0xff,
  0xb4, 0x90, 0xff, 0xff, 0xb8, 0x90, 0xff, 0xff, 0xbc, 0x90, 0xff, 0xff,
  0xc0, 0x90, 0xff, 0xff, 0xc4, 0x90, 0xff, 0xff, 0xc8, 0x90, 0xff, 0xff,
  0xcc, 0x90, 0xff, 0xff, 0xd0, 0x90, 0xff, 0xff, 0xd4, 0x90, 0xff, 0xff,
  0xd8, 0x90, 0xff, 0xff, 0xdc, 0x90, 0xff, 0xff, 0xe0, 0x90, 0xff, 0xff,
  0xe4, 0x90, 0xff, 0xff, 0xe8, 0x90, 0xff, 0xff, 0xec, 0x90, 0xff, 0xff,
  0xf0, 0x90, 0xff, 0xff, 0xf4, 0x90, 0xff, 0xff, 0xf8, 0x90, 0xff, 0xff,
  0xfc, 0x90, 0xff, 0xff, 0x00, 0x91, 0xff, 0xff, 0x04, 0x91, 0xff, 0xff,
  0x08, 0x91, 0xff, 0xff, 0x0c, 0x91, 0xff, 0xff, 0x10, 0x91, 0xff, 0xff,
  0x14, 0x91, 0xff, 0xff, 0x18, 0x91, 0xff, 0xff, 0x1c, 0x91, 0xff, 0xff,
  0x20, 0x91, 0xff, 0xff, 0x24, 0x91, 0xff, 0xff, 0x28, 0x91, 0xff, 0xff,
  0x2c, 0x91, 0xff, 0xff, 0x30, 0x91, 0xff, 0xff, 0x34, 0x91, 0xff, 0xff,
  0x38, 0x91, 0xff, 0xff, 0x3c, 0x91, 0xff, 0xff, 0x40, 0x91, 0xff, 0xff,
  0x44, 0x91, 0xff, 0xff, 0x48, 0x91, 0xff, 0xff, 0x4c, 0x91, 0xff, 0xff,
  0x50, 0x91, 0xff, 0xff, 0xa2, 0xd2, 0xff, 0xff, 0x04, 0x00, 0x00, 0x00,
  0xd8, 0x00, 0x00, 0x00, 0x81, 0xe0, 0x2d, 0x1f, 0x14, 0x3d, 0x07, 0x20,
  0xd6, 0x0f, 0x42, 0xfc, 0x9e, 0xb0, 0xb6, 0xd9, 0x7f, 0x9b, 0x7f, 0xfb,
  0xd9, 0x10, 0xbb, 0x84, 0xfb, 0x29, 0xff, 0x81, 0xa9, 0x34, 0x7d, 0xf7,
  0xc0, 0x59, 0x9f, 0xc4, 0x54, 0xc5, 0x5c, 0x59, 0xe8, 0x7f, 0xad, 0x54,
  0x04, 0x87, 0x9f, 0x81, 0x26, 0x53, 0xe7, 0x9b, 0x10, 0x0d, 0x1c, 0x64,
  0x0c, 0xb5, 0xaa, 0xac, 0x51, 0x5e, 0x7f, 0x7f, 0x7d, 0x06, 0x68, 0x12,
  0xf6, 0x2f, 0x08, 0xb8, 0xd4, 0xd9, 0x10, 0xe6, 0xc6, 0x7c, 0x0a, 0x81,
  0x05, 0xb0, 0xa3, 0xc8, 0x9f, 0x32, 0xd6, 0xe0, 0x06, 0x7f, 0xd9, 0x05,
  0x3c, 0xee, 0x93, 0x0e, 0x7f, 0x4b, 0x4e, 0xa4, 0x7f, 0xb2, 0x73, 0x14,
  0x26, 0x3d, 0xe9, 0xdd, 0xc6, 0xa8, 0xb1, 0x5f, 0xc3, 0x32, 0x7f, 0xaf,
  0xa8, 0xc8, 0xbb, 0x7f, 0x61, 0x99, 0xe4, 0x72, 0x96, 0x71, 0xe5, 0x7f,
  0x7f, 0x45, 0xb4, 0x62, 0xfb, 0x70, 0xb2, 0xce, 0x81, 0x76, 0x18, 0x39,
  0x5b, 0xde, 0x42, 0xc1, 0x81, 0x1d, 0xf4, 0x14, 0xd6, 0x1c, 0x34, 0xe6,
  0xbe, 0x0c, 0x67, 0x2d, 0x9e, 0x91, 0xe9, 0xfe, 0x81, 0xdc, 0x7c, 0x24,
  0xe4, 0x9b, 0x0d, 0x81, 0xe3, 0xf0, 0xec, 0x98, 0x2a, 0x18, 0xf5, 0xc7,
  0x7f, 0xbd, 0xd0, 0xba, 0x7f, 0x12, 0xd6, 0x8d, 0xc8, 0xdd, 0x28, 0xda,
  0xb8, 0x81, 0x38, 0xf5, 0xd1, 0x0e, 0xb2, 0x25, 0xb6, 0xa4, 0x99, 0x09,
  0x4b, 0x7a, 0x81, 0xf5, 0x4d, 0x52, 0x70, 0x12, 0xf3, 0x3d, 0x7f, 0x0c,
  0xcb, 0x72, 0x62, 0xe9, 0x86, 0xd3, 0xff, 0xff, 0x04, 0x00, 0x00, 0x00,
  0x60, 0x00, 0x00, 0x00, 0xfb, 0xec, 0xff, 0xff, 0x1d, 0xfe, 0xff, 0xff,
  0x92, 0x07, 0x00, 0x00, 0x9d, 0xf6, 0xff, 0xff, 0x8f, 0xf4, 0xff, 0xff,
  0x36, 0x04, 0x00, 0x00, 0xc7, 0xc9, 0xff, 0xff, 0xf0, 0x06, 0x00, 0x00,
  0xf6, 0xf9, 0xff, 0xff, 0xfc, 0x14, 0x00, 0x00, 0xb8, 0xeb, 0xff, 0xff,
  0xf1, 0x13, 0x00, 0x00, 0x5c, 0x14, 0x00, 0x00, 0xb6, 0x02, 0x00, 0x00,
  0x64, 0x0a, 0x00, 0x00, 0xc0, 0xec, 0xff, 0xff, 0x02, 0xf6, 0xff, 0xff,
  0xa5, 0xfd, 0xff, 0xff, 0x9a, 0x1c, 0x00, 0x00, 0xc9, 0xfe, 0xff, 0xff,
  0x76, 0x07, 0x00, 0x00, 0x8a, 0xfe, 0xff, 0xff, 0x91, 0x0a, 0x00, 0x00,
  0x6b, 0xf0, 0xff, 0xff, 0xf2, 0xd3, 0xff, 0xff, 0x04, 0x00, 0x00, 0x00,
  0xc0, 0x06, 0x00, 0x00, 0xe8, 0x2d, 0xd2, 0x49, 0x43, 0x07, 0xfe, 0xb3,
  0xcd, 0x9c, 0x2f, 0x61, 0x53, 0x8b, 0xa9, 0x3c, 0xf2, 0xf4, 0x6d, 0xab,
  0xe8, 0xa5, 0xe2, 0xaf, 0x38, 0xb0, 0x40, 0xd2, 0x15, 0x40, 0x0c, 0xce,
  0x48, 0xe7, 0x63, 0x09, 0x33, 0x26, 0x07, 0xdc, 0x13, 0xab, 0x57, 0x28,
  0xf7, 0xa2, 0xfc, 0x61, 0x01, 0x58, 0xe6, 0x2b, 0x1c, 0xcb, 0x9f, 0xfb,
  0x7f, 0x2f, 0x49, 0xdc, 0xc6, 0xdd, 0x3f, 0x62, 0x7b, 0x38, 0x9c, 0xa5,
  0x1a, 0x59, 0x2e, 0xed, 0x81, 0x7b, 0xea, 0x37, 0xde, 0x62, 0x06, 0x15,
  0x4b, 0x24, 0xae, 0x52, 0xac, 0x01, 0xb8, 0xab, 0x47, 0x17, 0xe5, 0xe6,
  0x0f, 0x70, 0xa6, 0x96, 0xa6, 0x19, 0x28, 0xb4, 0xcc, 0x5a, 0x8e, 0x4b,
  0xaa, 0x0c, 0xc8, 0xdb, 0x6a, 0x2b, 0xa1, 0xc7, 0x44, 0x10, 0xc9, 0xc4,
  0xaa, 0xc6, 0x2d, 0xf3, 0x39, 0xc1, 0x11, 0x44, 0x12, 0xae, 0x97, 0xe5,
  0xbf, 0xe7, 0xf7, 0x0f, 0x00, 0x15, 0xeb, 0x11, 0x90, 0x5a, 0xb3, 0xcc,
  0x28, 0xc4, 0xa4, 0x56, 0xfe, 0x7f, 0xbc, 0xff, 0xc1, 0x59, 0xa4, 0x4e,
  0xe0, 0xd1, 0x2d, 0x14, 0x3f, 0xdc, 0xdb, 0x39, 0x3c, 0x4c, 0xf9, 0xb7,
  0xf1, 0xf7, 0x24, 0x17, 0xe3, 0x7c, 0x18, 0x0b, 0xbc, 0x17, 0x93, 0x47,
  0x13, 0x49, 0x40, 0xc2, 0x01, 0xd5, 0xf7, 0x32, 0x06, 0xff, 0x9d, 0x74,
  0x68, 0x3c, 0xbb, 0x29, 0x52, 0x54, 0xaf, 0xba, 0xd2, 0xc1, 0x20, 0x44,
  0x12, 0x1b, 0xf9, 0x46, 0xbb, 0xbe, 0x1d, 0xa3, 0x49, 0x49, 0xab, 0x64,
  0x15, 0x34, 0xd5, 0x42, 0x87, 0xac, 0xc1, 0x5d, 0x47, 0xb7, 0x3b, 0x37,
  0x3c, 0x29, 0xb6, 0x5a, 0x1f, 0xc3, 0x94, 0x9a, 0x02, 0x68, 0xd3, 0x74,
  0xda, 0x0d, 0x00, 0xba, 0xd2, 0x4b, 0x51, 0x0d, 0xf0, 0x23, 0xaa, 0xd7,
  0xe8, 0xd3, 0xa1, 0x29, 0xbd, 0xdb, 0x94, 0x5e, 0x3a, 0xa7, 0xac, 0x1b,
  0xdb, 0x7f, 0xcf, 0xdc, 0x2a, 0x3a, 0xe8, 0x58, 0x46, 0x70, 0xb7, 0x83,
  0xb2, 0x69, 0xed, 0xd1, 0x20, 0x2e, 0x53, 0x0b, 0x45, 0x4f, 0x5a, 0x38,
  0xa5, 0x49, 0xa6, 0xa6, 0x02, 0x3a, 0x53, 0x90, 0xcc, 0x44, 0xf5, 0x9f,
  0xdb, 0xc8, 0x44, 0x09, 0xf0, 0x21, 0x9c, 0x3c, 0x9e, 0xb1, 0x4f, 0x60,
  0xb6, 0x0b, 0x77, 0xa6, 0x55, 0x24, 0x22, 0x1a, 0x81, 0xe4, 0x40, 0xdc,
  0x2c, 0x47, 0x46, 0xd6, 0xcf, 0xf4, 0xc7, 0xeb, 0x32, 0x52, 0x7f, 0xb4,
  0xd5, 0x47, 0xbd, 0xf1, 0x2e, 0x06, 0x3a, 0xa2, 0xb4, 0x06, 0x82, 0xd6,
  0xff, 0x72, 0xe0, 0xe9, 0x67, 0xe6, 0x45, 0x35, 0x11, 0x56, 0xd2, 0x43,
  0xc4, 0x59, 0x7e, 0xa9, 0xd8, 0x87, 0xd1, 0x06, 0x4d, 0x31, 0xba, 0x63,
  0xf0, 0xe9, 0x25, 0x1d, 0xc1, 0x7f, 0x87, 0xb7, 0x60, 0xfa, 0xe9, 0x37,
  0xc7, 0xd2, 0xf3, 0x00, 0x1e, 0xec, 0xdb, 0x79, 0x5c, 0x5a, 0x68, 0x50,
  0xbe, 0xb0, 0xf1, 0xaf, 0x9f, 0x0c, 0xaa, 0xc7, 0xb6, 0xef, 0xec, 0x44,
  0x68, 0x42, 0x01, 0xd7, 0x75, 0xad, 0x46, 0xb3, 0x29, 0x5e, 0xd0, 0xab,
  0x69, 0x52, 0xe6, 0xd9, 0xcb, 0xae, 0xb9, 0x4f, 0x34, 0x10, 0x19, 0xaa,
  0x53, 0x25, 0xd1, 0xc1, 0x20, 0x3d, 0x46, 0xdc, 0xeb, 0x55, 0x53, 0x93,
  0xf5, 0x16, 0xb6, 0xf3, 0x10, 0x4c, 0xae, 0xed, 0xe7, 0x12, 0xef, 0x40,
  0xde, 0x1a, 0x32, 0x25, 0x50, 0x5e, 0x00, 0x03, 0x3d, 0xea, 0x2d, 0x3b,
  0x45, 0x5a, 0x4c, 0xf0, 0xb2, 0xcd, 0xe8, 0x9a, 0x7f, 0xc9, 0x10, 0x37,
  0xac, 0xd4, 0x96, 0x4a, 0xb1, 0x06, 0x1f, 0xd2, 0x24, 0xb2, 0xe9, 0x2e,
  0xd3, 0xbd, 0x93, 0x2c, 0xf3, 0x40, 0xbe, 0x17, 0xe0, 0xc3, 0x27, 0xec,
  0xc1, 0x0c, 0x39, 0xf8, 0xb3, 0xe9, 0x77, 0x5c, 0x9c, 0x37, 0xa6, 0x02,
  0xcb, 0xe6, 0xa2, 0xf2, 0xda, 0x58, 0x1b, 0x88, 0xcb, 0x0c, 0x21, 0x00,
  0x6e, 0x35, 0x23, 0x10, 0x81, 0xe0, 0x27, 0xae, 0xe6, 0x7b, 0x0c, 0xe1,
  0x4c, 0xc0, 0x11, 0x04, 0x6c, 0xe0, 0xc0, 0x2c, 0xe0, 0xeb, 0xf8, 0x77,
  0xe4, 0x12, 0x28, 0x96, 0x48, 0xcd, 0x30, 0x01, 0x59, 0xf9, 0xf9, 0x4e,
  0xfc, 0x51, 0x1f, 0x43, 0xd5, 0x9d, 0x86, 0x13, 0x38, 0x04, 0xc4, 0x1f,
  0xce, 0x6a, 0x8e, 0x02, 0x41, 0x28, 0xcb, 0x1f, 0x95, 0x4c, 0x5a, 0x3f,
  0x3b, 0x6b, 0x5f, 0xd7, 0xfc, 0xef, 0x12, 0x04, 0x27, 0xd9, 0xe3, 0xc6,
  0x59, 0x27, 0x4f, 0x22, 0x02, 0x30, 0xec, 0xf7, 0xaa, 0x4b, 0x04, 0x38,
  0x24, 0x1b, 0x0f, 0x35, 0xcf, 0x20, 0xfa, 0xef, 0x51, 0xd2, 0x3a, 0xa9,
  0x5f, 0xe9, 0xbb, 0xab, 0x3d, 0xf5, 0x5a, 0x81, 0x21, 0xf0, 0x4a, 0x03,
  0xb8, 0x4e, 0x4c, 0xc1, 0xaa, 0xa1, 0xa6, 0xf2, 0xc3, 0xe4, 0xd3, 0x1f,
  0xef, 0xe4, 0xd1, 0x52, 0x27, 0xdc, 0x65, 0xc1, 0x90, 0xb0, 0xd9, 0x02,
  0x54, 0x4d, 0x95, 0xae, 0x37, 0xac, 0x35, 0xff, 0xae, 0x51, 0xe1, 0xa1,
  0xe8, 0xdd, 0xb3, 0x20, 0x6c, 0x1e, 0x31, 0x8a, 0x9d, 0xf9, 0x14, 0x4d,
  0x06, 0x8f, 0x30, 0xed, 0xb0, 0xfc, 0xab, 0xf0, 0x00, 0x40, 0x9c, 0x34,
  0xf5, 0x28, 0xd8, 0x23, 0x16, 0xb0, 0x60, 0x2e, 0x6b, 0x60, 0x54, 0xa3,
  0x7b, 0xb0, 0x9a, 0x6b, 0x98, 0xb0, 0x81, 0x34, 0x18, 0xb7, 0x99, 0x40,
  0xed, 0x13, 0xf8, 0xe5, 0x58, 0x0a, 0x04, 0x32, 0xd1, 0x79, 0x07, 0x81,
  0x5e, 0xc9, 0xc7, 0x7a, 0xdc, 0x0a, 0xa5, 0x50, 0x60, 0xfd, 0x41, 0x04,
  0xb4, 0xd0, 0x51, 0x4c, 0x11, 0x53, 0xee, 0x61, 0xf4, 0x69, 0xf7, 0x29,
  0x5a, 0x05, 0x10, 0xbc, 0x49, 0x18, 0x97, 0x87, 0xd8, 0x1c, 0xbe, 0x79,
  0xdc, 0xa9, 0xa8, 0x17, 0xd5, 0x2b, 0x9d, 0xbe, 0xe8, 0xad, 0x8a, 0xa5,
  0x5c, 0xd0, 0xa0, 0x28, 0x55, 0x86, 0x1a, 0xe4, 0x76, 0x17, 0x06, 0x57,
  0xbf, 0x9d, 0xa9, 0xfe, 0x66, 0x2c, 0xa6, 0xff, 0x4a, 0x1a, 0xff, 0xe7,
  0x30, 0x72, 0xf6, 0x46, 0x63, 0xe7, 0x8b, 0xa3, 0x36, 0x4b, 0x2f, 0xee,
  0xb7, 0x34, 0xc8, 0xbe, 0xdf, 0x30, 0xf6, 0x4f, 0xd4, 0x59, 0xac, 0xc4,
  0xa7, 0x6c, 0x2d, 0xed, 0x23, 0xe6, 0xe8, 0x07, 0x53, 0x62, 0x32, 0x32,
  0x02, 0xbd, 0x2f, 0xdf, 0x22, 0x32, 0x68, 0x27, 0x62, 0x9a, 0xaa, 0x51,
  0xdb, 0x4e, 0xd0, 0x81, 0x86, 0xe8, 0xbe, 0x63, 0x2c, 0x0c, 0x6a, 0x13,
  0xac, 0x99, 0x2e, 0xe3, 0x01, 0xbf, 0xd3, 0x23, 0xa6, 0xc1, 0x00, 0xb7,
  0x34, 0xbe, 0xa1, 0x52, 0xdf, 0x00, 0x81, 0xa2, 0x25, 0xd9, 0x32, 0xd7,
  0xdd, 0x1f, 0x62, 0xaf, 0x02, 0xc4, 0x47, 0xfc, 0x19, 0x33, 0x11, 0xf3,
  0x41, 0xe6, 0x49, 0x32, 0xe6, 0x55, 0x09, 0xba, 0xfc, 0x4f, 0xee, 0xbd,
  0xd5, 0xdd, 0xcd, 0x2b, 0xe0, 0x3a, 0x3a, 0xf1, 0xf1, 0x06, 0xc2, 0x89,
  0x44, 0x01, 0x37, 0x00, 0xf1, 0xbd, 0x2b, 0xf8, 0xfb, 0x5d, 0x74, 0x1c,
  0xda, 0xbb, 0x39, 0xd2, 0x67, 0x5e, 0x5e, 0x43, 0x94, 0x1b, 0x15, 0xba,
  0xe8, 0x1b, 0x73, 0x0f, 0x03, 0xf5, 0x00, 0xc9, 0x6e, 0xeb, 0x1a, 0x2e,
  0x67, 0xbb, 0xd2, 0x18, 0x46, 0x2b, 0xde, 0xfb, 0x3e, 0xcf, 0x50, 0xc4,
  0xa3, 0x61, 0xc6, 0x49, 0xe1, 0x81, 0x50, 0x03, 0xd9, 0xbd, 0xf3, 0x32,
  0x6f, 0xb5, 0x87, 0x32, 0x22, 0xf3, 0xb1, 0x23, 0xd0, 0xaa, 0x6f, 0x08,
  0x4e, 0xbe, 0x27, 0xc9, 0x5b, 0x2a, 0x81, 0x73, 0xd9, 0x09, 0x8c, 0xd8,
  0x1a, 0xf8, 0x42, 0xe0, 0x2e, 0xed, 0x77, 0x50, 0x47, 0x56, 0x0b, 0xa1,
  0xf3, 0xeb, 0x14, 0xd6, 0xa8, 0x3d, 0x1c, 0x5b, 0x37, 0x4c, 0xb5, 0xd9,
  0xc6, 0x92, 0xcf, 0xb8, 0x22, 0x2b, 0xd7, 0x39, 0x4d, 0xa7, 0x52, 0xdb,
  0x71, 0x20, 0x2c, 0xcb, 0x1d, 0x4f, 0x9a, 0xab, 0xf7, 0x18, 0x00, 0xe3,
  0x30, 0xa5, 0xf1, 0x02, 0xf6, 0x18, 0xe4, 0x3f, 0xf4, 0xee, 0x66, 0x43,
  0xc9, 0xde, 0xb3, 0xb4, 0x90, 0xe8, 0x2e, 0x2a, 0x5a, 0x36, 0xc9, 0x43,
  0x31, 0x9c, 0x81, 0x15, 0x1f, 0xf8, 0x34, 0x49, 0xa7, 0x11, 0x52, 0xf7,
  0xf4, 0xae, 0xb0, 0x2c, 0x04, 0xe4, 0xa0, 0x03, 0x34, 0x23, 0x02, 0x4b,
  0x27, 0x57, 0x93, 0x34, 0xe7, 0xa4, 0xa8, 0x37, 0x59, 0xba, 0xda, 0xf8,
  0xe9, 0x22, 0xd9, 0x0b, 0xe3, 0x3f, 0x3b, 0xbc, 0x3e, 0xf2, 0xfa, 0xae,
  0xb9, 0x21, 0xa7, 0xfa, 0x44, 0xa1, 0x08, 0xc1, 0x0a, 0x51, 0x57, 0xb6,
  0x54, 0x9a, 0x50, 0x9d, 0x4c, 0x39, 0xac, 0xe3, 0xea, 0x34, 0xa5, 0x1c,
  0x27, 0x20, 0x81, 0x19, 0x21, 0x83, 0x06, 0xda, 0x47, 0x1e, 0x12, 0x8f,
  0xeb, 0xf2, 0xe4, 0xa7, 0xd5, 0x79, 0xf9, 0x47, 0x30, 0xbf, 0x03, 0x51,
  0x56, 0x1d, 0x2c, 0x8a, 0xe0, 0xca, 0xcb, 0xd0, 0x0a, 0x7d, 0x48, 0x81,
  0x59, 0x6b, 0x84, 0x03, 0xde, 0x4c, 0xfa, 0xa8, 0x77, 0x68, 0xc3, 0xfa,
  0xeb, 0xd4, 0xf0, 0xb5, 0xf9, 0x32, 0xba, 0xbd, 0x81, 0x12, 0xf7, 0x4d,
  0x76, 0xc1, 0x4f, 0xa6, 0xc5, 0x45, 0xad, 0xdc, 0xc3, 0x7e, 0x74, 0xe6,
  0x42, 0xde, 0x58, 0xcd, 0xe5, 0x32, 0xc5, 0xb6, 0xe0, 0xfb, 0x37, 0xe0,
  0xef, 0x36, 0x4b, 0x51, 0xb9, 0xef, 0xf3, 0x8d, 0xde, 0x73, 0xfc, 0xe6,
  0xf7, 0xa1, 0xe0, 0xa5, 0xa0, 0xed, 0x36, 0x66, 0xe4, 0x21, 0xe6, 0xb4,
  0x8a, 0x23, 0x36, 0x55, 0x92, 0xd7, 0xfe, 0x8d, 0x29, 0xc9, 0x05, 0x36,
  0x46, 0x66, 0xcb, 0x9d, 0x4a, 0x5e, 0x34, 0x1f, 0x94, 0x5f, 0x81, 0x64,
  0xea, 0xb0, 0x30, 0x3c, 0x41, 0xf2, 0x9b, 0x9e, 0xfd, 0x9a, 0xca, 0xc2,
  0x6e, 0x5d, 0x54, 0xfe, 0xf2, 0x21, 0xb6, 0x9b, 0xa5, 0x0c, 0x51, 0xc8,
  0x63, 0x2c, 0xf3, 0x17, 0x14, 0xe7, 0xcf, 0x4e, 0xd8, 0x3f, 0xb8, 0x5a,
  0x37, 0xf6, 0xd8, 0x25, 0xab, 0xa3, 0x35, 0x22, 0x2d, 0x18, 0xe4, 0xdf,
  0xcd, 0xa2, 0xf5, 0x0a, 0xc5, 0x42, 0x99, 0x0e, 0x31, 0x5f, 0xe1, 0x2a,
  0x64, 0xd4, 0x81, 0x3d, 0x29, 0x5f, 0x03, 0x0c, 0xe8, 0xf1, 0x94, 0x68,
  0xef, 0x9a, 0x3f, 0x48, 0x2b, 0x29, 0xa9, 0xba, 0x28, 0x3a, 0x24, 0xa9,
  0x65, 0x94, 0x38, 0x4f, 0xa1, 0x28, 0x44, 0x78, 0xfe, 0xdf, 0x44, 0xeb,
  0x2e, 0x02, 0x54, 0x1b, 0xce, 0xe9, 0x0c, 0x0f, 0xa8, 0x4a, 0x62, 0x0f,
  0xe4, 0x5b, 0x79, 0x90, 0xd9, 0x42, 0xae, 0x6c, 0xdc, 0xa8, 0x99, 0xb0,
  0xb3, 0x28, 0x5b, 0x31, 0xcd, 0xfa, 0x9b, 0xfd, 0xac, 0x7d, 0xd8, 0x3f,
  0x2b, 0xaf, 0x7c, 0x29, 0x81, 0xbc, 0xfb, 0xae, 0xcd, 0xbe, 0xee, 0x92,
  0xda, 0xfb, 0x01, 0xfa, 0x23, 0xca, 0x47, 0x3c, 0x6e, 0xec, 0x36, 0xf9,
  0x12, 0xff, 0xe9, 0x05, 0x68, 0xf8, 0xec, 0xb3, 0xcb, 0x24, 0xcd, 0xa3,
  0xdb, 0x89, 0x53, 0x8e, 0x1f, 0x6f, 0xe4, 0xd9, 0x1d, 0x03, 0xd2, 0xde,
  0x70, 0xbb, 0x9f, 0x2d, 0xa6, 0xdc, 0x40, 0xfc, 0xdb, 0x52, 0xf8, 0xc8,
  0x40, 0x3a, 0xa6, 0x0e, 0x4c, 0xc3, 0xe4, 0xa8, 0xdd, 0xbc, 0xff, 0x41,
  0x34, 0xb6, 0x96, 0xdd, 0xa4, 0x2b, 0x67, 0x81, 0x03, 0x0b, 0x22, 0x3e,
  0x49, 0xda, 0x95, 0x40, 0x53, 0x0b, 0xc2, 0x20, 0x46, 0x50, 0x64, 0x26,
  0xe6, 0xe9, 0x45, 0x55, 0x44, 0xbf, 0x9b, 0xd6, 0xd6, 0x95, 0xb5, 0x36,
  0x65, 0x19, 0x71, 0xaa, 0xa1, 0xd6, 0x01, 0xea, 0xf1, 0x3a, 0xe4, 0x4c,
  0x78, 0x75, 0xd1, 0xb8, 0x9d, 0x76, 0x08, 0x28, 0x43, 0x56, 0x2f, 0x1a,
  0x59, 0x8b, 0xd2, 0x2c, 0x26, 0x1b, 0xd3, 0xc9, 0x7f, 0xa0, 0x04, 0xf0,
  0x00, 0xf3, 0x11, 0x8c, 0xea, 0xc3, 0xa5, 0xcb, 0x6f, 0x27, 0x1f, 0xe5,
  0xba, 0x2d, 0xc9, 0x94, 0x95, 0x54, 0x2f, 0xe9, 0xdc, 0xf6, 0x3b, 0x86,
  0xff, 0x4d, 0x13, 0xab, 0xfd, 0x67, 0xa4, 0x7f, 0x8c, 0xc2, 0x26, 0x4e,
  0xdf, 0x7c, 0x98, 0x62, 0xd3, 0x43, 0x2b, 0xac, 0xfe, 0x9d, 0x6f, 0x3f,
  0x0a, 0x7f, 0xae, 0xaa, 0xaf, 0x59, 0x5b, 0xc5, 0x12, 0x1a, 0xf9, 0x49,
  0xe8, 0xf2, 0x2b, 0x66, 0xdf, 0x57, 0x59, 0x4f, 0xde, 0x46, 0xc7, 0x25,
  0xbd, 0x31, 0xc3, 0x38, 0x22, 0x17, 0x24, 0x00, 0x1d, 0x72, 0x9d, 0xb3,
  0x47, 0x45, 0x04, 0xd4, 0x4b, 0x26, 0xf8, 0x9c, 0xf2, 0xcc, 0xae, 0x3f,
  0x5b, 0x40, 0x07, 0xa2, 0xc0, 0xd8, 0xa0, 0x00, 0x56, 0xf2, 0x0a, 0x26,
  0x54, 0x6b, 0x47, 0x31, 0x7f, 0xa5, 0xb4, 0x5a, 0x7c, 0xa7, 0x0a, 0x48,
  0xed, 0x71, 0x06, 0xec, 0x2b, 0x4f, 0x3e, 0xf9, 0xfa, 0x12, 0x4f, 0xb1,
  0x67, 0x17, 0x0f, 0xa4, 0xad, 0x17, 0x87, 0xee, 0x01, 0x24, 0x99, 0x3d,
  0x1d, 0x03, 0xe2, 0x8a, 0xed, 0x72, 0x5b, 0x24, 0x8a, 0xc9, 0x2d, 0x02,
  0xce, 0x74, 0x33, 0x15, 0x7d, 0x41, 0x1c, 0xe1, 0x2a, 0xa0, 0x28, 0x0f,
  0xe0, 0x4c, 0xb1, 0x62, 0xbe, 0xda, 0xff, 0xff, 0x04, 0x00, 0x00, 0x00,
  0x60, 0x00, 0x00, 0x00, 0x17, 0xf5, 0xff, 0xff, 0xe7, 0xf9, 0xff, 0xff,
  0xf0, 0xef, 0xff, 0xff, 0x06, 0xf5, 0xff, 0xff, 0x32, 0xf4, 0xff, 0xff,
  0x71, 0x01, 0x00, 0x00, 0x06, 0xf2, 0xff, 0xff, 0x9d, 0xf2, 0xff, 0xff,
  0xdc, 0xf1, 0xff, 0xff, 0x7b, 0xff, 0xff, 0xff, 0xed, 0xf4, 0xff, 0xff,
  0xb0, 0x01, 0x00, 0x00, 0xe0, 0xf0, 0xff, 0xff, 0xef, 0xfe, 0xff, 0xff,
  0x80, 0xfc, 0xff, 0xff, 0x55, 0x02, 0x00, 0x00, 0x09, 0xf5, 0xff, 0xff,
  0x7b, 0xf6, 0xff, 0xff, 0x97, 0xf9, 0xff, 0xff, 0xee, 0xf2, 0xff, 0xff,
  0x0a, 0xf5, 0xff, 0xff, 0xca, 0xfb, 0xff, 0xff, 0x91, 0xf2, 0xff, 0xff,
  0xc0, 0xf6, 0xff, 0xff, 0x2a, 0xdb, 0xff, 0xff, 0x04, 0x00, 0x00, 0x00,
  0xc0, 0x06, 0x00, 0x00, 0x50, 0x68, 0x23, 0x0c, 0xd9, 0x9b, 0xc8, 0x21,
  0x42, 0xfd, 0xa5, 0xee, 0x2a, 0x50, 0x0a, 0x9f, 0xc1, 0x14, 0xa5, 0x47,
  0x1f, 0xce, 0xe6, 0xd8, 0xf0, 0xdc, 0x0b, 0xf2, 0x3c, 0xe7, 0x96, 0x20,
  0xc8, 0xfa, 0x2d, 0xbd, 0xd4, 0x4e, 0xb8, 0x20, 0xf4, 0x2a, 0xbf, 0xef,
  0x07, 0xbc, 0xd6, 0xb4, 0x1b, 0xd9, 0x3b, 0xee, 0xb9, 0x81, 0xf5, 0xf8,
  0xe2, 0x1e, 0x0d, 0xf4, 0xcf, 0xfc, 0xdf, 0xd6, 0x07, 0x4f, 0x01, 0x51,
  0xbb, 0xf9, 0x4b, 0xa3, 0x47, 0xc8, 0xce, 0x0c, 0xfe, 0xe1, 0x3f, 0xf6,
  0xa6, 0x1b, 0xeb, 0x7f, 0xe0, 0x1a, 0xc0, 0x50, 0xdb, 0x24, 0xfa, 0x10,
  0x0a, 0xa8, 0x0d, 0xee, 0x2c, 0x16, 0xc4, 0x5d, 0x29, 0xe5, 0x9f, 0x42,
  0xc6, 0xe5, 0xd1, 0xd0, 0x8e, 0xc5, 0x34, 0xff, 0xb5, 0xac, 0xdf, 0xa3,
  0xa0, 0x8b, 0xb3, 0xcf, 0xd8, 0x3f, 0x8e, 0xb7, 0xcc, 0x94, 0x20, 0x20,
  0xc2, 0x24, 0x57, 0x4c, 0x0d, 0xd1, 0xfb, 0xcd, 0xd1, 0x15, 0xd4, 0x2c,
  0xe6, 0x2d, 0xca, 0x1e, 0xfc, 0x29, 0x78, 0x5d, 0x24, 0xe1, 0xbd, 0x51,
  0xa1, 0x0d, 0xa5, 0xc0, 0x7b, 0xef, 0x5d, 0x03, 0x2c, 0x62, 0xae, 0x9b,
  0x99, 0xb8, 0x5c, 0xd1, 0x9e, 0x11, 0xc3, 0x02, 0x64, 0x04, 0x05, 0x79,
  0x21, 0x2b, 0x7c, 0x58, 0x5a, 0xeb, 0xef, 0xf1, 0xd1, 0xcd, 0x7d, 0x13,
  0x10, 0x43, 0xc4, 0x0a, 0x07, 0xa4, 0xac, 0x07, 0x23, 0xeb, 0xe2, 0x62,
  0x7f, 0x71, 0xe6, 0x52, 0x0b, 0x68, 0x01, 0x53, 0xa3, 0x45, 0xe0, 0xae,
  0xa9, 0x01, 0xaa, 0xd8, 0xa6, 0x56, 0xdf, 0x2b, 0x42, 0xdf, 0xfb, 0x51,
  0xab, 0x9d, 0xd2, 0x4e, 0x3c, 0xcf, 0x89, 0x83, 0xdd, 0x5b, 0x81, 0x3e,
  0xd7, 0x02, 0xee, 0x39, 0x13, 0xce, 0x3c, 0xb9, 0x2d, 0xa6, 0xac, 0xc0,
  0xc6, 0xef, 0xb1, 0xeb, 0xf1, 0x1e, 0xda, 0x38, 0x57, 0xb8, 0xd1, 0xb7,
  0x06, 0x48, 0xec, 0xc4, 0xde, 0x4e, 0x13, 0x9f, 0x06, 0xdf, 0x12, 0xfc,
  0x02, 0xd3, 0xfb, 0x01, 0xf3, 0x45, 0xaa, 0xf7, 0x36, 0x41, 0x01, 0x94,
  0x3e, 0x2b, 0x24, 0xf0, 0x57, 0x43, 0x13, 0x0f, 0x9c, 0xd8, 0x36, 0x02,
  0xca, 0xf7, 0xc6, 0x08, 0x87, 0x1c, 0xcf, 0xef, 0xa6, 0x68, 0x68, 0x30,
  0xda, 0x2d, 0x11, 0x83, 0xa7, 0xdd, 0x98, 0x62, 0x1b, 0xec, 0x31, 0x42,
  0x07, 0x56, 0x43, 0x6d, 0xc0, 0x99, 0x26, 0x07, 0x09, 0x4b, 0xbe, 0x4f,
  0xad, 0x81, 0xb9, 0xbb, 0xfe, 0x2b, 0xc1, 0x15, 0xcb, 0x35, 0xd0, 0xae,
  0x56, 0x84, 0x2b, 0xd2, 0x67, 0x89, 0x1e, 0x18, 0xe0, 0x5f, 0x1a, 0x95,
  0x6e, 0xef, 0xb0, 0x61, 0x1d, 0x09, 0x20, 0xfe, 0xb5, 0xe5, 0x56, 0xd0,
  0xf7, 0x91, 0xcc, 0x81, 0x8e, 0x2f, 0x61, 0xb3, 0x33, 0x94, 0x0c, 0xf3,
  0x20, 0xd7, 0x5f, 0xc2, 0x9b, 0xc2, 0x44, 0x21, 0x40, 0xce, 0xb3, 0x0e,
  0x2e, 0x9b, 0xa4, 0x44, 0x8f, 0x8c, 0x87, 0xed, 0x7b, 0xd3, 0xc9, 0x88,
  0xd1, 0xf8, 0x9f, 0x3b, 0xbb, 0x5e, 0x10, 0x19, 0x4a, 0xaa, 0x17, 0x5a,
  0xf1, 0xe4, 0xa9, 0xd9, 0x10, 0xbe, 0xe0, 0x61, 0xbf, 0xa8, 0x3b, 0x59,
  0xa4, 0x0b, 0xb6, 0xb0, 0xf1, 0xa0, 0x2b, 0x59, 0xbd, 0x04, 0xec, 0x3d,
  0xa4, 0xae, 0xb1, 0xf7, 0xdd, 0x82, 0xfa, 0x03, 0xb6, 0x63, 0xa6, 0xbc,
  0xfc, 0x41, 0x18, 0x44, 0x3a, 0x29, 0xe6, 0x90, 0x0d, 0xb6, 0x3c, 0x0d,
  0x0e, 0x2f, 0x2d, 0xce, 0xd3, 0xe4, 0xc9, 0xf1, 0xe5, 0x8c, 0xb4, 0x0c,
  0xf3, 0x81, 0xa2, 0x53, 0xc6, 0x26, 0x26, 0x45, 0x46, 0xd0, 0xda, 0x55,
  0x4b, 0x4a, 0xd2, 0xd3, 0xf1, 0x45, 0x9c, 0x21, 0xdf, 0xc8, 0x2d, 0x20,
  0x09, 0x20, 0xec, 0xe0, 0xe3, 0x42, 0x36, 0xd4, 0x4b, 0x29, 0xdc, 0xc2,
  0xaf, 0x1d, 0xf1, 0xa7, 0xae, 0xb9, 0xa8, 0x23, 0xf5, 0x5b, 0x21, 0xba,
  0x0b, 0x03, 0xa8, 0x5b, 0xa6, 0xdb, 0xcb, 0x27, 0xd6, 0x23, 0xf7, 0x4b,
  0x1f, 0xe5, 0x22, 0x45, 0x01, 0x41, 0x48, 0x53, 0xdc, 0x15, 0xc7, 0x17,
  0x25, 0xfb, 0x6b, 0xb4, 0x12, 0xee, 0x1b, 0x40, 0xf0, 0xf7, 0x36, 0xcd,
  0x6c, 0x1b, 0xd3, 0x81, 0xb0, 0xbf, 0x5e, 0x50, 0xfa, 0xdd, 0xf3, 0x0e,
  0xa4, 0x3b, 0x2f, 0x2f, 0xf6, 0x00, 0x1f, 0x88, 0x50, 0xcf, 0xb4, 0x91,
  0x4b, 0x3f, 0xc7, 0xfa, 0x04, 0x84, 0xc0, 0xa6, 0x5f, 0xae, 0x4d, 0x17,
  0x4e, 0x13, 0x11, 0x3b, 0xc9, 0x29, 0x4b, 0x04, 0xfb, 0x13, 0xa8, 0x6a,
  0x33, 0x90, 0x07, 0xfa, 0x8c, 0xfa, 0x49, 0xd6, 0x81, 0xe4, 0x17, 0x54,
  0x43, 0xde, 0x40, 0xad, 0xa4, 0x52, 0xea, 0x93, 0xf5, 0xa7, 0x3a, 0x41,
  0xe0, 0xd0, 0xc1, 0xa5, 0x39, 0xc9, 0x84, 0xbe, 0x3b, 0x72, 0xf6, 0xe4,
  0x11, 0x35, 0xc5, 0xca, 0x60, 0x5f, 0xe3, 0x48, 0x0f, 0x16, 0x5b, 0x5b,
  0xa6, 0xff, 0x51, 0xe4, 0xc2, 0x9a, 0xdc, 0xc2, 0xa0, 0xd6, 0x4a, 0xef,
  0x5d, 0xc7, 0x44, 0xa2, 0x01, 0xe0, 0x16, 0xce, 0x7a, 0xa7, 0x31, 0xd9,
  0x4c, 0x1a, 0x6a, 0x39, 0x67, 0x5c, 0x75, 0xda, 0xb9, 0x37, 0x8d, 0xa3,
  0xe8, 0x66, 0xd9, 0x39, 0x57, 0x33, 0xb7, 0x99, 0x75, 0x16, 0x7f, 0xba,
  0x7d, 0x56, 0x7e, 0x03, 0x72, 0xdb, 0x01, 0xcb, 0x24, 0xbc, 0xff, 0x33,
  0x36, 0xc2, 0x2b, 0x2e, 0x33, 0xf6, 0xcb, 0xbd, 0xee, 0x3d, 0xaf, 0x3d,
  0xd2, 0xc5, 0x26, 0xf5, 0x14, 0xe5, 0x17, 0xe6, 0x1c, 0xb2, 0x0a, 0xae,
  0x38, 0xe2, 0xd1, 0xb1, 0xbb, 0xf9, 0x1f, 0x2a, 0xdf, 0x7f, 0x2a, 0xf0,
  0xa9, 0xa9, 0xef, 0x23, 0x3b, 0xc0, 0xe6, 0x08, 0x33, 0x03, 0x09, 0x40,
  0x25, 0x2a, 0x11, 0x43, 0x18, 0xc1, 0x10, 0x51, 0x0e, 0x5e, 0xc4, 0xbe,
  0xc6, 0x22, 0xdf, 0xd3, 0xc7, 0x3f, 0x2f, 0xd5, 0xe4, 0x18, 0x1c, 0xb8,
  0xfd, 0x33, 0x2b, 0x19, 0xa2, 0x3d, 0x7d, 0xf2, 0xb2, 0x04, 0x57, 0xae,
  0xc0, 0xee, 0xc6, 0x0e, 0x30, 0xf1, 0x71, 0x0e, 0xa9, 0x8f, 0x14, 0x51,
  0xce, 0xa5, 0x2d, 0x98, 0xba, 0x81, 0xd3, 0x33, 0xd8, 0x8b, 0x61, 0x8e,
  0xe7, 0x6e, 0xbd, 0x8e, 0x67, 0x46, 0xff, 0x44, 0xf1, 0xfe, 0x56, 0x71,
  0xa2, 0x16, 0xcd, 0xf3, 0x6b, 0x9f, 0x5a, 0xc1, 0xd0, 0xcb, 0x00, 0x04,
  0x48, 0xba, 0xe1, 0x45, 0xfd, 0x70, 0xd7, 0xe8, 0xfc, 0x59, 0xd9, 0x53,
  0x70, 0x39, 0x62, 0x0d, 0xf8, 0xb4, 0x2b, 0x30, 0xd9, 0xbf, 0x5d, 0xcf,
  0xd8, 0x50, 0x0e, 0x36, 0x00, 0x81, 0x23, 0x9b, 0x47, 0x19, 0x4d, 0x19,
  0x4f, 0x57, 0x54, 0xcb, 0x41, 0x40, 0x3d, 0x03, 0x3c, 0xe0, 0x55, 0x37,
  0x29, 0x5f, 0xee, 0x31, 0x9c, 0x27, 0x5a, 0x59, 0x50, 0xaa, 0xbf, 0x1f,
  0x04, 0x1c, 0xc9, 0xa7, 0x9b, 0x05, 0x4e, 0xfb, 0xd5, 0xed, 0x97, 0xcf,
  0xa6, 0xb0, 0xae, 0x8d, 0x52, 0x1c, 0xe1, 0xc0, 0x01, 0x2a, 0x68, 0xc1,
  0x2b, 0x1b, 0x60, 0xac, 0x30, 0x3f, 0xeb, 0x12, 0xa0, 0xc7, 0x5e, 0xaa,
  0xf8, 0x06, 0x1d, 0xbc, 0xae, 0xf8, 0x38, 0x88, 0x09, 0x00, 0x5f, 0x64,
  0x5c, 0x05, 0x90, 0xb5, 0x63, 0xd3, 0xd2, 0xc8, 0xa1, 0x3a, 0xfe, 0x2f,
  0xf0, 0xd5, 0x9f, 0x2a, 0x2d, 0x0b, 0x28, 0x93, 0x54, 0x26, 0x29, 0xe4,
  0x36, 0x4d, 0x08, 0x7d, 0xde, 0x29, 0x24, 0xf5, 0xe5, 0x44, 0x16, 0xbf,
  0x1b, 0x3a, 0x6b, 0x9f, 0x08, 0x8f, 0x0e, 0x2d, 0x9b, 0x36, 0x81, 0x05,
  0xf7, 0x3c, 0x02, 0xe2, 0xd6, 0x1d, 0x43, 0x2f, 0xdb, 0x4f, 0x06, 0x48,
  0xb5, 0x70, 0x34, 0x7c, 0xc0, 0x09, 0x0e, 0x58, 0xfb, 0xb8, 0x1e, 0x27,
  0x0a, 0x47, 0xe2, 0x2b, 0x05, 0x92, 0xc2, 0x31, 0xa5, 0xed, 0xe5, 0xd5,
  0x5a, 0xfa, 0x27, 0x6e, 0x36, 0x23, 0xfc, 0xac, 0xb6, 0xd9, 0x59, 0x67,
  0xf3, 0xf2, 0x3c, 0xa8, 0x95, 0x4f, 0xba, 0x7f, 0xa6, 0x23, 0x65, 0xf1,
  0xc3, 0x5b, 0x5e, 0xa2, 0x48, 0x99, 0xdb, 0x65, 0xc8, 0x94, 0x46, 0xda,
  0x2a, 0x6b, 0x4a, 0x37, 0x41, 0x7b, 0xaf, 0xb1, 0x47, 0x95, 0x85, 0x33,
  0xa2, 0x1f, 0x4d, 0x51, 0x20, 0xcf, 0x9e, 0xf9, 0x81, 0x9a, 0x34, 0x00,
  0x47, 0x86, 0xf4, 0x49, 0x20, 0xcd, 0xad, 0x0e, 0x9e, 0x12, 0x28, 0xee,
  0x0e, 0x4d, 0x58, 0x1c, 0xac, 0x04, 0xa2, 0x10, 0x18, 0xe2, 0xfa, 0xc8,
  0x3c, 0x29, 0xe1, 0x2f, 0x09, 0xf3, 0x2b, 0xae, 0xdc, 0xdc, 0xdf, 0x44,
  0xff, 0x33, 0x44, 0xc6, 0x92, 0x48, 0xd9, 0xb9, 0xd0, 0xbf, 0x2d, 0xc3,
  0x2b, 0xdb, 0x20, 0xf1, 0xbe, 0xd0, 0xac, 0x1e, 0x6f, 0xce, 0x4f, 0xe1,
  0xa5, 0xf1, 0x66, 0x29, 0xf5, 0xa3, 0xbb, 0x25, 0x2c, 0x52, 0x14, 0x14,
  0xec, 0xad, 0xdc, 0x44, 0x87, 0x07, 0x3e, 0xf9, 0x5d, 0x0f, 0x49, 0x73,
  0xd0, 0xf8, 0xab, 0x71, 0xbe, 0xec, 0xf4, 0x25, 0x17, 0x90, 0x81, 0xc0,
  0x47, 0x2d, 0x49, 0x08, 0xd9, 0x50, 0xbc, 0xd5, 0xb6, 0x43, 0x05, 0xf5,
  0x83, 0xda, 0xb8, 0x34, 0x2a, 0x2b, 0xdb, 0x87, 0x10, 0x31, 0xd2, 0xcc,
  0x0d, 0x3d, 0xd6, 0xd2, 0xad, 0xb5, 0xf4, 0x20, 0x58, 0x00, 0x3b, 0xe7,
  0xfc, 0x5a, 0x5c, 0x64, 0xf5, 0x1c, 0xe3, 0xee, 0x96, 0xc2, 0x13, 0x96,
  0x16, 0x15, 0x2d, 0xf8, 0xc1, 0xd4, 0x84, 0x2c, 0x92, 0xbd, 0xac, 0x23,
  0xa5, 0x24, 0x40, 0x36, 0x5a, 0x5f, 0xe3, 0x1d, 0x35, 0x1b, 0xea, 0x90,
  0xdd, 0x3b, 0x21, 0xd4, 0xfc, 0x70, 0x90, 0x13, 0xb3, 0x81, 0xcb, 0x6b,
  0xba, 0xd7, 0xec, 0x1f, 0x34, 0xc9, 0x3b, 0xd5, 0xde, 0x1b, 0x2a, 0xcc,
  0x29, 0x2c, 0x28, 0xf1, 0x1c, 0xf0, 0x25, 0x0b, 0x14, 0x96, 0x08, 0xf1,
  0x86, 0x2a, 0xf7, 0x03, 0xd9, 0xe8, 0x93, 0xde, 0xe7, 0x2c, 0x1d, 0x74,
  0xb1, 0x9a, 0x49, 0x0c, 0x13, 0x48, 0x36, 0x78, 0xa2, 0xac, 0x95, 0x6f,
  0xc2, 0x58, 0xff, 0x53, 0xa3, 0x83, 0xa3, 0xd7, 0x64, 0xd3, 0xe9, 0x09,
  0x34, 0x1d, 0xf2, 0xd8, 0x4d, 0x82, 0xdf, 0xa6, 0xd0, 0xe3, 0xae, 0x8b,
  0x04, 0x59, 0x9f, 0xc3, 0x21, 0xe2, 0x81, 0x1d, 0xf9, 0x10, 0x3c, 0x02,
  0x19, 0x85, 0xb2, 0x70, 0xfc, 0xbc, 0x1a, 0x1e, 0xf7, 0xaa, 0xc2, 0x29,
  0x2e, 0x56, 0x62, 0xcb, 0x58, 0xc8, 0x1b, 0x93, 0x29, 0x4c, 0x35, 0x22,
  0x66, 0x2d, 0x07, 0x22, 0xa6, 0x1b, 0xb9, 0xc7, 0xa7, 0xbf, 0x4e, 0x0e,
  0xe2, 0x23, 0xc0, 0x78, 0x29, 0xec, 0xdb, 0xfb, 0x47, 0x76, 0x36, 0x62,
  0xa8, 0xb6, 0x97, 0x7f, 0x44, 0x22, 0x0d, 0xa6, 0xbf, 0xa5, 0x3d, 0xe1,
  0x09, 0x4d, 0x2d, 0x0b, 0x31, 0x6f, 0xca, 0xdb, 0x49, 0xfa, 0x30, 0x49,
  0xb6, 0x56, 0x2b, 0xd1, 0xb1, 0xcf, 0xfc, 0xb3, 0x30, 0x0d, 0xac, 0x6c,
  0xf5, 0x64, 0xba, 0xd0, 0xe2, 0x6f, 0x0b, 0xf8, 0xd4, 0xc2, 0xb1, 0xb7,
  0xcf, 0x8c, 0x47, 0xcc, 0x83, 0x7f, 0x42, 0xef, 0xff, 0x1d, 0x6d, 0xe9,
  0xda, 0x70, 0x0c, 0x41, 0x32, 0x61, 0xf2, 0x7a, 0xa0, 0xdb, 0x1e, 0x77,
  0xd5, 0x6b, 0x18, 0x2b, 0x55, 0x36, 0xcb, 0x66, 0xf4, 0x00, 0x87, 0x96,
  0x14, 0xac, 0xba, 0x21, 0x71, 0xdd, 0x2e, 0xc4, 0xa5, 0x9f, 0x69, 0xf9,
  0xa0, 0xc3, 0x9e, 0x4a, 0x00, 0x95, 0x04, 0x2f, 0x8b, 0xdf, 0xd5, 0x48,
  0xd5, 0x08, 0xb7, 0xfa, 0xf8, 0xf8, 0x62, 0xd2, 0xcb, 0x28, 0x10, 0x81,
  0x93, 0xf6, 0xe6, 0x07, 0x59, 0xb7, 0x01, 0x45, 0x14, 0xc8, 0x92, 0x40,
  0x3f, 0x9d, 0xeb, 0x15, 0xfb, 0x91, 0xbf, 0x8b, 0x82, 0xd1, 0x38, 0x9e,
  0x46, 0xf1, 0xca, 0x40, 0x03, 0xab, 0xea, 0xba, 0x55, 0xce, 0xc6, 0xfe,
  0xd3, 0xd9, 0x43, 0x71, 0x53, 0x47, 0x5a, 0x30, 0xa9, 0xca, 0x8b, 0x3a,
  0x17, 0x8d, 0x22, 0x30, 0x41, 0xde, 0xf1, 0x7f, 0x46, 0x1d, 0x25, 0x60,
  0x50, 0x6b, 0xee, 0xf7, 0xb1, 0x64, 0x1b, 0xf6, 0x5d, 0x09, 0x56, 0x61,
  0x3f, 0x47, 0xd0, 0xff, 0x07, 0x5b, 0xef, 0xda, 0xb2, 0x1c, 0xec, 0x05,
  0x15, 0x04, 0xcb, 0x57, 0x23, 0x56, 0x08, 0x41, 0xa5, 0xd7, 0x25, 0x30,
  0xa9, 0x0b, 0x58, 0xc3, 0x38, 0xc7, 0xa0, 0x6e, 0x4d, 0x45, 0x3e, 0x31,
  0xf6, 0x4c, 0xaa, 0x3b, 0xee, 0x30, 0x12, 0x66, 0x4f, 0x1b, 0x60, 0xcc,
  0xa2, 0x39, 0x01, 0xb6, 0x9e, 0x2a, 0x03, 0x5e, 0x39, 0xcc, 0x30, 0xf1,
  0xca, 0xd2, 0x14, 0xbe, 0x12, 0xdb, 0xf2, 0x33, 0x01, 0x65, 0xe6, 0xa7,
  0xf5, 0xe8, 0x9b, 0x51, 0xb2, 0x3b, 0x92, 0x54, 0x99, 0x48, 0xb8, 0x1b,
  0xf8, 0xbf, 0xa2, 0x0b, 0xe7, 0xae, 0xc6, 0x3a, 0x2a, 0xeb, 0x81, 0x2a,
  0x52, 0xac, 0xad, 0xae, 0x0d, 0x4e, 0x0d, 0x56, 0x4b, 0x08, 0xb2, 0x56,
  0xaa, 0x94, 0x5f, 0xa5, 0xa0, 0x0c, 0xd7, 0x26, 0x9c, 0x9a, 0x86, 0x02,
  0xfa, 0x4d, 0x1d, 0xe6, 0xf6, 0xe1, 0xff, 0xff, 0x04, 0x00, 0x00, 0x00,
  0x60, 0x00, 0x00, 0x00, 0xf0, 0xf4, 0xff, 0xff, 0x65, 0xdb, 0xff, 0xff,
  0x14, 0xfa, 0xff, 0xff, 0x70, 0xd1, 0xff, 0xff, 0x67, 0xde, 0xff, 0xff,
  0x2c, 0xe8, 0xff, 0xff, 0x54, 0xde, 0xff, 0xff, 0x2e, 0xfa, 0xff, 0xff,
  0xb0, 0xe2, 0xff, 0xff, 0x96, 0x08, 0x00, 0x00, 0x1f, 0xd5, 0xff, 0xff,
  0xf1, 0x22, 0x00, 0x00, 0xc2, 0xe3, 0xff, 0xff, 0x4e, 0xfd, 0xff, 0xff,
  0x3e, 0x00, 0x00, 0x00, 0x80, 0xd0, 0xff, 0xff, 0xd2, 0xc8, 0xff, 0xff,
  0x0f, 0xdc, 0xff, 0xff, 0x93, 0xb1, 0xff, 0xff, 0xb3, 0xee, 0xff, 0xff,
  0x66, 0xdd, 0xff, 0xff, 0xa9, 0xe9, 0xff, 0xff, 0x3a, 0xec, 0xff, 0xff,
  0xd9, 0xd8, 0xff, 0xff, 0x62, 0xe2, 0xff, 0xff, 0x04, 0x00, 0x00, 0x00,
  0xc0, 0x06, 0x00, 0x00, 0x23, 0x70, 0x18, 0x28, 0x0c, 0x2b, 0x96, 0x85,
  0x34, 0xc3, 0xef, 0xd3, 0x48, 0x3a, 0x81, 0x36, 0xcf, 0x40, 0x55, 0x15,
  0x0e, 0x49, 0xa1, 0xfa, 0xd4, 0x51, 0x17, 0xe0, 0xed, 0x76, 0xfa, 0x9f,
  0x0f, 0xf8, 0x01, 0xa4, 0xa7, 0x2c, 0xe4, 0x37, 0xd5, 0x79, 0x61, 0xde,
  0x12, 0x3f, 0x52, 0xa9, 0x82, 0x58, 0x6e, 0x33, 0xfa, 0x3e, 0xe2, 0xaa,
  0x37, 0x06, 0xb8, 0x06, 0x52, 0x28, 0xb3, 0x8e, 0x16, 0x0c, 0x5a, 0x2e,
  0x44, 0xbf, 0x1e, 0x36, 0x9a, 0x5c, 0xe1, 0xbb, 0x48, 0x06, 0xdf, 0xa3,
  0xbb, 0x41, 0xdb, 0x5b, 0x12, 0x51, 0x0d, 0x00, 0xdc, 0xdb, 0x03, 0xd9,
  0x1b, 0xb6, 0xb6, 0x2d, 0xa8, 0x3f, 0x23, 0x7f, 0x29, 0xef, 0xb3, 0x81,
  0xcf, 0x28, 0x47, 0x20, 0x1c, 0xf0, 0xe5, 0x42, 0x1a, 0xe5, 0xfe, 0xc8,
  0x22, 0xb7, 0xe7, 0xb2, 0xb3, 0xb4, 0x18, 0x65, 0x30, 0x59, 0xbd, 0xf8,
  0x74, 0x34, 0x07, 0x3b, 0xb6, 0x83, 0xb3, 0xc6, 0x52, 0x22, 0x05, 0xaf,
  0xea, 0x28, 0xe9, 0x16, 0x44, 0xdb, 0x02, 0x24, 0x18, 0x71, 0x09, 0xc5,
  0x68, 0x4d, 0x9f, 0x47, 0xc6, 0x2a, 0xbc, 0xef, 0x40, 0x29, 0x6a, 0x22,
  0xf2, 0xe0, 0xcf, 0x26, 0x8f, 0xb2, 0xca, 0x4c, 0xf4, 0x32, 0x95, 0xa6,
  0xfa, 0x48, 0xbf, 0xb9, 0x6f, 0xeb, 0xe3, 0xf4, 0xa3, 0x7a, 0x49, 0xcd,
  0x46, 0xf8, 0x94, 0xe0, 0x58, 0x7f, 0xbf, 0x56, 0x02, 0x28, 0x47, 0xf0,
  0xe6, 0xc3, 0x45, 0x63, 0xf3, 0xf0, 0xa3, 0x39, 0x5a, 0x0c, 0x74, 0x19,
  0xbd, 0x95, 0x0f, 0x3a, 0x13, 0x8a, 0xc7, 0xf5, 0xca, 0x98, 0xdc, 0x52,
  0xdb, 0x5a, 0xea, 0x9c, 0x15, 0xe6, 0x1c, 0xb2, 0x95, 0xfb, 0x98, 0x7b,
  0x65, 0x0c, 0xee, 0xac, 0x60, 0x98, 0x65, 0x25, 0x7e, 0xc0, 0x6d, 0x19,
  0xe9, 0x7c, 0x0e, 0xb1, 0x20, 0xe0, 0x98, 0x15, 0x73, 0x32, 0xde, 0x7f,
  0xc9, 0x6a, 0x27, 0x11, 0x3b, 0xef, 0x94, 0xb4, 0xe7, 0x19, 0xb7, 0x03,
  0xa3, 0x35, 0x02, 0x8a, 0x3b, 0xcd, 0x10, 0xd2, 0xe5, 0xb4, 0x98, 0xc1,
  0x04, 0x94, 0xe7, 0x74, 0x92, 0xf5, 0x31, 0xdb, 0xbe, 0xcd, 0x92, 0xf2,
  0x5d, 0xd0, 0xbe, 0xdb, 0xde, 0x3a, 0x2f, 0xf6, 0x5c, 0x66, 0x13, 0x98,
  0xec, 0xf0, 0xb6, 0xf4, 0x0e, 0x38, 0xc7, 0xa1, 0x0a, 0xc0, 0xf9, 0xed,
  0x54, 0x08, 0xfd, 0x15, 0xf3, 0x16, 0xca, 0xad, 0xdc, 0x18, 0x65, 0x2f,
  0xd4, 0x67, 0xd9, 0x20, 0xb9, 0x65, 0xe9, 0xac, 0xd9, 0x37, 0xd2, 0x00,
  0x6d, 0xc0, 0x01, 0x3d, 0x18, 0x81, 0x43, 0xb0, 0x66, 0xc8, 0x2b, 0xab,
  0xc7, 0x29, 0x43, 0x42, 0xc6, 0xd8, 0x65, 0x0d, 0x16, 0xc4, 0x9a, 0x8a,
  0x36, 0x9f, 0x3b, 0xd2, 0xda, 0xa4, 0xbb, 0x30, 0x75, 0xe5, 0x37, 0xf2,
  0xca, 0x3c, 0x0f, 0x12, 0x3e, 0x4d, 0xb2, 0xc7, 0x16, 0x31, 0x15, 0x34,
  0xc3, 0xd9, 0xe9, 0x37, 0xde, 0x9c, 0x97, 0x3e, 0x1f, 0x13, 0xc2, 0xb3,
  0xb5, 0xdd, 0xf9, 0xbf, 0x3f, 0xb5, 0x09, 0x56, 0x5a, 0xd1, 0x2f, 0x9d,
  0x2e, 0xa3, 0x34, 0xdd, 0xda, 0x2d, 0x81, 0x9d, 0xb3, 0x7a, 0xcc, 0xbf,
  0xc0, 0x08, 0x98, 0x86, 0xde, 0x2a, 0xcf, 0xa8, 0xf5, 0xea, 0xe1, 0xd2,
  0x61, 0xc5, 0x23, 0x90, 0xa6, 0x2c, 0xdf, 0xf6, 0xf8, 0xac, 0x1c, 0x7f,
  0x34, 0x21, 0xe8, 0xef, 0xf6, 0xed, 0x01, 0x3f, 0x4b, 0x55, 0x11, 0xd3,
  0xbd, 0x3e, 0xb8, 0xb1, 0x2e, 0x4e, 0xb2, 0x33, 0x20, 0xd6, 0x0d, 0x53,
  0xb6, 0x68, 0x03, 0xbb, 0x10, 0x99, 0x2b, 0x3a, 0x93, 0x4f, 0x01, 0x9f,
  0x79, 0x3b, 0x40, 0xc6, 0xf1, 0xbd, 0xe6, 0xf5, 0xde, 0xa2, 0xa0, 0xe0,
  0x18, 0xf4, 0xeb, 0x9a, 0x52, 0x33, 0x32, 0x05, 0xba, 0x06, 0x47, 0xbc,
  0xc2, 0xce, 0xf9, 0xc8, 0x0f, 0xcd, 0xcc, 0x60, 0x17, 0xd4, 0x0c, 0x31,
  0x9d, 0xde, 0x55, 0xd1, 0xb1, 0x21, 0xb1, 0xf2, 0xda, 0xab, 0x2a, 0xe9,
  0xa9, 0x69, 0x20, 0xe1, 0x15, 0x13, 0x57, 0xa7, 0x33, 0xf4, 0xb9, 0xda,
  0xc3, 0xe3, 0x1d, 0xfd, 0x6b, 0x21, 0xf1, 0x9e, 0xf7, 0xe7, 0xf4, 0xe9,
  0x05, 0x55, 0x04, 0x81, 0x4f, 0x61, 0x25, 0xc6, 0xaa, 0xb4, 0x1e, 0x55,
  0x44, 0x2f, 0x50, 0x6a, 0x36, 0x6c, 0xcb, 0x5b, 0x3a, 0x33, 0x12, 0x82,
  0xb8, 0x87, 0x2c, 0x92, 0x62, 0xb2, 0xeb, 0x05, 0xd4, 0xb2, 0xce, 0x0d,
  0xb1, 0x0f, 0x97, 0x3a, 0xd6, 0x5a, 0xb4, 0x09, 0x1b, 0x2b, 0x81, 0xf7,
  0xca, 0x0a, 0x35, 0x46, 0x01, 0xdd, 0x94, 0xb0, 0x2e, 0x42, 0xa7, 0xe1,
  0x71, 0x2c, 0x3e, 0xc7, 0xfc, 0xb0, 0x12, 0xc3, 0x0c, 0x6d, 0x55, 0xc3,
  0x7e, 0x3c, 0x00, 0x84, 0xd2, 0x9a, 0xb5, 0x2f, 0xa9, 0xc5, 0xde, 0x35,
  0xbb, 0xa3, 0xfd, 0x4f, 0xb4, 0x57, 0xec, 0x2c, 0xd6, 0x95, 0x4c, 0xcb,
  0xf5, 0x5e, 0x41, 0xd4, 0xce, 0xf8, 0xda, 0xe5, 0x3b, 0x4c, 0xcd, 0xa5,
  0x0a, 0x6f, 0xfe, 0xb9, 0x0d, 0x16, 0x0f, 0x6d, 0x04, 0x2e, 0xcf, 0xbb,
  0x4a, 0xc4, 0xc4, 0xbc, 0x16, 0xad, 0x27, 0x0d, 0x5d, 0x64, 0xb8, 0x61,
  0x15, 0x37, 0x54, 0x1e, 0x14, 0x0a, 0xbf, 0x67, 0xed, 0x20, 0xe2, 0xc2,
  0x5e, 0x18, 0xc8, 0xc6, 0x7f, 0x4b, 0x26, 0x3a, 0xc2, 0x40, 0xb8, 0x08,
  0x02, 0xcd, 0x22, 0xc9, 0x08, 0xf5, 0xb0, 0x18, 0x54, 0x2f, 0xe9, 0xee,
  0xfe, 0xe0, 0x3c, 0xde, 0xed, 0x87, 0xd2, 0xd3, 0x67, 0x62, 0x22, 0xeb,
  0x66, 0x10, 0xb3, 0x2e, 0xc0, 0x37, 0x4c, 0x2c, 0xd4, 0xbc, 0x8f, 0xd6,
  0x4e, 0xa1, 0xce, 0xe9, 0x17, 0x1b, 0x3e, 0xab, 0x6d, 0x48, 0x54, 0x23,
  0xbb, 0x6d, 0x25, 0x25, 0x88, 0xc8, 0x13, 0xb6, 0xea, 0xd3, 0xd0, 0x3f,
  0xf9, 0xaa, 0x32, 0x01, 0xf7, 0x0a, 0x81, 0x02, 0x27, 0x47, 0x6f, 0xd3,
  0xd8, 0x73, 0xf1, 0x35, 0xda, 0xe9, 0x2b, 0xf5, 0x9b, 0xf4, 0xd6, 0x03,
  0x75, 0xb4, 0xed, 0xf5, 0x1b, 0x81, 0x2e, 0x03, 0x49, 0x7b, 0xfe, 0xe8,
  0x01, 0x20, 0x1a, 0x95, 0x91, 0x61, 0xfa, 0xfb, 0x54, 0xc5, 0x98, 0x05,
  0x6a, 0x96, 0x3f, 0x21, 0xd4, 0xcf, 0xd3, 0x44, 0xe0, 0x37, 0x00, 0xd0,
  0x3d, 0xcb, 0x43, 0x40, 0xab, 0x2b, 0x54, 0xce, 0x48, 0x79, 0x12, 0x15,
  0xea, 0xa7, 0x16, 0x4b, 0x17, 0x3f, 0xf4, 0xe6, 0xe3, 0x5b, 0xfa, 0x3e,
  0xde, 0xf5, 0x0f, 0xf1, 0x4f, 0xd3, 0x48, 0xb7, 0x9c, 0xc4, 0x4f, 0xe5,
  0xa6, 0x48, 0x0f, 0x20, 0xa9, 0xe9, 0x9d, 0xa4, 0x04, 0x61, 0xfd, 0x5d,
  0xb6, 0xe9, 0x04, 0x49, 0x87, 0x47, 0x6c, 0xf7, 0xc2, 0x1a, 0xb0, 0x93,
  0x00, 0xd4, 0xbd, 0xe6, 0x2d, 0xbb, 0x27, 0x23, 0xc3, 0x33, 0x30, 0x4f,
  0x63, 0xae, 0x15, 0xc3, 0x48, 0xa9, 0x6e, 0xfd, 0x81, 0xe5, 0x96, 0xf0,
  0x9f, 0xb4, 0x1b, 0x5a, 0x66, 0xed, 0x8f, 0xd4, 0xb6, 0xc4, 0x3f, 0xd4,
  0x10, 0x9c, 0xfe, 0xc2, 0xf0, 0xd6, 0xa5, 0xb3, 0x57, 0x1c, 0xa0, 0x8f,
  0xd5, 0xd7, 0x93, 0x1a, 0x25, 0x5d, 0xeb, 0x53, 0x6f, 0x46, 0xf6, 0xd2,
  0xc1, 0x06, 0xd7, 0x23, 0xa2, 0x2c, 0x60, 0xb6, 0x2a, 0xf0, 0x9c, 0x42,
  0xf8, 0x4c, 0x29, 0x13, 0xda, 0x87, 0x11, 0xc8, 0xe5, 0x02, 0x9e, 0x2c,
  0x78, 0xdc, 0xe5, 0x17, 0x24, 0xed, 0xbf, 0x2b, 0x8d, 0x62, 0xe8, 0x1e,
  0xde, 0xf6, 0x05, 0xe0, 0x7f, 0x34, 0x5d, 0x8a, 0xb9, 0x48, 0xf4, 0x54,
  0x35, 0x43, 0xb7, 0x94, 0x4a, 0x0c, 0xcb, 0xa1, 0x04, 0x7f, 0xbb, 0x0b,
  0x01, 0x34, 0xe0, 0xc7, 0x2e, 0xfd, 0xc0, 0x92, 0xd8, 0x77, 0xd4, 0xbd,
  0xda, 0x0c, 0xd1, 0x29, 0xf5, 0xc9, 0x11, 0xd3, 0x20, 0xed, 0xea, 0x08,
  0x25, 0x3c, 0xf5, 0x5b, 0x4e, 0x0e, 0x86, 0xc0, 0x65, 0x51, 0xee, 0xc4,
  0xab, 0x35, 0xa1, 0x2b, 0xbe, 0x10, 0xbf, 0x5d, 0x9b, 0xd8, 0xfa, 0x0b,
  0xf4, 0xa4, 0xa9, 0xc4, 0xf3, 0xd7, 0x21, 0xea, 0x61, 0xfc, 0x05, 0xf6,
  0xf7, 0xb9, 0xc8, 0x0d, 0x46, 0x34, 0x41, 0xd9, 0x01, 0x52, 0x73, 0x53,
  0x9b, 0xe8, 0x57, 0xd9, 0xc5, 0x12, 0x1f, 0xd3, 0x0c, 0xc3, 0x0e, 0x39,
  0x5c, 0x2c, 0x27, 0x1c, 0x30, 0x16, 0xbb, 0x29, 0x69, 0x1a, 0xce, 0xf7,
  0x72, 0x1c, 0xa7, 0xf8, 0x2f, 0xec, 0xc4, 0x8f, 0x53, 0x5b, 0x2f, 0x07,
  0x89, 0x03, 0x4c, 0x0c, 0xdb, 0x1a, 0x76, 0xc4, 0x9d, 0x18, 0xa9, 0xa3,
  0x9b, 0x4e, 0x05, 0x81, 0xed, 0xbe, 0x04, 0x70, 0x6c, 0x07, 0x79, 0xd0,
  0x1e, 0xb2, 0x97, 0xe4, 0xdc, 0xdc, 0xaf, 0xc4, 0x71, 0xc8, 0xe4, 0x82,
  0x21, 0x94, 0x1f, 0x3e, 0xdc, 0xa3, 0x1c, 0xd9, 0xe3, 0xac, 0x35, 0x1b,
  0x9f, 0x53, 0x94, 0x44, 0xb5, 0x56, 0x7a, 0x57, 0xbc, 0xdf, 0x09, 0xe1,
  0xb4, 0x3d, 0xa8, 0xbf, 0x3e, 0x59, 0x2e, 0xa1, 0x42, 0x7f, 0x25, 0xa0,
  0x18, 0x3c, 0xa5, 0x19, 0x2e, 0xa3, 0x5d, 0x0d, 0x0d, 0x70, 0x2e, 0xf1,
  0xdd, 0x48, 0x09, 0x26, 0xdc, 0x46, 0xc2, 0xd0, 0x31, 0xd2, 0x3e, 0x41,
  0xc1, 0xe3, 0x11, 0x23, 0xae, 0xde, 0xb4, 0xa6, 0xd0, 0x0f, 0x28, 0x95,
  0xd3, 0xd1, 0xd1, 0x38, 0xfd, 0x3f, 0x3a, 0xe9, 0xc0, 0x2f, 0xb0, 0x41,
  0x3b, 0x34, 0xb4, 0x2d, 0xd5, 0x03, 0xc0, 0x52, 0x81, 0xe6, 0xd8, 0xfa,
  0x6f, 0x91, 0xd7, 0x05, 0x6f, 0x32, 0x92, 0x97, 0xba, 0x3e, 0x19, 0xfc,
  0x5f, 0xd3, 0xa7, 0xe5, 0x97, 0x72, 0x76, 0xe5, 0x51, 0xe9, 0x55, 0xd2,
  0xf9, 0xeb, 0xf7, 0xc4, 0x53, 0x13, 0xd8, 0x01, 0xcb, 0x2e, 0x25, 0x2c,
  0x55, 0x3f, 0x48, 0xca, 0x2f, 0x61, 0xc2, 0x6a, 0x20, 0xb6, 0x95, 0x09,
  0x55, 0xd0, 0x38, 0x5c, 0xc7, 0x9b, 0x48, 0x26, 0x11, 0xf0, 0xa4, 0x85,
  0xb1, 0x7d, 0x13, 0xac, 0xba, 0xe1, 0x1e, 0xdf, 0xdf, 0xf5, 0x02, 0x82,
  0x7f, 0xb2, 0x3e, 0xbd, 0x02, 0xaa, 0x1f, 0x3b, 0xff, 0x62, 0x68, 0xc3,
  0x1d, 0x7d, 0x93, 0x20, 0x00, 0x9b, 0x0b, 0x67, 0xf9, 0x22, 0xef, 0x12,
  0xd6, 0x9e, 0x0c, 0xbf, 0xd6, 0xba, 0xa6, 0x33, 0x2c, 0xbe, 0x60, 0x02,
  0x4d, 0x47, 0x9e, 0xc4, 0xcd, 0xf9, 0xe8, 0x1e, 0x2b, 0x78, 0xf6, 0x38,
  0x09, 0xfb, 0x0e, 0x06, 0xb2, 0x46, 0x97, 0x07, 0xc2, 0x60, 0x50, 0xfe,
  0x7b, 0xba, 0xe9, 0x2b, 0x41, 0xd1, 0xad, 0xa2, 0x11, 0x62, 0xee, 0xc5,
  0xbe, 0xab, 0x9c, 0xc0, 0x6a, 0x4a, 0xcd, 0xf4, 0x5d, 0xf6, 0xcc, 0x15,
  0x6b, 0xb7, 0xc9, 0xc5, 0x00, 0x4d, 0x0a, 0xa2, 0x3f, 0xf8, 0x2c, 0x2d,
  0x7f, 0x46, 0x00, 0x7a, 0xda, 0x03, 0x4b, 0x22, 0x4d, 0x29, 0x7c, 0x82,
  0xb1, 0xf0, 0xca, 0x90, 0x05, 0xe6, 0xe2, 0x5c, 0xf5, 0x0c, 0x06, 0x31,
  0xec, 0xb9, 0xeb, 0x3a, 0xcd, 0x06, 0x99, 0x48, 0x7c, 0x7f, 0xa6, 0x5d,
  0xab, 0x9e, 0x58, 0x3d, 0xd4, 0xb3, 0x60, 0xb9, 0xc0, 0xb4, 0x59, 0xf5,
  0xc1, 0x5f, 0x05, 0xf6, 0x48, 0x9e, 0xb6, 0xbd, 0x25, 0x14, 0x14, 0xdf,
  0xe7, 0xf6, 0xec, 0x0f, 0x87, 0xfc, 0x2c, 0x3b, 0x4d, 0x12, 0xc8, 0x15,
  0x6a, 0x59, 0xae, 0x2e, 0x35, 0x9b, 0x81, 0xee, 0xdf, 0xd8, 0x5c, 0x9d,
  0x0a, 0xb3, 0xb5, 0xdb, 0x1d, 0x25, 0xd5, 0xdd, 0xc4, 0xd3, 0x1c, 0x1d,
  0x16, 0xbc, 0x2c, 0x30, 0xca, 0x11, 0xb2, 0xfd, 0x7f, 0xee, 0x3b, 0xcd,
  0xfe, 0x20, 0xaa, 0xfc, 0x5b, 0x54, 0x57, 0xe4, 0x52, 0xc0, 0x12, 0x2f,
  0x01, 0x20, 0xb4, 0x25, 0x0d, 0xe0, 0x3c, 0xfa, 0xe8, 0xf5, 0xaa, 0x08,
  0xdf, 0x02, 0x2b, 0xf0, 0x23, 0xf8, 0x43, 0xbd, 0x4d, 0xd2, 0x52, 0xc1,
  0x56, 0x50, 0xed, 0x1f, 0xd6, 0xd0, 0xad, 0xcc, 0x06, 0x2f, 0x15, 0xd8,
  0x17, 0x13, 0xd0, 0xe6, 0xb5, 0x11, 0x6b, 0xac, 0x8a, 0xa5, 0xf2, 0x32,
  0x2d, 0xaa, 0x1c, 0x18, 0xb0, 0x53, 0xb3, 0x02, 0xd3, 0x58, 0xf6, 0xfe,
  0xb5, 0x7c, 0x0f, 0xdb, 0xbc, 0x6b, 0x31, 0x47, 0xa0, 0x6e, 0x88, 0x4e,
  0xce, 0xb0, 0x42, 0xe4, 0x71, 0x29, 0xb0, 0xb1, 0xbb, 0x17, 0x62, 0x2f,
  0x0b, 0x6f, 0x16, 0x08, 0x18, 0x10, 0xdb, 0xdb, 0x27, 0x76, 0xfc, 0x90,
  0xf3, 0xa3, 0x05, 0xba, 0x0f, 0xcc, 0xb0, 0x81, 0xba, 0x1d, 0xf8, 0xf1,
  0xa3, 0xe5, 0x51, 0xca, 0x20, 0xbb, 0xce, 0x67, 0x3e, 0xf3, 0x6c, 0xb5,
  0x1e, 0xa2, 0xb0, 0x88, 0x26, 0x2a, 0x93, 0xe8, 0x3e, 0x07, 0x58, 0xf8,
  0xcc, 0xc2, 0x29, 0xb2, 0xbc, 0x73, 0xd5, 0x57, 0x93, 0x3e, 0x4b, 0x4b,
  0x5e, 0x8a, 0x8e, 0xb9, 0x99, 0x4f, 0xc0, 0x0d, 0x2b, 0x0f, 0x15, 0x1a,
  0xb0, 0x00, 0xd1, 0xd1, 0x1f, 0x78, 0xcb, 0x49, 0xf2, 0x6b, 0xff, 0x31,
  0xcc, 0x0f, 0x15, 0x81, 0xb9, 0x24, 0xff, 0x86, 0x57, 0xcd, 0xd4, 0x51,
  0x3c, 0x6f, 0x91, 0x63, 0xe0, 0xa7, 0xff, 0xff, 0xe4, 0xa7, 0xff, 0xff,
  0xe8, 0xa7, 0xff, 0xff, 0x3a, 0xe9, 0xff, 0xff, 0x04, 0x00, 0x00, 0x00,
  0x60, 0x00, 0x00, 0x00, 0x00, 0x00, 0x00, 0x00, 0x00, 0x00, 0x00, 0x00,
  0x00, 0x00, 0x00, 0x00, 0x00, 0x00, 0x00, 0x00, 0x00, 0x00, 0x00, 0x00,
  0x00, 0x00, 0x00, 0x00, 0x00, 0x00, 0x00, 0x00, 0x00, 0x00, 0x00, 0x00,
  0x00, 0x00, 0x00, 0x00, 0x00, 0x00, 0x00, 0x00, 0x00, 0x00, 0x00, 0x00,
  0x00, 0x00, 0x00, 0x00, 0x00, 0x00, 0x00, 0x00, 0x00, 0x00, 0x00, 0x00,
  0x00, 0x00, 0x00, 0x00, 0x00, 0x00, 0x00, 0x00, 0x00, 0x00, 0x00, 0x00,
  0x00, 0x00, 0x00, 0x00, 0x00, 0x00, 0x00, 0x00, 0x00, 0x00, 0x00, 0x00,
  0x00, 0x00, 0x00, 0x00, 0x00, 0x00, 0x00, 0x00, 0x00, 0x00, 0x00, 0x00,
  0x00, 0x00, 0x00, 0x00, 0xa6, 0xe9, 0xff, 0xff, 0x04, 0x00, 0x00, 0x00,
  0x18, 0x00, 0x00, 0x00, 0xbd, 0xd4, 0xe4, 0x7f, 0x8c, 0xe8, 0x19, 0x75,
  0xe4, 0x78, 0xe2, 0x80, 0xbd, 0xf8, 0xb3, 0x28, 0x01, 0xb1, 0xd5, 0xcd,
  0xb7, 0x12, 0xe3, 0x26, 0xca, 0xe9, 0xff, 0xff, 0x04, 0x00, 0x00, 0x00,
  0xc0, 0x06, 0x00, 0x00, 0x2e, 0xd2, 0x45, 0x44, 0x8c, 0x47, 0x1d, 0xfa,
  0x5a, 0xc1, 0x4d, 0xa0, 0x67, 0xbe, 0x00, 0xc2, 0xfc, 0x93, 0x33, 0x4f,
  0xfc, 0x81, 0x18, 0x5e, 0x0e, 0xb7, 0x2e, 0xe2, 0x43, 0xf7, 0x19, 0xb1,
  0xc1, 0x62, 0x2e, 0xe3, 0xcb, 0xab, 0x31, 0x37, 0x4a, 0x05, 0x14, 0xdb,
  0xf2, 0xbc, 0x26, 0xdc, 0xe4, 0x17, 0xc5, 0xe9, 0x98, 0x8d, 0xd3, 0x12,
  0x48, 0x72, 0x33, 0x20, 0x24, 0x25, 0x17, 0x59, 0x98, 0xbc, 0xc7, 0x0a,
  0xec, 0x3d, 0x91, 0x29, 0xb7, 0xec, 0x15, 0xf4, 0xa0, 0x1e, 0xe9, 0x31,
  0x09, 0x7f, 0xc7, 0xb6, 0x4a, 0xe2, 0x8e, 0x36, 0xb6, 0xc8, 0xdb, 0xb5,
  0xa2, 0x36, 0xd7, 0xec, 0xbc, 0x19, 0xa9, 0xd0, 0xfc, 0x34, 0xc2, 0x96,
  0xd6, 0xa5, 0xed, 0x45, 0x42, 0x3c, 0x37, 0xc3, 0x83, 0x44, 0x3a, 0xa0,
  0xce, 0xf4, 0x31, 0x1c, 0xc5, 0x29, 0x59, 0x04, 0xbe, 0x4f, 0x5e, 0xb8,
  0xe7, 0xab, 0x00, 0x8f, 0xe3, 0xed, 0xa7, 0xaf, 0xc6, 0x46, 0xc7, 0xf9,
  0xfd, 0x12, 0xb3, 0xf8, 0x06, 0x4d, 0x12, 0xad, 0x6b, 0x75, 0x03, 0xd7,
  0x4a, 0x02, 0xb1, 0xcc, 0x58, 0x69, 0x60, 0x87, 0x3e, 0x79, 0x79, 0x22,
  0xba, 0xd8, 0x63, 0x42, 0x53, 0xdc, 0x2d, 0x17, 0x9e, 0x4e, 0xdc, 0xc0,
  0x54, 0xf5, 0xcd, 0xc7, 0x58, 0xb1, 0x7f, 0x07, 0x4a, 0x0f, 0xa2, 0x30,
  0xbf, 0x35, 0x45, 0x49, 0x4c, 0xe6, 0xe9, 0xaa, 0x70, 0x09, 0xe7, 0x09,
  0x05, 0x43, 0x28, 0xf6, 0xb0, 0xc8, 0x79, 0x4a, 0x52, 0x04, 0xf1, 0x0a,
  0x4a, 0x21, 0xb4, 0x3c, 0xd0, 0xfe, 0xf8, 0x0f, 0xc9, 0xfa, 0x2c, 0x06,
  0xaf, 0xb7, 0x0b, 0xf1, 0xc2, 0xb6, 0xfe, 0xa9, 0xab, 0x33, 0x37, 0xe2,
  0x9a, 0xd1, 0x22, 0xc7, 0x42, 0xdf, 0x4f, 0xe5, 0xdf, 0x28, 0xec, 0xcd,
  0xc5, 0xfb, 0xbc, 0xef, 0xe9, 0x49, 0x02, 0xf6, 0xdb, 0xeb, 0x22, 0xd0,
  0xe2, 0x11, 0xf6, 0x1d, 0xf1, 0xfc, 0xf8, 0xcb, 0xc9, 0xca, 0x3e, 0x30,
  0xdb, 0x07, 0x81, 0xa4, 0x1c, 0xe9, 0xd3, 0x1e, 0xe6, 0xfd, 0x30, 0xbf,
  0xe7, 0xee, 0xd3, 0xcb, 0x15, 0xa0, 0xd0, 0xfa, 0x09, 0x38, 0xb0, 0xa0,
  0x29, 0x99, 0xc2, 0x81, 0x30, 0x08, 0xca, 0xb4, 0xb2, 0xa5, 0x33, 0xf5,
  0xcf, 0x36, 0x98, 0x01, 0x40, 0x07, 0x15, 0xc9, 0xe8, 0x4f, 0xad, 0x13,
  0x96, 0xe0, 0xb5, 0xfd, 0xe9, 0xcc, 0x57, 0x50, 0x35, 0xbc, 0xe6, 0x0f,
  0xdd, 0xb7, 0xeb, 0x15, 0xec, 0x35, 0x2c, 0xc9, 0x34, 0x10, 0x4f, 0xcf,
  0x4a, 0x1b, 0x98, 0xe7, 0x31, 0x4a, 0x1c, 0xbc, 0x45, 0x37, 0x19, 0xb6,
  0x41, 0xc8, 0x42, 0x9a, 0x5b, 0x5f, 0xee, 0xbf, 0xce, 0x0b, 0x5e, 0x31,
  0x07, 0xfb, 0x5b, 0xd2, 0x74, 0xa2, 0x3c, 0x64, 0xf8, 0xb3, 0xb0, 0x63,
  0x81, 0x97, 0x13, 0xbc, 0x59, 0x3c, 0xb0, 0x16, 0xcc, 0x3d, 0x71, 0x64,
  0x9e, 0xd8, 0xb8, 0xb9, 0x23, 0x6d, 0x94, 0x27, 0xe1, 0x3d, 0x88, 0xd5,
  0xf3, 0x5a, 0x9b, 0x7f, 0xcd, 0x9d, 0x02, 0xd1, 0x60, 0xdc, 0x9d, 0xd4,
  0x38, 0xed, 0xcf, 0x90, 0x0f, 0x75, 0xec, 0x0f, 0xe1, 0x46, 0x8e, 0xb2,
  0x82, 0xe0, 0x43, 0x38, 0x4a, 0x60, 0xeb, 0xa5, 0x2e, 0xaa, 0x2b, 0xb0,
  0xe9, 0xcc, 0xf3, 0x81, 0xee, 0x45, 0x43, 0xb1, 0xe2, 0xab, 0x16, 0x59,
  0x28, 0x8f, 0x2f, 0xa4, 0x16, 0xc3, 0x42, 0xdf, 0x45, 0x3d, 0xd8, 0x57,
  0xbc, 0x3b, 0x07, 0x1c, 0x09, 0x15, 0x34, 0xf0, 0xff, 0x48, 0xa6, 0x0a,
  0x50, 0x00, 0x52, 0xc9, 0xe1, 0x02, 0xeb, 0xcc, 0xee, 0x47, 0x0b, 0xa6,
  0x1b, 0xed, 0x0b, 0xd7, 0xb2, 0xf3, 0x3b, 0x8a, 0x97, 0x3b, 0xde, 0x4c,
  0x1b, 0x44, 0x04, 0x2f, 0x3d, 0x33, 0x49, 0xaa, 0x3a, 0x20, 0x68, 0xc1,
  0xf8, 0xfb, 0x44, 0xe5, 0xa3, 0x4b, 0x40, 0x54, 0x28, 0x31, 0xe3, 0x25,
  0xd1, 0xab, 0xcb, 0xfa, 0x23, 0xc2, 0x50, 0x02, 0x5f, 0xb7, 0x41, 0x3d,
  0x0d, 0x8b, 0xac, 0x56, 0xb3, 0x6c, 0x4e, 0xfb, 0x59, 0xf9, 0x21, 0x8b,
  0x01, 0xdc, 0xa6, 0x02, 0x43, 0x74, 0x60, 0x87, 0xa1, 0x7f, 0x68, 0x25,
  0xb1, 0x0e, 0x53, 0xb7, 0xb7, 0xd2, 0x60, 0x8c, 0x93, 0x12, 0xa6, 0x9a,
  0xa8, 0xff, 0xec, 0xf2, 0x32, 0x35, 0x01, 0x2f, 0x52, 0xca, 0xf5, 0x53,
  0x1d, 0xbd, 0x35, 0x9e, 0x25, 0x1c, 0x2e, 0x59, 0xb0, 0xdd, 0x8f, 0x43,
  0x2e, 0x1a, 0xf0, 0x49, 0xda, 0x54, 0xe4, 0x19, 0xe9, 0x31, 0x47, 0x81,
  0xb6, 0x18, 0xb4, 0xc2, 0x5c, 0xb3, 0x1c, 0xaa, 0x0e, 0x3f, 0xde, 0x9f,
  0xb8, 0x8e, 0xea, 0x51, 0xf4, 0x12, 0x95, 0xff, 0xca, 0x32, 0x1f, 0xe4,
  0x22, 0xb1, 0xc5, 0xb8, 0x2d, 0xe6, 0x9d, 0xd1, 0xf0, 0xc7, 0xb9, 0xbc,
  0x33, 0xc1, 0xa8, 0xc6, 0x84, 0x2e, 0x30, 0x4b, 0x4d, 0xa3, 0x19, 0x05,
  0xa0, 0x34, 0x35, 0x81, 0xeb, 0x10, 0xf4, 0x20, 0x14, 0xe1, 0x15, 0x91,
  0xe5, 0x05, 0x06, 0x26, 0x04, 0x09, 0x47, 0x82, 0xfb, 0xed, 0xdc, 0x1c,
  0xc4, 0xc7, 0x3b, 0x1a, 0xd8, 0x2a, 0x03, 0x22, 0xde, 0x41, 0x0d, 0x87,
  0x22, 0x25, 0x38, 0xb7, 0xff, 0xb3, 0x95, 0x86, 0x04, 0x95, 0xb8, 0xd9,
  0xcb, 0xe3, 0xa7, 0x81, 0xc8, 0x47, 0xdd, 0xc2, 0x84, 0xbd, 0x88, 0xb1,
  0xa5, 0xe5, 0x22, 0xa7, 0x36, 0x5f, 0xf4, 0x4e, 0xe5, 0x51, 0xbb, 0xfe,
  0xbd, 0x09, 0x5a, 0x2c, 0x81, 0xa4, 0x45, 0xb2, 0xc2, 0xb1, 0xed, 0x19,
  0xe8, 0x2d, 0x25, 0x2e, 0x3a, 0xf4, 0xb0, 0xe4, 0x31, 0xfc, 0xe9, 0xa3,
  0x30, 0x10, 0x8f, 0x92, 0xa2, 0x45, 0x3c, 0x2e, 0x4e, 0x50, 0xca, 0xc7,
  0x40, 0xd7, 0xb9, 0x50, 0x50, 0x2b, 0xb3, 0xc7, 0x06, 0x05, 0x18, 0xe9,
  0xc0, 0xd6, 0x85, 0xf6, 0x8c, 0xdf, 0x9e, 0x8f, 0x8e, 0x2d, 0xd3, 0x1f,
  0xd0, 0xdf, 0x8e, 0x30, 0x6a, 0xb8, 0x14, 0xe4, 0xea, 0x59, 0x5d, 0x69,
  0x3e, 0xf1, 0x3c, 0x3c, 0x2e, 0xa3, 0x91, 0xb1, 0xe7, 0xdc, 0xee, 0x39,
  0x2b, 0x36, 0xd0, 0xa7, 0x47, 0xe2, 0x92, 0xcf, 0x08, 0xe6, 0x9b, 0x72,
  0x4a, 0x91, 0x53, 0x0e, 0x5b, 0x0d, 0x54, 0x5c, 0xcd, 0x22, 0xba, 0xcf,
  0xa0, 0x5f, 0xed, 0x11, 0x7f, 0xb0, 0x10, 0x46, 0xad, 0x9c, 0x39, 0x1d,
  0x8c, 0xfa, 0x35, 0xee, 0x44, 0xae, 0x95, 0x48, 0x07, 0x5c, 0x84, 0x93,
  0xc5, 0xbb, 0x1e, 0xd2, 0x54, 0x2f, 0xe7, 0x32, 0xfe, 0x54, 0x9e, 0x3b,
  0x61, 0x36, 0x49, 0x18, 0x15, 0xff, 0xef, 0xa2, 0xfe, 0x0c, 0x41, 0x6c,
  0xfd, 0xff, 0xac, 0xae, 0xeb, 0xe3, 0x6c, 0xc6, 0x3c, 0xaf, 0x36, 0xd6,
  0xea, 0xa1, 0xba, 0x15, 0x10, 0x26, 0xb7, 0x4f, 0xd7, 0x44, 0xf6, 0x68,
  0x20, 0xef, 0x89, 0x20, 0x0b, 0xd5, 0x37, 0x21, 0x6e, 0x33, 0xa5, 0xd1,
  0xa8, 0xc6, 0xdc, 0xa7, 0xd3, 0x54, 0x9f, 0x14, 0x14, 0x81, 0x2f, 0x98,
  0x28, 0x9c, 0x0c, 0x56, 0xc5, 0xc4, 0xba, 0x1a, 0x90, 0xb6, 0x36, 0xa7,
  0xfe, 0x95, 0xe6, 0xe4, 0x04, 0x45, 0xb4, 0x0c, 0xd4, 0x95, 0x1c, 0xff,
  0x1c, 0xdf, 0x4e, 0x06, 0xb6, 0x5e, 0xd6, 0x26, 0xac, 0x14, 0xc9, 0xd6,
  0x36, 0xdf, 0x4b, 0xae, 0xf5, 0xef, 0x28, 0x2a, 0xdd, 0x35, 0xf3, 0x45,
  0xf0, 0x23, 0xfc, 0x33, 0xb8, 0xe6, 0x2e, 0x05, 0x44, 0x3e, 0xf2, 0xd1,
  0xe9, 0xa3, 0x7f, 0xcf, 0x2e, 0xaf, 0xc0, 0x21, 0xe7, 0xf7, 0x2e, 0xeb,
  0x4a, 0xd3, 0x5f, 0xe2, 0x38, 0x09, 0xe0, 0xba, 0xfc, 0x5b, 0xc0, 0xf6,
  0xe0, 0xf0, 0xc4, 0x26, 0x27, 0x0e, 0x4d, 0xc4, 0x1d, 0xe1, 0x00, 0x38,
  0x3c, 0x12, 0xea, 0x30, 0x36, 0xad, 0x4d, 0xf8, 0x24, 0xac, 0x33, 0x39,
  0x28, 0xad, 0xc1, 0x01, 0xfd, 0x2f, 0x3e, 0xed, 0x2a, 0x4d, 0x0a, 0x05,
  0x3f, 0xb7, 0xce, 0xcd, 0x17, 0x6a, 0x70, 0x31, 0xaf, 0x77, 0x7f, 0xb1,
  0x34, 0xab, 0x19, 0x05, 0xad, 0x40, 0x02, 0x8f, 0xa6, 0x4f, 0x71, 0xac,
  0x18, 0x75, 0x2b, 0xe8, 0x4b, 0xc0, 0x0c, 0xa2, 0xa5, 0x19, 0x3d, 0xe5,
  0xa7, 0xfc, 0x45, 0x92, 0xbb, 0xd4, 0x12, 0xf2, 0xac, 0xb7, 0x96, 0xb5,
  0xe6, 0x25, 0x35, 0xfa, 0x69, 0xd1, 0x9d, 0x43, 0x05, 0xb5, 0xd4, 0xc8,
  0x86, 0x42, 0x07, 0xef, 0xb1, 0x2a, 0x73, 0x3f, 0x81, 0x49, 0xcb, 0x4b,
  0xb0, 0xef, 0x15, 0x86, 0x4d, 0x96, 0x18, 0xde, 0x90, 0xe0, 0x1d, 0xf6,
  0x40, 0x99, 0xf9, 0xc3, 0x9b, 0x32, 0x0b, 0xfe, 0x47, 0xb0, 0xc6, 0xf0,
  0x2c, 0xe2, 0x5b, 0xa3, 0x33, 0xbc, 0x8d, 0xe6, 0xaf, 0xd6, 0x46, 0xc2,
  0x26, 0x06, 0xb0, 0x31, 0x5d, 0x3e, 0x92, 0x6c, 0xc0, 0x1e, 0x95, 0x81,
  0xa0, 0x02, 0x40, 0x36, 0xfe, 0x33, 0x03, 0xe2, 0x24, 0x03, 0xde, 0xaa,
  0x97, 0x5c, 0xee, 0x4b, 0xe1, 0x30, 0x1a, 0x29, 0xc9, 0x96, 0xb0, 0x52,
  0xd4, 0xc1, 0x44, 0x1b, 0x71, 0x1e, 0xb6, 0xea, 0xd1, 0xa5, 0x2d, 0x1c,
  0xea, 0xc5, 0x1b, 0x30, 0x05, 0xb6, 0xe7, 0xc1, 0xd9, 0xd2, 0x32, 0x28,
  0xc9, 0xa3, 0x3f, 0x4b, 0xb3, 0x02, 0x73, 0xbd, 0xe0, 0x04, 0xd8, 0x8d,
  0x1c, 0x49, 0x04, 0x90, 0x97, 0x19, 0x29, 0x81, 0x2a, 0x99, 0x5e, 0x89,
  0x95, 0x89, 0xce, 0x4d, 0xcf, 0x3c, 0xa0, 0xe4, 0x17, 0xd1, 0x4d, 0xa7,
  0xe1, 0xed, 0x25, 0xca, 0x5a, 0x1a, 0xcd, 0xd5, 0x98, 0x66, 0xf2, 0xa8,
  0xb2, 0x1d, 0xe3, 0x40, 0x9f, 0xa3, 0x22, 0x44, 0x49, 0x8c, 0x8c, 0x8a,
  0xe6, 0xac, 0x46, 0xa0, 0xc4, 0x9d, 0x20, 0xfb, 0xb9, 0x27, 0xef, 0xd8,
  0x9c, 0xf5, 0x1a, 0x96, 0x11, 0x43, 0xce, 0xec, 0x1e, 0xcf, 0x96, 0x14,
  0xfb, 0xa7, 0x46, 0x54, 0x63, 0xad, 0x36, 0x06, 0xe5, 0xbf, 0x0e, 0x4c,
  0xc2, 0x02, 0x62, 0xce, 0x59, 0x25, 0xb6, 0x4b, 0xd3, 0xca, 0xb1, 0xc0,
  0x00, 0x4c, 0x6a, 0xf5, 0x2a, 0xe0, 0x43, 0x2f, 0x81, 0xb8, 0xdc, 0xf5,
  0x63, 0x49, 0xbc, 0x29, 0x95, 0x39, 0x14, 0xc9, 0xf8, 0x54, 0x9e, 0x42,
  0x48, 0x03, 0xca, 0x48, 0x1e, 0x20, 0xd1, 0xfb, 0xf1, 0xda, 0xd0, 0xce,
  0xf0, 0x57, 0x25, 0x5c, 0x22, 0x37, 0x20, 0xbb, 0x10, 0x06, 0x31, 0xb6,
  0x37, 0x5b, 0x9a, 0x35, 0x8e, 0xde, 0xf4, 0x59, 0xa6, 0x59, 0xe7, 0x2b,
  0xc9, 0x81, 0x57, 0x49, 0x47, 0x3f, 0xf1, 0xf0, 0xdc, 0xbc, 0x42, 0xa0,
  0xa9, 0x03, 0xfe, 0x50, 0xb9, 0xc0, 0x25, 0x4e, 0xb7, 0x4b, 0x48, 0xd8,
  0x13, 0xb7, 0x15, 0xf5, 0x42, 0x5c, 0x25, 0xb8, 0x50, 0x01, 0x16, 0x38,
  0xfa, 0x00, 0x08, 0xcb, 0x4c, 0x63, 0x2c, 0x1d, 0x1f, 0xfe, 0x1e, 0xe7,
  0x62, 0xc5, 0x4e, 0x0f, 0xd2, 0x39, 0x52, 0x0b, 0xe9, 0x1b, 0x12, 0xd7,
  0x23, 0x96, 0xba, 0x1b, 0xed, 0x0a, 0x21, 0xe3, 0x96, 0xd4, 0xc8, 0xdc,
  0x3f, 0xa1, 0x2e, 0xb9, 0x9f, 0xef, 0xe5, 0x03, 0xe4, 0xf6, 0x50, 0x2c,
  0xb7, 0x12, 0xbf, 0x4a, 0xa1, 0xe7, 0x03, 0xf3, 0x0f, 0x64, 0xa8, 0xae,
  0x1a, 0x43, 0x5c, 0xca, 0x50, 0xe3, 0xad, 0xdd, 0x81, 0x5c, 0x35, 0xdf,
  0x29, 0x1f, 0xd0, 0xf6, 0xe7, 0xd6, 0x1e, 0xb4, 0x9e, 0x19, 0xdb, 0x6d,
  0xdf, 0xd7, 0xff, 0x44, 0xba, 0x3f, 0x27, 0xa6, 0x20, 0xee, 0xa3, 0xd3,
  0xae, 0x59, 0xaf, 0xe4, 0x31, 0x09, 0x14, 0x81, 0x3f, 0x4c, 0xcc, 0x10,
  0xe8, 0x0f, 0xd5, 0xef, 0x2f, 0x3f, 0x04, 0x8d, 0xf4, 0x24, 0xaa, 0xc5,
  0xe1, 0xcf, 0xc7, 0x29, 0x48, 0xc2, 0x55, 0x94, 0x8f, 0x2c, 0x2d, 0x1c,
  0x16, 0xac, 0xbc, 0x93, 0xb7, 0xa0, 0x42, 0x90, 0x27, 0x34, 0x81, 0xb5,
  0x42, 0xd0, 0x5a, 0xf6, 0xdb, 0x06, 0x2d, 0xcb, 0x57, 0x38, 0xe3, 0x05,
  0x85, 0x27, 0x42, 0xc0, 0xc8, 0x02, 0xa8, 0x0e, 0x24, 0x15, 0x5e, 0x3b,
  0x5b, 0x98, 0xa5, 0x55, 0x14, 0xfd, 0x79, 0x2a, 0xf9, 0xd2, 0x9d, 0x04,
  0x36, 0x51, 0xe6, 0x68, 0xfc, 0x3a, 0x1d, 0x97, 0xf8, 0x7f, 0xf3, 0x86,
  0xf9, 0x07, 0x3f, 0x12, 0x4f, 0x55, 0x39, 0x27, 0x46, 0xcb, 0x23, 0x78,
  0x50, 0x30, 0x5a, 0x9b, 0xea, 0x0c, 0xab, 0xff, 0xe6, 0xa4, 0xb6, 0xf6,
  0x2e, 0x8c, 0x2c, 0x29, 0xb3, 0x0e, 0x52, 0x43, 0x62, 0x2a, 0xd2, 0xc8,
  0x29, 0xa3, 0x05, 0x44, 0xbc, 0x08, 0x1a, 0x33, 0xdc, 0x42, 0x1b, 0xa9,
  0x0b, 0xb0, 0x48, 0x04, 0xb0, 0x42, 0x98, 0xa5, 0x15, 0xf6, 0x47, 0x0e,
  0x27, 0xec, 0xb5, 0x26, 0xad, 0x81, 0x1c, 0xff, 0xaf, 0xba, 0xb1, 0xa8,
  0xa7, 0xf6, 0xcc, 0x2d, 0x28, 0xb0, 0x29, 0x52, 0x45, 0xad, 0x13, 0xbf,
  0xd8, 0x9e, 0x4f, 0xb9, 0x5b, 0xbf, 0xdc, 0xa4, 0xfc, 0xc2, 0x04, 0xd4,
  0x51, 0xc7, 0xab, 0x43, 0x04, 0xf9, 0xf9, 0x03, 0x31, 0x09, 0xca, 0xa4,
  0xb4, 0x2c, 0x1e, 0x10, 0x96, 0xf0, 0xff, 0xff, 0x04, 0x00, 0x00, 0x00,
  0x18, 0x00, 0x00, 0x00, 0xeb, 0xc6, 0x52, 0xad, 0xfc, 0xfd, 0xf4, 0x0b,
  0x0d, 0x91, 0xe8, 0x7f, 0xef, 0x11, 0x51, 0xb6, 0x00, 0x80, 0xee, 0x05,
  0x0f, 0xf9, 0x3a, 0xde, 0xba, 0xf0, 0xff, 0xff, 0x04, 0x00, 0x00, 0x00,
  0xc0, 0x06, 0x00, 0x00, 0x29, 0x5d, 0xac, 0x24, 0xad, 0xc4, 0xd4, 0xda,
  0x51, 0x09, 0x2d, 0xdb, 0xcf, 0xcc, 0x2b, 0xb8, 0x25, 0xf6, 0xb1, 0x0c,
  0x6d, 0x3e, 0x5b, 0x51, 0xe6, 0x41, 0xb3, 0xb3, 0x05, 0xe7, 0xbd, 0xb8,
  0xb9, 0x67, 0x43, 0x5f, 0x52, 0x34, 0x2c, 0x67, 0x37, 0x4d, 0x69, 0xcf,
  0xdf, 0x21, 0x0d, 0x2c, 0xd2, 0xcf, 0x52, 0x6d, 0x47, 0x4e, 0xc6, 0x0f,
  0x56, 0x21, 0x32, 0x53, 0x56, 0x6f, 0x41, 0x22, 0x45, 0x49, 0x7f, 0x27,
  0xd9, 0x97, 0x05, 0x97, 0xe8, 0x43, 0xfc, 0xf8, 0x9c, 0x18, 0x11, 0x43,
  0x3f, 0xcc, 0xa7, 0x10, 0xc4, 0xe0, 0xb2, 0x28, 0x2c, 0x66, 0x2f, 0x1d,
  0xef, 0x14, 0x51, 0xd0, 0xda, 0x51, 0x0c, 0x3f, 0xcf, 0xdd, 0x18, 0x53,
  0x31, 0xec, 0x58, 0xeb, 0xb0, 0xca, 0x92, 0x90, 0x41, 0xe3, 0x30, 0xc2,
  0xeb, 0xf6, 0xd3, 0xd6, 0xa4, 0xca, 0x0b, 0xc1, 0xc5, 0xd1, 0xc8, 0xd9,
  0xf2, 0x10, 0x30, 0xcb, 0x42, 0x0b, 0xe4, 0xa7, 0x3b, 0x76, 0x81, 0x44,
  0x59, 0x3c, 0xba, 0xea, 0x35, 0x26, 0x0c, 0xef, 0xba, 0xfe, 0xf0, 0x24,
  0xd4, 0xdf, 0xfe, 0xf4, 0x3b, 0x09, 0x21, 0x17, 0x0d, 0x11, 0xf0, 0x35,
  0xeb, 0xe2, 0xeb, 0xfe, 0xf1, 0x0b, 0x4f, 0x26, 0x1a, 0x24, 0x01, 0xfd,
  0xcd, 0xeb, 0xbe, 0xf1, 0x2d, 0xf4, 0x0a, 0xe3, 0xe5, 0xfa, 0x22, 0xee,
  0xd0, 0x07, 0xcf, 0xb4, 0xff, 0x48, 0xd2, 0x02, 0xf1, 0x2f, 0xd7, 0xe2,
  0x24, 0x22, 0x25, 0x2d, 0x3a, 0x29, 0x1e, 0x0f, 0x09, 0xd7, 0x4a, 0xd9,
  0x1f, 0x42, 0x7f, 0xd1, 0xb5, 0x2b, 0x2f, 0xdc, 0xd8, 0xc7, 0x92, 0xbd,
  0xe8, 0xdc, 0xc5, 0x25, 0x22, 0xd9, 0x09, 0x33, 0xc7, 0x0a, 0x1b, 0xe6,
  0xb6, 0xe1, 0x38, 0xa3, 0xdf, 0x02, 0xe8, 0x93, 0xee, 0xe9, 0xfb, 0x17,
  0x2a, 0x66, 0x99, 0xc2, 0x23, 0x44, 0x4a, 0x26, 0x14, 0x47, 0x01, 0x1c,
  0x34, 0x44, 0x08, 0x20, 0x0a, 0x0f, 0x4d, 0xfa, 0xa1, 0x4c, 0x1b, 0x0c,
  0x3f, 0xde, 0xea, 0xde, 0x5a, 0x7f, 0x79, 0x39, 0x58, 0xe5, 0x28, 0xcd,
  0x2d, 0x16, 0x57, 0xf4, 0x42, 0xf7, 0x7f, 0x00, 0x38, 0x92, 0x59, 0x58,
  0x69, 0x1e, 0xca, 0xd4, 0xa7, 0x6c, 0x21, 0x23, 0x64, 0x3a, 0xa8, 0xe6,
  0xe8, 0xe0, 0xeb, 0x5d, 0x59, 0xd5, 0x43, 0xb0, 0xb0, 0xea, 0xc2, 0xb1,
  0x04, 0xc9, 0xec, 0xde, 0x9e, 0xe9, 0x4b, 0x04, 0xc4, 0x4a, 0x97, 0x72,
  0xa6, 0x6b, 0x50, 0x40, 0x1b, 0x1e, 0x46, 0xb3, 0x05, 0x13, 0xf9, 0x9c,
  0x17, 0xac, 0xa6, 0xa2, 0x1e, 0xd6, 0xe3, 0xf2, 0x49, 0x06, 0xc7, 0x30,
  0xbf, 0x4c, 0x3f, 0xee, 0xa4, 0xda, 0xcc, 0x95, 0x9a, 0xf9, 0xa0, 0x3f,
  0xd2, 0x3c, 0x93, 0xf1, 0xcb, 0xc5, 0xce, 0xe1, 0x5f, 0xe4, 0x0a, 0xc4,
  0x68, 0x29, 0x45, 0x3b, 0xd8, 0x7f, 0xd7, 0x27, 0xb8, 0xcc, 0xaf, 0x26,
  0x5b, 0xaa, 0x28, 0x8f, 0x3d, 0x14, 0xf2, 0xc6, 0x1b, 0xc1, 0xc3, 0xe1,
  0x3b, 0x00, 0x22, 0x9e, 0xd9, 0x61, 0x46, 0x45, 0xff, 0x14, 0x8e, 0xe6,
  0x06, 0xe2, 0x28, 0x17, 0xeb, 0x2f, 0xb6, 0xab, 0x4a, 0xf6, 0x16, 0xaa,
  0x51, 0x39, 0xd2, 0x05, 0xa3, 0xd6, 0x39, 0x22, 0x07, 0x64, 0x16, 0xd6,
  0xeb, 0x3d, 0x47, 0x1f, 0x2e, 0x0f, 0x81, 0x3f, 0x2e, 0xd3, 0x24, 0x38,
  0x22, 0x4a, 0x30, 0x24, 0xcb, 0xbc, 0x00, 0x39, 0xa4, 0x57, 0x16, 0x2c,
  0xfa, 0x26, 0xdb, 0x99, 0x90, 0x0e, 0xb4, 0x1b, 0x3a, 0x50, 0x52, 0xbf,
  0x3c, 0xbe, 0xdc, 0x4c, 0xaf, 0x14, 0x65, 0xec, 0x4b, 0xbc, 0x02, 0xd2,
  0xf4, 0x08, 0x20, 0x89, 0x3d, 0x98, 0x1c, 0xfa, 0xef, 0xd6, 0xb3, 0xf3,
  0x4a, 0x46, 0xa8, 0x9f, 0x9c, 0xb2, 0x92, 0x7f, 0x1f, 0x4f, 0x90, 0x20,
  0x27, 0xdc, 0x36, 0xf3, 0xd5, 0xd3, 0xa7, 0x20, 0x74, 0x5a, 0xb4, 0x44,
  0x6f, 0xb1, 0xaa, 0xb7, 0xdf, 0xe6, 0xb7, 0xc4, 0x86, 0x5f, 0x13, 0x64,
  0xbb, 0x4f, 0x5c, 0x04, 0x78, 0x10, 0x4a, 0xc1, 0xeb, 0x0c, 0x6f, 0x2c,
  0xf7, 0xfd, 0xae, 0xae, 0x4c, 0x63, 0xe5, 0x60, 0x19, 0x08, 0x66, 0x1f,
  0xd8, 0xd7, 0x6d, 0x32, 0x2c, 0x3a, 0xec, 0xfa, 0x3f, 0x09, 0xb3, 0x77,
  0x28, 0xb6, 0x38, 0x0f, 0xd7, 0x4f, 0x9d, 0xda, 0x0e, 0x3a, 0xc2, 0xbf,
  0x07, 0x5a, 0xae, 0xa6, 0x3e, 0x0d, 0xe8, 0x92, 0x6a, 0x43, 0x38, 0xa3,
  0x52, 0x7f, 0x10, 0x56, 0x33, 0xcb, 0x05, 0x12, 0x5c, 0x16, 0xaa, 0x15,
  0x56, 0xc0, 0x8f, 0xfd, 0xa5, 0x5f, 0x85, 0xc3, 0x42, 0xc7, 0xd6, 0x41,
  0x7e, 0xed, 0x1e, 0xab, 0xc5, 0x33, 0x49, 0x0b, 0x9d, 0x31, 0x58, 0x12,
  0x52, 0x90, 0x9b, 0x9d, 0x53, 0xa2, 0xc1, 0x9d, 0x86, 0x63, 0x22, 0xad,
  0xea, 0xd3, 0x26, 0xf4, 0x08, 0x5a, 0xad, 0xab, 0x4f, 0x20, 0xf6, 0x0c,
  0x7f, 0xf9, 0x0a, 0xa4, 0xdb, 0xeb, 0xf2, 0xa5, 0x5c, 0x2e, 0x04, 0xff,
  0xaf, 0x2c, 0x03, 0xb9, 0xcb, 0xf6, 0x13, 0xc2, 0xd1, 0xf0, 0x1b, 0xe5,
  0xef, 0xdd, 0x0b, 0xee, 0x1c, 0xe1, 0x13, 0xe4, 0x04, 0x44, 0x98, 0xe0,
  0x3f, 0x03, 0x15, 0xa3, 0x9f, 0x40, 0x14, 0x04, 0xc2, 0x53, 0xba, 0x00,
  0x5a, 0x2a, 0x4b, 0xf5, 0xb4, 0xc4, 0xe9, 0xc5, 0xcc, 0x0f, 0xcc, 0xa4,
  0xf5, 0xdd, 0xf4, 0x99, 0xe4, 0xfb, 0xfb, 0x2f, 0x94, 0x24, 0xa2, 0xd1,
  0x2d, 0xd5, 0x07, 0x3c, 0xf2, 0xb9, 0xd9, 0x21, 0x00, 0x21, 0xb7, 0xcd,
  0xbd, 0xeb, 0xec, 0xf6, 0x9e, 0x50, 0x4d, 0x2e, 0xb3, 0x02, 0xd7, 0x18,
  0x45, 0x34, 0x20, 0xe7, 0x62, 0xc5, 0x83, 0x8b, 0xd5, 0xbe, 0x1c, 0xbf,
  0xab, 0xd6, 0xa0, 0x28, 0xf2, 0x31, 0x35, 0xbf, 0xd1, 0xce, 0x9b, 0x15,
  0x7f, 0x0a, 0x4a, 0x96, 0xc4, 0x12, 0xfe, 0xfe, 0x64, 0x4b, 0x5c, 0x07,
  0xba, 0xe8, 0x06, 0x4c, 0x8d, 0xd2, 0xb4, 0xd0, 0x8a, 0xc0, 0x83, 0xf1,
  0x66, 0x3d, 0x1d, 0x10, 0x0a, 0x13, 0xe8, 0xb1, 0x1e, 0xae, 0xc4, 0xf4,
  0x1a, 0x0a, 0xb0, 0x85, 0x50, 0x70, 0xcf, 0xde, 0xdc, 0x31, 0x41, 0x99,
  0x64, 0xa9, 0x83, 0xd7, 0x35, 0x26, 0x0b, 0x8b, 0xdc, 0x7a, 0x24, 0x12,
  0x1d, 0x2b, 0xe5, 0x4f, 0xdf, 0xd2, 0x75, 0x3c, 0x86, 0x26, 0x81, 0x97,
  0x4c, 0x2d, 0x81, 0x59, 0xc5, 0x3d, 0x2b, 0xc0, 0xe0, 0xae, 0xfd, 0x3b,
  0x41, 0xe5, 0xbf, 0x58, 0xe1, 0x12, 0x52, 0x3b, 0xd8, 0xcd, 0x5a, 0x04,
  0xf1, 0x32, 0xe7, 0xfa, 0xe4, 0x98, 0xd0, 0x0c, 0x28, 0xec, 0xb4, 0xc7,
  0x73, 0x36, 0xb8, 0xa5, 0x1a, 0x7f, 0xd7, 0x24, 0x9c, 0x48, 0x1c, 0xf0,
  0x64, 0xd2, 0xde, 0x0a, 0x00, 0x50, 0x90, 0x2a, 0xf4, 0xbc, 0x39, 0x27,
  0xd4, 0x28, 0x4c, 0x25, 0x4e, 0xe2, 0xaa, 0x8d, 0x27, 0x00, 0xb1, 0x9f,
  0x60, 0x96, 0xb9, 0x96, 0x3a, 0xb4, 0x04, 0xa1, 0x64, 0x23, 0x12, 0x8b,
  0x64, 0xa7, 0xca, 0x3f, 0xfc, 0x76, 0x5d, 0xbc, 0x09, 0xac, 0x6d, 0x36,
  0x4f, 0x36, 0xab, 0x15, 0xdd, 0x43, 0x4b, 0x0c, 0x64, 0xff, 0x4a, 0x6b,
  0x5e, 0xe1, 0x2f, 0x94, 0x04, 0xee, 0x70, 0x5a, 0x55, 0xef, 0x63, 0x91,
  0xe8, 0xd3, 0x03, 0xa0, 0xd2, 0x3a, 0x9c, 0xf3, 0x0e, 0x0c, 0xb5, 0x64,
  0x1b, 0x62, 0xb1, 0x0c, 0x13, 0x7f, 0xa8, 0xbb, 0x31, 0xd1, 0x24, 0x54,
  0x5b, 0xa6, 0xd5, 0xb3, 0x07, 0x54, 0x13, 0x5a, 0x06, 0x00, 0xac, 0x48,
  0xd8, 0x08, 0x3c, 0x11, 0x32, 0x0c, 0x08, 0x18, 0xb7, 0xff, 0x2f, 0xb8,
  0x1d, 0xf6, 0xbb, 0x3c, 0x23, 0x0a, 0x0d, 0xb7, 0x2e, 0x4c, 0xe9, 0x15,
  0xdb, 0xb2, 0x51, 0xbc, 0xda, 0x35, 0x7f, 0xee, 0xf3, 0x61, 0x08, 0x84,
  0xdb, 0x33, 0x52, 0xd5, 0x21, 0x2e, 0xb2, 0xf5, 0x86, 0xfd, 0xe1, 0x99,
  0x67, 0x42, 0xa3, 0x2c, 0xb9, 0x7d, 0x32, 0x2c, 0xbb, 0x78, 0xad, 0x39,
  0x4d, 0xb6, 0x0a, 0xce, 0xaa, 0xe2, 0x12, 0xeb, 0x57, 0xc4, 0x87, 0x31,
  0x52, 0x42, 0xa6, 0x44, 0x47, 0x2d, 0x9f, 0x2a, 0xb9, 0xde, 0xaf, 0x9c,
  0xdc, 0x7a, 0x88, 0x60, 0x4d, 0x46, 0xe4, 0x2a, 0xb1, 0xfe, 0x51, 0xde,
  0x2f, 0xb0, 0xd5, 0x10, 0xf3, 0x5a, 0xe8, 0x3a, 0x23, 0xe1, 0xb4, 0xee,
  0x53, 0x7f, 0x33, 0x32, 0x38, 0xe0, 0x96, 0xe7, 0x55, 0xf5, 0xd4, 0x5e,
  0x18, 0x3a, 0x92, 0x17, 0x18, 0x0f, 0x02, 0x8f, 0x33, 0x58, 0xae, 0xb0,
  0xbb, 0xdb, 0x06, 0xfc, 0x9a, 0xb9, 0x04, 0xae, 0x5a, 0x4e, 0x09, 0x4b,
  0xb1, 0xb1, 0x9c, 0xbe, 0x52, 0x5f, 0xab, 0xfd, 0xb2, 0x34, 0x5b, 0xd9,
  0xed, 0x53, 0x9c, 0x13, 0x64, 0x4c, 0xed, 0xa9, 0x31, 0xb3, 0x1a, 0xb6,
  0x1c, 0xe9, 0x92, 0xf5, 0x50, 0x11, 0xb8, 0x4c, 0xcf, 0xc1, 0x9b, 0x17,
  0xde, 0xe6, 0x47, 0xd3, 0x06, 0xc1, 0xe4, 0x44, 0x43, 0x75, 0xe8, 0x3a,
  0xc7, 0x1f, 0xea, 0x4c, 0xd3, 0x39, 0x06, 0x2d, 0x93, 0x77, 0xa9, 0x81,
  0x47, 0x06, 0x92, 0xbc, 0x77, 0x34, 0x2e, 0xed, 0x82, 0x6b, 0x47, 0xaa,
  0xc2, 0x45, 0xa6, 0xa0, 0x66, 0xfc, 0x42, 0x27, 0xc2, 0x57, 0x27, 0xc2,
  0xdf, 0xc5, 0x47, 0x91, 0xf1, 0xb7, 0xcf, 0x27, 0x54, 0x31, 0x07, 0x3d,
  0xbb, 0x32, 0x5b, 0xd7, 0x50, 0x7f, 0x7d, 0xb3, 0xe6, 0x42, 0x01, 0xe1,
  0xc9, 0x55, 0x19, 0x9c, 0x23, 0xda, 0xd3, 0xd3, 0x3d, 0xf4, 0xdb, 0xd3,
  0xd9, 0xc0, 0x93, 0x09, 0x28, 0x25, 0xca, 0xb4, 0xf3, 0x1b, 0x37, 0x2d,
  0x28, 0x08, 0x54, 0x51, 0xac, 0x0e, 0x14, 0xd6, 0xe6, 0xfb, 0x91, 0x35,
  0xaf, 0xbb, 0xec, 0x69, 0x38, 0x34, 0x2c, 0x4f, 0xd0, 0xde, 0x4a, 0xc2,
  0x01, 0x6e, 0x2e, 0x36, 0x6d, 0x15, 0x19, 0x4e, 0xfc, 0x2d, 0xf3, 0xe4,
  0x26, 0x55, 0x00, 0x05, 0x31, 0xe2, 0x0d, 0x43, 0xc3, 0x0f, 0x41, 0xde,
  0x75, 0xc0, 0xb1, 0x7f, 0x26, 0x56, 0x27, 0x29, 0xed, 0x1e, 0x76, 0x0a,
  0x09, 0x5b, 0x2b, 0xb8, 0xfd, 0x3b, 0x5b, 0x50, 0x37, 0xa1, 0x42, 0x23,
  0xcb, 0x94, 0xb9, 0x2a, 0xd8, 0xc2, 0xf2, 0x13, 0x61, 0x0e, 0xfa, 0x59,
  0x22, 0x8e, 0x57, 0xbc, 0xf2, 0xf4, 0x3d, 0x38, 0xad, 0xbd, 0x9a, 0x9c,
  0x2e, 0x50, 0x10, 0x95, 0x05, 0xc2, 0x1b, 0xdb, 0x0f, 0x53, 0xcc, 0xeb,
  0x49, 0x4c, 0xcd, 0x8b, 0x0c, 0x70, 0xd9, 0x4d, 0x81, 0x6e, 0xf3, 0xdf,
  0xc3, 0x38, 0xea, 0x4e, 0xdb, 0x42, 0x11, 0x04, 0x47, 0xf5, 0x47, 0xcb,
  0xbe, 0x0b, 0xe6, 0x2a, 0xf2, 0xc0, 0xf2, 0xf1, 0x92, 0x38, 0xe9, 0xcc,
  0x72, 0xfc, 0xe3, 0x88, 0x01, 0x96, 0x42, 0xdd, 0xcd, 0xc8, 0xe4, 0xac,
  0x5d, 0xae, 0x2a, 0xe4, 0xeb, 0xfe, 0x13, 0xf6, 0x24, 0x56, 0x23, 0xc2,
  0x70, 0x08, 0x44, 0xc5, 0x38, 0x0d, 0x0f, 0xb1, 0x64, 0x23, 0xee, 0xd0,
  0xa3, 0x4e, 0x81, 0xdc, 0xa4, 0x01, 0x1d, 0xf2, 0xc6, 0x70, 0xa1, 0xc4,
  0x57, 0xf6, 0x30, 0x4f, 0x00, 0xb2, 0x47, 0x51, 0x5e, 0xf6, 0xd0, 0x40,
  0xca, 0x12, 0x91, 0x37, 0x53, 0x2e, 0x94, 0xff, 0x0f, 0xb2, 0xda, 0x9c,
  0x14, 0x45, 0xf6, 0x98, 0x26, 0x1b, 0xec, 0xd3, 0x6c, 0xd0, 0x5e, 0xdd,
  0x50, 0x10, 0xed, 0x09, 0xdf, 0x46, 0x8d, 0xef, 0x53, 0xe9, 0xf7, 0xa1,
  0xe4, 0x42, 0x5c, 0xf4, 0x72, 0xf8, 0x5c, 0x81, 0x01, 0x4e, 0x99, 0xae,
  0xf5, 0x4b, 0xa0, 0xcb, 0xa3, 0x3f, 0xbf, 0xd3, 0x8e, 0xca, 0xed, 0x97,
  0xfe, 0x1a, 0x57, 0x93, 0xc9, 0x29, 0xf3, 0x47, 0xe1, 0x44, 0x7c, 0xb9,
  0xa4, 0x82, 0xbf, 0x62, 0xea, 0x43, 0x07, 0xde, 0xb4, 0x5b, 0xef, 0xff,
  0x75, 0xe6, 0xba, 0x17, 0xf7, 0x4d, 0x8b, 0xd5, 0xa3, 0x4b, 0x2a, 0x1d,
  0xd1, 0xf1, 0x00, 0xd4, 0xae, 0xd3, 0xc0, 0x50, 0x81, 0x4b, 0x90, 0xee,
  0x48, 0x19, 0x32, 0xb1, 0xfe, 0x39, 0x87, 0x3c, 0xd1, 0xad, 0x18, 0xf3,
  0xa2, 0xdd, 0xac, 0xe1, 0x2c, 0xb6, 0x1c, 0x25, 0x45, 0x23, 0x37, 0x81,
  0xb5, 0x2a, 0xe3, 0x3a, 0xa6, 0xa1, 0x2b, 0x5a, 0xe8, 0x7f, 0x3f, 0x2d,
  0x78, 0x49, 0x27, 0xff, 0x9c, 0xa0, 0x0c, 0xb3, 0x0f, 0x79, 0x5d, 0xab,
  0xcb, 0xf4, 0x04, 0x05, 0x12, 0xe7, 0x83, 0xe9, 0x25, 0x3a, 0x12, 0x91,
  0x6f, 0xe7, 0xb6, 0x29, 0xc0, 0xc0, 0xd3, 0xe7, 0xc7, 0x5d, 0xa9, 0x81,
  0x12, 0x9e, 0xf3, 0xfa, 0xce, 0x8c, 0xcc, 0x13, 0x62, 0x7f, 0xe8, 0x16,
  0xeb, 0x86, 0xa9, 0xfd, 0xb1, 0x4f, 0x20, 0x90, 0xce, 0x73, 0xe9, 0xc8,
  0xba, 0x3c, 0x4c, 0x3a, 0x64, 0x31, 0x06, 0x25, 0x7d, 0x35, 0x60, 0x2c,
  0x3c, 0x38, 0xd8, 0xee, 0x21, 0x95, 0xda, 0x4a, 0x26, 0xf9, 0x27, 0x16,
  0xce, 0x32, 0x28, 0xa1, 0x5c, 0x60, 0x51, 0x24, 0xef, 0xf6, 0xde, 0xbc,
  0xa7, 0x2f, 0xde, 0xc6, 0x86, 0xf7, 0xff, 0xff, 0x04, 0x00, 0x00, 0x00,
  0x18, 0x00, 0x00, 0x00, 0x4b, 0xee, 0x80, 0x7f, 0x5d, 0xa2, 0xcb, 0x1d,
  0x12, 0x8d, 0xdb, 0xf4, 0xbd, 0x35, 0xf7, 0x11, 0xfa, 0x5e, 0x27, 0xc4,
  0xff, 0xfd, 0xfe, 0xa8, 0xaa, 0xf7, 0xff, 0xff, 0x04, 0x00, 0x00, 0x00,
  0xc0, 0x06, 0x00, 0x00, 0x8b, 0xae, 0xe9, 0x36, 0xe8, 0xa0, 0xb9, 0xdf,
  0xca, 0x57, 0x50, 0xc3, 0xd7, 0x06, 0x1e, 0x16, 0x62, 0xc2, 0xc1, 0x3b,
  0x51, 0xb8, 0x12, 0x06, 0x5a, 0xdb, 0xc4, 0xa7, 0xfd, 0x3e, 0x52, 0xd2,
  0x27, 0x4d, 0xaf, 0xb5, 0x0e, 0xa8, 0x5b, 0xc3, 0x3e, 0x11, 0xbd, 0x83,
  0x31, 0x3b, 0x31, 0x1d, 0xd7, 0xbc, 0x65, 0x99, 0xd5, 0x50, 0x55, 0xa5,
  0xc4, 0xe8, 0x32, 0xc9, 0x30, 0x41, 0xf4, 0x81, 0x4f, 0x90, 0x0b, 0x33,
  0x5f, 0x1f, 0x41, 0xf4, 0x56, 0x44, 0x0c, 0x65, 0x9a, 0x64, 0xee, 0x31,
  0xc2, 0x06, 0x6a, 0x3f, 0xe3, 0x9e, 0xc3, 0xf6, 0x93, 0x10, 0x15, 0x9b,
  0x28, 0x48, 0x48, 0x3e, 0x53, 0xf2, 0xee, 0x18, 0xe1, 0xe0, 0x30, 0xc2,
  0x52, 0x0c, 0x01, 0xf5, 0x4d, 0x51, 0xbf, 0x24, 0x12, 0x3d, 0x00, 0x65,
  0xbc, 0xcb, 0x10, 0x17, 0xc3, 0xe5, 0x5a, 0x7f, 0x5d, 0xf4, 0xa5, 0xfc,
  0x35, 0x25, 0x23, 0xa2, 0x0f, 0x21, 0x51, 0x41, 0xdc, 0xad, 0xdd, 0xc4,
  0x44, 0xa2, 0xb9, 0xc2, 0xe0, 0xae, 0xe5, 0xa8, 0xa7, 0x31, 0x22, 0x29,
  0xbf, 0x65, 0xce, 0x25, 0x40, 0xd6, 0xf7, 0xfc, 0xfb, 0x1f, 0xbc, 0xd4,
  0x64, 0x48, 0x18, 0xba, 0xfd, 0x21, 0xd3, 0xe2, 0xe9, 0xb4, 0x32, 0x94,
  0x4b, 0x37, 0x0c, 0x0a, 0xe2, 0x43, 0x1d, 0x59, 0xd0, 0x9a, 0xd6, 0x8f,
  0x44, 0x59, 0x66, 0xbe, 0xfd, 0xdf, 0xe1, 0x4b, 0x8c, 0x2f, 0x02, 0x21,
  0x06, 0x4a, 0xaf, 0xf1, 0xf8, 0x27, 0x14, 0x19, 0xc4, 0xae, 0x81, 0x57,
  0xb7, 0x00, 0x77, 0xeb, 0x44, 0x46, 0x4e, 0xbc, 0xad, 0x33, 0x36, 0x0c,
  0x43, 0xf7, 0x21, 0x26, 0xab, 0xc2, 0xfe, 0xfe, 0xec, 0x81, 0x16, 0x36,
  0x20, 0x06, 0x11, 0xf0, 0xc3, 0xf2, 0xd8, 0x09, 0x8d, 0x10, 0xfc, 0xe5,
  0xd7, 0x2e, 0xe6, 0xfd, 0xe2, 0x16, 0xf1, 0x24, 0x11, 0x23, 0xa6, 0xcc,
  0xc6, 0xcb, 0xf2, 0xe2, 0x03, 0x15, 0xe5, 0x1e, 0x21, 0xa8, 0x89, 0xfd,
  0x13, 0xe8, 0x51, 0xe0, 0x9e, 0xf6, 0x33, 0xa5, 0xaa, 0xfd, 0xf8, 0xe0,
  0x42, 0x67, 0xb3, 0xe8, 0x0e, 0x9e, 0x25, 0xd6, 0x30, 0xa6, 0xe4, 0x33,
  0xc2, 0xf4, 0x6e, 0x5e, 0xc7, 0xf7, 0x4e, 0xb4, 0xc0, 0xb7, 0xe3, 0x5a,
  0xfd, 0x15, 0xb3, 0xdc, 0x99, 0x30, 0xfb, 0x9b, 0x91, 0xfc, 0x8d, 0xe6,
  0xf5, 0x10, 0xfd, 0x12, 0x56, 0xed, 0xcd, 0x24, 0x1e, 0x0f, 0xc4, 0xdd,
  0x35, 0xf7, 0x9d, 0xbd, 0xdf, 0x4d, 0xd6, 0xa8, 0xe1, 0x42, 0x58, 0xf1,
  0x4c, 0x32, 0x9a, 0xb9, 0x52, 0x81, 0x40, 0xdb, 0x5c, 0x8b, 0x4c, 0x2a,
  0x04, 0x24, 0x38, 0x3a, 0xe6, 0xc2, 0x3d, 0x6a, 0xec, 0x48, 0x08, 0x24,
  0xf7, 0xa6, 0x46, 0xa7, 0x96, 0x66, 0x74, 0x54, 0xb1, 0xbf, 0x59, 0x81,
  0xf5, 0xab, 0xe7, 0x3d, 0xcc, 0xa4, 0xd3, 0xd4, 0xad, 0x17, 0xc3, 0xb5,
  0xb6, 0xff, 0xd7, 0x0b, 0x8c, 0x4f, 0xd0, 0x2e, 0x87, 0x5a, 0x8d, 0x9a,
  0xad, 0xb5, 0x06, 0xc4, 0x3c, 0xd3, 0x86, 0x6b, 0xef, 0x27, 0x18, 0xd1,
  0x17, 0x8e, 0x0d, 0x06, 0x63, 0x05, 0x22, 0x63, 0x67, 0x3a, 0xac, 0x36,
  0x61, 0xa4, 0xc2, 0x8c, 0xd7, 0x62, 0x23, 0xff, 0xde, 0x10, 0x54, 0x4a,
  0xe3, 0xb8, 0xa8, 0xc1, 0xc9, 0xd6, 0x3c, 0x16, 0xea, 0x5d, 0xfd, 0xd6,
  0x2c, 0xf2, 0x2b, 0xd2, 0x3f, 0x57, 0x26, 0xb7, 0x15, 0xcd, 0x2a, 0xf1,
  0x30, 0x03, 0x06, 0xf4, 0xea, 0x33, 0xf3, 0x31, 0x4a, 0x37, 0xda, 0xcd,
  0xe2, 0x0b, 0x0a, 0x27, 0x00, 0xc6, 0x69, 0x7f, 0xfd, 0x08, 0x10, 0x37,
  0x09, 0x48, 0x1f, 0xe7, 0x3d, 0xfb, 0x52, 0x42, 0x3d, 0x0e, 0x04, 0x2b,
  0x33, 0xc8, 0x1c, 0x16, 0x09, 0xae, 0x8f, 0x87, 0x23, 0xc4, 0x28, 0xef,
  0x33, 0x30, 0xe4, 0x1f, 0xdf, 0x36, 0x81, 0x3e, 0xc7, 0x36, 0x26, 0x2e,
  0x0d, 0xbb, 0xde, 0x06, 0x0a, 0x07, 0x2c, 0x9f, 0xb9, 0xcd, 0x41, 0xbc,
  0xe9, 0x0d, 0x3c, 0x51, 0xbd, 0xb0, 0x24, 0x11, 0x59, 0x30, 0xfd, 0xab,
  0xff, 0xe6, 0xd8, 0xe5, 0x3c, 0xc5, 0x9a, 0x17, 0xb3, 0x12, 0x36, 0x97,
  0x3e, 0xa8, 0x42, 0x28, 0xd5, 0x36, 0xfa, 0x45, 0x68, 0x94, 0x35, 0x28,
  0xd5, 0xf3, 0xbf, 0x1f, 0x1f, 0x14, 0xe2, 0x15, 0xdb, 0x34, 0xe7, 0xdd,
  0xc3, 0x21, 0xb5, 0xfc, 0x24, 0x01, 0xbd, 0x5a, 0xa0, 0x22, 0xfc, 0xe7,
  0xfd, 0xbf, 0x57, 0x25, 0xf6, 0xbe, 0x30, 0xc3, 0x2d, 0xc4, 0xfd, 0xcf,
  0xa0, 0xd6, 0xb5, 0x3e, 0x0e, 0xc5, 0x4f, 0x81, 0x23, 0xe8, 0xb7, 0xe3,
  0x2b, 0x18, 0x34, 0x96, 0x11, 0x13, 0xe4, 0xcf, 0xb9, 0x0d, 0x21, 0xf9,
  0xaa, 0xce, 0x53, 0x03, 0xb7, 0xf6, 0xdc, 0x41, 0x37, 0x37, 0x91, 0x3c,
  0xd4, 0xfc, 0xed, 0xe3, 0xb1, 0xf3, 0x0e, 0x0b, 0x18, 0x12, 0x11, 0x1b,
  0x10, 0x06, 0xed, 0x29, 0xe0, 0xff, 0xda, 0xf2, 0xd5, 0x19, 0x00, 0x1b,
  0xdc, 0xf7, 0xff, 0x12, 0xa5, 0xfa, 0x09, 0xe3, 0x01, 0x1c, 0xfe, 0x25,
  0x16, 0xf5, 0x13, 0xf5, 0xfe, 0xdc, 0xe0, 0xea, 0x13, 0x2c, 0x25, 0x1e,
  0xf4, 0x0f, 0x1f, 0x20, 0xd5, 0x09, 0xff, 0x81, 0xe3, 0x05, 0xd0, 0xe5,
  0xeb, 0x13, 0xf6, 0xfb, 0xee, 0xdd, 0x28, 0x08, 0x0e, 0xcf, 0xce, 0x27,
  0xe7, 0xf7, 0xce, 0xdb, 0xd7, 0x08, 0x81, 0xa2, 0xa8, 0xbd, 0xbc, 0x03,
  0x35, 0x13, 0x46, 0x1f, 0xc7, 0x1b, 0x61, 0x04, 0x5c, 0xf5, 0xd8, 0xdd,
  0xfa, 0x5e, 0xf0, 0xf8, 0x06, 0xd1, 0x85, 0xb8, 0xd0, 0xf3, 0xa3, 0x20,
  0x46, 0xa0, 0xc5, 0xc1, 0xdd, 0xa3, 0x30, 0x3e, 0x04, 0x3f, 0xad, 0xe2,
  0xb7, 0xe3, 0xd5, 0xe6, 0x9e, 0xdb, 0xb9, 0x40, 0x48, 0xfe, 0xdf, 0x2c,
  0x3c, 0x20, 0xb7, 0x23, 0xaf, 0xb2, 0xb9, 0x10, 0x1e, 0x47, 0xea, 0xcc,
  0x37, 0x36, 0xf9, 0x0e, 0x35, 0x3e, 0x17, 0x33, 0xea, 0xe1, 0xe4, 0xcd,
  0x36, 0x48, 0x49, 0x24, 0x93, 0x25, 0xe0, 0xac, 0xc8, 0x3e, 0x2d, 0x03,
  0x9f, 0x2a, 0xc2, 0xab, 0x0b, 0xab, 0x88, 0xde, 0x48, 0xf3, 0x19, 0xad,
  0xd0, 0x29, 0xb9, 0xe9, 0x2b, 0x06, 0xb3, 0x2f, 0x12, 0xed, 0x11, 0x97,
  0x1b, 0xc2, 0xab, 0x15, 0xbc, 0x38, 0x83, 0xc3, 0x81, 0x3e, 0xa6, 0xe9,
  0x3d, 0x30, 0xce, 0x46, 0xe2, 0x20, 0xa7, 0x71, 0xfe, 0x51, 0x34, 0xe9,
  0xf0, 0xcc, 0x0f, 0x09, 0x8a, 0x21, 0x3a, 0xe5, 0xcb, 0x08, 0x4b, 0xd1,
  0xeb, 0xb0, 0xb0, 0xe4, 0xea, 0x38, 0x4d, 0x25, 0xae, 0x26, 0x91, 0xc9,
  0xbf, 0x12, 0x3a, 0x0f, 0xbd, 0x13, 0xb1, 0x37, 0x0c, 0x0b, 0xd9, 0xb8,
  0xb1, 0x20, 0xcb, 0x5e, 0xce, 0x50, 0x26, 0xf5, 0x78, 0xe9, 0xaf, 0xe4,
  0x5a, 0xcf, 0x22, 0x7f, 0x0a, 0x4f, 0xd5, 0xcb, 0xf6, 0xa0, 0x5c, 0x98,
  0x9d, 0xe4, 0x9b, 0xd3, 0x76, 0x5e, 0x05, 0x45, 0x0d, 0x2c, 0x63, 0x31,
  0xb3, 0x43, 0xa3, 0x22, 0x54, 0xff, 0xc9, 0x81, 0xaf, 0x36, 0xfb, 0xf2,
  0xe2, 0x42, 0xf5, 0xd9, 0x26, 0x09, 0x2a, 0xa3, 0x94, 0xbf, 0x77, 0xed,
  0x90, 0xc0, 0x63, 0x55, 0x1a, 0xc0, 0x6f, 0x17, 0xbe, 0xa7, 0x18, 0xe8,
  0x72, 0xba, 0x2c, 0x56, 0x47, 0xd3, 0xae, 0xe7, 0xb6, 0x15, 0xa6, 0x3f,
  0xb0, 0x02, 0x0f, 0x04, 0xcb, 0x5c, 0xcc, 0x8c, 0xcf, 0x6a, 0x81, 0xc7,
  0xa1, 0x21, 0xc9, 0xb3, 0x22, 0xbf, 0x7f, 0xd3, 0x4b, 0xc4, 0xa7, 0x4b,
  0xed, 0x4b, 0xd6, 0x1a, 0x95, 0xf3, 0x2d, 0xc3, 0xe0, 0x2d, 0x19, 0x59,
  0xaf, 0x0e, 0xd9, 0x79, 0xe3, 0x9f, 0xeb, 0x87, 0xe3, 0x1e, 0xb9, 0x35,
  0xc5, 0xa7, 0x65, 0xbf, 0xbd, 0x44, 0x4b, 0x81, 0x55, 0xb2, 0xba, 0x16,
  0xf6, 0x04, 0xba, 0x09, 0x46, 0x5f, 0x3c, 0x5a, 0xd9, 0xfe, 0xd0, 0xb6,
  0x40, 0x1d, 0x2c, 0x65, 0x00, 0x2b, 0xb0, 0x87, 0x6d, 0x10, 0xfe, 0x3e,
  0x19, 0xbe, 0x58, 0x5e, 0x5c, 0x0a, 0x47, 0xc6, 0x4e, 0xbd, 0x65, 0x62,
  0x56, 0x08, 0x5e, 0x25, 0xaf, 0xeb, 0xf8, 0xfc, 0xe3, 0x31, 0x01, 0xe3,
  0xd8, 0xf3, 0x1a, 0xf0, 0xfa, 0x12, 0xd0, 0xda, 0x25, 0x36, 0xd0, 0x1d,
  0x05, 0xdb, 0xe3, 0xf8, 0xb3, 0x33, 0x2e, 0xf0, 0xd6, 0x2e, 0xbc, 0xee,
  0x1b, 0x13, 0x12, 0x24, 0xfc, 0xed, 0xd5, 0xf9, 0xeb, 0x2e, 0x04, 0xe8,
  0xe3, 0x1d, 0x08, 0xe7, 0x9e, 0xfb, 0xed, 0x81, 0xff, 0x09, 0xca, 0x19,
  0x1f, 0xe6, 0x0c, 0x24, 0xd9, 0xd7, 0x16, 0xea, 0xf5, 0x29, 0x09, 0x15,
  0x1c, 0x14, 0x02, 0x05, 0x0d, 0x2f, 0x34, 0x83, 0xc2, 0xfb, 0x31, 0xbc,
  0xc1, 0x5d, 0x93, 0x6c, 0xdc, 0xb7, 0x3e, 0x55, 0xad, 0xfd, 0xd7, 0x37,
  0xc0, 0xc9, 0x28, 0xce, 0xde, 0xb0, 0xca, 0x70, 0x8a, 0x6c, 0x1b, 0x65,
  0xda, 0xad, 0xbb, 0xb9, 0x84, 0x4a, 0x01, 0xfb, 0x52, 0x0c, 0x1c, 0xed,
  0x0f, 0xc4, 0x69, 0x5e, 0xbf, 0x43, 0x34, 0xae, 0x81, 0xc3, 0x2e, 0x4b,
  0x2d, 0x08, 0x11, 0x21, 0x0d, 0x59, 0xec, 0x44, 0xe8, 0x94, 0xae, 0x18,
  0xe7, 0xcd, 0x01, 0xcf, 0x1c, 0x03, 0x25, 0xf2, 0x02, 0x2e, 0xce, 0xe6,
  0xdc, 0x27, 0x1f, 0x14, 0xe4, 0xe2, 0xdf, 0xce, 0x26, 0x04, 0x1f, 0x18,
  0xcc, 0x10, 0x04, 0xda, 0xd7, 0xf3, 0xf4, 0x08, 0x0d, 0x1d, 0xeb, 0x31,
  0xe8, 0x32, 0xfd, 0x2a, 0xe5, 0xd9, 0x1c, 0xca, 0x17, 0xf3, 0xd1, 0xfd,
  0x1d, 0xd2, 0x21, 0x24, 0xfa, 0xc4, 0x7f, 0x07, 0xff, 0xed, 0x1e, 0xce,
  0x0c, 0xf8, 0x03, 0x1a, 0xf7, 0xcb, 0xf2, 0xda, 0xe1, 0xfa, 0x05, 0xdb,
  0xd2, 0x13, 0xe5, 0xfe, 0x1b, 0x2e, 0x44, 0x9b, 0xb8, 0x81, 0x53, 0xe7,
  0xff, 0x5b, 0x24, 0x38, 0xca, 0x5d, 0x42, 0xc8, 0xbe, 0xbb, 0xf5, 0xe3,
  0x38, 0x5f, 0x2b, 0x14, 0xe4, 0xa9, 0xbd, 0x31, 0x15, 0x23, 0x05, 0xb2,
  0x25, 0x37, 0x25, 0x5b, 0xe0, 0xe5, 0x11, 0xda, 0xd4, 0x29, 0x8e, 0x4e,
  0xc5, 0xd9, 0xc2, 0x9a, 0xf7, 0x94, 0x99, 0x44, 0x89, 0x50, 0x30, 0x86,
  0x56, 0x54, 0x12, 0xf2, 0x3c, 0xba, 0xb4, 0x3e, 0xd6, 0xab, 0x15, 0x5c,
  0xaa, 0x5c, 0xb0, 0x50, 0xe6, 0x4d, 0x81, 0x15, 0x97, 0x49, 0xa0, 0x9e,
  0x5a, 0x9f, 0x55, 0xdf, 0x5d, 0xea, 0xb4, 0xa0, 0x2c, 0xf6, 0xa7, 0x09,
  0x2f, 0x6d, 0x02, 0xfe, 0xa2, 0xfe, 0x3d, 0xc7, 0xf9, 0x41, 0x22, 0xac,
  0x63, 0x58, 0x67, 0x22, 0x48, 0x88, 0xfe, 0x26, 0x2b, 0x3e, 0x92, 0x24,
  0x41, 0x67, 0x54, 0x03, 0xc2, 0xe2, 0x07, 0xdb, 0xa4, 0xca, 0x2a, 0xa5,
  0xbc, 0x1a, 0x36, 0xe6, 0x4e, 0xa0, 0x24, 0x5d, 0x5d, 0xed, 0x44, 0x14,
  0x4f, 0x1c, 0xa4, 0x0c, 0xb2, 0x0c, 0x33, 0x1b, 0xfb, 0xfe, 0x71, 0xdb,
  0x30, 0x69, 0xc9, 0x12, 0x1c, 0x07, 0x29, 0xcf, 0x5f, 0x44, 0xf9, 0xd9,
  0x6e, 0x6e, 0x71, 0xab, 0x91, 0xc7, 0xb3, 0x0c, 0x0f, 0x09, 0x6d, 0x2c,
  0x81, 0x12, 0x1e, 0xb4, 0x75, 0x4a, 0x4e, 0x35, 0x2d, 0x4d, 0x75, 0x9f,
  0x43, 0x25, 0xa2, 0xe2, 0xa7, 0xb9, 0xda, 0x1b, 0xca, 0xa3, 0xc5, 0x08,
  0xf4, 0x73, 0x0b, 0xb2, 0xa8, 0x13, 0x27, 0x34, 0x37, 0xc8, 0xf6, 0x62,
  0x58, 0x14, 0x1f, 0x50, 0x0f, 0xda, 0x41, 0x16, 0x08, 0xbe, 0x1d, 0x89,
  0xa7, 0xbb, 0xfd, 0x9e, 0x28, 0x09, 0xff, 0x3b, 0x52, 0x36, 0x46, 0x39,
  0x26, 0x3a, 0x11, 0x63, 0xe8, 0xf8, 0xe7, 0x11, 0xaa, 0xea, 0x61, 0xfa,
  0x34, 0x0a, 0x0d, 0x8e, 0x3e, 0x53, 0x3b, 0xf4, 0xb0, 0xa8, 0x36, 0xbd,
  0x5c, 0x48, 0x1e, 0x11, 0x3f, 0xbd, 0xb6, 0x09, 0xaf, 0xdc, 0x00, 0xfc,
  0x4b, 0xc4, 0xa7, 0xeb, 0xd4, 0x0a, 0xd0, 0x1c, 0xa5, 0xa6, 0x56, 0x92,
  0xab, 0xe4, 0x81, 0xf3, 0x18, 0x0b, 0x49, 0xbe, 0x30, 0x29, 0xa9, 0x92,
  0x2c, 0xa5, 0xdb, 0x00, 0x1b, 0x06, 0xbc, 0x1b, 0x1d, 0x5f, 0xcf, 0x46,
  0xc8, 0xb5, 0x7b, 0x9b, 0xf3, 0x87, 0x6d, 0xcf, 0xe9, 0x26, 0xfe, 0xd4,
  0x25, 0x47, 0xd7, 0xed, 0x61, 0xf0, 0x00, 0x6a, 0xd1, 0x1d, 0x9f, 0xb1,
  0x7f, 0x49, 0xc0, 0xb8, 0xf2, 0x25, 0x89, 0xb4, 0xcc, 0x8a, 0x41, 0x0f,
  0x52, 0xbf, 0xb5, 0xfc, 0xff, 0x15, 0xbd, 0x13, 0x21, 0x49, 0x1a, 0x63,
  0xf8, 0xfe, 0x6c, 0x1d, 0x01, 0x2b, 0xc5, 0x14, 0x22, 0x7f, 0x53, 0xef,
  0x20, 0x38, 0x8d, 0x4b, 0x2d, 0x2b, 0xf8, 0x36, 0xc0, 0xc4, 0xa4, 0x8d,
  0xea, 0x88, 0xfb, 0x1f, 0xf8, 0x66, 0x39, 0x2a, 0xc6, 0x14, 0xc2, 0x15,
  0x4a, 0xc9, 0x49, 0xf7, 0xe9, 0xed, 0x2b, 0xed, 0x51, 0xbd, 0x2a, 0x2b,
  0xa9, 0x24, 0xd4, 0x05, 0x3b, 0xe2, 0x12, 0x51, 0xed, 0xf1, 0x4b, 0x15,
  0xcf, 0x54, 0xc7, 0x5d, 0xbd, 0x21, 0xd4, 0xa6, 0x60, 0x02, 0x33, 0x36,
  0x2a, 0xbe, 0x8d, 0xaf, 0x76, 0xfe, 0xff, 0xff, 0x04, 0x00, 0x00, 0x00,
  0x18, 0x00, 0x00, 0x00, 0xb6, 0xe8, 0xaa, 0xac, 0xae, 0xc1, 0xe0, 0xc4,
  0x8d, 0x7f, 0x8b, 0xa6, 0xdf, 0x80, 0xda, 0xd0, 0xbc, 0xba, 0xb2, 0xb7,
  0xed, 0xd4, 0xe1, 0x9c, 0x9a, 0xfe, 0xff, 0xff, 0x04, 0x00, 0x00, 0x00,
  0x18, 0x00, 0x00, 0x00, 0xac, 0xfa, 0x55, 0xf2, 0xa8, 0xe8, 0xd0, 0x3f,
  0xe3, 0x04, 0xdc, 0xfb, 0x3c, 0x29, 0x2d, 0x23, 0x81, 0xca, 0x2d, 0xe5,
  0x3a, 0xc3, 0x3e, 0xa4, 0xbe, 0xfe, 0xff, 0xff, 0x04, 0x00, 0x00, 0x00,
  0x04, 0x00, 0x00, 0x00, 0x98, 0x03, 0x00, 0x00, 0xce, 0xfe, 0xff, 0xff,
  0x04, 0x00, 0x00, 0x00, 0x0c, 0x00, 0x00, 0x00, 0x01, 0x00, 0x00, 0x00,
  0x01, 0x00, 0x00, 0x00, 0x01, 0x00, 0x00, 0x00, 0xe6, 0xfe, 0xff, 0xff,
  0x04, 0x00, 0x00, 0x00, 0x0c, 0x00, 0x00, 0x00, 0x00, 0x00, 0x00, 0x00,
  0x00, 0x00, 0x00, 0x00, 0x00, 0x00, 0x00, 0x00, 0xfe, 0xfe, 0xff, 0xff,
  0x04, 0x00, 0x00, 0x00, 0x0c, 0x00, 0x00, 0x00, 0x00, 0x00, 0x00, 0x00,
  0xff, 0xff, 0xff, 0xff, 0x00, 0x00, 0x00, 0x00, 0x16, 0xff, 0xff, 0xff,
  0x04, 0x00, 0x00, 0x00, 0x0c, 0x00, 0x00, 0x00, 0xff, 0xff, 0xff, 0xff,
  0x06, 0x00, 0x00, 0x00, 0x18, 0x00, 0x00, 0x00, 0x2e, 0xff, 0xff, 0xff,
  0x04, 0x00, 0x00, 0x00, 0x04, 0x00, 0x00, 0x00, 0x04, 0x00, 0x00, 0x00,
  0x3e, 0xff, 0xff, 0xff, 0x04, 0x00, 0x00, 0x00, 0x18, 0x00, 0x00, 0x00,
  0x00, 0x00, 0x00, 0x00, 0x00, 0x00, 0x00, 0x00, 0x08, 0x00, 0x00, 0x00,
  0x00, 0x00, 0x00, 0x00, 0x00, 0x00, 0x00, 0x00, 0x00, 0x00, 0x00, 0x00,
  0x62, 0xff, 0xff, 0xff, 0x04, 0x00, 0x00, 0x00, 0x0c, 0x00, 0x00, 0x00,
  0xff, 0xff, 0xff, 0xff, 0x0c, 0x00, 0x00, 0x00, 0x18, 0x00, 0x00, 0x00,
  0x7a, 0xff, 0xff, 0xff, 0x04, 0x00, 0x00, 0x00, 0x08, 0x00, 0x00, 0x00,
  0x00, 0x00, 0x00, 0x00, 0x00, 0x00, 0x00, 0x00, 0x8e, 0xff, 0xff, 0xff,
  0x04, 0x00, 0x00, 0x00, 0x04, 0x00, 0x00, 0x00, 0x02, 0x00, 0x00, 0x00,
  0x9e, 0xff, 0xff, 0xff, 0x04, 0x00, 0x00, 0x00, 0x18, 0x00, 0x00, 0x00,
  0x00, 0x00, 0x00, 0x00, 0x00, 0x00, 0x00, 0x00, 0x04, 0x00, 0x00, 0x00,
  0x00, 0x00, 0x00, 0x00, 0x00, 0x00, 0x00, 0x00, 0x00, 0x00, 0x00, 0x00,
  0xc2, 0xff, 0xff, 0xff, 0x04, 0x00, 0x00, 0x00, 0x18, 0x00, 0x00, 0x00,
  0x00, 0x00, 0x00, 0x00, 0x00, 0x00, 0x00, 0x00, 0x02, 0x00, 0x00, 0x00,
  0x00, 0x00, 0x00, 0x00, 0x00, 0x00, 0x00, 0x00, 0x00, 0x00, 0x00, 0x00,
  0xe6, 0xff, 0xff, 0xff, 0x04, 0x00, 0x00, 0x00, 0x0c, 0x00, 0x00, 0x00,
  0xff, 0xff, 0xff, 0xff, 0x18, 0x00, 0x00, 0x00, 0x18, 0x00, 0x00, 0x00,
  0x00, 0x00, 0x06, 0x00, 0x08, 0x00, 0x04, 0x00, 0x06, 0x00, 0x00, 0x00,
  0x04, 0x00, 0x00, 0x00, 0x04, 0x00, 0x00, 0x00, 0xfd, 0xff, 0xff, 0xff,
  0xc8, 0xbe, 0xff, 0xff, 0xcc, 0xbe, 0xff, 0xff, 0x0f, 0x00, 0x00, 0x00,
  0x4d, 0x4c, 0x49, 0x52, 0x20, 0x43, 0x6f, 0x6e, 0x76, 0x65, 0x72, 0x74,
  0x65, 0x64, 0x2e, 0x00, 0x01, 0x00, 0x00, 0x00, 0x14, 0x00, 0x00, 0x00,
  0x00, 0x00, 0x0e, 0x00, 0x18, 0x00, 0x14, 0x00, 0x10, 0x00, 0x0c, 0x00,
  0x08, 0x00, 0x04, 0x00, 0x0e, 0x00, 0x00, 0x00, 0x14, 0x00, 0x00, 0x00,
  0x1c, 0x00, 0x00, 0x00, 0x70, 0x09, 0x00, 0x00, 0x74, 0x09, 0x00, 0x00,
  0x78, 0x09, 0x00, 0x00, 0x04, 0x00, 0x00, 0x00, 0x6d, 0x61, 0x69, 0x6e,
  0x00, 0x00, 0x00, 0x00, 0x2c, 0x00, 0x00, 0x00, 0x28, 0x09, 0x00, 0x00,
  0xcc, 0x08, 0x00, 0x00, 0x94, 0x08, 0x00, 0x00, 0x54, 0x08, 0x00, 0x00,
  0x14, 0x08, 0x00, 0x00, 0xc0, 0x07, 0x00, 0x00, 0x98, 0x07, 0x00, 0x00,
  0x64, 0x07, 0x00, 0x00, 0x34, 0x07, 0x00, 0x00, 0xec, 0x06, 0x00, 0x00,
  0xb8, 0x06, 0x00, 0x00, 0x90, 0x06, 0x00, 0x00, 0x5c, 0x06, 0x00, 0x00,
  0x30, 0x06, 0x00, 0x00, 0x00, 0x06, 0x00, 0x00, 0xb0, 0x05, 0x00, 0x00,
  0x88, 0x05, 0x00, 0x00, 0x5c, 0x05, 0x00, 0x00, 0x1c, 0x05, 0x00, 0x00,
  0xe8, 0x04, 0x00, 0x00, 0xbc, 0x04, 0x00, 0x00, 0x8c, 0x04, 0x00, 0x00,
  0x48, 0x04, 0x00, 0x00, 0x20, 0x04, 0x00, 0x00, 0xf4, 0x03, 0x00, 0x00,
  0xbc, 0x03, 0x00, 0x00, 0x88, 0x03, 0x00, 0x00, 0x54, 0x03, 0x00, 0x00,
  0x28, 0x03, 0x00, 0x00, 0xf8, 0x02, 0x00, 0x00, 0xb4, 0x02, 0x00, 0x00,
  0x8c, 0x02, 0x00, 0x00, 0x60, 0x02, 0x00, 0x00, 0x28, 0x02, 0x00, 0x00,
  0xf4, 0x01, 0x00, 0x00, 0xc8, 0x01, 0x00, 0x00, 0x98, 0x01, 0x00, 0x00,
  0x54, 0x01, 0x00, 0x00, 0x2c, 0x01, 0x00, 0x00, 0x00, 0x01, 0x00, 0x00,
  0xc8, 0x00, 0x00, 0x00, 0x94, 0x00, 0x00, 0x00, 0x3c, 0x00, 0x00, 0x00,
  0x04, 0x00, 0x00, 0x00, 0x5e, 0xf8, 0xff, 0xff, 0x14, 0x00, 0x00, 0x00,
  0x00, 0x00, 0x00, 0x08, 0x10, 0x00, 0x00, 0x00, 0x14, 0x00, 0x00, 0x00,
  0x08, 0x00, 0x00, 0x00, 0xec, 0xbf, 0xff, 0xff, 0x01, 0x00, 0x00, 0x00,
  0x4d, 0x00, 0x00, 0x00, 0x03, 0x00, 0x00, 0x00, 0x4c, 0x00, 0x00, 0x00,
  0x0f, 0x00, 0x00, 0x00, 0x0e, 0x00, 0x00, 0x00, 0x22, 0xf8, 0xff, 0xff,
  0x24, 0x00, 0x00, 0x00, 0x00, 0x00, 0x00, 0x20, 0x2c, 0x00, 0x00, 0x00,
  0x30, 0x00, 0x00, 0x00, 0x07, 0x00, 0x00, 0x00, 0x00, 0x00, 0x0e, 0x00,
  0x10, 0x00, 0x0c, 0x00, 0x08, 0x00, 0x00, 0x00, 0x00, 0x00, 0x04, 0x00,
  0x0e, 0x00, 0x00, 0x00, 0x02, 0x00, 0x00, 0x00, 0x05, 0x00, 0x00, 0x00,
  0x05, 0x00, 0x00, 0x00, 0x01, 0x00, 0x00, 0x00, 0x4c, 0x00, 0x00, 0x00,
  0x04, 0x00, 0x00, 0x00, 0x4b, 0x00, 0x00, 0x00, 0x0b, 0x00, 0x00, 0x00,
  0x0c, 0x00, 0x00, 0x00, 0x0d, 0x00, 0x00, 0x00, 0xe6, 0xf8, 0xff, 0xff,
  0x14, 0x00, 0x00, 0x00, 0x00, 0x00, 0x00, 0x0b, 0x10, 0x00, 0x00, 0x00,
  0x14, 0x00, 0x00, 0x00, 0x04, 0x00, 0x00, 0x00, 0x74, 0xc0, 0xff, 0xff,
  0x01, 0x00, 0x00, 0x00, 0x4b, 0x00, 0x00, 0x00, 0x02, 0x00, 0x00, 0x00,
  0x3c, 0x00, 0x00, 0x00, 0x4a, 0x00, 0x00, 0x00, 0x16, 0xf9, 0xff, 0xff,
  0x14, 0x00, 0x00, 0x00, 0x00, 0x00, 0x00, 0x0b, 0x14, 0x00, 0x00, 0x00,
  0x18, 0x00, 0x00, 0x00, 0x04, 0x00, 0x00, 0x00, 0x02, 0xfc, 0xff, 0xff,
  0x00, 0x00, 0x00, 0x01, 0x01, 0x00, 0x00, 0x00, 0x4a, 0x00, 0x00, 0x00,
  0x02, 0x00, 0x00, 0x00, 0x49, 0x00, 0x00, 0x00, 0x10, 0x00, 0x00, 0x00,
  0x0a, 0xf9, 0xff, 0xff, 0x0c, 0x00, 0x00, 0x00, 0x10, 0x00, 0x00, 0x00,
  0x06, 0x00, 0x00, 0x00, 0x01, 0x00, 0x00, 0x00, 0x49, 0x00, 0x00, 0x00,
  0x03, 0x00, 0x00, 0x00, 0x48, 0x00, 0x00, 0x00, 0x09, 0x00, 0x00, 0x00,
  0x06, 0x00, 0x00, 0x00, 0x32, 0xf9, 0xff, 0xff, 0x0c, 0x00, 0x00, 0x00,
  0x10, 0x00, 0x00, 0x00, 0x02, 0x00, 0x00, 0x00, 0x01, 0x00, 0x00, 0x00,
  0x48, 0x00, 0x00, 0x00, 0x02, 0x00, 0x00, 0x00, 0x47, 0x00, 0x00, 0x00,
  0x0a, 0x00, 0x00, 0x00, 0x96, 0xf9, 0xff, 0xff, 0x14, 0x00, 0x00, 0x00,
  0x00, 0x00, 0x00, 0x01, 0x1c, 0x00, 0x00, 0x00, 0x20, 0x00, 0x00, 0x00,
  0x01, 0x00, 0x00, 0x00, 0xfa, 0xfb, 0xff, 0xff, 0x01, 0x00, 0x00, 0x00,
  0x01, 0x00, 0x00, 0x00, 0x00, 0x00, 0x00, 0x01, 0x01, 0x00, 0x00, 0x00,
  0x47, 0x00, 0x00, 0x00, 0x03, 0x00, 0x00, 0x00, 0x46, 0x00, 0x00, 0x00,
  0x11, 0x00, 0x00, 0x00, 0x1a, 0x00, 0x00, 0x00, 0x0e, 0xf9, 0xff, 0xff,
  0x10, 0x00, 0x00, 0x00, 0x00, 0x00, 0x00, 0x34, 0x0c, 0x00, 0x00, 0x00,
  0x10, 0x00, 0x00, 0x00, 0x60, 0xc1, 0xff, 0xff, 0x01, 0x00, 0x00, 0x00,
  0x46, 0x00, 0x00, 0x00, 0x02, 0x00, 0x00, 0x00, 0x45, 0x00, 0x00, 0x00,
  0x01, 0x00, 0x00, 0x00, 0xc2, 0xf9, 0xff, 0xff, 0x0c, 0x00, 0x00, 0x00,
  0x10, 0x00, 0x00, 0x00, 0x05, 0x00, 0x00, 0x00, 0x01, 0x00, 0x00, 0x00,
  0x45, 0x00, 0x00, 0x00, 0x03, 0x00, 0x00, 0x00, 0x44, 0x00, 0x00, 0x00,
  0x09, 0x00, 0x00, 0x00, 0x06, 0x00, 0x00, 0x00, 0x2a, 0xfa, 0xff, 0xff,
  0x14, 0x00, 0x00, 0x00, 0x00, 0x00, 0x00, 0x16, 0x10, 0x00, 0x00, 0x00,
  0x14, 0x00, 0x00, 0x00, 0x03, 0x00, 0x00, 0x00, 0xb8, 0xc1, 0xff, 0xff,
  0x01, 0x00, 0x00, 0x00, 0x44, 0x00, 0x00, 0x00, 0x02, 0x00, 0x00, 0x00,
  0x43, 0x00, 0x00, 0x00, 0x08, 0x00, 0x00, 0x00, 0x5a, 0xfa, 0xff, 0xff,
  0x14, 0x00, 0x00, 0x00, 0x00, 0x00, 0x00, 0x0b, 0x14, 0x00, 0x00, 0x00,
  0x18, 0x00, 0x00, 0x00, 0x04, 0x00, 0x00, 0x00, 0x46, 0xfd, 0xff, 0xff,
  0x00, 0x00, 0x00, 0x01, 0x01, 0x00, 0x00, 0x00, 0x43, 0x00, 0x00, 0x00,
  0x02, 0x00, 0x00, 0x00, 0x42, 0x00, 0x00, 0x00, 0x12, 0x00, 0x00, 0x00,
  0x4e, 0xfa, 0xff, 0xff, 0x0c, 0x00, 0x00, 0x00, 0x10, 0x00, 0x00, 0x00,
  0x06, 0x00, 0x00, 0x00, 0x01, 0x00, 0x00, 0x00, 0x42, 0x00, 0x00, 0x00,
  0x03, 0x00, 0x00, 0x00, 0x41, 0x00, 0x00, 0x00, 0x09, 0x00, 0x00, 0x00,
  0x06, 0x00, 0x00, 0x00, 0x76, 0xfa, 0xff, 0xff, 0x0c, 0x00, 0x00, 0x00,
  0x10, 0x00, 0x00, 0x00, 0x02, 0x00, 0x00, 0x00, 0x01, 0x00, 0x00, 0x00,
  0x41, 0x00, 0x00, 0x00, 0x02, 0x00, 0x00, 0x00, 0x40, 0x00, 0x00, 0x00,
  0x0a, 0x00, 0x00, 0x00, 0xda, 0xfa, 0xff, 0xff, 0x14, 0x00, 0x00, 0x00,
  0x00, 0x00, 0x00, 0x01, 0x1c, 0x00, 0x00, 0x00, 0x20, 0x00, 0x00, 0x00,
  0x01, 0x00, 0x00, 0x00, 0x3e, 0xfd, 0xff, 0xff, 0x01, 0x00, 0x00, 0x00,
  0x01, 0x00, 0x00, 0x00, 0x00, 0x00, 0x00, 0x01, 0x01, 0x00, 0x00, 0x00,
  0x40, 0x00, 0x00, 0x00, 0x03, 0x00, 0x00, 0x00, 0x3f, 0x00, 0x00, 0x00,
  0x13, 0x00, 0x00, 0x00, 0x19, 0x00, 0x00, 0x00, 0x52, 0xfa, 0xff, 0xff,
  0x10, 0x00, 0x00, 0x00, 0x00, 0x00, 0x00, 0x34, 0x0c, 0x00, 0x00, 0x00,
  0x10, 0x00, 0x00, 0x00, 0xa4, 0xc2, 0xff, 0xff, 0x01, 0x00, 0x00, 0x00,
  0x3f, 0x00, 0x00, 0x00, 0x02, 0x00, 0x00, 0x00, 0x3e, 0x00, 0x00, 0x00,
  0x01, 0x00, 0x00, 0x00, 0x06, 0xfb, 0xff, 0xff, 0x0c, 0x00, 0x00, 0x00,
  0x10, 0x00, 0x00, 0x00, 0x05, 0x00, 0x00, 0x00, 0x01, 0x00, 0x00, 0x00,
  0x3e, 0x00, 0x00, 0x00, 0x03, 0x00, 0x00, 0x00, 0x3d, 0x00, 0x00, 0x00,
  0x09, 0x00, 0x00, 0x00, 0x06, 0x00, 0x00, 0x00, 0x6e, 0xfb, 0xff, 0xff,
  0x14, 0x00, 0x00, 0x00, 0x00, 0x00, 0x00, 0x16, 0x10, 0x00, 0x00, 0x00,
  0x14, 0x00, 0x00, 0x00, 0x03, 0x00, 0x00, 0x00, 0xfc, 0xc2, 0xff, 0xff,
  0x01, 0x00, 0x00, 0x00, 0x3d, 0x00, 0x00, 0x00, 0x02, 0x00, 0x00, 0x00,
  0x3c, 0x00, 0x00, 0x00, 0x08, 0x00, 0x00, 0x00, 0x9e, 0xfb, 0xff, 0xff,
  0x14, 0x00, 0x00, 0x00, 0x00, 0x00, 0x00, 0x0b, 0x10, 0x00, 0x00, 0x00,
  0x14, 0x00, 0x00, 0x00, 0x04, 0x00, 0x00, 0x00, 0x2c, 0xc3, 0xff, 0xff,
  0x01, 0x00, 0x00, 0x00, 0x3c, 0x00, 0x00, 0x00, 0x02, 0x00, 0x00, 0x00,
  0x2d, 0x00, 0x00, 0x00, 0x3b, 0x00, 0x00, 0x00, 0xce, 0xfb, 0xff, 0xff,
  0x14, 0x00, 0x00, 0x00, 0x00, 0x00, 0x00, 0x0b, 0x14, 0x00, 0x00, 0x00,
  0x18, 0x00, 0x00, 0x00, 0x04, 0x00, 0x00, 0x00, 0xba, 0xfe, 0xff, 0xff,
  0x00, 0x00, 0x00, 0x01, 0x01, 0x00, 0x00, 0x00, 0x3b, 0x00, 0x00, 0x00,
  0x02, 0x00, 0x00, 0x00, 0x3a, 0x00, 0x00, 0x00, 0x14, 0x00, 0x00, 0x00,
  0xc2, 0xfb, 0xff, 0xff, 0x0c, 0x00, 0x00, 0x00, 0x10, 0x00, 0x00, 0x00,
  0x06, 0x00, 0x00, 0x00, 0x01, 0x00, 0x00, 0x00, 0x3a, 0x00, 0x00, 0x00,
  0x03, 0x00, 0x00, 0x00, 0x39, 0x00, 0x00, 0x00, 0x05, 0x00, 0x00, 0x00,
  0x06, 0x00, 0x00, 0x00, 0xea, 0xfb, 0xff, 0xff, 0x0c, 0x00, 0x00, 0x00,
  0x10, 0x00, 0x00, 0x00, 0x02, 0x00, 0x00, 0x00, 0x01, 0x00, 0x00, 0x00,
  0x39, 0x00, 0x00, 0x00, 0x02, 0x00, 0x00, 0x00, 0x38, 0x00, 0x00, 0x00,
  0x07, 0x00, 0x00, 0x00, 0x4e, 0xfc, 0xff, 0xff, 0x14, 0x00, 0x00, 0x00,
  0x00, 0x00, 0x00, 0x01, 0x1c, 0x00, 0x00, 0x00, 0x20, 0x00, 0x00, 0x00,
  0x01, 0x00, 0x00, 0x00, 0xb2, 0xfe, 0xff, 0xff, 0x01, 0x00, 0x00, 0x00,
  0x01, 0x00, 0x00, 0x00, 0x00, 0x00, 0x00, 0x01, 0x01, 0x00, 0x00, 0x00,
  0x38, 0x00, 0x00, 0x00, 0x03, 0x00, 0x00, 0x00, 0x37, 0x00, 0x00, 0x00,
  0x15, 0x00, 0x00, 0x00, 0x18, 0x00, 0x00, 0x00, 0xc6, 0xfb, 0xff, 0xff,
  0x10, 0x00, 0x00, 0x00, 0x00, 0x00, 0x00, 0x34, 0x0c, 0x00, 0x00, 0x00,
  0x10, 0x00, 0x00, 0x00, 0x18, 0xc4, 0xff, 0xff, 0x01, 0x00, 0x00, 0x00,
  0x37, 0x00, 0x00, 0x00, 0x02, 0x00, 0x00, 0x00, 0x36, 0x00, 0x00, 0x00,
  0x01, 0x00, 0x00, 0x00, 0x7a, 0xfc, 0xff, 0xff, 0x0c, 0x00, 0x00, 0x00,
  0x10, 0x00, 0x00, 0x00, 0x05, 0x00, 0x00, 0x00, 0x01, 0x00, 0x00, 0x00,
  0x36, 0x00, 0x00, 0x00, 0x03, 0x00, 0x00, 0x00, 0x35, 0x00, 0x00, 0x00,
  0x05, 0x00, 0x00, 0x00, 0x06, 0x00, 0x00, 0x00, 0xe2, 0xfc, 0xff, 0xff,
  0x14, 0x00, 0x00, 0x00, 0x00, 0x00, 0x00, 0x16, 0x10, 0x00, 0x00, 0x00,
  0x14, 0x00, 0x00, 0x00, 0x03, 0x00, 0x00, 0x00, 0x70, 0xc4, 0xff, 0xff,
  0x01, 0x00, 0x00, 0x00, 0x35, 0x00, 0x00, 0x00, 0x02, 0x00, 0x00, 0x00,
  0x34, 0x00, 0x00, 0x00, 0x04, 0x00, 0x00, 0x00, 0xa2, 0xfc, 0xff, 0xff,
  0x1c, 0x00, 0x00, 0x00, 0x00, 0x00, 0x00, 0x0b, 0x1c, 0x00, 0x00, 0x00,
  0x20, 0x00, 0x00, 0x00, 0x04, 0x00, 0x00, 0x00, 0x00, 0x00, 0x06, 0x00,
  0x08, 0x00, 0x07, 0x00, 0x06, 0x00, 0x00, 0x00, 0x00, 0x00, 0x00, 0x01,
  0x01, 0x00, 0x00, 0x00, 0x34, 0x00, 0x00, 0x00, 0x02, 0x00, 0x00, 0x00,
  0x33, 0x00, 0x00, 0x00, 0x16, 0x00, 0x00, 0x00, 0x0e, 0xfd, 0xff, 0xff,
  0x0c, 0x00, 0x00, 0x00, 0x10, 0x00, 0x00, 0x00, 0x06, 0x00, 0x00, 0x00,
  0x01, 0x00, 0x00, 0x00, 0x33, 0x00, 0x00, 0x00, 0x03, 0x00, 0x00, 0x00,
  0x32, 0x00, 0x00, 0x00, 0x05, 0x00, 0x00, 0x00, 0x06, 0x00, 0x00, 0x00,
  0x36, 0xfd, 0xff, 0xff, 0x0c, 0x00, 0x00, 0x00, 0x10, 0x00, 0x00, 0x00,
  0x02, 0x00, 0x00, 0x00, 0x01, 0x00, 0x00, 0x00, 0x32, 0x00, 0x00, 0x00,
  0x02, 0x00, 0x00, 0x00, 0x31, 0x00, 0x00, 0x00, 0x07, 0x00, 0x00, 0x00,
  0x2a, 0xfd, 0xff, 0xff, 0x20, 0x00, 0x00, 0x00, 0x00, 0x00, 0x00, 0x01,
  0x28, 0x00, 0x00, 0x00, 0x2c, 0x00, 0x00, 0x00, 0x01, 0x00, 0x00, 0x00,
  0x00, 0x00, 0x0a, 0x00, 0x10, 0x00, 0x0f, 0x00, 0x08, 0x00, 0x04, 0x00,
  0x0a, 0x00, 0x00, 0x00, 0x01, 0x00, 0x00, 0x00, 0x01, 0x00, 0x00, 0x00,
  0x00, 0x00, 0x00, 0x01, 0x01, 0x00, 0x00, 0x00, 0x31, 0x00, 0x00, 0x00,
  0x03, 0x00, 0x00, 0x00, 0x30, 0x00, 0x00, 0x00, 0x1b, 0x00, 0x00, 0x00,
  0x17, 0x00, 0x00, 0x00, 0x1e, 0xfd, 0xff, 0xff, 0x10, 0x00, 0x00, 0x00,
  0x00, 0x00, 0x00, 0x34, 0x0c, 0x00, 0x00, 0x00, 0x10, 0x00, 0x00, 0x00,
  0x70, 0xc5, 0xff, 0xff, 0x01, 0x00, 0x00, 0x00, 0x30, 0x00, 0x00, 0x00,
  0x02, 0x00, 0x00, 0x00, 0x2f, 0x00, 0x00, 0x00, 0x01, 0x00, 0x00, 0x00,
  0xd2, 0xfd, 0xff, 0xff, 0x0c, 0x00, 0x00, 0x00, 0x10, 0x00, 0x00, 0x00,
  0x05, 0x00, 0x00, 0x00, 0x01, 0x00, 0x00, 0x00, 0x2f, 0x00, 0x00, 0x00,
  0x03, 0x00, 0x00, 0x00, 0x2e, 0x00, 0x00, 0x00, 0x05, 0x00, 0x00, 0x00,
  0x06, 0x00, 0x00, 0x00, 0x3a, 0xfe, 0xff, 0xff, 0x14, 0x00, 0x00, 0x00,
  0x00, 0x00, 0x00, 0x16, 0x10, 0x00, 0x00, 0x00, 0x14, 0x00, 0x00, 0x00,
  0x03, 0x00, 0x00, 0x00, 0xc8, 0xc5, 0xff, 0xff, 0x01, 0x00, 0x00, 0x00,
  0x2e, 0x00, 0x00, 0x00, 0x02, 0x00, 0x00, 0x00, 0x2d, 0x00, 0x00, 0x00,
  0x04, 0x00, 0x00, 0x00, 0x2a, 0xfe, 0xff, 0xff, 0x0c, 0x00, 0x00, 0x00,
  0x10, 0x00, 0x00, 0x00, 0x02, 0x00, 0x00, 0x00, 0x01, 0x00, 0x00, 0x00,
  0x2d, 0x00, 0x00, 0x00, 0x02, 0x00, 0x00, 0x00, 0x2c, 0x00, 0x00, 0x00,
  0x02, 0x00, 0x00, 0x00, 0x8e, 0xfe, 0xff, 0xff, 0x14, 0x00, 0x00, 0x00,
  0x00, 0x00, 0x00, 0x0b, 0x10, 0x00, 0x00, 0x00, 0x14, 0x00, 0x00, 0x00,
  0x04, 0x00, 0x00, 0x00, 0x1c, 0xc6, 0xff, 0xff, 0x01, 0x00, 0x00, 0x00,
  0x2c, 0x00, 0x00, 0x00, 0x02, 0x00, 0x00, 0x00, 0x23, 0x00, 0x00, 0x00,
  0x2b, 0x00, 0x00, 0x00, 0xbe, 0xfe, 0xff, 0xff, 0x14, 0x00, 0x00, 0x00,
  0x00, 0x00, 0x00, 0x01, 0x20, 0x00, 0x00, 0x00, 0x24, 0x00, 0x00, 0x00,
  0x01, 0x00, 0x00, 0x00, 0x3c, 0xff, 0xff, 0xff, 0x00, 0x00, 0x00, 0x01,
  0x01, 0x00, 0x00, 0x00, 0x01, 0x00, 0x00, 0x00, 0x00, 0x00, 0x00, 0x01,
  0x01, 0x00, 0x00, 0x00, 0x2b, 0x00, 0x00, 0x00, 0x03, 0x00, 0x00, 0x00,
  0x2a, 0x00, 0x00, 0x00, 0x1d, 0x00, 0x00, 0x00, 0x1c, 0x00, 0x00, 0x00,
  0x3a, 0xfe, 0xff, 0xff, 0x10, 0x00, 0x00, 0x00, 0x00, 0x00, 0x00, 0x34,
  0x0c, 0x00, 0x00, 0x00, 0x10, 0x00, 0x00, 0x00, 0x8c, 0xc6, 0xff, 0xff,
  0x01, 0x00, 0x00, 0x00, 0x2a, 0x00, 0x00, 0x00, 0x02, 0x00, 0x00, 0x00,
  0x29, 0x00, 0x00, 0x00, 0x01, 0x00, 0x00, 0x00, 0x2e, 0xff, 0xff, 0xff,
  0x14, 0x00, 0x00, 0x00, 0x00, 0x00, 0x00, 0x16, 0x10, 0x00, 0x00, 0x00,
  0x14, 0x00, 0x00, 0x00, 0x03, 0x00, 0x00, 0x00, 0xbc, 0xc6, 0xff, 0xff,
  0x01, 0x00, 0x00, 0x00, 0x29, 0x00, 0x00, 0x00, 0x02, 0x00, 0x00, 0x00,
  0x28, 0x00, 0x00, 0x00, 0x03, 0x00, 0x00, 0x00, 0x1e, 0xff, 0xff, 0xff,
  0x0c, 0x00, 0x00, 0x00, 0x10, 0x00, 0x00, 0x00, 0x02, 0x00, 0x00, 0x00,
  0x01, 0x00, 0x00, 0x00, 0x28, 0x00, 0x00, 0x00, 0x02, 0x00, 0x00, 0x00,
  0x27, 0x00, 0x00, 0x00, 0x02, 0x00, 0x00, 0x00, 0x82, 0xff, 0xff, 0xff,
  0x20, 0x00, 0x00, 0x00, 0x00, 0x00, 0x00, 0x01, 0x2c, 0x00, 0x00, 0x00,
  0x30, 0x00, 0x00, 0x00, 0x01, 0x00, 0x00, 0x00, 0x0c, 0x00, 0x14, 0x00,
  0x13, 0x00, 0x0c, 0x00, 0x08, 0x00, 0x07, 0x00, 0x0c, 0x00, 0x00, 0x00,
  0x00, 0x00, 0x00, 0x01, 0x01, 0x00, 0x00, 0x00, 0x01, 0x00, 0x00, 0x00,
  0x00, 0x00, 0x00, 0x01, 0x01, 0x00, 0x00, 0x00, 0x27, 0x00, 0x00, 0x00,
  0x03, 0x00, 0x00, 0x00, 0x26, 0x00, 0x00, 0x00, 0x1f, 0x00, 0x00, 0x00,
  0x1e, 0x00, 0x00, 0x00, 0x0a, 0xff, 0xff, 0xff, 0x10, 0x00, 0x00, 0x00,
  0x00, 0x00, 0x00, 0x34, 0x0c, 0x00, 0x00, 0x00, 0x10, 0x00, 0x00, 0x00,
  0x5c, 0xc7, 0xff, 0xff, 0x01, 0x00, 0x00, 0x00, 0x26, 0x00, 0x00, 0x00,
  0x02, 0x00, 0x00, 0x00, 0x25, 0x00, 0x00, 0x00, 0x01, 0x00, 0x00, 0x00,
  0x00, 0x00, 0x0e, 0x00, 0x18, 0x00, 0x14, 0x00, 0x10, 0x00, 0x0c, 0x00,
  0x0b, 0x00, 0x04, 0x00, 0x0e, 0x00, 0x00, 0x00, 0x14, 0x00, 0x00, 0x00,
  0x00, 0x00, 0x00, 0x16, 0x10, 0x00, 0x00, 0x00, 0x14, 0x00, 0x00, 0x00,
  0x03, 0x00, 0x00, 0x00, 0x9c, 0xc7, 0xff, 0xff, 0x01, 0x00, 0x00, 0x00,
  0x25, 0x00, 0x00, 0x00, 0x02, 0x00, 0x00, 0x00, 0x24, 0x00, 0x00, 0x00,
  0x03, 0x00, 0x00, 0x00, 0x00, 0x00, 0x0a, 0x00, 0x10, 0x00, 0x0c, 0x00,
  0x08, 0x00, 0x04, 0x00, 0x0a, 0x00, 0x00, 0x00, 0x0c, 0x00, 0x00, 0x00,
  0x10, 0x00, 0x00, 0x00, 0x02, 0x00, 0x00, 0x00, 0x01, 0x00, 0x00, 0x00,
  0x24, 0x00, 0x00, 0x00, 0x02, 0x00, 0x00, 0x00, 0x23, 0x00, 0x00, 0x00,
  0x02, 0x00, 0x00, 0x00, 0x00, 0x00, 0x0e, 0x00, 0x1a, 0x00, 0x14, 0x00,
  0x10, 0x00, 0x0c, 0x00, 0x0b, 0x00, 0x04, 0x00, 0x0e, 0x00, 0x00, 0x00,
  0x20, 0x00, 0x00, 0x00, 0x00, 0x00, 0x00, 0x01, 0x24, 0x00, 0x00, 0x00,
  0x28, 0x00, 0x00, 0x00, 0x01, 0x00, 0x00, 0x00, 0x00, 0x00, 0x0a, 0x00,
  0x0c, 0x00, 0x00, 0x00, 0x08, 0x00, 0x04, 0x00, 0x0a, 0x00, 0x00, 0x00,
  0x01, 0x00, 0x00, 0x00, 0x01, 0x00, 0x00, 0x00, 0x01, 0x00, 0x00, 0x00,
  0x23, 0x00, 0x00, 0x00, 0x03, 0x00, 0x00, 0x00, 0x22, 0x00, 0x00, 0x00,
  0x21, 0x00, 0x00, 0x00, 0x20, 0x00, 0x00, 0x00, 0x00, 0x00, 0x0e, 0x00,
  0x14, 0x00, 0x00, 0x00, 0x10, 0x00, 0x0c, 0x00, 0x0b, 0x00, 0x04, 0x00,
  0x0e, 0x00, 0x00, 0x00, 0x10, 0x00, 0x00, 0x00, 0x00, 0x00, 0x00, 0x34,
  0x0c, 0x00, 0x00, 0x00, 0x10, 0x00, 0x00, 0x00, 0x60, 0xc8, 0xff, 0xff,
  0x01, 0x00, 0x00, 0x00, 0x22, 0x00, 0x00, 0x00, 0x02, 0x00, 0x00, 0x00,
  0x00, 0x00, 0x00, 0x00, 0x01, 0x00, 0x00, 0x00, 0x01, 0x00, 0x00, 0x00,
  0x4d, 0x00, 0x00, 0x00, 0x01, 0x00, 0x00, 0x00, 0x00, 0x00, 0x00, 0x00,
  0x4e, 0x00, 0x00, 0x00, 0xc0, 0x37, 0x00, 0x00, 0x54, 0x37, 0x00, 0x00,
  0xec, 0x36, 0x00, 0x00, 0x9c, 0x36, 0x00, 0x00, 0x4c, 0x36, 0x00, 0x00,
  0xe8, 0x35, 0x00, 0x00, 0x88, 0x35, 0x00, 0x00, 0x38, 0x35, 0x00, 0x00,
  0xe8, 0x34, 0x00, 0x00, 0x84, 0x34, 0x00, 0x00, 0x34, 0x34, 0x00, 0x00,
  0xe0, 0x33, 0x00, 0x00, 0x8c, 0x33, 0x00, 0x00, 0x38, 0x33, 0x00, 0x00,
  0xc8, 0x32, 0x00, 0x00, 0x64, 0x32, 0x00, 0x00, 0xf0, 0x31, 0x00, 0x00,
  0x6c, 0x30, 0x00, 0x00, 0xf8, 0x2f, 0x00, 0x00, 0x74, 0x2e, 0x00, 0x00,
  0x00, 0x2e, 0x00, 0x00, 0x7c, 0x2c, 0x00, 0x00, 0x08, 0x2c, 0x00, 0x00,
  0x8c, 0x2a, 0x00, 0x00, 0x10, 0x29, 0x00, 0x00, 0x94, 0x27, 0x00, 0x00,
  0x18, 0x26, 0x00, 0x00, 0x94, 0x24, 0x00, 0x00, 0x08, 0x23, 0x00, 0x00,
  0x84, 0x21, 0x00, 0x00, 0xf8, 0x1f, 0x00, 0x00, 0x74, 0x1e, 0x00, 0x00,
  0xf0, 0x1c, 0x00, 0x00, 0x6c, 0x1b, 0x00, 0x00, 0xd8, 0x1a, 0x00, 0x00,
  0xe4, 0x19, 0x00, 0x00, 0x24, 0x19, 0x00, 0x00, 0xa8, 0x18, 0x00, 0x00,
  0x10, 0x18, 0x00, 0x00, 0x04, 0x17, 0x00, 0x00, 0x2c, 0x16, 0x00, 0x00,
  0xb0, 0x15, 0x00, 0x00, 0x18, 0x15, 0x00, 0x00, 0x0c, 0x14, 0x00, 0x00,
  0xc8, 0x12, 0x00, 0x00, 0x88, 0x11, 0x00, 0x00, 0x0c, 0x11, 0x00, 0x00,
  0x78, 0x10, 0x00, 0x00, 0xe0, 0x0f, 0x00, 0x00, 0x54, 0x0f, 0x00, 0x00,
  0xcc, 0x0e, 0x00, 0x00, 0x38, 0x0e, 0x00, 0x00, 0xa4, 0x0d, 0x00, 0x00,
  0x28, 0x0d, 0x00, 0x00, 0x94, 0x0c, 0x00, 0x00, 0xfc, 0x0b, 0x00, 0x00,
  0x70, 0x0b, 0x00, 0x00, 0xe8, 0x0a, 0x00, 0x00, 0x54, 0x0a, 0x00, 0x00,
  0xc0, 0x09, 0x00, 0x00, 0x44, 0x09, 0x00, 0x00, 0xc8, 0x08, 0x00, 0x00,
  0x34, 0x08, 0x00, 0x00, 0x9c, 0x07, 0x00, 0x00, 0x10, 0x07, 0x00, 0x00,
  0x88, 0x06, 0x00, 0x00, 0xf4, 0x05, 0x00, 0x00, 0x60, 0x05, 0x00, 0x00,
  0xe4, 0x04, 0x00, 0x00, 0x50, 0x04, 0x00, 0x00, 0xb8, 0x03, 0x00, 0x00,
  0x2c, 0x03, 0x00, 0x00, 0xa4, 0x02, 0x00, 0x00, 0x10, 0x02, 0x00, 0x00,
  0x7c, 0x01, 0x00, 0x00, 0x00, 0x01, 0x00, 0x00, 0x80, 0x00, 0x00, 0x00,
  0x04, 0x00, 0x00, 0x00, 0x8e, 0xc9, 0xff, 0xff, 0x00, 0x00, 0x00, 0x01,
  0x18, 0x00, 0x00, 0x00, 0x20, 0x00, 0x00, 0x00, 0x3c, 0x00, 0x00, 0x00,
  0x4e, 0x00, 0x00, 0x00, 0x00, 0x00, 0x00, 0x09, 0x50, 0x00, 0x00, 0x00,
  0x02, 0x00, 0x00, 0x00, 0xff, 0xff, 0xff, 0xff, 0x01, 0x00, 0x00, 0x00,
  0x74, 0xc9, 0xff, 0xff, 0x08, 0x00, 0x00, 0x00, 0x10, 0x00, 0x00, 0x00,
  0x01, 0x00, 0x00, 0x00, 0x80, 0xff, 0xff, 0xff, 0xff, 0xff, 0xff, 0xff,
  0x01, 0x00, 0x00, 0x00, 0x16, 0x32, 0x5a, 0x3b, 0x19, 0x00, 0x00, 0x00,
  0x53, 0x74, 0x61, 0x74, 0x65, 0x66, 0x75, 0x6c, 0x50, 0x61, 0x72, 0x74,
  0x69, 0x74, 0x69, 0x6f, 0x6e, 0x65, 0x64, 0x43, 0x61, 0x6c, 0x6c, 0x3a,
  0x30, 0x00, 0x00, 0x00, 0x02, 0x00, 0x00, 0x00, 0x01, 0x00, 0x00, 0x00,
  0x01, 0x00, 0x00, 0x00, 0x06, 0xca, 0xff, 0xff, 0x00, 0x00, 0x00, 0x01,
  0x18, 0x00, 0x00, 0x00, 0x20, 0x00, 0x00, 0x00, 0x40, 0x00, 0x00, 0x00,
  0x4d, 0x00, 0x00, 0x00, 0x00, 0x00, 0x00, 0x09, 0x54, 0x00, 0x00, 0x00,
  0x02, 0x00, 0x00, 0x00, 0xff, 0xff, 0xff, 0xff, 0x18, 0x00, 0x00, 0x00,
  0xec, 0xc9, 0xff, 0xff, 0x08, 0x00, 0x00, 0x00, 0x14, 0x00, 0x00, 0x00,
  0x01, 0x00, 0x00, 0x00, 0x10, 0x00, 0x00, 0x00, 0x00, 0x00, 0x00, 0x00,
  0x00, 0x00, 0x00, 0x00, 0x01, 0x00, 0x00, 0x00, 0x33, 0x67, 0xcf, 0x3b,
  0x1a, 0x00, 0x00, 0x00, 0x6d, 0x6f, 0x64, 0x65, 0x6c, 0x2f, 0x6c, 0x61,
  0x6d, 0x62, 0x64, 0x61, 0x2f, 0x73, 0x74, 0x72, 0x69, 0x64, 0x65, 0x64,
  0x5f, 0x73, 0x6c, 0x69, 0x63, 0x65, 0x00, 0x00, 0x02, 0x00, 0x00, 0x00,
  0x01, 0x00, 0x00, 0x00, 0x18, 0x00, 0x00, 0x00, 0x82, 0xca, 0xff, 0xff,
  0x00, 0x00, 0x00, 0x01, 0x18, 0x00, 0x00, 0x00, 0x24, 0x00, 0x00, 0x00,
  0x44, 0x00, 0x00, 0x00, 0x4c, 0x00, 0x00, 0x00, 0x00, 0x00, 0x00, 0x09,
  0x4c, 0x00, 0x00, 0x00, 0x03, 0x00, 0x00, 0x00, 0xff, 0xff, 0xff, 0xff,
  0x18, 0x00, 0x00, 0x00, 0x18, 0x00, 0x00, 0x00, 0x6c, 0xca, 0xff, 0xff,
  0x08, 0x00, 0x00, 0x00, 0x14, 0x00, 0x00, 0x00, 0x01, 0x00, 0x00, 0x00,
  0x10, 0x00, 0x00, 0x00, 0x00, 0x00, 0x00, 0x00, 0x00, 0x00, 0x00, 0x00,
  0x01, 0x00, 0x00, 0x00, 0x33, 0x67, 0xcf, 0x3b, 0x0f, 0x00, 0x00, 0x00,
  0x6d, 0x6f, 0x64, 0x65, 0x6c, 0x2f, 0x61, 0x64, 0x64, 0x5f, 0x32, 0x2f,
  0x61, 0x64, 0x64, 0x00, 0x03, 0x00, 0x00, 0x00, 0x01, 0x00, 0x00, 0x00,
  0x18, 0x00, 0x00, 0x00, 0x18, 0x00, 0x00, 0x00, 0xfa, 0xca, 0xff, 0xff,
  0x00, 0x00, 0x00, 0x01, 0x18, 0x00, 0x00, 0x00, 0x24, 0x00, 0x00, 0x00,
  0x40, 0x00, 0x00, 0x00, 0x4b, 0x00, 0x00, 0x00, 0x00, 0x00, 0x00, 0x09,
  0x64, 0x00, 0x00, 0x00, 0x03, 0x00, 0x00, 0x00, 0xff, 0xff, 0xff, 0xff,
  0x18, 0x00, 0x00, 0x00, 0x18, 0x00, 0x00, 0x00, 0xe4, 0xca, 0xff, 0xff,
  0x08, 0x00, 0x00, 0x00, 0x10, 0x00, 0x00, 0x00, 0x01, 0x00, 0x00, 0x00,
  0x10, 0x00, 0x00, 0x00, 0x00, 0x00, 0x00, 0x00, 0x01, 0x00, 0x00, 0x00,
  0x33, 0x67, 0xcf, 0x3b, 0x2a, 0x00, 0x00, 0x00, 0x6d, 0x6f, 0x64, 0x65,
  0x6c, 0x2f, 0x63, 0x6f, 0x6e, 0x76, 0x31, 0x64, 0x5f, 0x36, 0x2f, 0x52,
  0x65, 0x6c, 0x75, 0x3b, 0x6d, 0x6f, 0x64, 0x65, 0x6c, 0x2f, 0x63, 0x6f,
  0x6e, 0x76, 0x31, 0x64, 0x5f, 0x36, 0x2f, 0x42, 0x69, 0x61, 0x73, 0x41,
  0x64, 0x64, 0x00, 0x00, 0x03, 0x00, 0x00, 0x00, 0x01, 0x00, 0x00, 0x00,
  0x18, 0x00, 0x00, 0x00, 0x18, 0x00, 0x00, 0x00, 0x8a, 0xcb, 0xff, 0xff,
  0x00, 0x00, 0x00, 0x01, 0x18, 0x00, 0x00, 0x00, 0x24, 0x00, 0x00, 0x00,
  0x44, 0x00, 0x00, 0x00, 0x4a, 0x00, 0x00, 0x00, 0x00, 0x00, 0x00, 0x09,
  0x64, 0x00, 0x00, 0x00, 0x03, 0x00, 0x00, 0x00, 0xff, 0xff, 0xff, 0xff,
  0x18, 0x00, 0x00, 0x00, 0x18, 0x00, 0x00, 0x00, 0x74, 0xcb, 0xff, 0xff,
  0x08, 0x00, 0x00, 0x00, 0x14, 0x00, 0x00, 0x00, 0x01, 0x00, 0x00, 0x00,
  0x03, 0x00, 0x00, 0x00, 0x00, 0x00, 0x00, 0x00, 0x00, 0x00, 0x00, 0x00,
  0x01, 0x00, 0x00, 0x00, 0xf5, 0x42, 0x1e, 0x3a, 0x24, 0x00, 0x00, 0x00,
  0x6d, 0x6f, 0x64, 0x65, 0x6c, 0x2f, 0x63, 0x6f, 0x6e, 0x76, 0x31, 0x64,
  0x5f, 0x36, 0x2f, 0x43, 0x6f, 0x6e, 0x76, 0x31, 0x44, 0x2f, 0x42, 0x61,
  0x74, 0x63, 0x68, 0x54, 0x6f, 0x53, 0x70, 0x61, 0x63, 0x65, 0x4e, 0x44,
  0x00, 0x00, 0x00, 0x00, 0x03, 0x00, 0x00, 0x00, 0x01, 0x00, 0x00, 0x00,
  0x18, 0x00, 0x00, 0x00, 0x18, 0x00, 0x00, 0x00, 0x1a, 0xcc, 0xff, 0xff,
  0x00, 0x00, 0x00, 0x01, 0x18, 0x00, 0x00, 0x00, 0x24, 0x00, 0x00, 0x00,
  0x40, 0x00, 0x00, 0x00, 0x49, 0x00, 0x00, 0x00, 0x00, 0x00, 0x00, 0x09,
  0x58, 0x00, 0x00, 0x00, 0x03, 0x00, 0x00, 0x00, 0xff, 0xff, 0xff, 0xff,
  0x06, 0x00, 0x00, 0x00, 0x18, 0x00, 0x00, 0x00, 0x04, 0xcc, 0xff, 0xff,
  0x08, 0x00, 0x00, 0x00, 0x10, 0x00, 0x00, 0x00, 0x01, 0x00, 0x00, 0x00,
  0x03, 0x00, 0x00, 0x00, 0x00, 0x00, 0x00, 0x00, 0x01, 0x00, 0x00, 0x00,
  0xf5, 0x42, 0x1e, 0x3a, 0x1e, 0x00, 0x00, 0x00, 0x6d, 0x6f, 0x64, 0x65,
  0x6c, 0x2f, 0x63, 0x6f, 0x6e, 0x76, 0x31, 0x64, 0x5f, 0x36, 0x2f, 0x43,
  0x6f, 0x6e, 0x76, 0x31, 0x44, 0x2f, 0x53, 0x71, 0x75, 0x65, 0x65, 0x7a,
  0x65, 0x31, 0x00, 0x00, 0x03, 0x00, 0x00, 0x00, 0x01, 0x00, 0x00, 0x00,
  0x06, 0x00, 0x00, 0x00, 0x18, 0x00, 0x00, 0x00, 0x9e, 0xcc, 0xff, 0xff,
  0x00, 0x00, 0x00, 0x01, 0x18, 0x00, 0x00, 0x00, 0x28, 0x00, 0x00, 0x00,
  0x48, 0x00, 0x00, 0x00, 0x48, 0x00, 0x00, 0x00, 0x00, 0x00, 0x00, 0x09,
  0x58, 0x00, 0x00, 0x00, 0x04, 0x00, 0x00, 0x00, 0xff, 0xff, 0xff, 0xff,
  0x01, 0x00, 0x00, 0x00, 0x06, 0x00, 0x00, 0x00, 0x18, 0x00, 0x00, 0x00,
  0x8c, 0xcc, 0xff, 0xff, 0x08, 0x00, 0x00, 0x00, 0x14, 0x00, 0x00, 0x00,
  0x01, 0x00, 0x00, 0x00, 0x03, 0x00, 0x00, 0x00, 0x00, 0x00, 0x00, 0x00,
