const unsigned char g_tcn_model_data[] __attribute__((aligned(16))) = {
  0x20, 0x00, 0x00, 0x00, 0x54, 0x46, 0x4c, 0x33, 0x00, 0x00, 0x00, 0x00,
  0x14, 0x00, 0x20, 0x00, 0x1c, 0x00, 0x18, 0x00, 0x14, 0x00, 0x10, 0x00,
  0x0c, 0x00, 0x00, 0x00, 0x08, 0x00, 0x04, 0x00, 0x14, 0x00, 0x00, 0x00,
  0x1c, 0x00, 0x00, 0x00, 0x80, 0x00, 0x00, 0x00, 0xd8, 0x00, 0x00, 0x00,
  0xc8, 0x30, 0x00, 0x00, 0xd8, 0x30, 0x00, 0x00, 0xbc, 0x72, 0x00, 0x00,
  0x03, 0x00, 0x00, 0x00, 0x01, 0x00, 0x00, 0x00, 0x04, 0x00, 0x00, 0x00,
  0x7a, 0xc6, 0xff, 0xff, 0x0c, 0x00, 0x00, 0x00, 0x1c, 0x00, 0x00, 0x00,
  0x38, 0x00, 0x00, 0x00, 0x0f, 0x00, 0x00, 0x00, 0x73, 0x65, 0x72, 0x76,
  0x69, 0x6e, 0x67, 0x5f, 0x64, 0x65, 0x66, 0x61, 0x75, 0x6c, 0x74, 0x00,
  0x01, 0x00, 0x00, 0x00, 0x04, 0x00, 0x00, 0x00, 0x9c, 0xff, 0xff, 0xff,
  0x4d, 0x00, 0x00, 0x00, 0x04, 0x00, 0x00, 0x00, 0x05, 0x00, 0x00, 0x00,
  0x64, 0x65, 0x6e, 0x73, 0x65, 0x00, 0x00, 0x00, 0x01, 0x00, 0x00, 0x00,
  0x04, 0x00, 0x00, 0x00, 0xba, 0xcf, 0xff, 0xff, 0x04, 0x00, 0x00, 0x00,
  0x07, 0x00, 0x00, 0x00, 0x69, 0x6e, 0x70, 0x75, 0x74, 0x5f, 0x31, 0x00,
  0x02, 0x00, 0x00, 0x00, 0x34, 0x00, 0x00, 0x00, 0x04, 0x00, 0x00, 0x00,
  0xdc, 0xff, 0xff, 0xff, 0x50, 0x00, 0x00, 0x00, 0x04, 0x00, 0x00, 0x00,
  0x13, 0x00, 0x00, 0x00, 0x43, 0x4f, 0x4e, 0x56, 0x45, 0x52, 0x53, 0x49,
  0x4f, 0x4e, 0x5f, 0x4d, 0x45, 0x54, 0x41, 0x44, 0x41, 0x54, 0x41, 0x00,
  0x08, 0x00, 0x0c, 0x00, 0x08, 0x00, 0x04, 0x00, 0x08, 0x00, 0x00, 0x00,
  0x4f, 0x00, 0x00, 0x00, 0x04, 0x00, 0x00, 0x00, 0x13, 0x00, 0x00, 0x00,
  0x6d, 0x69, 0x6e, 0x5f, 0x72, 0x75, 0x6e, 0x74, 0x69, 0x6d, 0x65, 0x5f,
  0x76, 0x65, 0x72, 0x73, 0x69, 0x6f, 0x6e, 0x00, 0x51, 0x00, 0x00, 0x00,
  0xec, 0x2f, 0x00, 0x00, 0xe4, 0x2f, 0x00, 0x00, 0xd0, 0x2f, 0x00, 0x00,
  0xac, 0x2f, 0x00, 0x00, 0x84, 0x2f, 0x00, 0x00, 0x5c, 0x2f, 0x00, 0x00,
  0x48, 0x2f, 0x00, 0x00, 0x30, 0x2f, 0x00, 0x00, 0x14, 0x2f, 0x00, 0x00,
  0xec, 0x2e, 0x00, 0x00, 0xd8, 0x2e, 0x00, 0x00, 0xbc, 0x2e, 0x00, 0x00,
  0xa0, 0x2e, 0x00, 0x00, 0x84, 0x2e, 0x00, 0x00, 0x68, 0x2e, 0x00, 0x00,
  0x54, 0x2e, 0x00, 0x00, 0x2c, 0x2e, 0x00, 0x00, 0x04, 0x2e, 0x00, 0x00,
  0x34, 0x27, 0x00, 0x00, 0x0c, 0x27, 0x00, 0x00, 0x3c, 0x20, 0x00, 0x00,
  0x14, 0x20, 0x00, 0x00, 0x44, 0x19, 0x00, 0x00, 0x1c, 0x19, 0x00, 0x00,
  0xac, 0x18, 0x00, 0x00, 0xa4, 0x18, 0x00, 0x00, 0x9c, 0x18, 0x00, 0x00,
  0x94, 0x18, 0x00, 0x00, 0xc4, 0x11, 0x00, 0x00, 0x54, 0x11, 0x00, 0x00,
  0x84, 0x0a, 0x00, 0x00, 0x14, 0x0a, 0x00, 0x00, 0x44, 0x03, 0x00, 0x00,
  0xd4, 0x02, 0x00, 0x00, 0xec, 0x01, 0x00, 0x00, 0xe4, 0x01, 0x00, 0x00,
  0xdc, 0x01, 0x00, 0x00, 0xd4, 0x01, 0x00, 0x00, 0xcc, 0x01, 0x00, 0x00,
  0xc4, 0x01, 0x00, 0x00, 0xbc, 0x01, 0x00, 0x00, 0xb4, 0x01, 0x00, 0x00,
  0xac, 0x01, 0x00, 0x00, 0xa4, 0x01, 0x00, 0x00, 0x9c, 0x01, 0x00, 0x00,
  0x94, 0x01, 0x00, 0x00, 0x8c, 0x01, 0x00, 0x00, 0x84, 0x01, 0x00, 0x00,
  0x7c, 0x01, 0x00, 0x00, 0x74, 0x01, 0x00, 0x00, 0x6c, 0x01, 0x00, 0x00,
  0x64, 0x01, 0x00, 0x00, 0x5c, 0x01, 0x00, 0x00, 0x54, 0x01, 0x00, 0x00,
  0x4c, 0x01, 0x00, 0x00, 0x44, 0x01, 0x00, 0x00, 0x3c, 0x01, 0x00, 0x00,
  0x34, 0x01, 0x00, 0x00, 0x2c, 0x01, 0x00, 0x00, 0x24, 0x01, 0x00, 0x00,
  0x1c, 0x01, 0x00, 0x00, 0x14, 0x01, 0x00, 0x00, 0x0c, 0x01, 0x00, 0x00,
  0x04, 0x01, 0x00, 0x00, 0xfc, 0x00, 0x00, 0x00, 0xf4, 0x00, 0x00, 0x00,
  0xec, 0x00, 0x00, 0x00, 0xe4, 0x00, 0x00, 0x00, 0xdc, 0x00, 0x00, 0x00,
  0xd4, 0x00, 0x00, 0x00, 0xcc, 0x00, 0x00, 0x00, 0xc4, 0x00, 0x00, 0x00,
  0xbc, 0x00, 0x00, 0x00, 0xb4, 0x00, 0x00, 0x00, 0xac, 0x00, 0x00, 0x00,
  0xa4, 0x00, 0x00, 0x00, 0x9c, 0x00, 0x00, 0x00, 0x94, 0x00, 0x00, 0x00,
  0x8c, 0x00, 0x00, 0x00, 0x6c, 0x00, 0x00, 0x00, 0x04, 0x00, 0x00, 0x00,
  0x72, 0xd1, 0xff, 0xff, 0x04, 0x00, 0x00, 0x00, 0x58, 0x00, 0x00, 0x00,
  0x0c, 0x00, 0x00, 0x00, 0x08, 0x00, 0x0e, 0x00, 0x08, 0x00, 0x04, 0x00,
  0x08, 0x00, 0x00, 0x00, 0x10, 0x00, 0x00, 0x00, 0x28, 0x00, 0x00, 0x00,
  0x00, 0x00, 0x06, 0x00, 0x08, 0x00, 0x04, 0x00, 0x06, 0x00, 0x00, 0x00,
  0x04, 0x00, 0x00, 0x00, 0x01, 0x00, 0x00, 0x00, 0xeb, 0x03, 0x00, 0x00,
  0x00, 0x00, 0x0a, 0x00, 0x10, 0x00, 0x0c, 0x00, 0x08, 0x00, 0x04, 0x00,
  0x0a, 0x00, 0x00, 0x00, 0x02, 0x00, 0x00, 0x00, 0x02, 0x00, 0x00, 0x00,
  0x04, 0x00, 0x00, 0x00, 0x06, 0x00, 0x00, 0x00, 0x32, 0x2e, 0x31, 0x35,
  0x2e, 0x30, 0x00, 0x00, 0xd6, 0xd1, 0xff, 0xff, 0x04, 0x00, 0x00, 0x00,
  0x10, 0x00, 0x00, 0x00, 0x32, 0x2e, 0x33, 0x2e, 0x30, 0x00, 0x00, 0x00,
  0x00, 0x00, 0x00, 0x00, 0x00, 0x00, 0x00, 0x00, 0xb4, 0x90, 0xff, 0xff,
  0xb8, 0x90, 0xff, 0xff, 0xbc, 0x90, 0xff, 0xff, 0xc0, 0x90, 0xff, 0xff,
  0xc4, 0x90, 0xff, 0xff, 0xc8, 0x90, 0xff, 0xff, 0xcc, 0x90, 0xff, 0xff,
  0xd0, 0x90, 0xff, 0xff, 0xd4, 0x90, 0xff, 0xff, 0xd8, 0x90, 0xff, 0xff,
  0xdc, 0x90, 0xff, 0xff, 0xe0, 0x90, 0xff, 0xff, 0xe4, 0x90, 0xff, 0xff,
  0xe8, 0x90, 0xff, 0xff, 0xec, 0x90, 0xff, 0xff, 0xf0, 0x90, 0xff, 0xff,
  0xf4, 0x90, 0xff, 0xff, 0xf8, 0x90, 0xff, 0xff, 0xfc, 0x90, 0xff, 0xff,
  0x00, 0x91, 0xff, 0xff, 0x04, 0x91, 0xff, 0xff, 0x08, 0x91, 0xff, 0xff,
  0x0c, 0x91, 0xff, 0xff, 0x10, 0x91, 0xff, 0xff, 0x14, 0x91, 0xff, 0xff,
  0x18, 0x91, 0xff, 0xff, 0x1c, 0x91, 0xff, 0xff, 0x20, 0x91, 0xff, 0xff,
  0x24, 0x91, 0xff, 0xff, 0x28, 0x91, 0xff, 0xff, 0x2c, 0x91, 0xff, 0xff,
  0x30, 0x91, 0xff, 0xff, 0x34, 0x91, 0xff, 0xff, 0x38, 0x91, 0xff, 0xff,
  0x3c, 0x91, 0xff, 0xff, 0x40, 0x91, 0xff, 0xff, 0x44, 0x91, 0xff, 0xff,
  0x48, 0x91, 0xff, 0xff, 0x4c, 0x91, 0xff, 0xff, 0x50, 0x91, 0xff, 0xff,
  0x54, 0x91, 0xff, 0xff, 0x58, 0x91, 0xff, 0xff, 0x5c, 0x91, 0xff, 0xff,
  0x60, 0x91, 0xff, 0xff, 0xa2, 0xd2, 0xff, 0xff, 0x04, 0x00, 0x00, 0x00,
  0xd8, 0x00, 0x00, 0x00, 0x8e, 0xbe, 0xca, 0xda, 0x81, 0x6e, 0x38, 0xc2,
  0x30, 0xb4, 0x46, 0x15, 0xd9, 0x8f, 0xbb, 0x7f, 0xad, 0x08, 0x7f, 0x47,
  0xd7, 0xb1, 0x1f, 0x55, 0x24, 0xcc, 0x57, 0x01, 0x13, 0x2e, 0x30, 0x8e,
  0x81, 0xf7, 0x71, 0x1a, 0x6c, 0x40, 0xe6, 0x77, 0x22, 0xc2, 0x7f, 0x3a,
  0x57, 0x91, 0x03, 0xb3, 0x11, 0x69, 0x81, 0xa3, 0xf6, 0x60, 0x63, 0x81,
  0x50, 0x97, 0xcc, 0x9f, 0xa9, 0x07, 0x51, 0xb6, 0xcb, 0xe5, 0xef, 0x67,
  0x4c, 0x13, 0x81, 0xfb, 0xc5, 0x0f, 0x57, 0x22, 0x8c, 0xaf, 0x31, 0xe7,
  0x81, 0xc4, 0xcf, 0x76, 0x38, 0x31, 0x22, 0x81, 0xd3, 0x99, 0x9f, 0x9b,
  0x7f, 0x9b, 0x8f, 0xc0, 0x50, 0xf9, 0x04, 0xec, 0xed, 0xbc, 0xcf, 0x94,
  0xeb, 0x7a, 0x13, 0x7f, 0x24, 0x06, 0x06, 0x81, 0xd8, 0xd4, 0xe9, 0xeb,
  0x10, 0x86, 0x53, 0x47, 0xe1, 0x81, 0xd5, 0x41, 0x5b, 0x21, 0x7a, 0xfa,
  0xed, 0x35, 0x81, 0x65, 0x64, 0xf5, 0xbb, 0xce, 0x91, 0xbf, 0x7f, 0x7b,
  0x83, 0x42, 0x7d, 0x90, 0x8c, 0xd4, 0x01, 0x81, 0x8a, 0x69, 0x1d, 0xeb,
  0x69, 0xad, 0xeb, 0x81, 0xf8, 0x49, 0x42, 0xf3, 0x7d, 0x5e, 0xde, 0xa0,
  0xf5, 0xc0, 0xd0, 0xfc, 0x7f, 0xf7, 0x93, 0x81, 0xbe, 0x13, 0x50, 0x62,
  0xd4, 0x02, 0xf9, 0x34, 0x8c, 0x7f, 0xca, 0x00, 0x2c, 0xf2, 0xbf, 0x97,
  0xd6, 0xb9, 0x6c, 0x1e, 0xcd, 0x51, 0xc3, 0xd6, 0x7f, 0xcf, 0x0a, 0x48,
  0xbe, 0x7f, 0x08, 0xfd, 0xda, 0x23, 0xbf, 0x3f, 0x81, 0xc8, 0xb0, 0x70,
  0x26, 0x4b, 0xc9, 0xfd, 0x86, 0xd3, 0xff, 0xff, 0x04, 0x00, 0x00, 0x00,
  0x60, 0x00, 0x00, 0x00, 0xf0, 0x07, 0x00, 0x00, 0x4d, 0x0a, 0x00, 0x00,
  0x7d, 0xef, 0xff, 0xff, 0x16, 0x00, 0x00, 0x00, 0x47, 0xf6, 0xff, 0xff,
  0x0d, 0x0f, 0x00, 0x00, 0x7b, 0x0a, 0x00, 0x00, 0x1c, 0x00, 0x00, 0x00,
  0x1b, 0xfc, 0xff, 0xff, 0x3f, 0xf4, 0xff, 0xff, 0x89, 0x03, 0x00, 0x00,
  0xc7, 0x08, 0x00, 0x00, 0xc0, 0xe5, 0xff, 0xff, 0x23, 0x0d, 0x00, 0x00,
  0xcf, 0xfd, 0xff, 0xff, 0x57, 0x04, 0x00, 0x00, 0x04, 0x03, 0x00, 0x00,
  0xe8, 0x2e, 0x00, 0x00, 0x0b, 0xfd, 0xff, 0xff, 0x6b, 0x01, 0x00, 0x00,
  0x01, 0x0e, 0x00, 0x00, 0xa8, 0xfa, 0xff, 0xff, 0x87, 0x07, 0x00, 0x00,
  0x42, 0x01, 0x00, 0x00, 0xf2, 0xd3, 0xff, 0xff, 0x04, 0x00, 0x00, 0x00,
  0xc0, 0x06, 0x00, 0x00, 0x3d, 0x13, 0x6c, 0x0b, 0x07, 0xa9, 0x3f, 0xcc,
  0xf3, 0xed, 0x4a, 0x1d, 0x35, 0xca, 0xf9, 0xe9, 0xc2, 0xa2, 0x7f, 0x30,
  0x06, 0xaf, 0x03, 0xef, 0x5a, 0x68, 0xd3, 0xb7, 0x65, 0x57, 0x24, 0xf8,
  0xbe, 0xa6, 0x19, 0xc0, 0x57, 0x4e, 0x09, 0xc1, 0x9f, 0xdf, 0xdc, 0xea,
  0x28, 0x48, 0xef, 0x48, 0x16, 0x26, 0xbe, 0xa9, 0x07, 0x04, 0xee, 0x10,
  0x60, 0x1b, 0xc1, 0x53, 0x7c, 0x53, 0xb1, 0x25, 0x11, 0x50, 0x48, 0x39,
  0x4d, 0x38, 0x22, 0x24, 0xf1, 0xd4, 0xd2, 0xfc, 0x38, 0xec, 0x3a, 0x49,
  0xc1, 0x1e, 0x2c, 0x4d, 0xb9, 0x3d, 0x40, 0x3f, 0x06, 0x57, 0x50, 0x03,
  0xd9, 0x39, 0xb6, 0x16, 0x4e, 0x2f, 0x2a, 0xc3, 0xda, 0xf1, 0x09, 0xf1,
  0xe2, 0x41, 0x3a, 0x9d, 0xbc, 0xac, 0xae, 0xb6, 0x2d, 0xe0, 0xdc, 0x81,
  0x13, 0x23, 0x23, 0xcc, 0xd9, 0x5d, 0x0b, 0x47, 0x9b, 0x02, 0x7d, 0x57,
  0xde, 0xaa, 0x55, 0xbf, 0x38, 0x0a, 0x0a, 0xcf, 0x4e, 0x1c, 0x65, 0xa7,
  0xd1, 0x15, 0xe2, 0xe9, 0xd0, 0x18, 0x1f, 0xac, 0xd0, 0xb2, 0xa6, 0xb1,
  0x1b, 0x5b, 0x60, 0xf9, 0xb0, 0x71, 0xcb, 0x99, 0x44, 0xc7, 0x16, 0xe4,
  0xf4, 0xd7, 0x9b, 0x39, 0xeb, 0x13, 0x1b, 0xd3, 0xcd, 0x68, 0xf3, 0xa9,
  0xe6, 0x5d, 0x46, 0x01, 0x7f, 0xf6, 0xcf, 0xaf, 0xb4, 0xb0, 0xcb, 0x60,
  0xbf, 0x06, 0xc3, 0x2c, 0x2a, 0xfa, 0x40, 0x1a, 0xca, 0xb3, 0x51, 0x45,
  0x47, 0x0e, 0xa0, 0x05, 0xb8, 0xd3, 0x3e, 0x5f, 0xe0, 0xe8, 0xc5, 0xf9,
  0x0c, 0x19, 0xea, 0x8a, 0x0b, 0x59, 0x8d, 0xba, 0xfd, 0x7e, 0xdc, 0x51,
  0xe8, 0x4e, 0xce, 0xbe, 0xda, 0xb6, 0xe7, 0x36, 0xe6, 0xf5, 0x27, 0xb7,
  0x1c, 0xf9, 0x05, 0x97, 0x21, 0x3d, 0xef, 0x26, 0xe2, 0xe9, 0x1f, 0x2c,
  0x6d, 0x49, 0xda, 0xe1, 0x42, 0xad, 0xbe, 0x22, 0xda, 0x5f, 0xdc, 0x8f,
  0x2f, 0xcf, 0x73, 0x37, 0x7d, 0xf7, 0x44, 0x4a, 0x89, 0xca, 0xda, 0xf6,
  0x27, 0x11, 0xea, 0x31, 0x15, 0x7f, 0x0e, 0xac, 0x50, 0xc4, 0xc7, 0xe9,
  0x7c, 0xf7, 0x5e, 0x10, 0x7f, 0xd9, 0x4f, 0xf6, 0xd5, 0xb6, 0xa1, 0x3b,
  0x15, 0x13, 0xb4, 0x04, 0x46, 0x41, 0xe3, 0x4f, 0x69, 0xd3, 0x3b, 0xd7,
  0xaa, 0x5d, 0x2e, 0xb1, 0x3b, 0xd8, 0xd1, 0xfa, 0x85, 0x71, 0xf8, 0x40,
  0xa8, 0xc8, 0xe4, 0xea, 0x47, 0x26, 0x34, 0xdf, 0xca, 0x14, 0x1d, 0x82,
  0x10, 0xb7, 0x2e, 0xd9, 0x5d, 0xf0, 0x3a, 0x4d, 0xcd, 0x50, 0xa8, 0x31,
  0x6d, 0x12, 0xac, 0xcb, 0x2c, 0x0d, 0xf8, 0x4c, 0x2b, 0xd6, 0x34, 0x02,
  0x1f, 0x00, 0x7e, 0x8c, 0xd6, 0x36, 0xb9, 0x81, 0xaf, 0x24, 0xd4, 0xfc,
  0x39, 0x2a, 0x0d, 0xf2, 0x1b, 0x14, 0x4e, 0x3b, 0xf5, 0xe0, 0x5f, 0xd9,
  0x15, 0xb1, 0xd5, 0x38, 0x1c, 0x5a, 0xcf, 0x0e, 0x2b, 0xc0, 0xa6, 0x9e,
  0xb8, 0xe0, 0xde, 0xc4, 0x4c, 0xad, 0xf6, 0x4d, 0x54, 0xf5, 0xeb, 0x44,
  0xb3, 0x9c, 0x8a, 0xd4, 0x6a, 0x57, 0x13, 0x4f, 0x91, 0x9d, 0x36, 0xdb,
  0x4e, 0xd9, 0xb0, 0xc2, 0x40, 0x0b, 0x42, 0x9a, 0xa8, 0x48, 0x05, 0xad,
  0xad, 0xd2, 0x33, 0xfe, 0x00, 0x60, 0xaa, 0xdc, 0xc1, 0x65, 0x71, 0xe9,
  0xf6, 0x0a, 0x93, 0xdd, 0x03, 0xfa, 0x7f, 0x5c, 0x9b, 0x13, 0xec, 0x44,
  0x06, 0xf9, 0xb5, 0xd7, 0x03, 0x02, 0xc9, 0x54, 0xdb, 0x30, 0xdb, 0xb2,
  0x68, 0x2e, 0xda, 0x36, 0x4a, 0x16, 0x4b, 0x1b, 0xf3, 0xa1, 0x4d, 0x10,
  0xe0, 0x15, 0x41, 0x34, 0x00, 0x16, 0x10, 0x2f, 0xf2, 0xcf, 0xaa, 0x20,
  0xa6, 0xbb, 0xca, 0x32, 0x6b, 0xb4, 0x78, 0x0a, 0x0d, 0x5b, 0x73, 0x89,
  0x9f, 0xc0, 0x1c, 0x61, 0x06, 0x3a, 0x4f, 0x77, 0x91, 0xd4, 0xa5, 0x06,
  0x41, 0x7c, 0x17, 0xcf, 0x17, 0x28, 0x61, 0xc7, 0x95, 0x36, 0xea, 0xda,
  0xb5, 0x22, 0x4a, 0xc4, 0xfc, 0x60, 0xaa, 0xf0, 0x9a, 0xb2, 0xd3, 0xe6,
  0xd4, 0x44, 0x47, 0x3c, 0x4e, 0x95, 0x5a, 0xa2, 0xc2, 0xb1, 0x1d, 0xaa,
  0xba, 0xfd, 0x48, 0x21, 0x03, 0x2b, 0x81, 0x64, 0x3d, 0x67, 0x0e, 0xc6,
  0x56, 0x11, 0x68, 0xfe, 0xa9, 0xb7, 0x58, 0x52, 0xe4, 0x45, 0x28, 0x1e,
  0x46, 0xaf, 0x41, 0xb3, 0x20, 0xeb, 0x42, 0xaa, 0xb4, 0xa5, 0xff, 0xb2,
  0x38, 0x33, 0xdb, 0x52, 0x70, 0x29, 0xf9, 0xc0, 0x0a, 0xb1, 0xcd, 0x42,
  0xcf, 0x9e, 0xfb, 0xd4, 0xf9, 0xd5, 0xcb, 0x33, 0x30, 0x42, 0xeb, 0x52,
  0xd4, 0xef, 0x7f, 0xdd, 0x15, 0x69, 0xcd, 0xcd, 0x22, 0x96, 0xed, 0x72,
  0x08, 0xe2, 0x94, 0x61, 0x08, 0xed, 0x65, 0x1e, 0xab, 0x32, 0x27, 0x4d,
  0x44, 0xff, 0xfd, 0xfa, 0x3b, 0x2e, 0x43, 0x63, 0xe0, 0x03, 0x02, 0x14,
  0x64, 0xe3, 0xad, 0x70, 0xa5, 0xf7, 0x6a, 0xb6, 0x62, 0x1b, 0x9e, 0x81,
  0x83, 0xdd, 0x83, 0x65, 0x45, 0x10, 0x04, 0xcd, 0x34, 0x9c, 0x06, 0xe1,
  0x5c, 0x50, 0x47, 0x9f, 0x3f, 0xd1, 0x2a, 0xb3, 0x52, 0xd2, 0x2d, 0x5e,
  0x8c, 0xe6, 0x96, 0x58, 0x91, 0x6f, 0x67, 0x66, 0xa8, 0x95, 0x43, 0xa8,
  0x19, 0xea, 0xb3, 0x67, 0x1c, 0xa8, 0x54, 0x58, 0xbc, 0x05, 0x42, 0xb1,
  0x55, 0x9b, 0x97, 0x6e, 0x53, 0xde, 0x3f, 0x5e, 0xdb, 0x06, 0xe5, 0xa0,
  0x99, 0x3e, 0x53, 0x85, 0xf7, 0x0d, 0xa5, 0x63, 0x3a, 0x9c, 0xf3, 0xe3,
  0x9a, 0xf7, 0x0b, 0xf9, 0x94, 0x61, 0xf3, 0x4c, 0x4d, 0x3a, 0xe8, 0x24,
  0x3f, 0x5d, 0xee, 0xac, 0x09, 0x6b, 0x31, 0x3f, 0xe1, 0x6f, 0xd1, 0x16,
  0xa7, 0x54, 0x5f, 0x48, 0xd0, 0x31, 0xdf, 0xa0, 0x31, 0x08, 0xcf, 0x93,
  0xad, 0x47, 0xf9, 0xf2, 0xff, 0xe3, 0x14, 0x01, 0xd5, 0x24, 0x08, 0xb9,
  0x40, 0xbc, 0x53, 0x57, 0x09, 0x16, 0x3c, 0xc6, 0xea, 0xe6, 0x56, 0xa0,
  0x0a, 0xe4, 0x63, 0x81, 0x21, 0x7d, 0x0a, 0x35, 0xf4, 0x69, 0xc5, 0xf0,
  0xe8, 0x3a, 0x3b, 0x10, 0xf8, 0xca, 0x01, 0x3e, 0x72, 0x43, 0x2c, 0x29,
  0xac, 0xb6, 0xa3, 0x92, 0xe2, 0xa8, 0x4f, 0xbc, 0x88, 0x1c, 0x2d, 0xd0,
  0x6a, 0xc8, 0xfe, 0x4d, 0x2c, 0xda, 0x9b, 0xa4, 0x4d, 0x36, 0xe4, 0x62,
  0xea, 0x1e, 0xaf, 0x2b, 0x78, 0xb3, 0xc7, 0xd7, 0x4e, 0x49, 0x7f, 0x07,
  0x98, 0xab, 0xe1, 0x9f, 0xef, 0x2c, 0x6f, 0x45, 0xdd, 0x79, 0xef, 0x50,
  0x16, 0x1a, 0xb7, 0x4b, 0x79, 0xef, 0x30, 0xc2, 0x96, 0xe8, 0xeb, 0xa6,
  0xf4, 0xc1, 0x1a, 0x46, 0x04, 0xb0, 0x25, 0x42, 0xfb, 0x14, 0x16, 0xb4,
  0x5a, 0x2f, 0x39, 0xc3, 0xd6, 0x0f, 0xd9, 0xc4, 0xa7, 0x7f, 0xc4, 0x04,
  0x6f, 0x14, 0xcf, 0x56, 0x94, 0x43, 0xb8, 0x0d, 0x5b, 0xc8, 0x0f, 0x09,
  0x1d, 0x85, 0x94, 0x2b, 0xb3, 0xd7, 0x3a, 0x07, 0xe6, 0xeb, 0xb8, 0x9e,
  0x2f, 0x32, 0x56, 0xa4, 0xe6, 0xd7, 0xd5, 0x66, 0x77, 0x62, 0xbf, 0x8d,
  0x77, 0x0b, 0x43, 0x14, 0x11, 0x5f, 0x37, 0xc0, 0x00, 0x46, 0x22, 0xd6,
  0x4e, 0x60, 0x51, 0x9b, 0x2a, 0xd0, 0xed, 0xf3, 0x54, 0x8a, 0xed, 0xd1,
  0xd7, 0xa8, 0xc3, 0xf7, 0x1d, 0x5d, 0xb3, 0xc8, 0xba, 0x38, 0xfe, 0xe6,
  0x55, 0xe8, 0xb8, 0xd3, 0xe6, 0xd0, 0x41, 0x5d, 0x31, 0x18, 0x92, 0xa6,
  0xe3, 0xad, 0x3c, 0x6a, 0x81, 0x82, 0x20, 0xa0, 0x1c, 0xe1, 0x06, 0xa3,
  0x11, 0xb6, 0x32, 0xfc, 0x60, 0x9b, 0x2e, 0x7f, 0x03, 0xd1, 0xc6, 0xf1,
  0xdf, 0x36, 0x4c, 0xbb, 0x5a, 0x65, 0xef, 0xc3, 0x2b, 0xff, 0xe0, 0xbc,
  0x95, 0xec, 0x16, 0x0b, 0x55, 0x0b, 0x04, 0xc3, 0x5d, 0x12, 0xc5, 0xe3,
  0xaf, 0x08, 0xd0, 0x56, 0xb3, 0xe3, 0xa6, 0x1a, 0x3a, 0xf8, 0x55, 0xd5,
  0xba, 0xba, 0x69, 0x50, 0xde, 0xa0, 0xe3, 0x62, 0x20, 0x06, 0xab, 0xa9,
  0xd8, 0x32, 0x28, 0xaa, 0xa7, 0x1e, 0xf9, 0x2d, 0xbc, 0xae, 0xfc, 0xec,
  0xac, 0xe8, 0x12, 0x00, 0xa6, 0x99, 0x2b, 0xbb, 0x9f, 0xbe, 0x6a, 0xf5,
  0x2f, 0x81, 0xbb, 0xcc, 0xf3, 0x26, 0x3c, 0x46, 0x1f, 0xc7, 0xbd, 0xa1,
  0x21, 0xd9, 0xaa, 0x28, 0x0c, 0x16, 0x2b, 0xf3, 0xde, 0xdf, 0x2c, 0x81,
  0x49, 0x36, 0x3a, 0xdd, 0xd2, 0x58, 0x14, 0x1d, 0x9f, 0xb5, 0xc0, 0xda,
  0x25, 0xf2, 0x2c, 0x13, 0x4a, 0x24, 0x00, 0xc4, 0x57, 0x1d, 0xb1, 0xf5,
  0xdf, 0xc7, 0x51, 0xee, 0xed, 0xfc, 0xbf, 0x63, 0xa7, 0x41, 0x03, 0x2b,
  0x54, 0x0f, 0x54, 0x1d, 0xd6, 0xc6, 0xdd, 0x0c, 0xc1, 0x0f, 0x12, 0xe3,
  0x2a, 0xdd, 0xa1, 0xca, 0xdf, 0x6e, 0x1e, 0x5f, 0x81, 0xf3, 0x0d, 0xf0,
  0xe8, 0xf4, 0xb9, 0xc6, 0x00, 0xf0, 0xd8, 0xce, 0xd3, 0x63, 0xad, 0xcb,
  0x18, 0xc7, 0xf2, 0x2e, 0x56, 0x1b, 0xb6, 0x2d, 0xe2, 0x18, 0x9c, 0xb0,
  0x7a, 0x26, 0xb6, 0xd7, 0xc7, 0xdd, 0xa1, 0xc1, 0x35, 0xea, 0x17, 0x3a,
  0x0f, 0x4e, 0x1f, 0xf7, 0x5e, 0xe8, 0xfa, 0x35, 0x8a, 0x27, 0xce, 0xbf,
  0xfa, 0x46, 0xe0, 0xd5, 0x41, 0x6c, 0x9d, 0x26, 0xe7, 0xd5, 0xb3, 0xa9,
  0x26, 0x15, 0x12, 0xb8, 0x0e, 0x06, 0x2c, 0x5c, 0x23, 0x54, 0x2d, 0x5b,
  0x2a, 0x52, 0xd6, 0xaf, 0xf4, 0x35, 0x0f, 0x92, 0xc8, 0xc6, 0xcb, 0xce,
  0x6b, 0x5b, 0x1a, 0x0f, 0x09, 0x0b, 0xd2, 0xac, 0x8e, 0xfd, 0xd3, 0x4c,
  0x22, 0x28, 0x64, 0xea, 0x6c, 0x9e, 0x54, 0x1e, 0xe3, 0x59, 0xbc, 0x25,
  0xa1, 0xa8, 0x51, 0xde, 0xc8, 0x1f, 0x35, 0xcb, 0x2e, 0x94, 0x0e, 0x3c,
  0x10, 0xed, 0x54, 0xff, 0xb0, 0xf5, 0x61, 0xa8, 0xe7, 0xc9, 0x77, 0xa7,
  0x72, 0x53, 0x81, 0x3b, 0xf1, 0xc8, 0x91, 0x78, 0x1b, 0xd6, 0x27, 0xdb,
  0x20, 0x55, 0x19, 0x61, 0xeb, 0xfc, 0xdb, 0xe7, 0xca, 0xc9, 0xb6, 0x1f,
  0xae, 0x39, 0x96, 0x4a, 0x76, 0x4f, 0xdf, 0xc1, 0xd3, 0xc0, 0x9e, 0x0e,
  0x20, 0x98, 0xbe, 0x19, 0xfa, 0x15, 0x7f, 0x8d, 0xb7, 0xfa, 0xa9, 0xb8,
  0x67, 0x2b, 0xea, 0xae, 0xdd, 0x4f, 0xd4, 0x2e, 0x29, 0x6e, 0xee, 0xf9,
  0x07, 0xf3, 0xd0, 0xdc, 0x68, 0xea, 0xd5, 0x2b, 0xfc, 0xab, 0x57, 0x57,
  0x27, 0x4e, 0x0f, 0xe2, 0x7f, 0xb0, 0x8a, 0x57, 0x29, 0x41, 0x96, 0x57,
  0x04, 0xd0, 0xca, 0x1d, 0xe1, 0x4e, 0x6a, 0x5b, 0x06, 0xe5, 0x63, 0x36,
  0x68, 0x5c, 0x4b, 0xd1, 0xef, 0xdf, 0x82, 0x5e, 0x81, 0x7d, 0x20, 0xe0,
  0x18, 0x94, 0x15, 0x5e, 0x1b, 0x35, 0xb1, 0xb1, 0xb6, 0x0a, 0x57, 0x4f,
  0x01, 0xb4, 0x4e, 0x57, 0x08, 0xa4, 0xd8, 0xe4, 0x20, 0xed, 0x1c, 0xbe,
  0xb1, 0x1e, 0xdf, 0x0c, 0x07, 0xc6, 0xaf, 0xf1, 0x30, 0xe5, 0x71, 0xe8,
  0xad, 0x86, 0xc5, 0xd1, 0xc8, 0xeb, 0x10, 0x17, 0x1c, 0x78, 0x7c, 0xdd,
  0x56, 0xec, 0xb0, 0x37, 0x18, 0xf2, 0xba, 0x35, 0x4a, 0x5e, 0x53, 0x4e,
  0x26, 0x9a, 0xb5, 0x4b, 0x50, 0xb9, 0xd4, 0x09, 0x50, 0xff, 0x7f, 0xbe,
  0x3b, 0xf4, 0x4e, 0xbf, 0xcc, 0x14, 0x53, 0x4c, 0x68, 0x5e, 0xfe, 0x57,
  0x10, 0xfc, 0xb9, 0xf2, 0x17, 0xbf, 0xfb, 0x48, 0x36, 0xea, 0xde, 0x00,
  0x3f, 0x30, 0x1c, 0x58, 0xc2, 0x6d, 0x26, 0xa2, 0x13, 0x58, 0x52, 0x0b,
  0x6e, 0x8d, 0x5d, 0xb6, 0xf0, 0xed, 0x15, 0x4d, 0x1d, 0x6b, 0x1f, 0xe1,
  0x62, 0xfb, 0x9a, 0xc3, 0x5c, 0x15, 0x6f, 0x48, 0xb1, 0xb0, 0x11, 0xe7,
  0x76, 0x08, 0x12, 0x25, 0x06, 0x25, 0x36, 0x35, 0xfd, 0xff, 0x76, 0x46,
  0xf3, 0x86, 0xea, 0x72, 0xf7, 0x12, 0x3a, 0x4e, 0xa3, 0x25, 0x69, 0x2c,
  0x2d, 0x16, 0x7f, 0x44, 0xb5, 0x08, 0x09, 0x26, 0x52, 0x6e, 0xb8, 0xb1,
  0xf3, 0x4f, 0xe2, 0xa2, 0xb2, 0x49, 0xd8, 0xfa, 0x60, 0x03, 0xae, 0xe7,
  0x5d, 0x97, 0x7b, 0x35, 0x1c, 0xd4, 0xf9, 0x19, 0xfb, 0x39, 0x37, 0x5e,
  0xab, 0x54, 0xd8, 0xf4, 0x94, 0xcf, 0x63, 0x02, 0x11, 0xfe, 0xdd, 0xc9,
  0x63, 0x22, 0xdd, 0xc7, 0xcc, 0xb1, 0x20, 0x5e, 0x97, 0x76, 0x0b, 0x00,
  0x16, 0x5d, 0x22, 0xa6, 0xf4, 0xfc, 0xf6, 0x81, 0xfc, 0x26, 0xef, 0xfb,
  0x05, 0xbe, 0x69, 0xfb, 0x40, 0x5c, 0xc1, 0x98, 0x87, 0x35, 0xd4, 0xfb,
  0x4a, 0x00, 0x3e, 0x38, 0x3a, 0xac, 0x10, 0x53, 0x61, 0xfd, 0xaf, 0xe1,
  0x7f, 0xc9, 0x50, 0xed, 0xbc, 0xfa, 0xee, 0x0c, 0xbc, 0x42, 0xce, 0xcf,
  0xbb, 0x6f, 0xc9, 0x45, 0x42, 0xc1, 0xb1, 0x08, 0x15, 0xfc, 0xf8, 0x53,
  0x18, 0x7f, 0x37, 0xbd, 0x55, 0x40, 0x49, 0xe5, 0xb2, 0xe4, 0xcb, 0x33,
  0x6a, 0xcf, 0x97, 0x1e, 0x0d, 0x28, 0x41, 0x96, 0xb8, 0x34, 0xec, 0xc7,
  0xe6, 0x49, 0xee, 0x3f, 0x3b, 0xee, 0xfc, 0xb8, 0x0b, 0xda, 0xfd, 0x2f,
  0x76, 0x29, 0x29, 0x1f, 0xe7, 0x71, 0xdd, 0xef, 0x17, 0xc9, 0x04, 0x6d,
  0xcc, 0x61, 0xba, 0x50, 0xbe, 0xda, 0xff, 0xff, 0x04, 0x00, 0x00, 0x00,
  0x60, 0x00, 0x00, 0x00, 0x7d, 0xf9, 0xff, 0xff, 0x77, 0xef, 0xff, 0xff,
  0x5a, 0xf7, 0xff, 0xff, 0x1d, 0xed, 0xff, 0xff, 0x28, 0xf5, 0xff, 0xff,
  0xbe, 0xfa, 0xff, 0xff, 0xba, 0xf9, 0xff, 0xff, 0x11, 0xed, 0xff, 0xff,
  0xae, 0xfc, 0xff, 0xff, 0xac, 0xf6, 0xff, 0xff, 0x37, 0xf2, 0xff, 0xff,
  0xa0, 0xf5, 0xff, 0xff, 0x8a, 0xf2, 0xff, 0xff, 0xd0, 0x12, 0x00, 0x00,
  0xa1, 0xfc, 0xff, 0xff, 0x8d, 0xf8, 0xff, 0xff, 0x9f, 0xf0, 0xff, 0xff,
  0x26, 0x00, 0x00, 0x00, 0xa6, 0xf7, 0xff, 0xff, 0x0d, 0xf0, 0xff, 0xff,
  0xcf, 0xf2, 0xff, 0xff, 0x5b, 0xf5, 0xff, 0xff, 0x5d, 0xf5, 0xff, 0xff,
  0xaf, 0x0d, 0x00, 0x00, 0x2a, 0xdb, 0xff, 0xff, 0x04, 0x00, 0x00, 0x00,
  0xc0, 0x06, 0x00, 0x00, 0x8e, 0x12, 0x39, 0x01, 0x4b, 0x49, 0xb7, 0x72,
  0x37, 0x2d, 0xe9, 0xa8, 0xb1, 0x63, 0x93, 0x42, 0x8c, 0xe0, 0x77, 0x1e,
  0x66, 0x75, 0xd4, 0x14, 0x06, 0x6e, 0x77, 0x33, 0xe8, 0x4f, 0x2a, 0x35,
  0xdf, 0x38, 0x0e, 0xa9, 0x6d, 0x83, 0xd1, 0x33, 0xbf, 0xe2, 0x8e, 0x81,
  0xdb, 0x58, 0xb5, 0x03, 0xda, 0x3c, 0xaa, 0xe1, 0x2a, 0xde, 0x3b, 0xba,
  0x9b, 0x88, 0xe4, 0xd8, 0xa2, 0xce, 0x29, 0xda, 0xff, 0x57, 0x54, 0x6a,
  0xcc, 0xba, 0xd1, 0xda, 0x4b, 0xfb, 0xda, 0x02, 0x64, 0xed, 0x37, 0xc6,
  0x38, 0x22, 0xca, 0xb2, 0xb8, 0xa7, 0xfe, 0x0b, 0x24, 0x0c, 0x92, 0xfc,
  0x00, 0x97, 0xeb, 0x23, 0x81, 0xa0, 0x8c, 0x35, 0xb7, 0x2a, 0x98, 0xb5,
  0xf1, 0xf5, 0x76, 0x6a, 0x0b, 0x89, 0x9e, 0xe7, 0xd8, 0x55, 0xad, 0xf8,
  0x52, 0x45, 0x12, 0xd6, 0x18, 0x14, 0xc6, 0xe5, 0x31, 0xb4, 0x8a, 0xbc,
  0x05, 0x24, 0xdd, 0x4e, 0x55, 0x00, 0xbc, 0x1c, 0x76, 0xbd, 0xc8, 0xaf,
  0xfd, 0xc2, 0x41, 0x60, 0xcf, 0xe2, 0x34, 0xd6, 0xba, 0x2a, 0xce, 0xaa,
  0x4c, 0x29, 0x90, 0x54, 0x1c, 0x5e, 0xb4, 0xbd, 0xca, 0xd5, 0xb0, 0x61,
  0xda, 0x53, 0xca, 0xf8, 0x4c, 0xc1, 0x0b, 0xa5, 0xa3, 0x23, 0xd1, 0x29,
  0x81, 0x84, 0xa6, 0x22, 0x43, 0xb0, 0x44, 0xf7, 0x4c, 0x8b, 0xca, 0x5c,
  0x0c, 0xe7, 0x60, 0xb8, 0xd9, 0xc5, 0xff, 0x5d, 0xea, 0xbc, 0x34, 0xc1,
  0xcc, 0x13, 0xdc, 0xfc, 0x59, 0xf3, 0xf9, 0x34, 0x40, 0xe6, 0xe3, 0xbe,
  0x04, 0xf8, 0x41, 0x31, 0x4f, 0xab, 0x1f, 0x07, 0xf4, 0x81, 0xe6, 0x43,
  0xc7, 0xb5, 0xb9, 0x08, 0xfd, 0x79, 0x25, 0x21, 0x64, 0xd3, 0x90, 0x6b,
  0xd7, 0xc5, 0x04, 0xf9, 0x41, 0x1a, 0xc0, 0x6b, 0xf0, 0x0d, 0xe7, 0xfe,
  0xb9, 0x9a, 0xd5, 0xa5, 0xde, 0xf8, 0xc2, 0x1b, 0x34, 0x07, 0xe0, 0x9b,
  0x9a, 0x40, 0x41, 0x28, 0xd2, 0xc6, 0x4d, 0xe2, 0xd5, 0x2a, 0xb9, 0xc3,
  0x5b, 0x0c, 0x16, 0x2f, 0x00, 0xdc, 0x91, 0x29, 0xe8, 0xbd, 0x3e, 0x5d,
  0xfc, 0xb7, 0x4d, 0x41, 0x02, 0xef, 0xe8, 0xac, 0xf7, 0xc5, 0xa6, 0x07,
  0x24, 0xd6, 0x1c, 0xee, 0x4f, 0xa7, 0xcb, 0x0d, 0x23, 0xe8, 0xa5, 0xfe,
  0x17, 0x42, 0x95, 0xa5, 0x1d, 0xcd, 0xbb, 0xee, 0xe2, 0x32, 0xdd, 0xc4,
  0xde, 0x27, 0x32, 0xde, 0xcb, 0x02, 0xe0, 0xd6, 0x41, 0x18, 0x13, 0x08,
  0x81, 0x48, 0xa0, 0xd2, 0xa0, 0x1a, 0xbc, 0x21, 0x19, 0x39, 0x3b, 0xed,
  0xe2, 0x21, 0x15, 0xda, 0x11, 0x2c, 0xea, 0x22, 0x10, 0xdc, 0xee, 0x3d,
  0xcd, 0x9f, 0xcf, 0xe0, 0xee, 0xfa, 0x22, 0x19, 0x3f, 0xd2, 0x04, 0xfb,
  0x2b, 0xd5, 0xd9, 0xee, 0xc7, 0xeb, 0x11, 0x28, 0xfc, 0x22, 0xd6, 0xec,
  0x38, 0x0b, 0x3f, 0xe4, 0x35, 0x3f, 0x21, 0x20, 0xe1, 0xd5, 0xbd, 0x0e,
  0xfc, 0xe1, 0xf0, 0xeb, 0xe3, 0x96, 0x3e, 0xd1, 0x3f, 0xf7, 0x3f, 0xf2,
  0xf8, 0xf9, 0xb0, 0xc4, 0x26, 0xbf, 0x19, 0xcf, 0xea, 0x21, 0xcb, 0x3f,
  0x3e, 0x36, 0xff, 0x4d, 0xce, 0x81, 0xc0, 0x1a, 0xbc, 0x27, 0xf4, 0x01,
  0xd4, 0x16, 0xf2, 0x02, 0xb2, 0x49, 0xd5, 0xf8, 0xaa, 0x18, 0x01, 0x2c,
  0xbc, 0x9d, 0x1d, 0x2b, 0xe4, 0xfd, 0x14, 0x3d, 0xc4, 0x81, 0x2d, 0x3e,
  0x3e, 0xc6, 0x55, 0x8a, 0x34, 0x6a, 0xb9, 0xf5, 0x0c, 0x56, 0x96, 0x05,
  0xa6, 0xe8, 0x9d, 0x33, 0xcd, 0xd7, 0x99, 0x21, 0xf0, 0x3d, 0xf6, 0x32,
  0xae, 0xd1, 0x5e, 0x3e, 0x29, 0x55, 0xd7, 0x1b, 0x64, 0x2d, 0xda, 0x25,
  0xe5, 0x46, 0xe9, 0x55, 0x52, 0xef, 0xc9, 0x5f, 0x66, 0xad, 0x3a, 0x09,
  0x57, 0xe1, 0x2d, 0xda, 0xed, 0x2a, 0xb2, 0x63, 0x34, 0xc4, 0xc7, 0x01,
  0xc1, 0xde, 0xc1, 0x3f, 0xf4, 0x44, 0xc0, 0xd4, 0x93, 0x08, 0xa2, 0xd8,
  0xee, 0x05, 0xaf, 0xce, 0x31, 0xcc, 0x40, 0xc4, 0x4e, 0xb5, 0x0c, 0x44,
  0xce, 0xfc, 0x24, 0x4e, 0xfe, 0x22, 0xdf, 0xaf, 0xe9, 0xe9, 0xee, 0xa1,
  0xef, 0x81, 0xb1, 0x14, 0xfb, 0x40, 0xc2, 0x2b, 0x47, 0xcb, 0x93, 0xac,
  0x94, 0xb9, 0xe0, 0x46, 0xf6, 0x52, 0xc5, 0xa5, 0x08, 0xe8, 0x25, 0x56,
  0xea, 0x10, 0x49, 0x97, 0x88, 0xea, 0xe8, 0x27, 0x29, 0xec, 0x59, 0xa1,
  0xf8, 0xde, 0xf2, 0xb3, 0x4c, 0xcd, 0x1e, 0x63, 0xad, 0xc7, 0x97, 0xae,
  0x05, 0x48, 0xd2, 0x2c, 0x25, 0x55, 0x8f, 0xc0, 0x92, 0xe9, 0x0c, 0x55,
  0x39, 0xab, 0x24, 0xd0, 0x36, 0x28, 0x18, 0x98, 0x53, 0x0f, 0xad, 0xd1,
  0x16, 0x24, 0xf8, 0xb6, 0xfb, 0xd6, 0xbf, 0x3d, 0xb0, 0xeb, 0x2b, 0x31,
  0xff, 0xb4, 0xd2, 0x8b, 0xcf, 0xe9, 0xa7, 0x25, 0x02, 0x0c, 0x81, 0xcd,
  0xd1, 0xf3, 0x4d, 0xd5, 0xa2, 0x36, 0xa2, 0xe2, 0x36, 0xb3, 0x0e, 0xd4,
  0x32, 0xf9, 0xac, 0x63, 0xcd, 0x31, 0xf1, 0xbe, 0x3e, 0x03, 0x44, 0x31,
  0x3f, 0x1e, 0x2c, 0xbd, 0x1b, 0x8f, 0x4e, 0xf9, 0x0d, 0xa2, 0xe4, 0xd6,
  0x25, 0x07, 0x6a, 0xf1, 0xd0, 0xd6, 0x26, 0x12, 0xf3, 0xd8, 0xfd, 0xd1,
  0x77, 0x11, 0x47, 0x2a, 0xa4, 0xa0, 0xa1, 0x81, 0xbd, 0xc3, 0x42, 0xc8,
  0xf7, 0xe2, 0xe3, 0xe1, 0xf9, 0x44, 0x4e, 0xca, 0xa3, 0x37, 0xaa, 0x5c,
  0x1c, 0x38, 0xe0, 0x97, 0x12, 0x21, 0x1c, 0x58, 0x46, 0x55, 0xe7, 0xe8,
  0x97, 0xe2, 0x5d, 0xe4, 0x8d, 0x0c, 0x03, 0x33, 0xe9, 0x30, 0xa5, 0x4e,
  0xd1, 0xba, 0xfc, 0x00, 0xff, 0x17, 0xcd, 0x16, 0x36, 0xdf, 0x31, 0xf4,
  0xb4, 0xb0, 0xd6, 0x0c, 0xdd, 0xa2, 0x4c, 0xb8, 0xf4, 0xdb, 0xeb, 0xc7,
  0x13, 0xf8, 0xf9, 0xaa, 0x9e, 0x4d, 0xb0, 0x0a, 0xf3, 0x1e, 0x18, 0x20,
  0x24, 0xce, 0xb3, 0xfb, 0xd0, 0xf5, 0x1c, 0x1b, 0x1d, 0x2f, 0x3b, 0x34,
  0x81, 0xac, 0x11, 0x18, 0xdc, 0xe0, 0x3d, 0xe6, 0x04, 0xc8, 0xdc, 0xed,
  0xf2, 0xcc, 0x57, 0xc8, 0xfb, 0x35, 0x04, 0x30, 0xe9, 0xc9, 0x08, 0xca,
  0xd4, 0x2a, 0xff, 0xca, 0xed, 0x27, 0x58, 0x50, 0x05, 0x48, 0x14, 0xb6,
  0x14, 0x49, 0xca, 0x1e, 0xf8, 0x1d, 0x58, 0xb3, 0xe9, 0xf4, 0x30, 0xff,
  0xa7, 0x1c, 0xba, 0xfc, 0x4e, 0xd1, 0x2d, 0xf0, 0xda, 0x00, 0xf3, 0xff,
  0x14, 0x30, 0xe3, 0x58, 0xf7, 0x14, 0x0e, 0x16, 0x19, 0x37, 0xc0, 0x5d,
  0x09, 0x4d, 0x5b, 0x81, 0xa6, 0x1a, 0xef, 0x91, 0x21, 0xea, 0x0b, 0x47,
  0x83, 0xae, 0xfd, 0xd1, 0x42, 0xe2, 0xcc, 0xd9, 0x18, 0xd2, 0x0d, 0xcc,
  0x18, 0x81, 0xca, 0xb2, 0x14, 0x37, 0xd8, 0x0e, 0xf5, 0xa8, 0x1f, 0xff,
  0x25, 0x04, 0x1c, 0x96, 0x4f, 0xc7, 0x9e, 0xac, 0xbf, 0xa1, 0xf7, 0xf3,
  0xaf, 0xf0, 0x9a, 0x96, 0x25, 0xe0, 0x2d, 0xd2, 0x42, 0xeb, 0xf4, 0x07,
  0xf2, 0xcd, 0xd1, 0xc7, 0x1b, 0x4f, 0x18, 0xa1, 0x05, 0xd3, 0x42, 0xaa,
  0x19, 0xdd, 0xb1, 0x24, 0xd5, 0xd6, 0xe3, 0x3b, 0x1a, 0xcb, 0xf2, 0x7f,
  0x3a, 0x36, 0x23, 0xa1, 0x58, 0x08, 0x13, 0x35, 0x17, 0x94, 0x51, 0xe3,
  0x1d, 0xc1, 0xaf, 0x1c, 0xa1, 0x2f, 0xb7, 0xc3, 0x4e, 0xa9, 0xcb, 0x13,
  0x57, 0x9b, 0xab, 0xa2, 0xfa, 0xac, 0xf7, 0x48, 0xb3, 0x54, 0x94, 0xde,
  0xd7, 0x3b, 0x63, 0x0a, 0xa9, 0x51, 0x27, 0x0b, 0xf4, 0x59, 0xfa, 0x30,
  0x26, 0x41, 0x2b, 0x25, 0x20, 0xbb, 0x29, 0xc0, 0x8f, 0x9b, 0x8b, 0x16,
  0xaf, 0xd7, 0xe3, 0xdc, 0x45, 0xa8, 0x95, 0xb4, 0x56, 0xd2, 0xb3, 0xb4,
  0x31, 0x2d, 0x1c, 0x87, 0x9f, 0x0c, 0x28, 0x54, 0xf6, 0xfe, 0x3c, 0xbc,
  0x14, 0x9d, 0x81, 0xfd, 0xdf, 0xa7, 0xe5, 0x98, 0xb9, 0x30, 0x66, 0xb0,
  0x20, 0x08, 0xa3, 0xc9, 0x95, 0x6e, 0xb8, 0xbf, 0x0c, 0xec, 0x19, 0x57,
  0xd1, 0xe6, 0xe1, 0xbd, 0x3d, 0x12, 0xdf, 0x83, 0x16, 0x18, 0x13, 0x15,
  0x91, 0x95, 0x4e, 0xba, 0xe7, 0x8f, 0xf5, 0x15, 0x98, 0x1c, 0x8e, 0xcf,
  0x53, 0x29, 0xa6, 0x95, 0x5b, 0x25, 0xde, 0xf1, 0x19, 0xd7, 0x6e, 0x5a,
  0x25, 0x9d, 0x7f, 0x96, 0x14, 0x95, 0x20, 0x52, 0xa2, 0xf8, 0x58, 0x15,
  0x0e, 0x63, 0xba, 0xf6, 0x1b, 0xca, 0xcf, 0x1e, 0xad, 0x34, 0xd2, 0x75,
  0x53, 0x71, 0x3f, 0x74, 0x9c, 0xe4, 0x1d, 0xac, 0x91, 0x38, 0xc9, 0x63,
  0x7d, 0xc3, 0x00, 0x21, 0xb9, 0x6c, 0x11, 0x46, 0x2c, 0x22, 0x19, 0xd6,
  0x02, 0xde, 0xbf, 0x60, 0xb9, 0x92, 0xdc, 0x07, 0x9f, 0x01, 0x35, 0xd1,
  0x27, 0xb9, 0x28, 0xf2, 0x4e, 0xdd, 0xad, 0x59, 0xd4, 0x64, 0x63, 0x0e,
  0xf9, 0x36, 0x85, 0x18, 0xdb, 0x13, 0xd1, 0xb6, 0x06, 0xbf, 0x58, 0xac,
  0xe4, 0xee, 0xb5, 0x12, 0x39, 0xa6, 0x3f, 0x25, 0x43, 0x29, 0x15, 0x51,
  0xd8, 0xb0, 0x03, 0xc2, 0x9b, 0xca, 0x94, 0xaf, 0xe2, 0x9e, 0x47, 0xeb,
  0x14, 0xd7, 0xbc, 0xb7, 0x59, 0x81, 0xdf, 0x59, 0xc4, 0xad, 0xbe, 0x44,
  0xbf, 0x47, 0xec, 0xca, 0x9b, 0xfd, 0x1a, 0x3d, 0x9e, 0xc5, 0x47, 0x3a,
  0xfd, 0xdf, 0x38, 0x20, 0x04, 0xe5, 0x1f, 0x0c, 0xce, 0x43, 0xd5, 0xa8,
  0x1c, 0xc5, 0xf4, 0x14, 0x61, 0x43, 0x11, 0xa8, 0x19, 0x57, 0x04, 0xe3,
  0x2b, 0xf0, 0x47, 0x03, 0x38, 0xc7, 0xf9, 0x3a, 0x46, 0xb9, 0x40, 0xd2,
  0x06, 0xff, 0x4c, 0x50, 0x3f, 0x7f, 0xc7, 0x14, 0x3f, 0x13, 0xc1, 0xbb,
  0xa5, 0xd9, 0xf6, 0x4e, 0x55, 0x23, 0x32, 0x47, 0xb8, 0x08, 0x06, 0xfa,
  0x30, 0x40, 0x30, 0x40, 0x10, 0x56, 0xec, 0x0d, 0x38, 0x54, 0xfd, 0x39,
  0xf4, 0x24, 0x36, 0x2e, 0x44, 0x1f, 0xcc, 0x45, 0x00, 0x66, 0x5e, 0xa0,
  0x35, 0x31, 0x81, 0x49, 0x2e, 0x0b, 0x09, 0x55, 0x44, 0xf7, 0xe5, 0xbf,
  0xfe, 0x56, 0xe5, 0xad, 0x43, 0x01, 0x18, 0x3a, 0xfa, 0x6c, 0x30, 0x49,
  0x9e, 0x26, 0x4d, 0x38, 0xd5, 0x24, 0x44, 0x1f, 0xe6, 0xf9, 0x35, 0xef,
  0xd1, 0xee, 0x05, 0xcf, 0xd9, 0x63, 0x35, 0x5f, 0xe0, 0xde, 0xb1, 0xc4,
  0x19, 0x17, 0xe3, 0x0a, 0x04, 0xef, 0xbd, 0xa9, 0x06, 0x16, 0x96, 0xb0,
  0xbc, 0x5f, 0x4e, 0x00, 0x56, 0x15, 0x20, 0xf2, 0x07, 0xb9, 0xa6, 0x4d,
  0xb6, 0xfc, 0xcd, 0x43, 0xd8, 0x26, 0x05, 0x15, 0xca, 0xc2, 0xf3, 0xad,
  0x58, 0xca, 0xf3, 0xd1, 0x96, 0xc5, 0x31, 0xb5, 0xaa, 0xc4, 0xa2, 0xb9,
  0xff, 0x10, 0x5d, 0xc7, 0xb3, 0x9a, 0x0f, 0x65, 0x05, 0xfa, 0x45, 0xf1,
  0xbc, 0x0b, 0xc7, 0x31, 0xb3, 0xe9, 0x5c, 0x1a, 0x3c, 0xba, 0xc5, 0x6f,
  0xa6, 0x9c, 0xc2, 0x52, 0x53, 0x23, 0xe2, 0x32, 0x11, 0xa6, 0xbb, 0x63,
  0x20, 0x43, 0x50, 0x81, 0x2f, 0x66, 0xc2, 0xb9, 0x02, 0x9f, 0x63, 0x52,
  0x36, 0x28, 0x1f, 0xed, 0xe7, 0x20, 0x9e, 0x5d, 0x51, 0x13, 0xad, 0xa9,
  0x18, 0x3e, 0x05, 0xda, 0x5d, 0x0d, 0x53, 0x77, 0x07, 0xaf, 0x87, 0xd4,
  0x45, 0x81, 0x15, 0x51, 0x38, 0xed, 0x8b, 0x03, 0x6a, 0x06, 0x64, 0xc6,
  0x91, 0x38, 0x82, 0xc3, 0x61, 0x33, 0x4c, 0xca, 0x08, 0x09, 0x18, 0x25,
  0x9b, 0x03, 0xfd, 0x21, 0x16, 0xde, 0x9d, 0x01, 0x11, 0xa4, 0xd3, 0x60,
  0xbc, 0x8e, 0xa6, 0xc0, 0xfb, 0x55, 0x98, 0x42, 0x9d, 0x88, 0xe7, 0x48,
  0x9b, 0xbb, 0x81, 0xae, 0xdf, 0xc8, 0x2a, 0xec, 0xee, 0xbd, 0xd2, 0x51,
  0x0c, 0x25, 0x13, 0x41, 0xe5, 0xd1, 0x8b, 0x0c, 0x1d, 0xd2, 0xa0, 0xd8,
  0xbc, 0x2b, 0xc8, 0xf3, 0xb8, 0xd8, 0xd9, 0xe8, 0x50, 0xf5, 0xdf, 0xae,
  0xc6, 0xbe, 0x8a, 0x8d, 0x25, 0x1a, 0x44, 0x54, 0xbe, 0xea, 0xe0, 0x49,
  0xa0, 0xd1, 0xb8, 0xf2, 0x2a, 0xcb, 0x39, 0xca, 0xf3, 0x98, 0x01, 0xee,
  0x21, 0x12, 0x44, 0xfb, 0xab, 0xf3, 0xac, 0xec, 0x92, 0xa3, 0x58, 0xdb,
  0x3f, 0x25, 0xd4, 0xc1, 0x0b, 0xac, 0xc3, 0x3a, 0x48, 0xe6, 0xf9, 0x0c,
  0x29, 0xcb, 0xe4, 0x1d, 0xfd, 0xe3, 0xe3, 0x58, 0xc5, 0xa3, 0x9c, 0x04,
  0xa7, 0xb3, 0xa7, 0xf3, 0xe9, 0x15, 0x48, 0x93, 0xb2, 0x17, 0xc9, 0xe9,
  0x42, 0xb2, 0x91, 0x22, 0x46, 0x40, 0xf3, 0x51, 0x82, 0x9d, 0x1b, 0x94,
  0x34, 0xf1, 0x0e, 0x12, 0xcf, 0xe6, 0xe3, 0x3e, 0x25, 0x9d, 0x81, 0x26,
  0xde, 0x08, 0xb7, 0xf7, 0xe7, 0x41, 0xdc, 0xe0, 0x16, 0x4a, 0x2d, 0xd8,
  0x13, 0x2f, 0xee, 0xb2, 0x52, 0x93, 0xf5, 0xd0, 0x17, 0xce, 0x05, 0xf5,
  0xbb, 0xba, 0xbf, 0xed, 0xae, 0x4d, 0xe2, 0xe1, 0xe5, 0xa4, 0xba, 0xf3,
  0x1a, 0xab, 0x95, 0xa4, 0x16, 0xb4, 0x32, 0x0f, 0xbd, 0x43, 0xa8, 0x12,
  0xa5, 0xba, 0x2d, 0x3b, 0x1d, 0x2f, 0x45, 0xf2, 0x3c, 0xfa, 0xf5, 0xd0,
  0xc4, 0xaa, 0x63, 0x0c, 0xb8, 0x26, 0x9d, 0x24, 0x44, 0x3d, 0x1d, 0x05,
  0xda, 0x47, 0xd7, 0x81, 0xf6, 0xe1, 0xff, 0xff, 0x04, 0x00, 0x00, 0x00,
  0x60, 0x00, 0x00, 0x00, 0x4d, 0x08, 0x00, 0x00, 0xac, 0xdb, 0xff, 0xff,
  0x97, 0xd4, 0xff, 0xff, 0x0d, 0xf7, 0xff, 0xff, 0x5e, 0xde, 0xff, 0xff,
  0x8a, 0xfe, 0xff, 0xff, 0x62, 0xda, 0xff, 0xff, 0x33, 0xd3, 0xff, 0xff,
  0x2b, 0xd1, 0xff, 0xff, 0x51, 0xf2, 0xff, 0xff, 0x23, 0xee, 0xff, 0xff,
  0xaf, 0x0b, 0x00, 0x00, 0xdc, 0xc1, 0xff, 0xff, 0xad, 0xcc, 0xff, 0xff,
  0xcc, 0xcb, 0xff, 0xff, 0xc0, 0xf9, 0xff, 0xff, 0x7a, 0xe4, 0xff, 0xff,
  0xa7, 0x0c, 0x00, 0x00, 0xf5, 0xf1, 0xff, 0xff, 0xc1, 0xf9, 0xff, 0xff,
  0x50, 0xfb, 0xff, 0xff, 0x26, 0xd1, 0xff, 0xff, 0x3d, 0xc1, 0xff, 0xff,
  0xd2, 0xed, 0xff, 0xff, 0x62, 0xe2, 0xff, 0xff, 0x04, 0x00, 0x00, 0x00,
  0xc0, 0x06, 0x00, 0x00, 0xd4, 0x77, 0x37, 0x4e, 0x81, 0x07, 0xfd, 0xa0,
  0xca, 0x42, 0xf1, 0x3b, 0xc8, 0xdc, 0xe8, 0xa2, 0x4c, 0x92, 0xfd, 0xca,
  0x38, 0x05, 0x3e, 0x2f, 0x41, 0x26, 0xc3, 0xff, 0x5f, 0x27, 0x60, 0x46,
  0x1d, 0x08, 0xc9, 0x12, 0xd5, 0x46, 0xde, 0x8b, 0x26, 0xa9, 0xcf, 0x47,
  0x05, 0x90, 0x2f, 0xd8, 0x28, 0x53, 0x8c, 0x58, 0x25, 0x37, 0x78, 0xea,
  0xe4, 0x18, 0x24, 0xa1, 0x66, 0x81, 0x87, 0xe5, 0x98, 0x16, 0xe7, 0x06,
  0x3a, 0x60, 0x6c, 0xe7, 0x30, 0x6a, 0x1b, 0x25, 0x32, 0x9f, 0xdd, 0x1a,
  0x19, 0x51, 0x8b, 0xe1, 0xbb, 0x58, 0xe9, 0x81, 0x68, 0xd3, 0xf5, 0xf8,
  0xad, 0x10, 0x66, 0xab, 0xf3, 0x21, 0xf4, 0x13, 0xe6, 0x1d, 0x71, 0xd7,
  0x64, 0x5b, 0xf0, 0x0d, 0x49, 0x72, 0xb7, 0xea, 0x5c, 0xb1, 0xe8, 0xdb,
  0xdd, 0xa2, 0xcf, 0x36, 0xf9, 0x1c, 0xbe, 0xc8, 0xe7, 0xe4, 0x32, 0x40,
  0x55, 0xa4, 0x3a, 0xfa, 0xcc, 0xf8, 0x35, 0xbf, 0x11, 0xef, 0x16, 0xd5,
  0x12, 0xa9, 0x30, 0xcb, 0x2c, 0xce, 0x69, 0xb4, 0xb0, 0xe8, 0xb4, 0x58,
  0x7f, 0x0c, 0xa1, 0x5f, 0x5b, 0xee, 0x9a, 0x8f, 0xe5, 0x0a, 0x61, 0x93,
  0xd3, 0x06, 0x24, 0xd6, 0xc5, 0xe1, 0xd1, 0x3d, 0x9d, 0xfa, 0x0d, 0x4f,
  0xdf, 0xd9, 0x28, 0x50, 0xc9, 0xf3, 0xac, 0xf9, 0x9c, 0xb3, 0xbd, 0x37,
  0xfb, 0x1c, 0xef, 0x24, 0xfe, 0x70, 0x5f, 0xd5, 0x02, 0x99, 0xf9, 0x34,
  0x49, 0x52, 0xd1, 0x0b, 0x46, 0x37, 0x67, 0xf6, 0x58, 0x3d, 0xf0, 0x61,
  0xc7, 0x72, 0xf8, 0x10, 0x3d, 0x50, 0xcb, 0xb7, 0x81, 0xbc, 0x0b, 0xe8,
  0x5e, 0x01, 0xd8, 0x6e, 0xc3, 0xcc, 0xec, 0x1f, 0x0f, 0x03, 0xb7, 0xe8,
  0x2c, 0x1d, 0xeb, 0xe1, 0x64, 0x38, 0x3c, 0x30, 0x17, 0xf1, 0x22, 0xf3,
  0xd9, 0x5e, 0xc2, 0xe8, 0x06, 0xfc, 0xa3, 0xc8, 0x3f, 0x12, 0xf9, 0xbd,
  0x69, 0xb0, 0x24, 0x14, 0xbe, 0x5d, 0x20, 0xb9, 0xd5, 0xf6, 0x26, 0xc6,
  0xf5, 0x8d, 0x48, 0xfc, 0xbf, 0x06, 0x14, 0xd8, 0xc8, 0xdc, 0x17, 0x0f,
  0x7e, 0x60, 0x3d, 0x86, 0x67, 0xa2, 0x1d, 0xe8, 0x18, 0x50, 0x5e, 0x40,
  0xea, 0x4d, 0x1b, 0xe9, 0xb6, 0xdc, 0x93, 0xed, 0x40, 0x9f, 0xc1, 0xb9,
  0xc4, 0xb6, 0xd7, 0xff, 0x53, 0x5e, 0x2d, 0x40, 0x13, 0xe6, 0x17, 0xfa,
  0x7f, 0x31, 0xd2, 0xf6, 0x35, 0xbc, 0x03, 0x36, 0xe3, 0xb2, 0x97, 0xb8,
  0xc6, 0xa8, 0x43, 0x0b, 0xaf, 0x25, 0x0b, 0x10, 0xee, 0x0d, 0x00, 0xd7,
  0xda, 0xa1, 0xca, 0x03, 0x34, 0x33, 0xeb, 0xba, 0xf1, 0xae, 0x41, 0x1f,
  0x2c, 0xdf, 0x18, 0x3b, 0xf7, 0x94, 0x87, 0x09, 0x6e, 0xd0, 0xff, 0x0b,
  0xd7, 0xde, 0xe0, 0xdc, 0xd7, 0xc3, 0xf1, 0x0a, 0x7f, 0xdb, 0x04, 0x16,
  0x9c, 0xcb, 0x14, 0xa3, 0xec, 0x4c, 0x18, 0x05, 0x56, 0xd0, 0x26, 0x1a,
  0xe0, 0xb6, 0x27, 0x58, 0xf8, 0xfd, 0xde, 0x16, 0x13, 0xcb, 0xa0, 0x50,
  0xe0, 0x3d, 0x12, 0xe1, 0xdc, 0x3e, 0xa7, 0x15, 0x31, 0x36, 0x40, 0x59,
  0xb3, 0xff, 0x13, 0x01, 0x79, 0xbf, 0xff, 0xf9, 0x10, 0xa6, 0xd2, 0xd4,
  0x4b, 0xa6, 0xab, 0xc0, 0x50, 0xd2, 0xe3, 0x61, 0xe1, 0x4e, 0x47, 0xd2,
  0x0f, 0x2b, 0x4e, 0xf0, 0x00, 0xbe, 0xcc, 0xdc, 0xc7, 0x0c, 0xda, 0x15,
  0xfb, 0x17, 0x0f, 0x1f, 0x03, 0xca, 0x04, 0x50, 0x36, 0x48, 0x21, 0x01,
  0x2e, 0x89, 0x10, 0xbe, 0x6b, 0x54, 0x69, 0xba, 0x44, 0xaf, 0xc6, 0x9c,
  0xe4, 0xc1, 0x48, 0xb3, 0x1d, 0x5a, 0xa3, 0x52, 0xfa, 0x2a, 0xaa, 0x71,
  0x7f, 0xc0, 0xb2, 0x43, 0xcd, 0x36, 0xee, 0x29, 0xf2, 0x59, 0x5e, 0x3c,
  0x48, 0xd9, 0xb7, 0x9b, 0xd4, 0x5b, 0x98, 0xc7, 0x08, 0x1a, 0xf1, 0x0b,
  0xb5, 0x04, 0xec, 0x27, 0x0e, 0xdf, 0x0c, 0xd4, 0xed, 0xf7, 0xa5, 0xa1,
  0x11, 0x10, 0xd4, 0x2c, 0xf0, 0x28, 0x44, 0xdd, 0x15, 0xd9, 0x64, 0x40,
  0x20, 0x05, 0x13, 0xf2, 0x20, 0x41, 0xdd, 0x81, 0xe0, 0x10, 0xd8, 0xb3,
  0xf2, 0xe8, 0x5e, 0xdf, 0xd4, 0x59, 0x1d, 0xf1, 0x81, 0xe4, 0x08, 0x68,
  0x45, 0x19, 0xcf, 0xeb, 0x3d, 0xd2, 0x53, 0xca, 0xcd, 0x5a, 0xb6, 0xb0,
  0xbc, 0x38, 0xcc, 0xe8, 0xc2, 0x1b, 0xc1, 0x25, 0xd8, 0x3f, 0x9a, 0x2c,
  0xee, 0xbb, 0xf3, 0x49, 0x4d, 0x03, 0x64, 0x42, 0x23, 0xeb, 0xe3, 0xe2,
  0x48, 0xf5, 0x50, 0x1d, 0x27, 0x19, 0x61, 0xf6, 0xe5, 0xe2, 0x66, 0x54,
  0xe3, 0x13, 0x0d, 0x26, 0x14, 0xc2, 0x32, 0xc8, 0xfa, 0xd8, 0x14, 0x81,
  0xbd, 0x89, 0x06, 0x0d, 0xbe, 0x2b, 0x39, 0x08, 0x04, 0x0e, 0x56, 0xff,
  0x46, 0x29, 0x18, 0x30, 0x55, 0x35, 0x65, 0x3a, 0xe5, 0xbb, 0x14, 0xc8,
  0xa6, 0x21, 0x38, 0xe0, 0x02, 0x2f, 0xb4, 0xa4, 0x91, 0x3a, 0x1f, 0xcf,
  0x20, 0x35, 0x38, 0xe1, 0x33, 0x70, 0x45, 0x3c, 0x0b, 0xc4, 0xc6, 0x95,
  0xdb, 0x38, 0xe1, 0xeb, 0x2c, 0xce, 0x4b, 0xe7, 0xc2, 0xbe, 0x2e, 0xac,
  0xea, 0x86, 0xc9, 0x06, 0xcf, 0x79, 0xd7, 0xd3, 0x70, 0x32, 0xd0, 0x84,
  0x13, 0x0f, 0xf1, 0x58, 0x1a, 0xd1, 0x83, 0x49, 0x11, 0xd3, 0x9a, 0x77,
  0x7f, 0x3f, 0x41, 0xbb, 0x0b, 0x0c, 0xc8, 0xd2, 0x74, 0x19, 0xdb, 0x37,
  0xcd, 0xcd, 0x4f, 0xe9, 0xf9, 0x7f, 0x3a, 0x4a, 0x94, 0x3f, 0x7e, 0xbc,
  0x49, 0xf7, 0x58, 0x6b, 0x45, 0x09, 0xe0, 0x4c, 0x2e, 0x49, 0x8d, 0xec,
  0xb6, 0xce, 0xbf, 0x3e, 0x1c, 0x7b, 0x01, 0x6e, 0xd6, 0x61, 0xaa, 0xe9,
  0x72, 0x07, 0x58, 0x60, 0xa0, 0xd5, 0xb6, 0x2a, 0x41, 0xda, 0x5a, 0xe8,
  0xe8, 0x8e, 0x9d, 0xa6, 0x17, 0x4d, 0x5c, 0xb6, 0xc5, 0x0d, 0xb7, 0x35,
  0xa6, 0x2a, 0xe8, 0x6e, 0x2d, 0x01, 0xa0, 0x9b, 0xef, 0xc8, 0x0f, 0x88,
  0x68, 0x9d, 0x1d, 0x16, 0xf6, 0xcc, 0xfb, 0xba, 0x89, 0x3e, 0x9c, 0x30,
  0xe9, 0xbf, 0x60, 0x1e, 0x9b, 0xd4, 0xc0, 0xc3, 0x58, 0x42, 0x4c, 0x6f,
  0x29, 0x73, 0xe0, 0x65, 0x02, 0xc0, 0x0a, 0x67, 0x5b, 0x50, 0x9a, 0xc5,
  0x0c, 0xf5, 0x35, 0x18, 0x27, 0x1e, 0x74, 0x46, 0x3c, 0x45, 0x7a, 0xb7,
  0xd0, 0xa2, 0x81, 0xce, 0x3e, 0xd3, 0xa2, 0x12, 0x6d, 0x59, 0xd7, 0x2d,
  0x52, 0x91, 0x0a, 0x18, 0x37, 0xc3, 0x16, 0x37, 0x7a, 0xb1, 0x51, 0x68,
  0xac, 0x9d, 0xec, 0xfc, 0x26, 0x12, 0x11, 0xf3, 0x36, 0x3e, 0x24, 0x65,
  0x52, 0xcd, 0xe4, 0x1d, 0xb8, 0xde, 0x28, 0x12, 0x10, 0xef, 0xc6, 0xd6,
  0xaa, 0x1e, 0x6a, 0x04, 0xb6, 0x7d, 0x07, 0xad, 0x3f, 0x3e, 0x35, 0xac,
  0xa9, 0xdc, 0x08, 0xad, 0x49, 0x55, 0xe2, 0x3f, 0x25, 0xc8, 0x1c, 0x31,
  0x17, 0x93, 0xec, 0xdc, 0xb5, 0xba, 0xe2, 0x5e, 0xc2, 0xbe, 0x38, 0xf8,
  0x1c, 0x81, 0x37, 0x3d, 0xb1, 0xc7, 0x18, 0xc0, 0x35, 0x1d, 0xaf, 0xeb,
  0xba, 0xda, 0x06, 0x05, 0x5f, 0xae, 0xd6, 0xe8, 0x34, 0x34, 0xa8, 0x9e,
  0x25, 0xd2, 0x72, 0x56, 0x22, 0x7e, 0x54, 0xfe, 0xab, 0x5d, 0xd5, 0x05,
  0xa8, 0x27, 0xa4, 0x21, 0x21, 0x64, 0xd6, 0x18, 0x3c, 0xe8, 0x01, 0xbd,
  0xd1, 0x12, 0x7f, 0xb5, 0x9d, 0x11, 0x19, 0xa2, 0x09, 0xef, 0xae, 0xc0,
  0x27, 0xdd, 0x47, 0x3c, 0x72, 0xea, 0xea, 0xea, 0xac, 0xf2, 0x14, 0xa0,
  0x45, 0xb9, 0x64, 0x17, 0xf3, 0x2c, 0x0d, 0x0b, 0xae, 0xf2, 0x24, 0xb3,
  0x6c, 0x0a, 0x6f, 0xc1, 0xee, 0x87, 0xbb, 0xa9, 0xf2, 0x67, 0xce, 0xf6,
  0x97, 0xa7, 0xe7, 0xdd, 0x27, 0xc6, 0x56, 0x77, 0xad, 0xc1, 0x38, 0x97,
  0xe7, 0xa5, 0xbd, 0xed, 0xa7, 0x07, 0x1d, 0xc3, 0x70, 0x30, 0xe5, 0xac,
  0xd4, 0xaa, 0x43, 0xce, 0xa9, 0xa6, 0x7b, 0x4b, 0x88, 0x7d, 0x9a, 0xbb,
  0x37, 0xa6, 0xee, 0x5d, 0x6b, 0x15, 0x90, 0x52, 0x9b, 0xa2, 0x24, 0x12,
  0x16, 0x3a, 0x13, 0x72, 0x67, 0x43, 0xbf, 0xb9, 0xd5, 0x05, 0xd5, 0x3b,
  0x00, 0x81, 0xb5, 0xa0, 0xed, 0xfc, 0x8c, 0xf4, 0x31, 0xb6, 0x39, 0x5a,
  0xf3, 0x06, 0xb7, 0xe9, 0x57, 0xbf, 0x11, 0xe8, 0xd3, 0xc2, 0x40, 0x51,
  0xd5, 0xde, 0x2b, 0xc2, 0xc1, 0xc4, 0x48, 0x43, 0x1e, 0xa0, 0xb3, 0x3d,
  0x35, 0x44, 0xda, 0xc0, 0xd7, 0x73, 0xba, 0x86, 0xcb, 0xb4, 0x19, 0x0e,
  0x7f, 0x2e, 0xa3, 0xc9, 0xcb, 0xe1, 0x35, 0x02, 0xcd, 0xd2, 0x29, 0x3e,
  0x44, 0xfa, 0xdc, 0xe0, 0x5c, 0x3c, 0x22, 0x29, 0x07, 0xe0, 0xc0, 0x96,
  0x1d, 0xb7, 0x11, 0x28, 0xa8, 0x08, 0x45, 0xab, 0x47, 0x32, 0x2d, 0x29,
  0xcc, 0xec, 0xac, 0xd4, 0xfa, 0x49, 0x6c, 0x4c, 0xb4, 0x29, 0xfa, 0x49,
  0x0d, 0xc8, 0xbf, 0xcc, 0xd2, 0x4e, 0xd4, 0xcc, 0xf6, 0xc1, 0x2f, 0x82,
  0x4b, 0xf9, 0x46, 0xa6, 0x25, 0xda, 0x1f, 0x43, 0xed, 0xab, 0x47, 0xb5,
  0x35, 0x3f, 0x6b, 0xf3, 0xae, 0x07, 0x6e, 0x1d, 0xee, 0x1a, 0xa5, 0x81,
  0x9b, 0x46, 0x05, 0xfe, 0x5d, 0xfd, 0xd2, 0xe2, 0xd4, 0x15, 0x55, 0xca,
  0x3c, 0x93, 0x21, 0xe9, 0xbf, 0x44, 0x99, 0x67, 0x41, 0x07, 0x20, 0x92,
  0x0a, 0xe7, 0xb5, 0x8e, 0x9a, 0x73, 0xd8, 0x37, 0xd5, 0x48, 0xde, 0x9a,
  0x4d, 0xe2, 0x61, 0x87, 0xee, 0x45, 0x45, 0x70, 0xaf, 0xb3, 0x28, 0xef,
  0xb7, 0xd9, 0x01, 0xf1, 0xbd, 0x70, 0x2f, 0xb0, 0x3d, 0x38, 0xaa, 0x94,
  0x27, 0xed, 0xcc, 0x0a, 0x43, 0x05, 0x53, 0xd6, 0x81, 0x1b, 0x45, 0x23,
  0xdc, 0xa9, 0x92, 0xec, 0xc0, 0x00, 0x5a, 0x2a, 0xca, 0xdd, 0xbf, 0xec,
  0x4b, 0xa3, 0x58, 0x0a, 0x12, 0x6a, 0x21, 0x64, 0xeb, 0xbb, 0x3c, 0xeb,
  0xda, 0x36, 0x4f, 0xb2, 0xc2, 0x40, 0x5e, 0x8b, 0x1a, 0x26, 0x5d, 0xd4,
  0xd9, 0xc5, 0xc5, 0x1d, 0x2d, 0x63, 0x34, 0xb7, 0x39, 0xda, 0xb4, 0x9b,
  0x81, 0x2c, 0x5f, 0x49, 0xd5, 0xb3, 0x73, 0xcd, 0x0d, 0x07, 0x56, 0xf9,
  0x71, 0x40, 0xd0, 0x1d, 0x1c, 0x39, 0x95, 0x47, 0x1c, 0xb8, 0x00, 0x9d,
  0x26, 0xdc, 0x92, 0x57, 0x0b, 0xfe, 0x35, 0xd4, 0xd8, 0x4f, 0x5c, 0xff,
  0x03, 0xb4, 0x0c, 0xf6, 0xb9, 0xfc, 0xdd, 0x24, 0xfe, 0xf9, 0x47, 0x37,
  0xe1, 0x14, 0x3d, 0xcc, 0x8e, 0x40, 0x7f, 0x20, 0xde, 0xeb, 0x06, 0xfc,
  0x2b, 0xb6, 0x5b, 0xfa, 0x4e, 0x5a, 0x0a, 0xf9, 0xcc, 0xf5, 0x0a, 0x84,
  0x29, 0xaa, 0x07, 0x19, 0xdb, 0x19, 0xb2, 0x8c, 0xda, 0x11, 0x41, 0x2e,
  0x59, 0x18, 0xe6, 0x1f, 0x42, 0x03, 0x15, 0xc1, 0xe5, 0xe8, 0x10, 0x04,
  0x57, 0xa9, 0xe4, 0x45, 0xb9, 0x12, 0x48, 0x17, 0x09, 0x55, 0xbe, 0xcd,
  0x49, 0xb1, 0xc2, 0xe2, 0xf0, 0xe6, 0xca, 0xee, 0xd7, 0x12, 0x9f, 0x06,
  0x7f, 0xb0, 0x4e, 0x1f, 0xd9, 0xc0, 0x2b, 0x5f, 0x36, 0xeb, 0xe6, 0xe1,
  0x49, 0x40, 0x0e, 0x53, 0x50, 0x8b, 0xee, 0x6f, 0x91, 0xde, 0xd1, 0x34,
  0xd1, 0x5b, 0xfc, 0x0c, 0x4d, 0x5b, 0xc8, 0xad, 0xd8, 0x84, 0x04, 0xe1,
  0x36, 0xf5, 0x6a, 0xb6, 0x4d, 0x53, 0xfe, 0x86, 0x70, 0x55, 0xde, 0xe3,
  0xcc, 0x5a, 0xc4, 0xe1, 0x5a, 0x2e, 0x23, 0x29, 0x7f, 0xd2, 0x7c, 0x16,
  0xb3, 0xbf, 0x11, 0x9b, 0x06, 0x2f, 0x81, 0x7b, 0xde, 0x18, 0x42, 0xa1,
  0xe5, 0xf7, 0x78, 0x09, 0xb0, 0x02, 0x04, 0xcd, 0x25, 0x1d, 0xbb, 0xce,
  0x44, 0xc5, 0xe7, 0x42, 0xb9, 0xdd, 0x4f, 0xe9, 0x3c, 0x5d, 0xf2, 0x53,
  0x15, 0xf0, 0xfc, 0x02, 0xd1, 0x4e, 0x01, 0xea, 0xff, 0x73, 0x59, 0xef,
  0xb6, 0x42, 0x30, 0xc0, 0x99, 0xd1, 0x35, 0x02, 0xb5, 0xb0, 0xd1, 0xc8,
  0x25, 0x99, 0xf3, 0xc6, 0xda, 0x1c, 0x1f, 0x32, 0x6c, 0xfc, 0xc4, 0x8a,
  0x00, 0xaf, 0xfc, 0xeb, 0x74, 0xe6, 0x42, 0x38, 0x22, 0x8c, 0x58, 0xb5,
  0x5a, 0x66, 0x01, 0xad, 0xfd, 0xac, 0xbb, 0xc3, 0xe7, 0x67, 0x67, 0xd3,
  0xf7, 0xf4, 0x0d, 0xed, 0x5b, 0xe1, 0xdc, 0xa8, 0xeb, 0x0d, 0x73, 0x23,
  0x68, 0x54, 0x7f, 0xaa, 0x15, 0x40, 0x3f, 0xe6, 0xdb, 0x32, 0xf9, 0x04,
  0xef, 0xfc, 0xe3, 0x99, 0x79, 0xde, 0x14, 0x41, 0x0a, 0x1f, 0x68, 0x78,
  0xcb, 0x10, 0x72, 0x31, 0xaf, 0x41, 0x1e, 0xc1, 0x08, 0x0c, 0x68, 0x64,
  0x26, 0x12, 0x05, 0xef, 0xdb, 0x3c, 0xcc, 0x2d, 0x11, 0xdf, 0xfc, 0xb8,
  0x7f, 0x4c, 0x1c, 0xfe, 0x43, 0x48, 0x20, 0x02, 0x50, 0x43, 0x3e, 0xd6,
  0x2a, 0xa9, 0x40, 0x47, 0xfa, 0x09, 0xa9, 0x1b, 0x0e, 0xf1, 0x2e, 0x29,
  0xce, 0x36, 0x5b, 0x30, 0x01, 0x52, 0xc9, 0x9d, 0x2c, 0x4f, 0x21, 0x4c,
  0x04, 0xa9, 0xce, 0x17, 0x4f, 0xc1, 0xfb, 0x5e, 0x9e, 0x49, 0xac, 0x49,
  0x41, 0xdc, 0xe7, 0xd6, 0xe2, 0x52, 0x1e, 0x06, 0xd3, 0x58, 0xf2, 0x8e,
  0xe9, 0x26, 0xac, 0xec, 0xf0, 0xa7, 0xff, 0xff, 0xf4, 0xa7, 0xff, 0xff,
  0xf8, 0xa7, 0xff, 0xff, 0x3a, 0xe9, 0xff, 0xff, 0x04, 0x00, 0x00, 0x00,
  0x60, 0x00, 0x00, 0x00, 0x00, 0x00, 0x00, 0x00, 0x00, 0x00, 0x00, 0x00,
  0x00, 0x00, 0x00, 0x00, 0x00, 0x00, 0x00, 0x00, 0x00, 0x00, 0x00, 0x00,
  0x00, 0x00, 0x00, 0x00, 0x00, 0x00, 0x00, 0x00, 0x00, 0x00, 0x00, 0x00,
  0x00, 0x00, 0x00, 0x00, 0x00, 0x00, 0x00, 0x00, 0x00, 0x00, 0x00, 0x00,
  0x00, 0x00, 0x00, 0x00, 0x00, 0x00, 0x00, 0x00, 0x00, 0x00, 0x00, 0x00,
  0x00, 0x00, 0x00, 0x00, 0x00, 0x00, 0x00, 0x00, 0x00, 0x00, 0x00, 0x00,
  0x00, 0x00, 0x00, 0x00, 0x00, 0x00, 0x00, 0x00, 0x00, 0x00, 0x00, 0x00,
  0x00, 0x00, 0x00, 0x00, 0x00, 0x00, 0x00, 0x00, 0x00, 0x00, 0x00, 0x00,
  0x00, 0x00, 0x00, 0x00, 0xa6, 0xe9, 0xff, 0xff, 0x04, 0x00, 0x00, 0x00,
  0x18, 0x00, 0x00, 0x00, 0x47, 0xee, 0x7b, 0x80, 0xba, 0x3c, 0x07, 0xa3,
  0xfd, 0xcf, 0x0f, 0x53, 0x1b, 0xdf, 0x7f, 0xb0, 0x59, 0xcc, 0x26, 0xcf,
  0x4f, 0xf7, 0x3b, 0x21, 0xca, 0xe9, 0xff, 0xff, 0x04, 0x00, 0x00, 0x00,
  0xc0, 0x06, 0x00, 0x00, 0x51, 0xa9, 0x84, 0x15, 0x54, 0x97, 0x27, 0x95,
  0xd6, 0x5a, 0x8a, 0x39, 0x69, 0xf3, 0xf4, 0x9d, 0x97, 0x20, 0x95, 0x31,
  0xb5, 0x90, 0xb9, 0xb5, 0x2d, 0x87, 0x3c, 0x49, 0x4b, 0x31, 0x93, 0x39,
  0x20, 0xc3, 0x9f, 0x81, 0x9c, 0xcc, 0xb5, 0xce, 0x9b, 0x1e, 0x3c, 0xe3,
  0xff, 0x19, 0xa0, 0x1b, 0x2e, 0x9a, 0xfa, 0xbf, 0xba, 0x90, 0xd4, 0xd2,
  0x96, 0x6c, 0x33, 0x5c, 0x3f, 0xec, 0xbb, 0xf4, 0xaf, 0x91, 0x9f, 0xd5,
  0x5c, 0x9c, 0x54, 0x70, 0x0d, 0xb6, 0xa6, 0x0d, 0xbd, 0x23, 0x67, 0x7f,
  0xfb, 0xd6, 0x22, 0xba, 0x01, 0xc8, 0x0e, 0xbe, 0xa7, 0x34, 0x96, 0x24,
  0x4e, 0x4b, 0x49, 0xb0, 0xa8, 0xf3, 0x55, 0x58, 0xae, 0x64, 0x4f, 0xa3,
  0x4a, 0x05, 0xd5, 0x03, 0x64, 0xfa, 0xb5, 0x03, 0xe0, 0xf0, 0xeb, 0x1a,
  0xfc, 0xab, 0x28, 0x35, 0xe9, 0x03, 0x3f, 0x24, 0xee, 0x1c, 0xda, 0xc5,
  0x4d, 0x22, 0x30, 0x26, 0xfa, 0x49, 0x34, 0xa9, 0xb5, 0xf1, 0x39, 0xef,
  0xe7, 0x52, 0x44, 0x28, 0xb1, 0x38, 0xf3, 0x40, 0x2e, 0x3d, 0x0c, 0xf9,
  0x19, 0x0b, 0x2d, 0xd3, 0xab, 0xca, 0x81, 0x51, 0x46, 0xa2, 0x03, 0x50,
  0x1c, 0x54, 0x12, 0xe7, 0xbe, 0x44, 0x1e, 0x4f, 0x2b, 0xd7, 0xc2, 0x4f,
  0x2e, 0x10, 0x5c, 0xe9, 0xc8, 0x1b, 0x10, 0xa6, 0xc6, 0x6c, 0x42, 0xfd,
  0x41, 0xfb, 0x01, 0x20, 0xbc, 0x48, 0x34, 0xe6, 0x19, 0x2e, 0x44, 0x62,
  0xa2, 0xb2, 0x28, 0x9f, 0x09, 0x62, 0xef, 0x28, 0xea, 0xe6, 0xee, 0xcc,
  0xe9, 0x01, 0xee, 0x08, 0x94, 0x3d, 0x97, 0x6e, 0xe1, 0xb6, 0xdd, 0x2d,
  0x21, 0x90, 0xa7, 0x61, 0xcd, 0x64, 0xe7, 0x07, 0xa2, 0x0e, 0xc4, 0x6c,
  0x82, 0xca, 0x47, 0xc2, 0x42, 0x38, 0x39, 0x54, 0x1a, 0x31, 0xa1, 0xdf,
  0xcf, 0xf8, 0x5b, 0xe3, 0xbe, 0xd8, 0xd6, 0xe8, 0x09, 0xb7, 0x4c, 0x6d,
  0x3a, 0x7a, 0xf4, 0xdc, 0x4c, 0x34, 0x14, 0xd4, 0x4a, 0x26, 0x54, 0x81,
  0xfa, 0x23, 0x2b, 0x91, 0x4e, 0x6b, 0x54, 0xa1, 0x07, 0x39, 0x17, 0x3d,
  0x40, 0xb5, 0x99, 0x47, 0x19, 0x3e, 0x4d, 0x36, 0x2d, 0x3d, 0x41, 0x50,
  0xc7, 0xfb, 0x57, 0x5c, 0x49, 0x1d, 0x03, 0xb9, 0xd3, 0x15, 0x4b, 0xd6,
  0x0b, 0xdf, 0x15, 0x1d, 0x05, 0xcb, 0x81, 0x41, 0xf7, 0x50, 0x1a, 0xc0,
  0x0b, 0xf4, 0xe8, 0xc7, 0x43, 0x27, 0x15, 0xe7, 0x42, 0xbb, 0xf9, 0xcf,
  0x31, 0x37, 0xc9, 0xdf, 0x05, 0x21, 0x36, 0xd1, 0x53, 0xcd, 0x5e, 0xc0,
  0xc3, 0x29, 0x1b, 0x97, 0x34, 0x5d, 0x00, 0x54, 0xd2, 0xa6, 0x90, 0x0d,
  0xc9, 0x0e, 0xd9, 0x16, 0xca, 0xc0, 0x1e, 0x12, 0xf5, 0x81, 0x87, 0xf1,
  0x4d, 0x11, 0xe3, 0x0e, 0xa4, 0xe4, 0x12, 0x48, 0xd8, 0xb6, 0x48, 0x1e,
  0x99, 0x81, 0x84, 0x27, 0xf8, 0x94, 0x78, 0xeb, 0xc2, 0x5e, 0x1e, 0x91,
  0x35, 0x46, 0xd3, 0x9e, 0x39, 0x86, 0xb9, 0x93, 0x97, 0xcf, 0x5b, 0x29,
  0x54, 0xe7, 0x5e, 0x99, 0xdd, 0x08, 0xf7, 0xdb, 0xd4, 0x89, 0x54, 0x4e,
  0xfb, 0xde, 0xa8, 0x8a, 0x93, 0x08, 0x95, 0x5d, 0xf0, 0x5d, 0xc4, 0xfa,
  0x0e, 0xd9, 0xd3, 0xdb, 0x18, 0xe5, 0xdb, 0xbe, 0x54, 0x28, 0x05, 0x5f,
  0x4d, 0xcd, 0xcd, 0xea, 0xf9, 0x94, 0x26, 0x1d, 0xd8, 0x43, 0xbc, 0x58,
  0xfb, 0xea, 0xba, 0xcd, 0x26, 0x46, 0xe4, 0x1a, 0x46, 0xe7, 0x3c, 0xfe,
  0x1f, 0xa4, 0x01, 0x33, 0x35, 0x19, 0xe0, 0x1f, 0x0b, 0xd7, 0x92, 0xd8,
  0x7f, 0x3b, 0x5c, 0xe2, 0x37, 0x0a, 0xcb, 0xe0, 0x38, 0xd2, 0x5c, 0x1d,
  0x26, 0x4c, 0x6c, 0xbd, 0x2d, 0x0f, 0x9b, 0xb4, 0x40, 0xd5, 0x98, 0x2a,
  0x51, 0xf2, 0xfd, 0x4d, 0x86, 0x96, 0xaa, 0x0c, 0x70, 0xb9, 0x2b, 0x3d,
  0x0d, 0x13, 0xd1, 0x70, 0xbe, 0x8d, 0x9e, 0x64, 0x72, 0xf2, 0x81, 0x8e,
  0xdc, 0x07, 0x49, 0x8e, 0x10, 0x97, 0xe1, 0x18, 0x16, 0x95, 0x6c, 0x67,
  0x53, 0x4e, 0x0d, 0x1d, 0x16, 0x44, 0x02, 0xaf, 0xf5, 0x27, 0x17, 0xea,
  0x2f, 0x57, 0x79, 0x56, 0xcf, 0x03, 0xae, 0xc0, 0xc9, 0x78, 0xe5, 0x01,
  0x17, 0xd3, 0xa9, 0xc0, 0x27, 0x45, 0x04, 0x98, 0x2f, 0x6a, 0x4d, 0x84,
  0xeb, 0x32, 0x37, 0x30, 0xd2, 0x4f, 0x93, 0x08, 0xd8, 0x40, 0x94, 0xa1,
  0x27, 0x23, 0x54, 0xde, 0xc1, 0x05, 0xf6, 0xdc, 0x13, 0x01, 0xf0, 0x11,
  0xa7, 0x0a, 0xee, 0xf6, 0xb8, 0x05, 0xd6, 0xe5, 0xd0, 0x18, 0xa8, 0x2c,
  0xe1, 0xdd, 0xb5, 0x4b, 0xd3, 0x5b, 0xfe, 0xf1, 0x97, 0x97, 0xeb, 0x56,
  0xaf, 0x0c, 0xd8, 0x34, 0x01, 0xdb, 0xbe, 0x32, 0xb8, 0xc8, 0x21, 0x49,
  0xd0, 0x42, 0xf1, 0xd9, 0x57, 0x09, 0xcf, 0x2c, 0x49, 0x7f, 0xb8, 0x64,
  0xf4, 0x30, 0x98, 0x9e, 0xa7, 0x9d, 0xaf, 0xd7, 0xfe, 0x90, 0xe5, 0x43,
  0x02, 0xed, 0xa3, 0xb8, 0x59, 0xfa, 0xd3, 0x04, 0x8e, 0xc1, 0x28, 0x0f,
  0xc9, 0x3e, 0x27, 0x34, 0xfc, 0xc2, 0xe7, 0x57, 0xd9, 0xe8, 0xc4, 0x25,
  0x9c, 0xc9, 0x4a, 0x26, 0x09, 0xe2, 0xda, 0x11, 0x89, 0xc5, 0x01, 0x5c,
  0xae, 0x3b, 0xd9, 0x26, 0x81, 0x87, 0xc1, 0xbc, 0x98, 0x8f, 0xd4, 0xc7,
  0x06, 0x32, 0xe2, 0xf9, 0xfc, 0xd6, 0xf0, 0x54, 0x4d, 0xaf, 0xcc, 0xf8,
  0xcc, 0x30, 0x56, 0x28, 0x35, 0x5e, 0xe7, 0x67, 0x14, 0x19, 0x31, 0xeb,
  0xfb, 0xb6, 0xe4, 0x2f, 0xe8, 0x09, 0xf2, 0x0e, 0x9c, 0xe4, 0xff, 0xde,
  0x1e, 0xa5, 0x49, 0x10, 0xa0, 0xe8, 0x3e, 0x33, 0xee, 0x39, 0x48, 0x33,
  0xac, 0x26, 0x48, 0x32, 0x2f, 0x22, 0x8c, 0x31, 0x09, 0x2a, 0xca, 0x3e,
  0xc9, 0xfc, 0x4b, 0xc8, 0x39, 0x35, 0x68, 0x9f, 0x11, 0xfd, 0x24, 0x17,
  0x1c, 0x3b, 0x46, 0xf6, 0xb9, 0xeb, 0x81, 0x3f, 0xcc, 0x22, 0xbe, 0x3b,
  0xef, 0x0f, 0xea, 0xe4, 0x0c, 0xa1, 0x24, 0x7a, 0xf9, 0xd7, 0xb7, 0x15,
  0xb6, 0x50, 0x6a, 0xc0, 0x2d, 0xc5, 0x97, 0x45, 0x8c, 0x69, 0x87, 0x89,
  0x71, 0xdf, 0xf2, 0xb1, 0xfc, 0x6e, 0xd0, 0x02, 0x35, 0xa0, 0x50, 0x68,
  0xe5, 0x2e, 0xbe, 0xab, 0xce, 0x2e, 0xb4, 0x93, 0x88, 0xb9, 0x96, 0x98,
  0xc8, 0x8e, 0x81, 0xdb, 0x5e, 0xb6, 0xaa, 0xc4, 0xf6, 0xee, 0x03, 0x32,
  0x1c, 0xb0, 0xf1, 0xd7, 0x8b, 0xdf, 0xd4, 0xbb, 0x3a, 0x1a, 0x9e, 0x53,
  0xea, 0xc9, 0xbd, 0x28, 0x81, 0x11, 0x12, 0xbe, 0xda, 0x19, 0xd8, 0xfc,
  0xd9, 0x38, 0xb7, 0xa9, 0xf4, 0x0f, 0xf4, 0xe9, 0xbc, 0x5a, 0xbf, 0x3c,
  0x35, 0xe3, 0x9a, 0x9f, 0xaf, 0xb9, 0xcc, 0xd3, 0xce, 0x35, 0x1d, 0x1e,
  0x10, 0xfa, 0x5f, 0xf0, 0xd7, 0x02, 0xaa, 0x0a, 0x4c, 0x28, 0xa6, 0xa1,
  0xf2, 0x2d, 0xde, 0x3d, 0xeb, 0x37, 0xc5, 0xfa, 0xeb, 0xda, 0x49, 0xb6,
  0xea, 0x65, 0x11, 0x93, 0xa6, 0x12, 0xb9, 0x11, 0x84, 0xec, 0x29, 0xe3,
  0xac, 0x20, 0xba, 0xfe, 0x97, 0x14, 0x02, 0x0d, 0x1c, 0xef, 0x09, 0xc5,
  0x3f, 0xe5, 0x0c, 0x28, 0x56, 0xa7, 0x81, 0x3d, 0x2b, 0xe5, 0xd3, 0x58,
  0x50, 0xd5, 0x26, 0xe9, 0x65, 0xae, 0x3e, 0x61, 0xb3, 0x28, 0xd2, 0xed,
  0xb5, 0xef, 0x21, 0x49, 0x30, 0x8a, 0xda, 0x2a, 0xa9, 0xe0, 0xb7, 0x87,
  0x2e, 0x4a, 0xf4, 0x56, 0xde, 0xa0, 0x2e, 0x5a, 0x33, 0x2d, 0xad, 0x52,
  0xf7, 0x36, 0x33, 0xba, 0xc2, 0x46, 0xb9, 0x9d, 0x4f, 0xff, 0x06, 0x10,
  0x22, 0xe8, 0xf9, 0x34, 0x6e, 0x1f, 0xf8, 0x22, 0x2f, 0x8c, 0x73, 0x84,
  0xee, 0x38, 0x9b, 0x39, 0x5a, 0x3c, 0x06, 0x17, 0x1c, 0xb5, 0x3d, 0xd1,
  0x56, 0x30, 0xab, 0x8f, 0xce, 0xc4, 0x1f, 0x6c, 0xba, 0x43, 0xec, 0x55,
  0x8c, 0x19, 0xf6, 0x9a, 0xf7, 0xc9, 0xaf, 0x1b, 0xa2, 0xba, 0x62, 0xbe,
  0xfb, 0x26, 0x99, 0x28, 0xef, 0x24, 0x3d, 0x1d, 0x3c, 0x94, 0xbe, 0xbc,
  0xf2, 0x8e, 0xa4, 0xdc, 0x00, 0xd1, 0xa1, 0xa6, 0x8a, 0x81, 0x82, 0xf2,
  0x1c, 0xd1, 0x2e, 0xb2, 0x5f, 0xdd, 0xec, 0xaf, 0xe0, 0xea, 0x01, 0x25,
  0x91, 0xcd, 0x22, 0xfc, 0xe8, 0x93, 0xdb, 0xd3, 0xfe, 0xbc, 0xd7, 0x4c,
  0xd5, 0xe1, 0x94, 0x2c, 0x32, 0x49, 0xb0, 0xd7, 0x66, 0xe2, 0xa7, 0xe0,
  0x12, 0xd4, 0x3b, 0x81, 0x0f, 0xcf, 0x22, 0xd8, 0x88, 0x41, 0x27, 0x25,
  0x99, 0x18, 0x42, 0x41, 0x06, 0xf9, 0xd4, 0x75, 0xa1, 0xc1, 0xd7, 0x4d,
  0x17, 0xc7, 0x7a, 0xab, 0xe0, 0x35, 0xcd, 0x1a, 0xb8, 0xde, 0x35, 0x87,
  0x52, 0x65, 0xa6, 0x0a, 0xae, 0xad, 0x35, 0x37, 0x17, 0x21, 0x20, 0x08,
  0xa7, 0xc1, 0x4a, 0xfe, 0x09, 0xd4, 0xff, 0x05, 0xbb, 0x0e, 0xd9, 0xeb,
  0x10, 0x81, 0xa9, 0x4c, 0xe5, 0x31, 0xdc, 0x1f, 0xd4, 0xf0, 0x62, 0xbc,
  0x20, 0xd3, 0xe4, 0xc7, 0xe4, 0xc2, 0xec, 0x0a, 0x40, 0xc1, 0x50, 0xbe,
  0x05, 0x40, 0x5c, 0x10, 0x3e, 0x9b, 0x1b, 0xe4, 0x8e, 0x0a, 0xfd, 0x22,
  0xc2, 0x1a, 0x00, 0x18, 0xe7, 0xe2, 0xa9, 0xc9, 0xe3, 0x59, 0xd1, 0xe6,
  0xee, 0x4c, 0x52, 0x28, 0xeb, 0x49, 0x3d, 0x0e, 0x22, 0x44, 0xde, 0x2b,
  0x08, 0xc0, 0xff, 0x18, 0x9e, 0x1d, 0xbf, 0xd1, 0x51, 0x41, 0xa8, 0x42,
  0xe6, 0x47, 0x01, 0x56, 0x57, 0xc5, 0x2b, 0xdd, 0x15, 0x10, 0xef, 0xee,
  0x3f, 0xb8, 0x4b, 0xe8, 0xdd, 0x93, 0x2f, 0x03, 0x30, 0x81, 0x22, 0x1d,
  0xa5, 0xed, 0x3a, 0x1d, 0xfd, 0xb1, 0xc5, 0xab, 0x9c, 0xcf, 0xfc, 0xa0,
  0x3d, 0xfc, 0x23, 0xed, 0x0f, 0xb2, 0x9a, 0xbf, 0xb0, 0xdd, 0xaf, 0x0f,
  0xf7, 0x20, 0xfe, 0x60, 0xc9, 0x8e, 0x55, 0xbc, 0x33, 0xfe, 0xab, 0x44,
  0x0f, 0x8e, 0x1c, 0xb1, 0xf5, 0xfb, 0x53, 0x14, 0x9c, 0x1e, 0x58, 0xdb,
  0xc2, 0x88, 0xa2, 0xab, 0xaf, 0x81, 0x3e, 0xd8, 0xf0, 0x63, 0x07, 0xdd,
  0xff, 0x8a, 0x20, 0xa9, 0x8d, 0x4c, 0x1d, 0xde, 0x91, 0x5c, 0xac, 0xc1,
  0x55, 0xe0, 0x25, 0x18, 0x6c, 0xf1, 0xf0, 0xbb, 0x13, 0x48, 0x9f, 0x3c,
  0x09, 0xa5, 0x98, 0x31, 0x53, 0x3e, 0x58, 0xb9, 0x05, 0x9d, 0xf4, 0x31,
  0x85, 0xeb, 0x12, 0x5c, 0x20, 0x17, 0xb5, 0x4f, 0x20, 0xf9, 0x1c, 0x07,
  0x0a, 0xab, 0x81, 0x00, 0xfb, 0xec, 0x43, 0x8a, 0x8c, 0xa4, 0xc2, 0x8b,
  0x67, 0x7b, 0x0d, 0xc1, 0x63, 0x58, 0xba, 0xfe, 0x34, 0x32, 0x12, 0x85,
  0xde, 0x2b, 0xd5, 0x08, 0xa0, 0xe1, 0xc6, 0x2d, 0x5b, 0xeb, 0x54, 0xd5,
  0xf3, 0x74, 0x61, 0x1c, 0xd8, 0x9f, 0xa7, 0x34, 0x64, 0xe8, 0x3e, 0x61,
  0xa4, 0x49, 0xd5, 0x28, 0x19, 0x87, 0x45, 0x82, 0x30, 0x4e, 0xe6, 0xf4,
  0x39, 0x16, 0xa7, 0x0c, 0x25, 0xd8, 0xbe, 0xce, 0x26, 0x49, 0xd5, 0x8e,
  0x09, 0x5c, 0xa2, 0x92, 0xda, 0x07, 0xfe, 0x53, 0x22, 0x29, 0xec, 0x41,
  0xc6, 0x44, 0xb1, 0xc1, 0xf3, 0x3e, 0xd1, 0x16, 0xb4, 0x17, 0xcd, 0xd4,
  0x38, 0x16, 0xd1, 0x04, 0xe5, 0x4a, 0xcf, 0xba, 0x27, 0xe0, 0xe3, 0x49,
  0x5b, 0xbf, 0xbd, 0xa8, 0xa3, 0x20, 0x18, 0x30, 0xf7, 0x91, 0x16, 0x2e,
  0x81, 0x19, 0x4a, 0xb2, 0xa3, 0x22, 0xe1, 0x2e, 0xc3, 0x9a, 0x41, 0xd6,
  0x1f, 0xd0, 0xc0, 0x0e, 0xf5, 0x3f, 0x45, 0xe5, 0x7d, 0x25, 0xf7, 0xdc,
  0x74, 0x4a, 0x9f, 0x2b, 0xff, 0x71, 0xc1, 0x41, 0xf3, 0xf0, 0xa5, 0x58,
  0xbd, 0xf1, 0x4f, 0x65, 0x47, 0xa2, 0x3d, 0xdb, 0xcd, 0x47, 0x57, 0x0f,
  0xe7, 0xc6, 0x39, 0x8d, 0x65, 0x0f, 0xf0, 0x00, 0xbb, 0x5a, 0x16, 0x48,
  0x63, 0x2a, 0xf2, 0x1d, 0x59, 0xf7, 0xa3, 0x9f, 0x26, 0xca, 0x0a, 0x13,
  0xe0, 0xad, 0x71, 0x03, 0xd3, 0xd0, 0x2f, 0x27, 0x81, 0x58, 0x40, 0xc9,
  0xe1, 0x9f, 0x01, 0x90, 0xb3, 0xec, 0xe2, 0xab, 0xd3, 0xcf, 0xf8, 0x3a,
  0xec, 0x42, 0x2e, 0xb8, 0x0d, 0x52, 0x81, 0x06, 0xf0, 0x9b, 0x1d, 0xea,
  0x13, 0xef, 0x43, 0x12, 0xc1, 0xde, 0xed, 0xd0, 0x07, 0x1b, 0x37, 0x0f,
  0x95, 0xea, 0x15, 0xb3, 0xf8, 0xf2, 0x15, 0xca, 0xcb, 0x9f, 0xf6, 0x13,
  0x00, 0xde, 0xb9, 0x30, 0x0f, 0xd0, 0xb0, 0xb8, 0xb8, 0x49, 0xc5, 0x0f,
  0xbc, 0x2e, 0x0a, 0x15, 0xc0, 0x47, 0x83, 0x10, 0x43, 0x98, 0x3d, 0x10,
  0xe6, 0xd2, 0x38, 0xec, 0x0e, 0xac, 0xe3, 0x6b, 0xed, 0xf4, 0xbb, 0xd3,
  0xd8, 0xd2, 0x25, 0xf2, 0x31, 0x0b, 0xd9, 0x59, 0xeb, 0x9d, 0x12, 0xdd,
  0x3b, 0xd2, 0x15, 0xa9, 0xc8, 0x13, 0xfb, 0xd9, 0xc3, 0x95, 0xe4, 0xff,
  0xaf, 0xbd, 0x2c, 0x4b, 0x2f, 0x0d, 0x20, 0x30, 0xf5, 0x90, 0x09, 0xf3,
  0xb2, 0xbb, 0x52, 0x51, 0xab, 0x36, 0x5c, 0xf9, 0xc1, 0x33, 0xa6, 0x17,
  0xa4, 0x12, 0x3f, 0xe3, 0x2c, 0xb1, 0x81, 0xa4, 0xc8, 0x2f, 0xd6, 0xae,
  0x38, 0xc7, 0x23, 0x06, 0x96, 0xf0, 0xff, 0xff, 0x04, 0x00, 0x00, 0x00,
  0x18, 0x00, 0x00, 0x00, 0x80, 0x0e, 0xb4, 0xcd, 0xac, 0x20, 0xe4, 0xd7,
  0x14, 0xdc, 0xf5, 0xa2, 0xb7, 0xff, 0xc0, 0xa0, 0xd3, 0x7f, 0xe1, 0xba,
  0xbc, 0x12, 0xf7, 0x0a, 0xba, 0xf0, 0xff, 0xff, 0x04, 0x00, 0x00, 0x00,
  0xc0, 0x06, 0x00, 0x00, 0x1e, 0xc1, 0x3e, 0xb0, 0xff, 0x45, 0xe6, 0x1b,
  0xb1, 0x01, 0x3d, 0x25, 0x75, 0xe8, 0x0a, 0xf5, 0x9b, 0x60, 0xc5, 0xb8,
  0xdc, 0xa8, 0x64, 0x6b, 0x1b, 0xe4, 0x14, 0xc5, 0xc0, 0x0e, 0xd7, 0x85,
  0x34, 0x40, 0xfb, 0x04, 0x75, 0x81, 0x4e, 0x54, 0x3e, 0x08, 0x79, 0x8b,
  0x00, 0x9f, 0x7d, 0x5e, 0xe3, 0x62, 0xd5, 0xb2, 0xdc, 0x4e, 0xd5, 0x42,
  0xd7, 0x5d, 0xac, 0x1e, 0x3d, 0x13, 0x7f, 0xb7, 0x4b, 0x85, 0xca, 0x8b,
  0xfc, 0x20, 0xc2, 0xb6, 0xa1, 0xc3, 0x58, 0xe8, 0xd7, 0xfa, 0xd4, 0xed,
  0xf7, 0xf0, 0x99, 0xaa, 0x2a, 0x57, 0xca, 0x24, 0x3f, 0xb7, 0x27, 0xb8,
  0x38, 0x1e, 0xd4, 0x4e, 0x7f, 0xc6, 0x83, 0xaf, 0x24, 0x19, 0x5b, 0xee,
  0xef, 0x40, 0xf2, 0xad, 0x37, 0x4c, 0x03, 0x8c, 0xfd, 0xd8, 0x0a, 0xba,
  0x0f, 0x9b, 0x5b, 0xdd, 0x7b, 0xd0, 0x40, 0xf5, 0xd9, 0x9f, 0x5b, 0xcc,
  0xcd, 0x25, 0x66, 0x4f, 0xa8, 0x91, 0x72, 0x95, 0xc4, 0x5b, 0x62, 0x3e,
  0x9e, 0xf3, 0x4e, 0x91, 0x03, 0xe5, 0xc3, 0x5b, 0xc9, 0x4c, 0xc2, 0xb3,
  0xc1, 0xcc, 0x67, 0x11, 0x37, 0x62, 0xff, 0x9d, 0xef, 0x1b, 0x41, 0x2c,
  0xb2, 0xe9, 0x9f, 0x83, 0xa7, 0x49, 0x90, 0x3b, 0x2c, 0x68, 0x50, 0x5b,
  0xbf, 0x0a, 0x2f, 0xe1, 0x86, 0x45, 0xaa, 0x54, 0x4f, 0xb2, 0x8d, 0xae,
  0x7b, 0x81, 0x2c, 0x09, 0x44, 0x67, 0x64, 0x48, 0x3e, 0x19, 0xe0, 0xc9,
  0x5b, 0xc1, 0x9e, 0xcb, 0x07, 0xc9, 0xd8, 0x03, 0xe1, 0x3a, 0xf8, 0x9e,
  0x51, 0xc8, 0xc2, 0x44, 0xed, 0xdc, 0xce, 0x08, 0x17, 0xb1, 0xfc, 0x66,
  0xf9, 0x97, 0x33, 0xcb, 0x9a, 0x1c, 0x28, 0xd2, 0xf1, 0xb6, 0xca, 0xe5,
  0x30, 0xfe, 0xd9, 0x92, 0xda, 0xd2, 0xb0, 0xf8, 0xb8, 0xec, 0xcb, 0x90,
  0x43, 0x21, 0x42, 0x36, 0x51, 0x4b, 0xb2, 0xcb, 0x25, 0x7d, 0x1f, 0xa7,
  0xf6, 0x1e, 0xfc, 0x56, 0x68, 0x43, 0xd3, 0x70, 0x5f, 0x44, 0x23, 0x5a,
  0x0d, 0x95, 0xa8, 0xdc, 0x8e, 0xc0, 0xc8, 0x2a, 0x47, 0x7f, 0x3f, 0xfc,
  0x6e, 0xaa, 0xb1, 0xbd, 0xe2, 0x34, 0x29, 0xaf, 0xa6, 0x43, 0x23, 0x55,
  0xeb, 0x33, 0xfe, 0xe2, 0xd9, 0x15, 0x6f, 0x20, 0x54, 0x69, 0x17, 0x4a,
  0x3d, 0x61, 0xc5, 0xca, 0xe8, 0xd0, 0xd8, 0x47, 0xa8, 0xf8, 0xcb, 0x8e,
  0xa0, 0x5f, 0x12, 0x3d, 0xdf, 0xde, 0x23, 0x23, 0x3b, 0x98, 0x53, 0x45,
  0x7f, 0xba, 0xd7, 0x13, 0x2a, 0x70, 0x00, 0x4b, 0xcd, 0xc1, 0xf4, 0xef,
  0xb2, 0x87, 0x4e, 0xfe, 0x33, 0xb4, 0x1d, 0xb0, 0x67, 0xbb, 0xb7, 0x4a,
  0x6b, 0xc5, 0xee, 0xb2, 0xb7, 0xe1, 0x29, 0xd5, 0x25, 0x4f, 0x12, 0x17,
  0xc2, 0x3a, 0x11, 0xbe, 0x4b, 0x18, 0x73, 0xa7, 0xf5, 0xa4, 0x3e, 0xe0,
  0xc5, 0xaf, 0x54, 0x41, 0xba, 0x04, 0xfd, 0x47, 0xa9, 0x4b, 0xac, 0xa4,
  0x2d, 0x29, 0xc0, 0x9e, 0xb1, 0x8e, 0x2e, 0x21, 0x49, 0xb8, 0x5c, 0xfa,
  0x07, 0x28, 0x04, 0x3b, 0x2e, 0x16, 0xe4, 0xee, 0x3b, 0xfe, 0xd0, 0xed,
  0x98, 0x4d, 0xc9, 0x03, 0x05, 0x9e, 0xeb, 0xf0, 0x1a, 0xee, 0x09, 0xb4,
  0x7f, 0x1d, 0xb9, 0xc8, 0x61, 0xf7, 0xb6, 0xd4, 0xd9, 0xfa, 0xca, 0xf7,
  0x0e, 0xf2, 0xa5, 0x3b, 0xc1, 0xaf, 0xbd, 0x20, 0x3e, 0x5e, 0x8e, 0xc3,
  0x2e, 0xec, 0x15, 0x5f, 0x69, 0x4c, 0xbc, 0x40, 0xd3, 0xa9, 0xde, 0x0e,
  0x0f, 0x2d, 0xb7, 0xbe, 0x55, 0x49, 0xfa, 0x33, 0x6e, 0x2e, 0xec, 0x06,
  0x66, 0x22, 0x7f, 0xe9, 0x20, 0xee, 0x3b, 0xb6, 0x3a, 0xea, 0xc0, 0x35,
  0x57, 0x86, 0x61, 0xc4, 0x48, 0x20, 0x60, 0x1b, 0x18, 0x51, 0x51, 0x5f,
  0x59, 0xe2, 0x4c, 0xdd, 0x7f, 0xfd, 0x9a, 0x87, 0x8e, 0xf8, 0xff, 0xa8,
  0x6d, 0xff, 0x47, 0x39, 0xf0, 0xbd, 0xe8, 0x48, 0x20, 0xd1, 0x34, 0x39,
  0x49, 0xba, 0x00, 0x3e, 0xc2, 0x36, 0xd0, 0xfb, 0xa3, 0x2d, 0xec, 0xbd,
  0x27, 0x55, 0xd2, 0x48, 0xcf, 0xeb, 0x34, 0xaf, 0x4f, 0xce, 0x9b, 0x02,
  0xc2, 0x09, 0xd6, 0x85, 0xb5, 0xd0, 0x33, 0x4b, 0x43, 0x00, 0x5a, 0x2d,
  0xb5, 0xe5, 0x34, 0x3c, 0x29, 0x46, 0x5e, 0x1b, 0x49, 0xe7, 0x38, 0xe6,
  0x1d, 0x01, 0x47, 0x9c, 0xdb, 0x03, 0x09, 0x61, 0x06, 0x12, 0x38, 0xc1,
  0xef, 0xc7, 0x30, 0xce, 0x57, 0xab, 0x4a, 0xa2, 0xa2, 0xf4, 0x69, 0xb0,
  0xf7, 0x38, 0x81, 0x3c, 0xfc, 0x22, 0x42, 0xf3, 0xb1, 0xa1, 0xf7, 0xcb,
  0xeb, 0x32, 0x40, 0xfa, 0x9a, 0xe3, 0xe6, 0x56, 0x4e, 0xc6, 0x97, 0x6c,
  0x1a, 0x59, 0x0c, 0xdf, 0x7c, 0x22, 0x69, 0x3c, 0x5f, 0x97, 0x90, 0x09,
  0xad, 0xbf, 0x37, 0x9d, 0x1e, 0xca, 0xee, 0xec, 0x7b, 0xaf, 0x36, 0x89,
  0xe2, 0xc0, 0x14, 0x04, 0xd3, 0x05, 0x1d, 0x2a, 0x26, 0x61, 0xc8, 0x0a,
  0x45, 0xa9, 0x05, 0xdc, 0xbf, 0x4c, 0xfe, 0x5e, 0x6d, 0xde, 0xa7, 0x9f,
  0xd0, 0x4c, 0x44, 0xdd, 0xcb, 0x12, 0xe2, 0xa0, 0x9c, 0xd5, 0xec, 0x94,
  0xb5, 0x59, 0x71, 0xa5, 0x6c, 0xf5, 0x79, 0x55, 0x4e, 0xd1, 0x1b, 0x58,
  0x4a, 0x93, 0x7f, 0xbb, 0xbb, 0x09, 0xb8, 0x73, 0xe2, 0xb1, 0xa0, 0xa9,
  0xc4, 0xe9, 0xb5, 0xdf, 0x00, 0x8e, 0x14, 0x4d, 0xa8, 0xa0, 0xe4, 0xf1,
  0x21, 0xe4, 0xd7, 0x01, 0xdc, 0x22, 0xd6, 0x21, 0x27, 0xd4, 0xe8, 0xba,
  0x26, 0xca, 0x15, 0xc1, 0x6f, 0xe2, 0xe4, 0xbe, 0x2b, 0x0f, 0x98, 0x91,
  0x43, 0xe3, 0x19, 0xe0, 0x3e, 0x18, 0x1d, 0xce, 0x37, 0x0f, 0x4a, 0xf9,
  0x32, 0xc6, 0x37, 0x5d, 0x9e, 0x9c, 0xbe, 0xe8, 0x7b, 0x20, 0xb0, 0xbf,
  0x47, 0x8d, 0x35, 0xc1, 0xeb, 0x3b, 0xaf, 0xdf, 0xf9, 0x32, 0xb9, 0xd4,
  0xf5, 0x86, 0x11, 0x63, 0xe0, 0xb3, 0xb9, 0x91, 0xe8, 0xf2, 0x29, 0xf1,
  0x58, 0xa0, 0x81, 0x17, 0x67, 0xf4, 0x14, 0xe5, 0xa4, 0x4b, 0x0e, 0x90,
  0xd9, 0xe9, 0xab, 0xa7, 0xed, 0x23, 0xa2, 0xd6, 0x47, 0x24, 0x9f, 0x41,
  0x56, 0xe9, 0xf0, 0xff, 0x24, 0x3b, 0x1b, 0x7f, 0x31, 0xb3, 0x5d, 0x11,
  0xed, 0x87, 0x16, 0xff, 0x66, 0x1c, 0x12, 0xdf, 0x96, 0x5b, 0x51, 0x41,
  0x1f, 0xbb, 0x53, 0xed, 0x9c, 0x11, 0x08, 0x5c, 0x3b, 0x4b, 0xf1, 0x23,
  0xf0, 0x37, 0x6f, 0x52, 0xeb, 0xc6, 0xaf, 0x93, 0xf3, 0x20, 0x1f, 0x92,
  0xee, 0x97, 0x52, 0x1b, 0xed, 0xee, 0xe6, 0x50, 0xdf, 0x37, 0xce, 0xd4,
  0x08, 0xda, 0xcb, 0x4f, 0x27, 0xae, 0xd0, 0x93, 0xcb, 0x3c, 0x44, 0xde,
  0x7f, 0xaa, 0x96, 0x00, 0x61, 0xb1, 0xa3, 0xbe, 0xeb, 0xf3, 0x16, 0xfb,
  0xbd, 0xa5, 0xdd, 0x4e, 0xb7, 0x41, 0x4b, 0x1e, 0x30, 0x3b, 0xf6, 0x16,
  0x33, 0xf5, 0x1f, 0x1d, 0xc7, 0xbe, 0x9e, 0x2c, 0x41, 0x11, 0xa8, 0x1f,
  0xde, 0xae, 0x9f, 0xcf, 0x37, 0x16, 0xe5, 0xee, 0x12, 0x06, 0x51, 0x89,
  0xe7, 0xf9, 0xea, 0x53, 0x2a, 0x09, 0x32, 0xf6, 0x38, 0x1e, 0xa4, 0xa8,
  0x64, 0xf6, 0x03, 0xe3, 0x4a, 0x58, 0xf9, 0x2e, 0xf6, 0x5b, 0xee, 0xca,
  0x32, 0xe2, 0x0a, 0x52, 0xfb, 0x7f, 0x2f, 0x13, 0x86, 0xe2, 0x27, 0x85,
  0xf5, 0xe6, 0x8a, 0x01, 0x4a, 0xba, 0xde, 0xab, 0xae, 0xd3, 0xc1, 0x37,
  0x4f, 0x31, 0x76, 0xb3, 0x04, 0x10, 0x9e, 0xe1, 0xf6, 0xa6, 0x30, 0x36,
  0x0d, 0x8c, 0x33, 0x34, 0x58, 0x28, 0x35, 0xd9, 0x57, 0xe7, 0x03, 0x02,
  0xfa, 0xc0, 0x5d, 0x14, 0x51, 0x06, 0xf2, 0xa9, 0x87, 0xf8, 0x23, 0x1b,
  0xc6, 0x32, 0x94, 0x57, 0x1b, 0x32, 0x5d, 0x33, 0x6f, 0xf9, 0x0f, 0xb7,
  0xbb, 0xfd, 0xf7, 0xab, 0x05, 0x0a, 0x00, 0xdb, 0x17, 0x06, 0x5b, 0x3d,
  0x44, 0x1e, 0x3f, 0x5b, 0x01, 0x38, 0x0a, 0x5d, 0x76, 0x3c, 0xc8, 0xe0,
  0xc5, 0xbd, 0x3e, 0x08, 0x6d, 0xbe, 0x06, 0x1c, 0x2d, 0x20, 0x6b, 0x9a,
  0xdf, 0x57, 0xa4, 0x5c, 0xe3, 0xc6, 0x15, 0x8b, 0x07, 0x31, 0x7f, 0x2a,
  0xb7, 0xf0, 0x41, 0x2c, 0xd9, 0x74, 0x8e, 0x45, 0xef, 0xd6, 0xdf, 0x17,
  0xbf, 0x30, 0x16, 0x27, 0xe7, 0xe0, 0x5f, 0x08, 0x47, 0x16, 0x12, 0xb8,
  0xfb, 0xd7, 0xf3, 0x6d, 0xb6, 0x9a, 0xe5, 0x9f, 0xe2, 0xa4, 0xef, 0x2e,
  0x08, 0x39, 0xae, 0x50, 0xf5, 0x25, 0xbd, 0x59, 0xb5, 0x92, 0x75, 0xef,
  0xe7, 0xa1, 0xcf, 0xc0, 0x0f, 0xc1, 0xc5, 0x31, 0x37, 0x47, 0x42, 0xbd,
  0xf3, 0x81, 0x5a, 0x8d, 0x27, 0xd5, 0x40, 0x4e, 0xf1, 0x0a, 0xce, 0xdc,
  0x50, 0xc0, 0xab, 0xa2, 0xd2, 0x45, 0x1e, 0x1a, 0xc8, 0xea, 0xea, 0x23,
  0x57, 0x7c, 0x19, 0x63, 0x66, 0x14, 0x04, 0xb4, 0x74, 0x94, 0xe7, 0x68,
  0xd1, 0xba, 0x3e, 0xd2, 0x9d, 0xc5, 0x30, 0x76, 0x12, 0x84, 0x22, 0xc2,
  0x79, 0x7f, 0x2f, 0xa4, 0x1b, 0x1f, 0x04, 0x8b, 0xfd, 0xcc, 0xa8, 0x2a,
  0x27, 0x4d, 0xfb, 0xe0, 0x98, 0x58, 0x0a, 0xe1, 0x27, 0xdc, 0x0f, 0x27,
  0x35, 0x09, 0x5d, 0x68, 0x6b, 0x82, 0x04, 0x41, 0x3d, 0x05, 0x7a, 0x5e,
  0xfb, 0x57, 0x86, 0xcd, 0xce, 0x0b, 0x08, 0xaf, 0xd1, 0x35, 0x66, 0x8c,
  0x69, 0x56, 0xa0, 0x35, 0xf3, 0x23, 0xa8, 0x97, 0x0a, 0x89, 0xc3, 0x1a,
  0x46, 0xe5, 0x99, 0xe7, 0x58, 0xa6, 0xd4, 0x7f, 0xe5, 0x1d, 0xb3, 0x90,
  0xbb, 0xff, 0xf2, 0x66, 0x56, 0xc4, 0xbf, 0x54, 0x46, 0x5f, 0x01, 0xb6,
  0x97, 0xba, 0xc7, 0x63, 0xc9, 0xea, 0x05, 0x0d, 0xcd, 0x98, 0xa4, 0xe6,
  0x5f, 0xb5, 0xb8, 0x36, 0xf3, 0xc8, 0x92, 0xda, 0x36, 0x2b, 0x36, 0x58,
  0x22, 0xc4, 0x48, 0x4e, 0x11, 0x5c, 0xfd, 0xe7, 0x4d, 0x2e, 0x03, 0x1c,
  0xd8, 0x36, 0xa4, 0x9d, 0x66, 0x59, 0x25, 0xf5, 0xd9, 0x97, 0x9e, 0x08,
  0xfe, 0x84, 0x34, 0x81, 0x97, 0xd1, 0x44, 0xde, 0x3c, 0x32, 0x00, 0xf5,
  0x04, 0xef, 0x0b, 0x1b, 0xfc, 0x21, 0xa8, 0x24, 0x34, 0xa2, 0x22, 0x0e,
  0x38, 0x11, 0x97, 0x2a, 0x2f, 0x37, 0xf3, 0x9b, 0x40, 0x5d, 0xae, 0xf2,
  0xaa, 0xd3, 0xbe, 0x95, 0x5e, 0x3a, 0x64, 0xd7, 0xd1, 0x8a, 0x31, 0x82,
  0x19, 0x44, 0x5a, 0xaa, 0x2b, 0x10, 0x9d, 0x86, 0x99, 0x67, 0x75, 0x93,
  0xe0, 0xea, 0xaf, 0xd0, 0x92, 0xd7, 0x19, 0xd5, 0x7f, 0x5d, 0xf9, 0x9b,
  0x39, 0x04, 0x44, 0xbd, 0xde, 0xec, 0x0b, 0x36, 0xd6, 0x02, 0x1e, 0xd2,
  0x61, 0xaf, 0xf1, 0x2a, 0x52, 0x94, 0x4b, 0xca, 0xe5, 0x42, 0x58, 0xd6,
  0x32, 0xd8, 0xce, 0xbf, 0xbe, 0xf9, 0x4c, 0xfd, 0xe6, 0xf0, 0x04, 0xda,
  0x4f, 0x40, 0xb7, 0x32, 0xe3, 0xd2, 0x5b, 0xcc, 0x34, 0x41, 0x49, 0xfd,
  0xd1, 0xfe, 0xa1, 0xaa, 0xfa, 0xff, 0x49, 0x20, 0xd0, 0x94, 0x81, 0x08,
  0xca, 0x38, 0xd9, 0xbf, 0xe9, 0xe3, 0xc3, 0xd1, 0xca, 0xcd, 0xf7, 0x57,
  0xc3, 0xa8, 0xf2, 0x0d, 0x76, 0xb1, 0x9d, 0x59, 0x97, 0xf4, 0x9f, 0xdd,
  0x72, 0xa3, 0x8e, 0xed, 0x49, 0xab, 0x18, 0xd1, 0xff, 0x4e, 0xda, 0x9e,
  0x59, 0xca, 0x90, 0xbe, 0x3e, 0x07, 0x2a, 0x29, 0x0a, 0x1f, 0x52, 0x20,
  0xc6, 0x36, 0xef, 0xc0, 0x21, 0xcd, 0xd3, 0xc5, 0xda, 0x41, 0xba, 0xd9,
  0xcd, 0x44, 0x2d, 0x18, 0xfc, 0x92, 0xc1, 0xa6, 0x3d, 0xb8, 0x4f, 0x11,
  0x44, 0xda, 0x2e, 0xd5, 0xbe, 0xe2, 0xcb, 0x24, 0x41, 0xee, 0xc2, 0x1d,
  0xa8, 0x5e, 0x5b, 0x51, 0x6e, 0x3b, 0x04, 0xe5, 0x21, 0x34, 0xa4, 0x34,
  0x7f, 0x0e, 0x5f, 0xea, 0x5a, 0xaa, 0x56, 0x36, 0x56, 0x47, 0x37, 0xdf,
  0xb2, 0x05, 0xff, 0xca, 0x09, 0x1a, 0xe6, 0x0a, 0x14, 0xa4, 0x0a, 0x3f,
  0x45, 0x98, 0x41, 0x19, 0x78, 0xc3, 0x89, 0x91, 0xc5, 0x1f, 0xc5, 0xec,
  0xe4, 0x02, 0x57, 0xd0, 0x34, 0x70, 0xe0, 0xc4, 0xd9, 0x4b, 0xe3, 0x1b,
  0xba, 0xb4, 0x42, 0xdc, 0x45, 0x6f, 0xfd, 0xc5, 0xb5, 0x2b, 0x19, 0xed,
  0xe6, 0x3c, 0x36, 0x36, 0x42, 0xed, 0xbd, 0x27, 0x09, 0xf2, 0xdc, 0xa3,
  0xed, 0x68, 0x5a, 0xc2, 0x44, 0xe4, 0xd2, 0x1c, 0xde, 0x51, 0xb3, 0xfe,
  0x67, 0x26, 0x9a, 0xaf, 0x79, 0xfa, 0x3f, 0x31, 0xf2, 0xcf, 0x9b, 0x04,
  0x22, 0x6b, 0x0a, 0x95, 0x7f, 0x31, 0x3c, 0x95, 0x23, 0x08, 0xf7, 0xfb,
  0x1d, 0x78, 0xcf, 0x9c, 0xd0, 0xae, 0xd9, 0xf4, 0x4d, 0xca, 0xcb, 0xef,
  0xf4, 0x53, 0x6f, 0x3d, 0x0e, 0xd6, 0x0e, 0x3a, 0x2b, 0x2f, 0xa7, 0xa1,
  0x7f, 0x15, 0xa3, 0x29, 0xb5, 0xf6, 0x4a, 0xe5, 0xac, 0x71, 0xce, 0xe1,
  0x5d, 0xab, 0xf0, 0xe8, 0x4f, 0x03, 0x56, 0x40, 0x57, 0xf2, 0x56, 0xe9,
  0xbb, 0x92, 0x65, 0xee, 0x5e, 0xa3, 0x91, 0xdb, 0xa7, 0xf6, 0x14, 0xeb,
  0x50, 0xfa, 0x4b, 0x47, 0x98, 0x8f, 0x19, 0x5b, 0xe3, 0x49, 0xe6, 0xbc,
  0x9f, 0xe8, 0x68, 0x14, 0x86, 0xf7, 0xff, 0xff, 0x04, 0x00, 0x00, 0x00,
  0x18, 0x00, 0x00, 0x00, 0x0f, 0xf1, 0x20, 0x2c, 0x1f, 0x27, 0xf5, 0xa6,
  0x24, 0x09, 0x80, 0x2f, 0xcd, 0xe4, 0x8d, 0x52, 0x48, 0x13, 0xfd, 0xac,
  0xf6, 0x1c, 0x58, 0x4f, 0xaa, 0xf7, 0xff, 0xff, 0x04, 0x00, 0x00, 0x00,
  0xc0, 0x06, 0x00, 0x00, 0xb9, 0x38, 0xa8, 0xac, 0x21, 0x26, 0x2c, 0xac,
  0x62, 0x36, 0x46, 0xe4, 0xff, 0x0f, 0x25, 0x2e, 0x30, 0xf7, 0x1d, 0xcd,
  0xb9, 0x42, 0xd3, 0xf4, 0xc1, 0xde, 0xc5, 0xdb, 0xf7, 0x52, 0x1f, 0x0f,
  0x3b, 0xfe, 0x7f, 0x96, 0x3d, 0x2f, 0x78, 0xdd, 0x94, 0x07, 0x88, 0xe9,
  0x94, 0xb9, 0xe9, 0x88, 0x30, 0x92, 0x31, 0xec, 0xfa, 0x93, 0x03, 0xfc,
  0x4d, 0xc7, 0x32, 0xfb, 0xb0, 0xad, 0xc1, 0xa7, 0xab, 0x4f, 0xc3, 0x9a,
  0x81, 0xf0, 0x40, 0x93, 0x81, 0xbe, 0x19, 0xce, 0xf6, 0x9c, 0x43, 0x3f,
  0x31, 0x9d, 0x4f, 0xdd, 0x50, 0x89, 0xb2, 0x89, 0xa4, 0x47, 0xd6, 0x54,
  0x21, 0xd9, 0x88, 0xc6, 0x45, 0xbc, 0x3a, 0xc1, 0x17, 0xaa, 0x38, 0xf7,
  0xf8, 0xf1, 0x9b, 0x28, 0x97, 0x03, 0x8e, 0xa7, 0x26, 0x3b, 0xec, 0x40,
  0x3e, 0x49, 0xb5, 0xa3, 0x4d, 0xb9, 0xde, 0x88, 0xb6, 0x8b, 0x4a, 0x2d,
  0x4b, 0x84, 0xfa, 0x32, 0x31, 0x07, 0xfc, 0x0a, 0xd3, 0x99, 0xa8, 0xe8,
  0x36, 0x08, 0x28, 0xcd, 0x09, 0xaf, 0x9c, 0x1a, 0x51, 0xe5, 0x9e, 0xcf,
  0x3c, 0xab, 0x44, 0xf6, 0x46, 0x57, 0xc2, 0xdb, 0xcf, 0xd0, 0x16, 0x58,
  0x81, 0xb2, 0xad, 0xff, 0x8b, 0xc5, 0x54, 0xc0, 0xdd, 0xbd, 0xeb, 0x28,
  0x96, 0x91, 0x54, 0x9c, 0x06, 0x4d, 0xfa, 0xa0, 0xf9, 0xb5, 0x40, 0xce,
  0xa4, 0x59, 0x52, 0x81, 0xc7, 0xd2, 0x8b, 0x6f, 0xa9, 0x03, 0x2f, 0x06,
  0x64, 0xdd, 0x2f, 0x9d, 0xf2, 0xe9, 0x03, 0xd8, 0xfd, 0xfb, 0x83, 0x1c,
  0x17, 0x8b, 0x22, 0x4a, 0xf1, 0x18, 0x2e, 0x0f, 0x48, 0xb5, 0xc6, 0xd9,
  0xc1, 0x48, 0x03, 0xba, 0xc4, 0x2a, 0xfc, 0xab, 0xb8, 0xf7, 0xcc, 0xec,
  0xf9, 0xf0, 0x0a, 0x47, 0xbf, 0x62, 0xd1, 0x3d, 0x06, 0xb6, 0x3f, 0xf1,
  0xee, 0xe0, 0x22, 0xe0, 0x55, 0xba, 0xb6, 0x29, 0xc3, 0xe9, 0xbd, 0x2b,
  0xca, 0xd3, 0xad, 0xc7, 0x20, 0x41, 0xf7, 0x38, 0xc6, 0xb4, 0xf2, 0x17,
  0xe9, 0x04, 0x1d, 0x43, 0xf7, 0x07, 0xbf, 0xab, 0xd1, 0x0f, 0x81, 0x74,
  0x42, 0x10, 0xda, 0x06, 0x5c, 0x02, 0xcc, 0xd2, 0xb4, 0x09, 0x96, 0xf6,
  0x55, 0x40, 0xc2, 0x81, 0xe3, 0x24, 0xcd, 0x8d, 0xbd, 0x8e, 0xf4, 0x91,
  0xed, 0x5b, 0x40, 0xa6, 0xd3, 0xd6, 0x51, 0xa7, 0x61, 0xae, 0x33, 0xa0,
  0xa6, 0x0b, 0xef, 0xbe, 0x19, 0xb7, 0x2b, 0xb6, 0xc9, 0xbe, 0xba, 0xfd,
  0x26, 0x10, 0xba, 0xee, 0x7b, 0x8f, 0xec, 0xed, 0xa1, 0x42, 0x52, 0xb8,
  0x31, 0x4a, 0x38, 0x87, 0x3f, 0xc5, 0x89, 0x29, 0x94, 0xb4, 0xaa, 0xc8,
  0xcb, 0xec, 0xf6, 0x19, 0x95, 0x40, 0x19, 0x5f, 0x13, 0xda, 0xe0, 0xba,
  0x48, 0x6d, 0x10, 0x55, 0x22, 0x24, 0x09, 0x5f, 0x92, 0xcc, 0x2b, 0x91,
  0x99, 0x81, 0x1a, 0x9f, 0x00, 0xdd, 0x64, 0x84, 0x47, 0x1e, 0x19, 0x25,
  0xb1, 0x5a, 0x0e, 0xe6, 0xf0, 0xcc, 0x78, 0x9b, 0x29, 0xe9, 0x18, 0xfc,
  0x88, 0x66, 0x0e, 0x4d, 0x66, 0x39, 0x4e, 0x1c, 0x9f, 0x00, 0xa5, 0x13,
  0xd6, 0x1b, 0x91, 0x23, 0x4f, 0xae, 0x8d, 0xe4, 0xc3, 0x1a, 0x3e, 0x2e,
  0x51, 0xd3, 0x34, 0xf7, 0xf6, 0x20, 0x75, 0xc4, 0xed, 0x58, 0xd4, 0xd9,
  0x26, 0x37, 0xb4, 0x50, 0xc8, 0x62, 0x63, 0xb6, 0x19, 0x81, 0xae, 0x2e,
  0xc3, 0xda, 0x3a, 0xd8, 0x4d, 0x04, 0xb4, 0xdd, 0x60, 0x1e, 0xa8, 0xad,
  0xd7, 0xec, 0xd0, 0x6b, 0x62, 0x98, 0xf8, 0x4d, 0x4a, 0xf6, 0x22, 0xa6,
  0xfe, 0x26, 0x86, 0xfa, 0x02, 0xc5, 0x2d, 0x36, 0xe6, 0xe5, 0xd8, 0x4d,
  0x90, 0x44, 0x1a, 0x0a, 0xb0, 0x23, 0x26, 0x61, 0xad, 0xfd, 0x36, 0x35,
  0xb5, 0x93, 0xf2, 0xd7, 0x8e, 0x54, 0xae, 0x30, 0x11, 0x23, 0x0a, 0xb2,
  0x0c, 0x27, 0xf6, 0xce, 0x09, 0xea, 0x14, 0xf5, 0x46, 0xd7, 0xc5, 0x8d,
  0x27, 0xa1, 0x86, 0x15, 0xab, 0x4b, 0xff, 0x09, 0xc9, 0x57, 0x81, 0x32,
  0xdd, 0x20, 0x0a, 0x39, 0xbc, 0x30, 0xc5, 0x93, 0xc6, 0xb9, 0xba, 0x9c,
  0x20, 0x90, 0x96, 0x60, 0xeb, 0x60, 0x13, 0x86, 0xa0, 0x3f, 0x3a, 0x16,
  0x2e, 0xe7, 0x0f, 0xaa, 0x26, 0xde, 0xc9, 0xcb, 0xfe, 0x30, 0xb8, 0xb7,
  0x66, 0x95, 0xa6, 0xa7, 0xeb, 0x2f, 0x06, 0xb7, 0x4d, 0x98, 0x81, 0xf6,
  0xe7, 0x1f, 0x3b, 0xb1, 0xe5, 0xbb, 0x2a, 0x99, 0x22, 0xf0, 0x08, 0x1d,
  0xa9, 0x39, 0xee, 0x48, 0xca, 0x03, 0xfd, 0x96, 0xa9, 0xcf, 0x18, 0x29,
  0xd7, 0x37, 0xb2, 0x0a, 0x60, 0xad, 0xc3, 0xf7, 0x10, 0x06, 0x0d, 0x51,
  0x02, 0x19, 0xb8, 0x4b, 0x1b, 0x1f, 0x1a, 0x1a, 0xf1, 0x23, 0xbb, 0x47,
  0x97, 0x14, 0xbf, 0xb3, 0x56, 0xaf, 0x13, 0x26, 0xb5, 0x14, 0xf1, 0xab,
  0x1f, 0xed, 0xa5, 0x43, 0xc1, 0xab, 0x5b, 0xe1, 0xb9, 0x55, 0xde, 0xcd,
  0xd0, 0x60, 0x38, 0x61, 0x9e, 0xd9, 0x91, 0x98, 0xa0, 0x18, 0xeb, 0x18,
  0x3a, 0xfe, 0x54, 0xef, 0x73, 0x5e, 0x3f, 0x87, 0x52, 0x68, 0x1e, 0xdd,
  0x2f, 0x63, 0x09, 0x37, 0x0c, 0x03, 0x0d, 0x35, 0xde, 0x43, 0x07, 0x08,
  0xf9, 0xee, 0xe5, 0x1b, 0xe6, 0xb3, 0x3c, 0x81, 0xb8, 0x2b, 0x4c, 0xdb,
  0x31, 0x6f, 0xa0, 0x33, 0x5e, 0x44, 0xda, 0x5c, 0xd7, 0x02, 0xe1, 0x88,
  0xa3, 0x6d, 0xcd, 0x07, 0x01, 0x9e, 0x26, 0xd0, 0x63, 0x42, 0xea, 0x55,
  0x1b, 0x43, 0x28, 0xf8, 0xc6, 0x29, 0x2c, 0x9f, 0x55, 0xbc, 0xd6, 0x06,
  0x34, 0x04, 0xfa, 0xac, 0x97, 0xf1, 0x56, 0x39, 0x36, 0xe2, 0x42, 0x47,
  0xb6, 0xd4, 0xac, 0x3e, 0x16, 0x0d, 0xb2, 0x35, 0x29, 0xa6, 0x3e, 0x7f,
  0xe5, 0x01, 0x32, 0x45, 0xaf, 0xf8, 0x8e, 0xa2, 0xc0, 0xe0, 0xdc, 0x25,
  0x33, 0xef, 0xfb, 0xcc, 0xb7, 0xf7, 0xc0, 0xea, 0x38, 0x7a, 0x11, 0xac,
  0x0b, 0x32, 0x4e, 0xb3, 0x10, 0xd6, 0xe4, 0x57, 0xd3, 0xeb, 0xa3, 0x41,
  0xce, 0x61, 0xdd, 0x46, 0xfe, 0x2c, 0xd0, 0x35, 0x4a, 0xa8, 0xf9, 0x67,
  0xbd, 0x99, 0x1e, 0xf1, 0x25, 0x3e, 0xd3, 0x83, 0x81, 0x87, 0x15, 0x93,
  0x53, 0xc8, 0x0c, 0xb1, 0x55, 0x13, 0x3a, 0x9a, 0x83, 0x5d, 0x39, 0xce,
  0x4d, 0xdc, 0xd1, 0xe6, 0x4c, 0xa9, 0x5f, 0xe7, 0x0c, 0xc1, 0x96, 0x18,
  0xf6, 0x05, 0xab, 0x34, 0x42, 0xd4, 0x9c, 0xc9, 0x0c, 0xfc, 0xc3, 0xd4,
  0x38, 0xc9, 0x3a, 0x32, 0x1b, 0x10, 0x73, 0x06, 0xb7, 0x1d, 0x41, 0xfa,
  0x06, 0xc5, 0xb2, 0xe9, 0xd9, 0x36, 0xe7, 0x4c, 0xeb, 0x23, 0xe9, 0xb4,
  0x71, 0xcf, 0x2a, 0xed, 0xb7, 0x23, 0xbf, 0xa3, 0x49, 0xfc, 0xc2, 0x94,
  0x35, 0x2a, 0x11, 0x9e, 0x3a, 0x61, 0xb8, 0x1b, 0xa1, 0x4b, 0xfd, 0xdf,
  0xf8, 0x22, 0xe2, 0xe7, 0xc4, 0x30, 0x5e, 0x81, 0x36, 0x0f, 0xbf, 0x20,
  0x2b, 0xa8, 0x34, 0x2d, 0xca, 0xad, 0xff, 0x28, 0xca, 0x17, 0x68, 0x2c,
  0x1c, 0x48, 0x39, 0x54, 0xe7, 0x5a, 0x3e, 0xd3, 0x10, 0x0f, 0xad, 0xe5,
  0x23, 0x4e, 0x17, 0x1c, 0xae, 0x79, 0x8d, 0x14, 0xd1, 0xfe, 0x0f, 0xc6,
  0x84, 0xd4, 0x02, 0xe7, 0x8f, 0xa5, 0xca, 0xe2, 0xd9, 0x5c, 0x6e, 0x64,
  0x8c, 0x50, 0xd0, 0x1e, 0x59, 0xde, 0x79, 0x6b, 0x81, 0xb0, 0x04, 0x79,
  0x6d, 0x69, 0xe5, 0x2a, 0x98, 0x19, 0x9a, 0x9e, 0xe9, 0x51, 0xa2, 0xe5,
  0xc2, 0x90, 0xbc, 0xb9, 0x70, 0xd6, 0xcd, 0xab, 0xfe, 0x98, 0x75, 0x02,
  0x52, 0xf3, 0x16, 0x4d, 0x1f, 0xbf, 0x41, 0xd1, 0xa5, 0x2c, 0x00, 0x2a,
  0x0f, 0xe7, 0x45, 0x62, 0x0e, 0xb1, 0xc9, 0xb2, 0xfd, 0xd9, 0x8c, 0x60,
  0x20, 0x12, 0x63, 0xc5, 0xdc, 0x59, 0xe2, 0x33, 0xb0, 0xad, 0x1e, 0xd6,
  0x6e, 0x35, 0xb7, 0xa1, 0x1a, 0xca, 0x22, 0x10, 0xe5, 0x84, 0xb9, 0x1f,
  0x79, 0xa6, 0xa6, 0x25, 0x09, 0x60, 0xc9, 0x28, 0x34, 0x81, 0x37, 0x54,
  0xf0, 0x54, 0x23, 0x18, 0xdf, 0x1b, 0x37, 0xa3, 0x10, 0x45, 0x09, 0xff,
  0x94, 0x5f, 0xb8, 0x2f, 0xa6, 0xe6, 0x1c, 0xc8, 0xa7, 0xa0, 0x03, 0x04,
  0xae, 0x25, 0x4b, 0x47, 0xc1, 0xc7, 0xc6, 0xeb, 0xc3, 0xd9, 0x4b, 0x28,
  0x03, 0xd0, 0x53, 0xaa, 0x5a, 0x4c, 0x48, 0x18, 0x60, 0x05, 0xef, 0xbf,
  0x39, 0xf8, 0xb5, 0xc4, 0x18, 0xd2, 0x0c, 0x23, 0x51, 0x0c, 0xe1, 0x4b,
  0x38, 0xe9, 0xee, 0xad, 0xba, 0x26, 0xe1, 0x03, 0xfc, 0xd9, 0x43, 0x43,
  0x4a, 0x0a, 0x16, 0x1c, 0xcf, 0x21, 0x24, 0x1d, 0xa6, 0x7f, 0xaa, 0x07,
  0x51, 0x53, 0x8c, 0x74, 0xf4, 0x3d, 0x64, 0x44, 0xb6, 0x29, 0x62, 0x21,
  0x26, 0x2c, 0x04, 0x2d, 0x7f, 0xa5, 0xb8, 0x91, 0xf6, 0x08, 0x66, 0x5d,
  0x51, 0x24, 0x25, 0x36, 0x23, 0xee, 0x24, 0x34, 0x46, 0xf2, 0x50, 0x02,
  0xad, 0x27, 0x65, 0x59, 0xf9, 0xd6, 0xbf, 0xb8, 0x5d, 0x87, 0xdf, 0x5d,
  0xae, 0x4f, 0xbe, 0x1f, 0xe8, 0xae, 0x64, 0x49, 0xfe, 0xc6, 0xec, 0x1f,
  0xaa, 0x9c, 0xbf, 0x47, 0x5c, 0xce, 0xca, 0x1a, 0x21, 0x88, 0x61, 0x51,
  0x6d, 0xc8, 0xeb, 0x57, 0x82, 0xfc, 0xba, 0x5c, 0xe7, 0xb8, 0x0c, 0xaa,
  0xc3, 0x02, 0x1a, 0xd2, 0x28, 0x20, 0x36, 0x65, 0x25, 0xb1, 0x87, 0x95,
  0xc1, 0x58, 0x0a, 0x81, 0xbb, 0xe8, 0x25, 0x6d, 0xa3, 0xe1, 0xf6, 0x70,
  0x27, 0x85, 0xdd, 0x94, 0x2c, 0xf1, 0xc2, 0x24, 0x21, 0x2f, 0x43, 0x82,
  0x99, 0xd4, 0xfb, 0xc0, 0x3d, 0x05, 0xc1, 0x49, 0xc9, 0x35, 0xf8, 0x29,
  0x58, 0xa2, 0xc5, 0x0b, 0x8b, 0x4d, 0x3e, 0xf3, 0x28, 0xf7, 0x86, 0xca,
  0x34, 0x49, 0xe9, 0x5f, 0x2d, 0x60, 0xc7, 0xb5, 0x3d, 0x2d, 0xdb, 0x20,
  0x81, 0xee, 0x33, 0x48, 0x7b, 0x45, 0xca, 0x1f, 0x1d, 0xc5, 0x36, 0x90,
  0xa3, 0x9e, 0x3e, 0xc0, 0xea, 0x2c, 0x65, 0x00, 0x38, 0x8f, 0x48, 0xd2,
  0xb0, 0x46, 0x00, 0x3f, 0xed, 0xef, 0xbe, 0xc0, 0xe4, 0x5a, 0x47, 0xd1,
  0x17, 0x5f, 0xb7, 0x1a, 0x3b, 0xa7, 0x4a, 0x91, 0xbc, 0x47, 0xe2, 0xe8,
  0xa9, 0x14, 0xae, 0xa3, 0x32, 0x00, 0xd2, 0x12, 0x99, 0x5b, 0xfc, 0xe2,
  0xcc, 0x9d, 0x43, 0xf2, 0xd4, 0xdd, 0x4f, 0xd0, 0xba, 0xa3, 0x16, 0x12,
  0x8f, 0x0d, 0x60, 0x90, 0xc3, 0xd0, 0xa5, 0x1b, 0xba, 0xdb, 0xc5, 0xb2,
  0x17, 0xa1, 0x37, 0xa1, 0xd4, 0x1c, 0xa5, 0x18, 0xbe, 0x2c, 0x95, 0x39,
  0x0f, 0xd1, 0xb1, 0x81, 0x9e, 0xaa, 0x19, 0xc5, 0xc9, 0xa6, 0x13, 0x1d,
  0xb7, 0x1c, 0xe6, 0x1b, 0xc8, 0x3a, 0x0e, 0x40, 0x4e, 0x9e, 0xb1, 0x0d,
  0xe2, 0xf4, 0x1f, 0x91, 0x02, 0xa8, 0xc9, 0xf3, 0xf0, 0xc9, 0xd5, 0x2a,
  0xe1, 0x00, 0xfa, 0xe4, 0x38, 0x65, 0xa3, 0x95, 0xe4, 0x5f, 0xf2, 0x41,
  0x81, 0xdb, 0x37, 0x99, 0x4d, 0x92, 0xe4, 0xef, 0xce, 0xd9, 0xed, 0xef,
  0xaf, 0x42, 0xa3, 0x74, 0x5f, 0x24, 0xe9, 0xc1, 0xe6, 0x46, 0x9c, 0x95,
  0x6e, 0x98, 0xdb, 0xb7, 0x5e, 0x5a, 0x46, 0xab, 0x44, 0x51, 0xdc, 0xf4,
  0x14, 0x31, 0x8f, 0xef, 0xeb, 0x3f, 0x98, 0xaf, 0xb7, 0x27, 0x01, 0x23,
  0x68, 0x48, 0x41, 0xc5, 0x19, 0x5c, 0x5f, 0x0a, 0x30, 0x53, 0x1f, 0x9a,
  0x16, 0x49, 0x20, 0x01, 0x75, 0x05, 0x06, 0xa5, 0xdc, 0x54, 0x47, 0x55,
  0x5a, 0x58, 0xba, 0x08, 0x4c, 0x3d, 0x0c, 0x05, 0x86, 0x15, 0x6b, 0xa3,
  0x56, 0xe6, 0x8e, 0x48, 0xab, 0x27, 0xd7, 0x4e, 0x50, 0x43, 0xbc, 0xf7,
  0xbf, 0xb5, 0x1f, 0xa5, 0xe2, 0x65, 0x30, 0x0a, 0xbe, 0x88, 0x1f, 0xc4,
  0x96, 0x71, 0xdf, 0xf1, 0x08, 0xec, 0xe9, 0x2b, 0x81, 0xbd, 0xb3, 0x81,
  0x29, 0x1b, 0x34, 0xf9, 0xbe, 0x60, 0x06, 0x68, 0xc9, 0xf9, 0x56, 0xa1,
  0x46, 0xba, 0x39, 0x5f, 0xf1, 0xf3, 0x59, 0x42, 0xa6, 0xf7, 0x3f, 0xb4,
  0x03, 0x96, 0x2e, 0xdd, 0x36, 0x33, 0xd9, 0xb0, 0x8c, 0xe2, 0x83, 0x8d,
  0x20, 0xc5, 0xac, 0x1d, 0xa2, 0xee, 0x5d, 0xac, 0xd7, 0xf1, 0xde, 0x1d,
  0x4a, 0xd1, 0xe9, 0x49, 0x87, 0x5c, 0x65, 0xbd, 0x19, 0xcf, 0x65, 0x7b,
  0xdf, 0x30, 0xd1, 0x23, 0xd0, 0x48, 0xb9, 0x1c, 0xd2, 0x98, 0x04, 0xbd,
  0x1d, 0xda, 0x93, 0x2f, 0xce, 0x66, 0x6c, 0x81, 0x9d, 0x91, 0xd3, 0xdb,
  0x0c, 0xa6, 0xc8, 0xe7, 0xed, 0xb5, 0x51, 0xe1, 0xf0, 0xa5, 0xe5, 0x81,
  0x00, 0x33, 0xb0, 0x46, 0x9d, 0x42, 0x49, 0xa3, 0xe7, 0xeb, 0x09, 0x31,
  0xef, 0x13, 0xf9, 0xb7, 0xf1, 0xce, 0xcf, 0x3e, 0x1f, 0xed, 0xbf, 0xd0,
  0xe8, 0xb2, 0x03, 0xd2, 0x43, 0xfc, 0xe7, 0x1c, 0x15, 0x44, 0xb0, 0x25,
  0xe6, 0xed, 0xea, 0xff, 0x14, 0x9a, 0x38, 0xf2, 0xd8, 0xc6, 0xa4, 0x4f,
  0xc0, 0x1a, 0xd9, 0xac, 0x0b, 0x4b, 0xa5, 0xf9, 0x88, 0xda, 0xba, 0xd1,
  0x32, 0x04, 0xc4, 0xde, 0x76, 0xfe, 0xff, 0xff, 0x04, 0x00, 0x00, 0x00,
  0x18, 0x00, 0x00, 0x00, 0xb8, 0xaf, 0xbb, 0x00, 0xd5, 0x22, 0xea, 0xae,
  0xc2, 0x3b, 0x03, 0xaa, 0x6c, 0x41, 0xa5, 0x00, 0x39, 0x2a, 0xee, 0x80,
  0x29, 0x4d, 0xcd, 0xce, 0x9a, 0xfe, 0xff, 0xff, 0x04, 0x00, 0x00, 0x00,
  0x18, 0x00, 0x00, 0x00, 0xd2, 0xcc, 0x38, 0xd0, 0x6f, 0xc5, 0x46, 0x37,
  0x4a, 0x67, 0x9e, 0x1e, 0x40, 0xbb, 0x7f, 0xaf, 0x01, 0xfd, 0x1c, 0xd6,
  0xa1, 0x55, 0xa8, 0xd0, 0xbe, 0xfe, 0xff, 0xff, 0x04, 0x00, 0x00, 0x00,
  0x04, 0x00, 0x00, 0x00, 0xe4, 0xfd, 0xff, 0xff, 0xce, 0xfe, 0xff, 0xff,
  0x04, 0x00, 0x00, 0x00, 0x0c, 0x00, 0x00, 0x00, 0x01, 0x00, 0x00, 0x00,
  0x01, 0x00, 0x00, 0x00, 0x01, 0x00, 0x00, 0x00, 0xe6, 0xfe, 0xff, 0xff,
  0x04, 0x00, 0x00, 0x00, 0x0c, 0x00, 0x00, 0x00, 0x00, 0x00, 0x00, 0x00,
  0x00, 0x00, 0x00, 0x00, 0x00, 0x00, 0x00, 0x00, 0xfe, 0xfe, 0xff, 0xff,
  0x04, 0x00, 0x00, 0x00, 0x0c, 0x00, 0x00, 0x00, 0x00, 0x00, 0x00, 0x00,
  0xff, 0xff, 0xff, 0xff, 0x00, 0x00, 0x00, 0x00, 0x16, 0xff, 0xff, 0xff,
  0x04, 0x00, 0x00, 0x00, 0x0c, 0x00, 0x00, 0x00, 0xff, 0xff, 0xff, 0xff,
  0x06, 0x00, 0x00, 0x00, 0x18, 0x00, 0x00, 0x00, 0x2e, 0xff, 0xff, 0xff,
  0x04, 0x00, 0x00, 0x00, 0x04, 0x00, 0x00, 0x00, 0x04, 0x00, 0x00, 0x00,
  0x3e, 0xff, 0xff, 0xff, 0x04, 0x00, 0x00, 0x00, 0x18, 0x00, 0x00, 0x00,
  0x00, 0x00, 0x00, 0x00, 0x00, 0x00, 0x00, 0x00, 0x08, 0x00, 0x00, 0x00,
  0x00, 0x00, 0x00, 0x00, 0x00, 0x00, 0x00, 0x00, 0x00, 0x00, 0x00, 0x00,
  0x62, 0xff, 0xff, 0xff, 0x04, 0x00, 0x00, 0x00, 0x0c, 0x00, 0x00, 0x00,
  0xff, 0xff, 0xff, 0xff, 0x0c, 0x00, 0x00, 0x00, 0x18, 0x00, 0x00, 0x00,
  0x7a, 0xff, 0xff, 0xff, 0x04, 0x00, 0x00, 0x00, 0x08, 0x00, 0x00, 0x00,
  0x00, 0x00, 0x00, 0x00, 0x00, 0x00, 0x00, 0x00, 0x8e, 0xff, 0xff, 0xff,
  0x04, 0x00, 0x00, 0x00, 0x04, 0x00, 0x00, 0x00, 0x02, 0x00, 0x00, 0x00,
  0x9e, 0xff, 0xff, 0xff, 0x04, 0x00, 0x00, 0x00, 0x18, 0x00, 0x00, 0x00,
  0x00, 0x00, 0x00, 0x00, 0x00, 0x00, 0x00, 0x00, 0x04, 0x00, 0x00, 0x00,
  0x00, 0x00, 0x00, 0x00, 0x00, 0x00, 0x00, 0x00, 0x00, 0x00, 0x00, 0x00,
  0xc2, 0xff, 0xff, 0xff, 0x04, 0x00, 0x00, 0x00, 0x18, 0x00, 0x00, 0x00,
  0x00, 0x00, 0x00, 0x00, 0x00, 0x00, 0x00, 0x00, 0x02, 0x00, 0x00, 0x00,
  0x00, 0x00, 0x00, 0x00, 0x00, 0x00, 0x00, 0x00, 0x00, 0x00, 0x00, 0x00,
  0xe6, 0xff, 0xff, 0xff, 0x04, 0x00, 0x00, 0x00, 0x0c, 0x00, 0x00, 0x00,
  0xff, 0xff, 0xff, 0xff, 0x18, 0x00, 0x00, 0x00, 0x18, 0x00, 0x00, 0x00,
  0x00, 0x00, 0x06, 0x00, 0x08, 0x00, 0x04, 0x00, 0x06, 0x00, 0x00, 0x00,
  0x04, 0x00, 0x00, 0x00, 0x04, 0x00, 0x00, 0x00, 0xfd, 0xff, 0xff, 0xff,
  0xd8, 0xbe, 0xff, 0xff, 0xdc, 0xbe, 0xff, 0xff, 0x0f, 0x00, 0x00, 0x00,
  0x4d, 0x4c, 0x49, 0x52, 0x20, 0x43, 0x6f, 0x6e, 0x76, 0x65, 0x72, 0x74,
  0x65, 0x64, 0x2e, 0x00, 0x01, 0x00, 0x00, 0x00, 0x14, 0x00, 0x00, 0x00,
  0x00, 0x00, 0x0e, 0x00, 0x18, 0x00, 0x14, 0x00, 0x10, 0x00, 0x0c, 0x00,
  0x08, 0x00, 0x04, 0x00, 0x0e, 0x00, 0x00, 0x00, 0x14, 0x00, 0x00, 0x00,
  0x1c, 0x00, 0x00, 0x00, 0x60, 0x09, 0x00, 0x00, 0x64, 0x09, 0x00, 0x00,
  0x68, 0x09, 0x00, 0x00, 0x04, 0x00, 0x00, 0x00, 0x6d, 0x61, 0x69, 0x6e,
  0x00, 0x00, 0x00, 0x00, 0x2c, 0x00, 0x00, 0x00, 0x18, 0x09, 0x00, 0x00,
  0xbc, 0x08, 0x00, 0x00, 0x84, 0x08, 0x00, 0x00, 0x44, 0x08, 0x00, 0x00,
  0x14, 0x08, 0x00, 0x00, 0xc0, 0x07, 0x00, 0x00, 0x98, 0x07, 0x00, 0x00,
  0x64, 0x07, 0x00, 0x00, 0x34, 0x07, 0x00, 0x00, 0xec, 0x06, 0x00, 0x00,
  0xb8, 0x06, 0x00, 0x00, 0x90, 0x06, 0x00, 0x00, 0x5c, 0x06, 0x00, 0x00,
  0x30, 0x06, 0x00, 0x00, 0x00, 0x06, 0x00, 0x00, 0xb0, 0x05, 0x00, 0x00,
  0x88, 0x05, 0x00, 0x00, 0x5c, 0x05, 0x00, 0x00, 0x1c, 0x05, 0x00, 0x00,
  0xe8, 0x04, 0x00, 0x00, 0xbc, 0x04, 0x00, 0x00, 0x8c, 0x04, 0x00, 0x00,
  0x48, 0x04, 0x00, 0x00, 0x20, 0x04, 0x00, 0x00, 0xf4, 0x03, 0x00, 0x00,
  0xbc, 0x03, 0x00, 0x00, 0x88, 0x03, 0x00, 0x00, 0x54, 0x03, 0x00, 0x00,
  0x28, 0x03, 0x00, 0x00, 0xf8, 0x02, 0x00, 0x00, 0xb4, 0x02, 0x00, 0x00,
  0x8c, 0x02, 0x00, 0x00, 0x60, 0x02, 0x00, 0x00, 0x28, 0x02, 0x00, 0x00,
  0xf4, 0x01, 0x00, 0x00, 0xc8, 0x01, 0x00, 0x00, 0x98, 0x01, 0x00, 0x00,
  0x54, 0x01, 0x00, 0x00, 0x2c, 0x01, 0x00, 0x00, 0x00, 0x01, 0x00, 0x00,
  0xc8, 0x00, 0x00, 0x00, 0x94, 0x00, 0x00, 0x00, 0x3c, 0x00, 0x00, 0x00,
  0x04, 0x00, 0x00, 0x00, 0xfe, 0xf7, 0xff, 0xff, 0x14, 0x00, 0x00, 0x00,
  0x00, 0x00, 0x00, 0x08, 0x10, 0x00, 0x00, 0x00, 0x14, 0x00, 0x00, 0x00,
  0x08, 0x00, 0x00, 0x00, 0xfc, 0xbf, 0xff, 0xff, 0x01, 0x00, 0x00, 0x00,
  0x4d, 0x00, 0x00, 0x00, 0x03, 0x00, 0x00, 0x00, 0x4c, 0x00, 0x00, 0x00,
  0x0f, 0x00, 0x00, 0x00, 0x0e, 0x00, 0x00, 0x00, 0x32, 0xf8, 0xff, 0xff,
  0x24, 0x00, 0x00, 0x00, 0x00, 0x00, 0x00, 0x20, 0x2c, 0x00, 0x00, 0x00,
  0x30, 0x00, 0x00, 0x00, 0x07, 0x00, 0x00, 0x00, 0x00, 0x00, 0x0e, 0x00,
  0x10, 0x00, 0x0c, 0x00, 0x08, 0x00, 0x00, 0x00, 0x00, 0x00, 0x04, 0x00,
  0x0e, 0x00, 0x00, 0x00, 0x02, 0x00, 0x00, 0x00, 0x05, 0x00, 0x00, 0x00,
  0x05, 0x00, 0x00, 0x00, 0x01, 0x00, 0x00, 0x00, 0x4c, 0x00, 0x00, 0x00,
  0x04, 0x00, 0x00, 0x00, 0x4b, 0x00, 0x00, 0x00, 0x0b, 0x00, 0x00, 0x00,
  0x0c, 0x00, 0x00, 0x00, 0x0d, 0x00, 0x00, 0x00, 0x86, 0xf8, 0xff, 0xff,
  0x14, 0x00, 0x00, 0x00, 0x00, 0x00, 0x00, 0x0b, 0x10, 0x00, 0x00, 0x00,
  0x14, 0x00, 0x00, 0x00, 0x04, 0x00, 0x00, 0x00, 0x84, 0xc0, 0xff, 0xff,
  0x01, 0x00, 0x00, 0x00, 0x4b, 0x00, 0x00, 0x00, 0x02, 0x00, 0x00, 0x00,
  0x3c, 0x00, 0x00, 0x00, 0x4a, 0x00, 0x00, 0x00, 0xb6, 0xf8, 0xff, 0xff,
  0x14, 0x00, 0x00, 0x00, 0x00, 0x00, 0x00, 0x0b, 0x14, 0x00, 0x00, 0x00,
  0x18, 0x00, 0x00, 0x00, 0x04, 0x00, 0x00, 0x00, 0x02, 0xfc, 0xff, 0xff,
  0x00, 0x00, 0x00, 0x01, 0x01, 0x00, 0x00, 0x00, 0x4a, 0x00, 0x00, 0x00,
  0x02, 0x00, 0x00, 0x00, 0x49, 0x00, 0x00, 0x00, 0x10, 0x00, 0x00, 0x00,
  0x1a, 0xf9, 0xff, 0xff, 0x0c, 0x00, 0x00, 0x00, 0x10, 0x00, 0x00, 0x00,
  0x06, 0x00, 0x00, 0x00, 0x01, 0x00, 0x00, 0x00, 0x49, 0x00, 0x00, 0x00,
  0x03, 0x00, 0x00, 0x00, 0x48, 0x00, 0x00, 0x00, 0x09, 0x00, 0x00, 0x00,
  0x06, 0x00, 0x00, 0x00, 0x42, 0xf9, 0xff, 0xff, 0x0c, 0x00, 0x00, 0x00,
  0x10, 0x00, 0x00, 0x00, 0x02, 0x00, 0x00, 0x00, 0x01, 0x00, 0x00, 0x00,
  0x48, 0x00, 0x00, 0x00, 0x02, 0x00, 0x00, 0x00, 0x47, 0x00, 0x00, 0x00,
  0x0a, 0x00, 0x00, 0x00, 0x36, 0xf9, 0xff, 0xff, 0x14, 0x00, 0x00, 0x00,
  0x00, 0x00, 0x00, 0x01, 0x1c, 0x00, 0x00, 0x00, 0x20, 0x00, 0x00, 0x00,
  0x01, 0x00, 0x00, 0x00, 0xfa, 0xfb, 0xff, 0xff, 0x01, 0x00, 0x00, 0x00,
  0x01, 0x00, 0x00, 0x00, 0x00, 0x00, 0x00, 0x01, 0x01, 0x00, 0x00, 0x00,
  0x47, 0x00, 0x00, 0x00, 0x03, 0x00, 0x00, 0x00, 0x46, 0x00, 0x00, 0x00,
  0x11, 0x00, 0x00, 0x00, 0x1a, 0x00, 0x00, 0x00, 0x1e, 0xf9, 0xff, 0xff,
  0x10, 0x00, 0x00, 0x00, 0x00, 0x00, 0x00, 0x34, 0x0c, 0x00, 0x00, 0x00,
  0x10, 0x00, 0x00, 0x00, 0x70, 0xc1, 0xff, 0xff, 0x01, 0x00, 0x00, 0x00,
  0x46, 0x00, 0x00, 0x00, 0x02, 0x00, 0x00, 0x00, 0x45, 0x00, 0x00, 0x00,
  0x01, 0x00, 0x00, 0x00, 0xd2, 0xf9, 0xff, 0xff, 0x0c, 0x00, 0x00, 0x00,
  0x10, 0x00, 0x00, 0x00, 0x05, 0x00, 0x00, 0x00, 0x01, 0x00, 0x00, 0x00,
  0x45, 0x00, 0x00, 0x00, 0x03, 0x00, 0x00, 0x00, 0x44, 0x00, 0x00, 0x00,
  0x09, 0x00, 0x00, 0x00, 0x06, 0x00, 0x00, 0x00, 0xca, 0xf9, 0xff, 0xff,
  0x14, 0x00, 0x00, 0x00, 0x00, 0x00, 0x00, 0x16, 0x10, 0x00, 0x00, 0x00,
  0x14, 0x00, 0x00, 0x00, 0x03, 0x00, 0x00, 0x00, 0xc8, 0xc1, 0xff, 0xff,
  0x01, 0x00, 0x00, 0x00, 0x44, 0x00, 0x00, 0x00, 0x02, 0x00, 0x00, 0x00,
  0x43, 0x00, 0x00, 0x00, 0x08, 0x00, 0x00, 0x00, 0xfa, 0xf9, 0xff, 0xff,
  0x14, 0x00, 0x00, 0x00, 0x00, 0x00, 0x00, 0x0b, 0x14, 0x00, 0x00, 0x00,
  0x18, 0x00, 0x00, 0x00, 0x04, 0x00, 0x00, 0x00, 0x46, 0xfd, 0xff, 0xff,
  0x00, 0x00, 0x00, 0x01, 0x01, 0x00, 0x00, 0x00, 0x43, 0x00, 0x00, 0x00,
  0x02, 0x00, 0x00, 0x00, 0x42, 0x00, 0x00, 0x00, 0x12, 0x00, 0x00, 0x00,
  0x5e, 0xfa, 0xff, 0xff, 0x0c, 0x00, 0x00, 0x00, 0x10, 0x00, 0x00, 0x00,
  0x06, 0x00, 0x00, 0x00, 0x01, 0x00, 0x00, 0x00, 0x42, 0x00, 0x00, 0x00,
  0x03, 0x00, 0x00, 0x00, 0x41, 0x00, 0x00, 0x00, 0x09, 0x00, 0x00, 0x00,
  0x06, 0x00, 0x00, 0x00, 0x86, 0xfa, 0xff, 0xff, 0x0c, 0x00, 0x00, 0x00,
  0x10, 0x00, 0x00, 0x00, 0x02, 0x00, 0x00, 0x00, 0x01, 0x00, 0x00, 0x00,
  0x41, 0x00, 0x00, 0x00, 0x02, 0x00, 0x00, 0x00, 0x40, 0x00, 0x00, 0x00,
  0x0a, 0x00, 0x00, 0x00, 0x7a, 0xfa, 0xff, 0xff, 0x14, 0x00, 0x00, 0x00,
  0x00, 0x00, 0x00, 0x01, 0x1c, 0x00, 0x00, 0x00, 0x20, 0x00, 0x00, 0x00,
  0x01, 0x00, 0x00, 0x00, 0x3e, 0xfd, 0xff, 0xff, 0x01, 0x00, 0x00, 0x00,
  0x01, 0x00, 0x00, 0x00, 0x00, 0x00, 0x00, 0x01, 0x01, 0x00, 0x00, 0x00,
  0x40, 0x00, 0x00, 0x00, 0x03, 0x00, 0x00, 0x00, 0x3f, 0x00, 0x00, 0x00,
  0x13, 0x00, 0x00, 0x00, 0x19, 0x00, 0x00, 0x00, 0x62, 0xfa, 0xff, 0xff,
  0x10, 0x00, 0x00, 0x00, 0x00, 0x00, 0x00, 0x34, 0x0c, 0x00, 0x00, 0x00,
  0x10, 0x00, 0x00, 0x00, 0xb4, 0xc2, 0xff, 0xff, 0x01, 0x00, 0x00, 0x00,
  0x3f, 0x00, 0x00, 0x00, 0x02, 0x00, 0x00, 0x00, 0x3e, 0x00, 0x00, 0x00,
  0x01, 0x00, 0x00, 0x00, 0x16, 0xfb, 0xff, 0xff, 0x0c, 0x00, 0x00, 0x00,
  0x10, 0x00, 0x00, 0x00, 0x05, 0x00, 0x00, 0x00, 0x01, 0x00, 0x00, 0x00,
  0x3e, 0x00, 0x00, 0x00, 0x03, 0x00, 0x00, 0x00, 0x3d, 0x00, 0x00, 0x00,
  0x09, 0x00, 0x00, 0x00, 0x06, 0x00, 0x00, 0x00, 0x0e, 0xfb, 0xff, 0xff,
  0x14, 0x00, 0x00, 0x00, 0x00, 0x00, 0x00, 0x16, 0x10, 0x00, 0x00, 0x00,
  0x14, 0x00, 0x00, 0x00, 0x03, 0x00, 0x00, 0x00, 0x0c, 0xc3, 0xff, 0xff,
  0x01, 0x00, 0x00, 0x00, 0x3d, 0x00, 0x00, 0x00, 0x02, 0x00, 0x00, 0x00,
  0x3c, 0x00, 0x00, 0x00, 0x08, 0x00, 0x00, 0x00, 0x3e, 0xfb, 0xff, 0xff,
  0x14, 0x00, 0x00, 0x00, 0x00, 0x00, 0x00, 0x0b, 0x10, 0x00, 0x00, 0x00,
  0x14, 0x00, 0x00, 0x00, 0x04, 0x00, 0x00, 0x00, 0x3c, 0xc3, 0xff, 0xff,
  0x01, 0x00, 0x00, 0x00, 0x3c, 0x00, 0x00, 0x00, 0x02, 0x00, 0x00, 0x00,
  0x2d, 0x00, 0x00, 0x00, 0x3b, 0x00, 0x00, 0x00, 0x6e, 0xfb, 0xff, 0xff,
  0x14, 0x00, 0x00, 0x00, 0x00, 0x00, 0x00, 0x0b, 0x14, 0x00, 0x00, 0x00,
  0x18, 0x00, 0x00, 0x00, 0x04, 0x00, 0x00, 0x00, 0xba, 0xfe, 0xff, 0xff,
  0x00, 0x00, 0x00, 0x01, 0x01, 0x00, 0x00, 0x00, 0x3b, 0x00, 0x00, 0x00,
  0x02, 0x00, 0x00, 0x00, 0x3a, 0x00, 0x00, 0x00, 0x14, 0x00, 0x00, 0x00,
  0xd2, 0xfb, 0xff, 0xff, 0x0c, 0x00, 0x00, 0x00, 0x10, 0x00, 0x00, 0x00,
  0x06, 0x00, 0x00, 0x00, 0x01, 0x00, 0x00, 0x00, 0x3a, 0x00, 0x00, 0x00,
  0x03, 0x00, 0x00, 0x00, 0x39, 0x00, 0x00, 0x00, 0x05, 0x00, 0x00, 0x00,
  0x06, 0x00, 0x00, 0x00, 0xfa, 0xfb, 0xff, 0xff, 0x0c, 0x00, 0x00, 0x00,
  0x10, 0x00, 0x00, 0x00, 0x02, 0x00, 0x00, 0x00, 0x01, 0x00, 0x00, 0x00,
  0x39, 0x00, 0x00, 0x00, 0x02, 0x00, 0x00, 0x00, 0x38, 0x00, 0x00, 0x00,
  0x07, 0x00, 0x00, 0x00, 0xee, 0xfb, 0xff, 0xff, 0x14, 0x00, 0x00, 0x00,
  0x00, 0x00, 0x00, 0x01, 0x1c, 0x00, 0x00, 0x00, 0x20, 0x00, 0x00, 0x00,
  0x01, 0x00, 0x00, 0x00, 0xb2, 0xfe, 0xff, 0xff, 0x01, 0x00, 0x00, 0x00,
  0x01, 0x00, 0x00, 0x00, 0x00, 0x00, 0x00, 0x01, 0x01, 0x00, 0x00, 0x00,
  0x38, 0x00, 0x00, 0x00, 0x03, 0x00, 0x00, 0x00, 0x37, 0x00, 0x00, 0x00,
  0x15, 0x00, 0x00, 0x00, 0x18, 0x00, 0x00, 0x00, 0xd6, 0xfb, 0xff, 0xff,
  0x10, 0x00, 0x00, 0x00, 0x00, 0x00, 0x00, 0x34, 0x0c, 0x00, 0x00, 0x00,
  0x10, 0x00, 0x00, 0x00, 0x28, 0xc4, 0xff, 0xff, 0x01, 0x00, 0x00, 0x00,
  0x37, 0x00, 0x00, 0x00, 0x02, 0x00, 0x00, 0x00, 0x36, 0x00, 0x00, 0x00,
  0x01, 0x00, 0x00, 0x00, 0x8a, 0xfc, 0xff, 0xff, 0x0c, 0x00, 0x00, 0x00,
  0x10, 0x00, 0x00, 0x00, 0x05, 0x00, 0x00, 0x00, 0x01, 0x00, 0x00, 0x00,
  0x36, 0x00, 0x00, 0x00, 0x03, 0x00, 0x00, 0x00, 0x35, 0x00, 0x00, 0x00,
  0x05, 0x00, 0x00, 0x00, 0x06, 0x00, 0x00, 0x00, 0x82, 0xfc, 0xff, 0xff,
  0x14, 0x00, 0x00, 0x00, 0x00, 0x00, 0x00, 0x16, 0x10, 0x00, 0x00, 0x00,
  0x14, 0x00, 0x00, 0x00, 0x03, 0x00, 0x00, 0x00, 0x80, 0xc4, 0xff, 0xff,
  0x01, 0x00, 0x00, 0x00, 0x35, 0x00, 0x00, 0x00, 0x02, 0x00, 0x00, 0x00,
  0x34, 0x00, 0x00, 0x00, 0x04, 0x00, 0x00, 0x00, 0xb2, 0xfc, 0xff, 0xff,
  0x1c, 0x00, 0x00, 0x00, 0x00, 0x00, 0x00, 0x0b, 0x1c, 0x00, 0x00, 0x00,
  0x20, 0x00, 0x00, 0x00, 0x04, 0x00, 0x00, 0x00, 0x00, 0x00, 0x06, 0x00,
  0x08, 0x00, 0x07, 0x00, 0x06, 0x00, 0x00, 0x00, 0x00, 0x00, 0x00, 0x01,
  0x01, 0x00, 0x00, 0x00, 0x34, 0x00, 0x00, 0x00, 0x02, 0x00, 0x00, 0x00,
  0x33, 0x00, 0x00, 0x00, 0x16, 0x00, 0x00, 0x00, 0x1e, 0xfd, 0xff, 0xff,
  0x0c, 0x00, 0x00, 0x00, 0x10, 0x00, 0x00, 0x00, 0x06, 0x00, 0x00, 0x00,
  0x01, 0x00, 0x00, 0x00, 0x33, 0x00, 0x00, 0x00, 0x03, 0x00, 0x00, 0x00,
  0x32, 0x00, 0x00, 0x00, 0x05, 0x00, 0x00, 0x00, 0x06, 0x00, 0x00, 0x00,
  0x46, 0xfd, 0xff, 0xff, 0x0c, 0x00, 0x00, 0x00, 0x10, 0x00, 0x00, 0x00,
  0x02, 0x00, 0x00, 0x00, 0x01, 0x00, 0x00, 0x00, 0x32, 0x00, 0x00, 0x00,
  0x02, 0x00, 0x00, 0x00, 0x31, 0x00, 0x00, 0x00, 0x07, 0x00, 0x00, 0x00,
  0x3a, 0xfd, 0xff, 0xff, 0x20, 0x00, 0x00, 0x00, 0x00, 0x00, 0x00, 0x01,
  0x28, 0x00, 0x00, 0x00, 0x2c, 0x00, 0x00, 0x00, 0x01, 0x00, 0x00, 0x00,
  0x00, 0x00, 0x0a, 0x00, 0x10, 0x00, 0x0f, 0x00, 0x08, 0x00, 0x04, 0x00,
  0x0a, 0x00, 0x00, 0x00, 0x01, 0x00, 0x00, 0x00, 0x01, 0x00, 0x00, 0x00,
  0x00, 0x00, 0x00, 0x01, 0x01, 0x00, 0x00, 0x00, 0x31, 0x00, 0x00, 0x00,
  0x03, 0x00, 0x00, 0x00, 0x30, 0x00, 0x00, 0x00, 0x1b, 0x00, 0x00, 0x00,
  0x17, 0x00, 0x00, 0x00, 0x2e, 0xfd, 0xff, 0xff, 0x10, 0x00, 0x00, 0x00,
  0x00, 0x00, 0x00, 0x34, 0x0c, 0x00, 0x00, 0x00, 0x10, 0x00, 0x00, 0x00,
  0x80, 0xc5, 0xff, 0xff, 0x01, 0x00, 0x00, 0x00, 0x30, 0x00, 0x00, 0x00,
  0x02, 0x00, 0x00, 0x00, 0x2f, 0x00, 0x00, 0x00, 0x01, 0x00, 0x00, 0x00,
  0xe2, 0xfd, 0xff, 0xff, 0x0c, 0x00, 0x00, 0x00, 0x10, 0x00, 0x00, 0x00,
  0x05, 0x00, 0x00, 0x00, 0x01, 0x00, 0x00, 0x00, 0x2f, 0x00, 0x00, 0x00,
  0x03, 0x00, 0x00, 0x00, 0x2e, 0x00, 0x00, 0x00, 0x05, 0x00, 0x00, 0x00,
  0x06, 0x00, 0x00, 0x00, 0xda, 0xfd, 0xff, 0xff, 0x14, 0x00, 0x00, 0x00,
  0x00, 0x00, 0x00, 0x16, 0x10, 0x00, 0x00, 0x00, 0x14, 0x00, 0x00, 0x00,
  0x03, 0x00, 0x00, 0x00, 0xd8, 0xc5, 0xff, 0xff, 0x01, 0x00, 0x00, 0x00,
  0x2e, 0x00, 0x00, 0x00, 0x02, 0x00, 0x00, 0x00, 0x2d, 0x00, 0x00, 0x00,
  0x04, 0x00, 0x00, 0x00, 0x3a, 0xfe, 0xff, 0xff, 0x0c, 0x00, 0x00, 0x00,
  0x10, 0x00, 0x00, 0x00, 0x02, 0x00, 0x00, 0x00, 0x01, 0x00, 0x00, 0x00,
  0x2d, 0x00, 0x00, 0x00, 0x02, 0x00, 0x00, 0x00, 0x2c, 0x00, 0x00, 0x00,
  0x02, 0x00, 0x00, 0x00, 0x2e, 0xfe, 0xff, 0xff, 0x14, 0x00, 0x00, 0x00,
  0x00, 0x00, 0x00, 0x0b, 0x10, 0x00, 0x00, 0x00, 0x14, 0x00, 0x00, 0x00,
  0x04, 0x00, 0x00, 0x00, 0x2c, 0xc6, 0xff, 0xff, 0x01, 0x00, 0x00, 0x00,
  0x2c, 0x00, 0x00, 0x00, 0x02, 0x00, 0x00, 0x00, 0x23, 0x00, 0x00, 0x00,
  0x2b, 0x00, 0x00, 0x00, 0x5e, 0xfe, 0xff, 0xff, 0x14, 0x00, 0x00, 0x00,
  0x00, 0x00, 0x00, 0x01, 0x20, 0x00, 0x00, 0x00, 0x24, 0x00, 0x00, 0x00,
  0x01, 0x00, 0x00, 0x00, 0x3c, 0xff, 0xff, 0xff, 0x00, 0x00, 0x00, 0x01,
  0x01, 0x00, 0x00, 0x00, 0x01, 0x00, 0x00, 0x00, 0x00, 0x00, 0x00, 0x01,
  0x01, 0x00, 0x00, 0x00, 0x2b, 0x00, 0x00, 0x00, 0x03, 0x00, 0x00, 0x00,
  0x2a, 0x00, 0x00, 0x00, 0x1d, 0x00, 0x00, 0x00, 0x1c, 0x00, 0x00, 0x00,
  0x4a, 0xfe, 0xff, 0xff, 0x10, 0x00, 0x00, 0x00, 0x00, 0x00, 0x00, 0x34,
  0x0c, 0x00, 0x00, 0x00, 0x10, 0x00, 0x00, 0x00, 0x9c, 0xc6, 0xff, 0xff,
  0x01, 0x00, 0x00, 0x00, 0x2a, 0x00, 0x00, 0x00, 0x02, 0x00, 0x00, 0x00,
  0x29, 0x00, 0x00, 0x00, 0x01, 0x00, 0x00, 0x00, 0xce, 0xfe, 0xff, 0xff,
  0x14, 0x00, 0x00, 0x00, 0x00, 0x00, 0x00, 0x16, 0x10, 0x00, 0x00, 0x00,
  0x14, 0x00, 0x00, 0x00, 0x03, 0x00, 0x00, 0x00, 0xcc, 0xc6, 0xff, 0xff,
  0x01, 0x00, 0x00, 0x00, 0x29, 0x00, 0x00, 0x00, 0x02, 0x00, 0x00, 0x00,
  0x28, 0x00, 0x00, 0x00, 0x03, 0x00, 0x00, 0x00, 0x2e, 0xff, 0xff, 0xff,
  0x0c, 0x00, 0x00, 0x00, 0x10, 0x00, 0x00, 0x00, 0x02, 0x00, 0x00, 0x00,
  0x01, 0x00, 0x00, 0x00, 0x28, 0x00, 0x00, 0x00, 0x02, 0x00, 0x00, 0x00,
  0x27, 0x00, 0x00, 0x00, 0x02, 0x00, 0x00, 0x00, 0x22, 0xff, 0xff, 0xff,
  0x20, 0x00, 0x00, 0x00, 0x00, 0x00, 0x00, 0x01, 0x2c, 0x00, 0x00, 0x00,
  0x30, 0x00, 0x00, 0x00, 0x01, 0x00, 0x00, 0x00, 0x0c, 0x00, 0x14, 0x00,
  0x13, 0x00, 0x0c, 0x00, 0x08, 0x00, 0x07, 0x00, 0x0c, 0x00, 0x00, 0x00,
  0x00, 0x00, 0x00, 0x01, 0x01, 0x00, 0x00, 0x00, 0x01, 0x00, 0x00, 0x00,
  0x00, 0x00, 0x00, 0x01, 0x01, 0x00, 0x00, 0x00, 0x27, 0x00, 0x00, 0x00,
  0x03, 0x00, 0x00, 0x00, 0x26, 0x00, 0x00, 0x00, 0x1f, 0x00, 0x00, 0x00,
  0x1e, 0x00, 0x00, 0x00, 0x1a, 0xff, 0xff, 0xff, 0x10, 0x00, 0x00, 0x00,
  0x00, 0x00, 0x00, 0x34, 0x0c, 0x00, 0x00, 0x00, 0x10, 0x00, 0x00, 0x00,
  0x6c, 0xc7, 0xff, 0xff, 0x01, 0x00, 0x00, 0x00, 0x26, 0x00, 0x00, 0x00,
  0x02, 0x00, 0x00, 0x00, 0x25, 0x00, 0x00, 0x00, 0x01, 0x00, 0x00, 0x00,
  0x9e, 0xff, 0xff, 0xff, 0x14, 0x00, 0x00, 0x00, 0x00, 0x00, 0x00, 0x16,
  0x10, 0x00, 0x00, 0x00, 0x14, 0x00, 0x00, 0x00, 0x03, 0x00, 0x00, 0x00,
  0x9c, 0xc7, 0xff, 0xff, 0x01, 0x00, 0x00, 0x00, 0x25, 0x00, 0x00, 0x00,
  0x02, 0x00, 0x00, 0x00, 0x24, 0x00, 0x00, 0x00, 0x03, 0x00, 0x00, 0x00,
  0x00, 0x00, 0x0a, 0x00, 0x10, 0x00, 0x0c, 0x00, 0x08, 0x00, 0x04, 0x00,
  0x0a, 0x00, 0x00, 0x00, 0x0c, 0x00, 0x00, 0x00, 0x10, 0x00, 0x00, 0x00,
  0x02, 0x00, 0x00, 0x00, 0x01, 0x00, 0x00, 0x00, 0x24, 0x00, 0x00, 0x00,
  0x02, 0x00, 0x00, 0x00, 0x23, 0x00, 0x00, 0x00, 0x02, 0x00, 0x00, 0x00,
  0x00, 0x00, 0x0e, 0x00, 0x1a, 0x00, 0x14, 0x00, 0x10, 0x00, 0x0c, 0x00,
  0x0b, 0x00, 0x04, 0x00, 0x0e, 0x00, 0x00, 0x00, 0x20, 0x00, 0x00, 0x00,
  0x00, 0x00, 0x00, 0x01, 0x24, 0x00, 0x00, 0x00, 0x28, 0x00, 0x00, 0x00,
  0x01, 0x00, 0x00, 0x00, 0x00, 0x00, 0x0a, 0x00, 0x0c, 0x00, 0x00, 0x00,
  0x08, 0x00, 0x04, 0x00, 0x0a, 0x00, 0x00, 0x00, 0x01, 0x00, 0x00, 0x00,
  0x01, 0x00, 0x00, 0x00, 0x01, 0x00, 0x00, 0x00, 0x23, 0x00, 0x00, 0x00,
  0x03, 0x00, 0x00, 0x00, 0x22, 0x00, 0x00, 0x00, 0x21, 0x00, 0x00, 0x00,
  0x20, 0x00, 0x00, 0x00, 0x00, 0x00, 0x0e, 0x00, 0x14, 0x00, 0x00, 0x00,
  0x10, 0x00, 0x0c, 0x00, 0x0b, 0x00, 0x04, 0x00, 0x0e, 0x00, 0x00, 0x00,
  0x10, 0x00, 0x00, 0x00, 0x00, 0x00, 0x00, 0x34, 0x0c, 0x00, 0x00, 0x00,
  0x10, 0x00, 0x00, 0x00, 0x60, 0xc8, 0xff, 0xff, 0x01, 0x00, 0x00, 0x00,
  0x22, 0x00, 0x00, 0x00, 0x02, 0x00, 0x00, 0x00, 0x00, 0x00, 0x00, 0x00,
  0x01, 0x00, 0x00, 0x00, 0x01, 0x00, 0x00, 0x00, 0x4d, 0x00, 0x00, 0x00,
  0x01, 0x00, 0x00, 0x00, 0x00, 0x00, 0x00, 0x00, 0x4e, 0x00, 0x00, 0x00,
  0xc0, 0x37, 0x00, 0x00, 0x54, 0x37, 0x00, 0x00, 0xec, 0x36, 0x00, 0x00,
  0x9c, 0x36, 0x00, 0x00, 0x4c, 0x36, 0x00, 0x00, 0xe8, 0x35, 0x00, 0x00,
  0x88, 0x35, 0x00, 0x00, 0x38, 0x35, 0x00, 0x00, 0xe8, 0x34, 0x00, 0x00,
  0x84, 0x34, 0x00, 0x00, 0x34, 0x34, 0x00, 0x00, 0xe0, 0x33, 0x00, 0x00,
  0x8c, 0x33, 0x00, 0x00, 0x38, 0x33, 0x00, 0x00, 0xc8, 0x32, 0x00, 0x00,
  0x64, 0x32, 0x00, 0x00, 0xf0, 0x31, 0x00, 0x00, 0x6c, 0x30, 0x00, 0x00,
  0xf8, 0x2f, 0x00, 0x00, 0x74, 0x2e, 0x00, 0x00, 0x00, 0x2e, 0x00, 0x00,
  0x7c, 0x2c, 0x00, 0x00, 0x08, 0x2c, 0x00, 0x00, 0x8c, 0x2a, 0x00, 0x00,
  0x10, 0x29, 0x00, 0x00, 0x94, 0x27, 0x00, 0x00, 0x18, 0x26, 0x00, 0x00,
  0x94, 0x24, 0x00, 0x00, 0x08, 0x23, 0x00, 0x00, 0x84, 0x21, 0x00, 0x00,
  0xf8, 0x1f, 0x00, 0x00, 0x74, 0x1e, 0x00, 0x00, 0xf0, 0x1c, 0x00, 0x00,
  0x6c, 0x1b, 0x00, 0x00, 0xd8, 0x1a, 0x00, 0x00, 0xe4, 0x19, 0x00, 0x00,
  0x24, 0x19, 0x00, 0x00, 0xa8, 0x18, 0x00, 0x00, 0x10, 0x18, 0x00, 0x00,
  0x04, 0x17, 0x00, 0x00, 0x2c, 0x16, 0x00, 0x00, 0xb0, 0x15, 0x00, 0x00,
  0x18, 0x15, 0x00, 0x00, 0x0c, 0x14, 0x00, 0x00, 0xc8, 0x12, 0x00, 0x00,
  0x88, 0x11, 0x00, 0x00, 0x0c, 0x11, 0x00, 0x00, 0x78, 0x10, 0x00, 0x00,
  0xe0, 0x0f, 0x00, 0x00, 0x54, 0x0f, 0x00, 0x00, 0xcc, 0x0e, 0x00, 0x00,
  0x38, 0x0e, 0x00, 0x00, 0xa4, 0x0d, 0x00, 0x00, 0x28, 0x0d, 0x00, 0x00,
  0x94, 0x0c, 0x00, 0x00, 0xfc, 0x0b, 0x00, 0x00, 0x70, 0x0b, 0x00, 0x00,
  0xe8, 0x0a, 0x00, 0x00, 0x54, 0x0a, 0x00, 0x00, 0xc0, 0x09, 0x00, 0x00,
  0x44, 0x09, 0x00, 0x00, 0xc8, 0x08, 0x00, 0x00, 0x34, 0x08, 0x00, 0x00,
  0x9c, 0x07, 0x00, 0x00, 0x10, 0x07, 0x00, 0x00, 0x88, 0x06, 0x00, 0x00,
  0xf4, 0x05, 0x00, 0x00, 0x60, 0x05, 0x00, 0x00, 0xe4, 0x04, 0x00, 0x00,
  0x50, 0x04, 0x00, 0x00, 0xb8, 0x03, 0x00, 0x00, 0x2c, 0x03, 0x00, 0x00,
  0xa4, 0x02, 0x00, 0x00, 0x10, 0x02, 0x00, 0x00, 0x7c, 0x01, 0x00, 0x00,
  0x00, 0x01, 0x00, 0x00, 0x80, 0x00, 0x00, 0x00, 0x04, 0x00, 0x00, 0x00,
  0x8e, 0xc9, 0xff, 0xff, 0x00, 0x00, 0x00, 0x01, 0x18, 0x00, 0x00, 0x00,
  0x20, 0x00, 0x00, 0x00, 0x3c, 0x00, 0x00, 0x00, 0x4e, 0x00, 0x00, 0x00,
  0x00, 0x00, 0x00, 0x09, 0x50, 0x00, 0x00, 0x00, 0x02, 0x00, 0x00, 0x00,
  0xff, 0xff, 0xff, 0xff, 0x01, 0x00, 0x00, 0x00, 0x74, 0xc9, 0xff, 0xff,
  0x08, 0x00, 0x00, 0x00, 0x10, 0x00, 0x00, 0x00, 0x01, 0x00, 0x00, 0x00,
  0x80, 0xff, 0xff, 0xff, 0xff, 0xff, 0xff, 0xff, 0x01, 0x00, 0x00, 0x00,
  0x2c, 0x66, 0x59, 0x3b, 0x19, 0x00, 0x00, 0x00, 0x53, 0x74, 0x61, 0x74,
  0x65, 0x66, 0x75, 0x6c, 0x50, 0x61, 0x72, 0x74, 0x69, 0x74, 0x69, 0x6f,
  0x6e, 0x65, 0x64, 0x43, 0x61, 0x6c, 0x6c, 0x3a, 0x30, 0x00, 0x00, 0x00,
  0x02, 0x00, 0x00, 0x00, 0x01, 0x00, 0x00, 0x00, 0x01, 0x00, 0x00, 0x00,
  0x06, 0xca, 0xff, 0xff, 0x00, 0x00, 0x00, 0x01, 0x18, 0x00, 0x00, 0x00,
  0x20, 0x00, 0x00, 0x00, 0x40, 0x00, 0x00, 0x00, 0x4d, 0x00, 0x00, 0x00,
  0x00, 0x00, 0x00, 0x09, 0x54, 0x00, 0x00, 0x00, 0x02, 0x00, 0x00, 0x00,
  0xff, 0xff, 0xff, 0xff, 0x18, 0x00, 0x00, 0x00, 0xec, 0xc9, 0xff, 0xff,
  0x08, 0x00, 0x00, 0x00, 0x14, 0x00, 0x00, 0x00, 0x01, 0x00, 0x00, 0x00,
  0x18, 0x00, 0x00, 0x00, 0x00, 0x00, 0x00, 0x00, 0x00, 0x00, 0x00, 0x00,
  0x01, 0x00, 0x00, 0x00, 0xfd, 0x82, 0xb2, 0x3b, 0x1a, 0x00, 0x00, 0x00,
  0x6d, 0x6f, 0x64, 0x65, 0x6c, 0x2f, 0x6c, 0x61, 0x6d, 0x62, 0x64, 0x61,
  0x2f, 0x73, 0x74, 0x72, 0x69, 0x64, 0x65, 0x64, 0x5f, 0x73, 0x6c, 0x69,
  0x63, 0x65, 0x00, 0x00, 0x02, 0x00, 0x00, 0x00, 0x01, 0x00, 0x00, 0x00,
  0x18, 0x00, 0x00, 0x00, 0x82, 0xca, 0xff, 0xff, 0x00, 0x00, 0x00, 0x01,
  0x18, 0x00, 0x00, 0x00, 0x24, 0x00, 0x00, 0x00, 0x44, 0x00, 0x00, 0x00,
  0x4c, 0x00, 0x00, 0x00, 0x00, 0x00, 0x00, 0x09, 0x4c, 0x00, 0x00, 0x00,
  0x03, 0x00, 0x00, 0x00, 0xff, 0xff, 0xff, 0xff, 0x18, 0x00, 0x00, 0x00,
  0x18, 0x00, 0x00, 0x00, 0x6c, 0xca, 0xff, 0xff, 0x08, 0x00, 0x00, 0x00,
  0x14, 0x00, 0x00, 0x00, 0x01, 0x00, 0x00, 0x00, 0x18, 0x00, 0x00, 0x00,
  0x00, 0x00, 0x00, 0x00, 0x00, 0x00, 0x00, 0x00, 0x01, 0x00, 0x00, 0x00,
  0xfd, 0x82, 0xb2, 0x3b, 0x0f, 0x00, 0x00, 0x00, 0x6d, 0x6f, 0x64, 0x65,
  0x6c, 0x2f, 0x61, 0x64, 0x64, 0x5f, 0x32, 0x2f, 0x61, 0x64, 0x64, 0x00,
  0x03, 0x00, 0x00, 0x00, 0x01, 0x00, 0x00, 0x00, 0x18, 0x00, 0x00, 0x00,
  0x18, 0x00, 0x00, 0x00, 0xfa, 0xca, 0xff, 0xff, 0x00, 0x00, 0x00, 0x01,
  0x18, 0x00, 0x00, 0x00, 0x24, 0x00, 0x00, 0x00, 0x40, 0x00, 0x00, 0x00,
  0x4b, 0x00, 0x00, 0x00, 0x00, 0x00, 0x00, 0x09, 0x64, 0x00, 0x00, 0x00,
  0x03, 0x00, 0x00, 0x00, 0xff, 0xff, 0xff, 0xff, 0x18, 0x00, 0x00, 0x00,
  0x18, 0x00, 0x00, 0x00, 0xe4, 0xca, 0xff, 0xff, 0x08, 0x00, 0x00, 0x00,
  0x10, 0x00, 0x00, 0x00, 0x01, 0x00, 0x00, 0x00, 0x18, 0x00, 0x00, 0x00,
  0x00, 0x00, 0x00, 0x00, 0x01, 0x00, 0x00, 0x00, 0xfd, 0x82, 0xb2, 0x3b,
  0x2a, 0x00, 0x00, 0x00, 0x6d, 0x6f, 0x64, 0x65, 0x6c, 0x2f, 0x63, 0x6f,
  0x6e, 0x76, 0x31, 0x64, 0x5f, 0x36, 0x2f, 0x52, 0x65, 0x6c, 0x75, 0x3b,
  0x6d, 0x6f, 0x64, 0x65, 0x6c, 0x2f, 0x63, 0x6f, 0x6e, 0x76, 0x31, 0x64,
  0x5f, 0x36, 0x2f, 0x42, 0x69, 0x61, 0x73, 0x41, 0x64, 0x64, 0x00, 0x00,
  0x03, 0x00, 0x00, 0x00, 0x01, 0x00, 0x00, 0x00, 0x18, 0x00, 0x00, 0x00,
  0x18, 0x00, 0x00, 0x00, 0x8a, 0xcb, 0xff, 0xff, 0x00, 0x00, 0x00, 0x01,
  0x18, 0x00, 0x00, 0x00, 0x24, 0x00, 0x00, 0x00, 0x44, 0x00, 0x00, 0x00,
  0x4a, 0x00, 0x00, 0x00, 0x00, 0x00, 0x00, 0x09, 0x64, 0x00, 0x00, 0x00,
  0x03, 0x00, 0x00, 0x00, 0xff, 0xff, 0xff, 0xff, 0x18, 0x00, 0x00, 0x00,
  0x18, 0x00, 0x00, 0x00, 0x74, 0xcb, 0xff, 0xff, 0x08, 0x00, 0x00, 0x00,
  0x14, 0x00, 0x00, 0x00, 0x01, 0x00, 0x00, 0x00, 0x12, 0x00, 0x00, 0x00,
  0x00, 0x00, 0x00, 0x00, 0x00, 0x00, 0x00, 0x00, 0x01, 0x00, 0x00, 0x00,
  0x39, 0xb9, 0x75, 0x3a, 0x24, 0x00, 0x00, 0x00, 0x6d, 0x6f, 0x64, 0x65,
  0x6c, 0x2f, 0x63, 0x6f, 0x6e, 0x76, 0x31, 0x64, 0x5f, 0x36, 0x2f, 0x43,
  0x6f, 0x6e, 0x76, 0x31, 0x44, 0x2f, 0x42, 0x61, 0x74, 0x63, 0x68, 0x54,
  0x6f, 0x53, 0x70, 0x61, 0x63, 0x65, 0x4e, 0x44, 0x00, 0x00, 0x00, 0x00,
  0x03, 0x00, 0x00, 0x00, 0x01, 0x00, 0x00, 0x00, 0x18, 0x00, 0x00, 0x00,
  0x18, 0x00, 0x00, 0x00, 0x1a, 0xcc, 0xff, 0xff, 0x00, 0x00, 0x00, 0x01,
  0x18, 0x00, 0x00, 0x00, 0x24, 0x00, 0x00, 0x00, 0x40, 0x00, 0x00, 0x00,
  0x49, 0x00, 0x00, 0x00, 0x00, 0x00, 0x00, 0x09, 0x58, 0x00, 0x00, 0x00,
  0x03, 0x00, 0x00, 0x00, 0xff, 0xff, 0xff, 0xff, 0x06, 0x00, 0x00, 0x00,
  0x18, 0x00, 0x00, 0x00, 0x04, 0xcc, 0xff, 0xff, 0x08, 0x00, 0x00, 0x00,
  0x10, 0x00, 0x00, 0x00, 0x01, 0x00, 0x00, 0x00, 0x12, 0x00, 0x00, 0x00,
  0x00, 0x00, 0x00, 0x00, 0x01, 0x00, 0x00, 0x00, 0x39, 0xb9, 0x75, 0x3a,
  0x1e, 0x00, 0x00, 0x00, 0x6d, 0x6f, 0x64, 0x65, 0x6c, 0x2f, 0x63, 0x6f,
  0x6e, 0x76, 0x31, 0x64, 0x5f, 0x36, 0x2f, 0x43, 0x6f, 0x6e, 0x76, 0x31,
  0x44, 0x2f, 0x53, 0x71, 0x75, 0x65, 0x65, 0x7a, 0x65, 0x31, 0x00, 0x00,
  0x03, 0x00, 0x00, 0x00, 0x01, 0x00, 0x00, 0x00, 0x06, 0x00, 0x00, 0x00,
  0x18, 0x00, 0x00, 0x00, 0x9e, 0xcc, 0xff, 0xff, 0x00, 0x00, 0x00, 0x01,
  0x18, 0x00, 0x00, 0x00, 0x28, 0x00, 0x00, 0x00, 0x48, 0x00, 0x00, 0x00,
  0x48, 0x00, 0x00, 0x00, 0x00, 0x00, 0x00, 0x09, 0x58, 0x00, 0x00, 0x00,
  0x04, 0x00, 0x00, 0x00, 0xff, 0xff, 0xff, 0xff, 0x01, 0x00, 0x00, 0x00,
  0x06, 0x00, 0x00, 0x00, 0x18, 0x00, 0x00, 0x00, 0x8c, 0xcc, 0xff, 0xff,
  0x08, 0x00, 0x00, 0x00, 0x14, 0x00, 0x00, 0x00, 0x01, 0x00, 0x00, 0x00,
  0x12, 0x00, 0x00, 0x00, 0x00, 0x00, 0x00, 0x00, 0x00, 0x00, 0x00, 0x00,
  0x01, 0x00, 0x00, 0x00, 0x39, 0xb9, 0x75, 0x3a, 0x17, 0x00, 0x00, 0x00,
